{"<|endoftext|>":0,"!":1,"\"":2,"#":3,"$":4,"%":5,"&":6,"'":7,"(":8,")":9,"*":10,"+":11,",":12,"-":13,".":14,"/":15,"0":16,"1":17,"2":18,"3":19,"4":20,"5":21,"6":22,"7":23,"8":24,"9":25,":":26,";":27,"<":28,"=":29,">":30,"?":31,"@":32,"A":33,"B":34,"C":35,"D":36,"E":37,"F":38,"G":39,"H":40,"I":41,"J":42,"K":43,"L":44,"M":45,"N":46,"O":47,"P":48,"Q":49,"R":50,"S":51,"T":52,"U":53,"V":54,"W":55,"X":56,"Y":57,"Z":58,"[":59,"\\":60,"]":61,"^":62,"_":63,"`":64,"a":65,"b":66,"c":67,"d":68,"e":69,"f":70,"g":71,"h":72,"i":73,"j":74,"k":75,"l":76,"m":77,"n":78,"o":79,"p":80,"q":81,"r":82,"s":83,"t":84,"u":85,"v":86,"w":87,"x":88,"y":89,"z":90,"{":91,"|":92,"}":93,"~":94,"¡":95,"¢":96,"£":97,"¤":98,"¥":99,"¦":100,"§":101,"¨":102,"©":103,"ª":104,"«":105,"¬":106,"®":107,"¯":108,"°":109,"±":110,"²":111,"³":112,"´":113,"µ":114,"¶":115,"·":116,"¸":117,"¹":118,"º":119,"»":120,"¼":121,"½":122,"¾":123,"¿":124,"À":125,"Á":126,"Â":127,"Ã":128,"Ä":129,"Å":130,"Æ":131,"Ç":132,"È":133,"É":134,"Ê":135,"Ë":136,"Ì":137,"Í":138,"Î":139,"Ï":140,"Ð":141,"Ñ":142,"Ò":143,"Ó":144,"Ô":145,"Õ":146,"Ö":147,"×":148,"Ø":149,"Ù":150,"Ú":151,"Û":152,"Ü":153,"Ý":154,"Þ":155,"ß":156,"à":157,"á":158,"â":159,"ã":160,"ä":161,"å":162,"æ":163,"ç":164,"è":165,"é":166,"ê":167,"ë":168,"ì":169,"í":170,"î":171,"ï":172,"ð":173,"ñ":174,"ò":175,"ó":176,"ô":177,"õ":178,"ö":179,"÷":180,"ø":181,"ù":182,"ú":183,"û":184,"ü":185,"ý":186,"þ":187,"ÿ":188,"Ā":189,"ā":190,"Ă":191,"ă":192,"Ą":193,"ą":194,"Ć":195,"ć":196,"Ĉ":197,"ĉ":198,"Ċ":199,"ċ":200,"Č":201,"č":202,"Ď":203,"ď":204,"Đ":205,"đ":206,"Ē":207,"ē":208,"Ĕ":209,"ĕ":210,"Ė":211,"ė":212,"Ę":213,"ę":214,"Ě":215,"ě":216,"Ĝ":217,"ĝ":218,"Ğ":219,"ğ":220,"Ġ":221,"ġ":222,"Ģ":223,"ģ":224,"Ĥ":225,"ĥ":226,"Ħ":227,"ħ":228,"Ĩ":229,"ĩ":230,"Ī":231,"ī":232,"Ĭ":233,"ĭ":234,"Į":235,"į":236,"İ":237,"ı":238,"Ĳ":239,"ĳ":240,"Ĵ":241,"ĵ":242,"Ķ":243,"ķ":244,"ĸ":245,"Ĺ":246,"ĺ":247,"Ļ":248,"ļ":249,"Ľ":250,"ľ":251,"Ŀ":252,"ŀ":253,"Ł":254,"ł":255,"Ń":256,"ĠĠ":257,"ĠĠĠĠ":258,"ĠĠĠ":259,"ĊĠĠĠĠ":260,"se":261,"in":262,"re":263,"on":264,"ĠĠĠĠĠĠĠĠ":265,"te":266,"ĊĠĠĠĠĠĠĠ":267,"or":268,"st":269,"de":270,"ĊĠĠĠ":271,"Ġ=":272,"th":273,"sel":274,"le":275,"self":276,"me":277,"al":278,"ti":279,"ar":280,"er":281,"an":282,"Ġi":283,"ĠĠĠĠĠĠĠ":284,"Ġ'":285,"Ġc":286,"Ġself":287,"ĊĠĠĠĠĠĠĠĠĠĠĠ":288,"at":289,"en":290,"as":291,"Ġf":292,"ĊĠĠĠĠĠĠĠĠĠĠĠĠ":293,"ro":294,"Ġth":295,"Ġ\"":296,"Ġre":297,"ce":298,"ur":299,"Ġp":300,"tion":301,"ge":302,"Ġn":303,"):":304,"--":305,"Ġs":306,"Ġt":307,"ame":308,"##":309,"Ġo":310,"ue":311,"mp":312,"',":313,"Ġin":314,"Ġthe":315,"el":316,"ing":317,"def":318,"Ġa":319,"ate":320,"ri":321,"li":322,"ec":323,"fi":324,"lo":325,"ser":326,"nt":327,"di":328,"ut":329,"Ġ#":330,"Ġb":331,"co":332,"Ġm":333,"\"\"":334,"ex":335,"Ġw":336,"ch":337,"Ġ(":338,"ĊĊĠĠĠ":339,"si":340,"()":341,"un":342,"Ġdef":343,"Ġif":344,"ra":345,"id":346,"ort":347,"ul":348,"pe":349,"urn":350,"turn":351,"ĊĠĠĠĠĠĠĠĠĠĠĠĠĠĠĠ":352,"and":353,"ter":354,"')":355,"name":356,"ot":357,"ad":358,"':":359,"get":360,"('":361,"Ġfor":362,"ct":363,"val":364,"Ġd":365,"one":366,"Ġis":367,"Ġreturn":368,"----":369,"ke":370,"Ġto":371,"__":372,"Ġ[":373,"ab":374,"####":375,"it":376,"ode":377,"is":378,"il":379,"pa":380,"up":381,"set":382,"ĠT":383,"Ġ0":384,"sert":385,"qu":386,"ĊĠĠĠĠĠĠĠĠĠĠĠĠĠĠĠĠĠĠĠĠ":387,"ype":388,"et":389,"ol":390,"con":391,"assert":392,"ma":393,"ver":394,"ed":395,"od":396,"),":397,"test":398,"Ġ\"\"\"":399,"ck":400,"\",":401,"ass":402,"ĊĊĠĠĠĠĠĠĠ":403,"ss":404,"mport":405,"Ġof":406,"Ġh":407,"None":408,"op":409,"00":410,"rom":411,"Ġ1":412,"es":413,"Ġst":414,"la":415,"arg":416,"Ġu":417,"tr":418,"der":419,"']":420,"vi":421,"ata":422,"ĊĊ":423,"Ġcon":424,"eld":425,"ect":426,"value":427,"Ġex":428,"ult":429,"))":430,"ĠS":431,"ith":432,"._":433,"ve":434,"Ġand":435,"cl":436,"ment":437,"Ġnot":438,"==":439,"ile":440,"ĠA":441,"ap":442,"sion":443,"par":444,"ĠC":445,"ation":446,"ub":447,"['":448,"um":449,"ho":450,"ror":451,"Ġ%":452,"all":453,"file":454,"int":455,"rue":456,"Ġ-":457,"ction":458,"sp":459,"Ġ_":460,"Ġ{":461,"ted":462,"Ġ+":463,"Ġe":464,"xt":465,"(\"":466,"ĠI":467,"able":468,"bj":469,"to":470,"bu":471,"Ġimport":472,"ta":473,"am":474,"ase":475,"Ġg":476,"ĠL":477,"Ċĉ":478,"ĠF":479,"Ġde":480,"from":481,"ent":482,"ls":483,"],":484,"age":485,"key":486,"pro":487,"args":488,"ĊĠĠĠĠĠ":489,"path":490,"ule":491,"Ġname":492,"lin":493,"str":494,"Ġdi":495,"Ġtest":496,"**":497,"ĠNone":498,"ĊĠĠĠĠĠĠĠĠĠĠĠĠĠĠĠĠĠĠĠ":499,"he":500,"ption":501,"text":502,"for":503,"end":504,"type":505,"Ġ2":506,"########":507,"Ġ==":508,"Ġor":509,"qual":510,"Ġel":511,"ield":512,"out":513,"ht":514,"res":515,"que":516,"Re":517,"--------":518,"put":519,"Ġco":520,"ĠP":521,"if":522,"po":523,"ig":524,"ĊĠ":525,"ew":526,"class":527,"list":528,"alse":529,"Ġbe":530,"\")":531,"time":532,"per":533,"Ġwith":534,"ic":535,"='":536,"fo":537,"len":538,"Ġr":539,"us":540,"pt":541,"Er":542,"odule":543,"ow":544,"Error":545,"\":":546,"ĊĠĠĠĠĠĠĠĠĠĠĠĠĠĠĠĠĠĠĠĠĠĠĠĠĠĠĠĠ":547,"Ġvalue":548,"In":549,"ER":550,"Ġ:":551,"bject":552,"Ġme":553,"ance":554,"ĠD":555,"ault":556,"mat":557,"])":558,"Ġas":559,"Ġpro":560,"Equal":561,"Ġse":562,"Ġlo":563,"Ġfile":564,"app":565,"True":566,"tem":567,"IN":568,"ise":569,"sc":570,"Ġan":571,"ze":572,"quest":573,"ty":574,"our":575,"red":576,"ff":577,"mple":578,"ys":579,"Ġres":580,"ag":581,"mo":582,"art":583,"Ġch":584,"tri":585,"add":586,"data":587,"lic":588,"Ġelse":589,"ild":590,"\"\"\"":591,"ĠO":592,"=\"":593,"assertEqual":594,"wor":595,"ure":596,"reate":597,"ac":598,"est":599,"ry":600,"ly":601,"ĠG":602,"oc":603,"ack":604,"====":605,"Ġy":606,"ĠM":607,"ang":608,"ces":609,"date":610,"mm":611,"fig":612,"mode":613,"ĠĠĠĠĠ":614,"Field":615,"ange":616,"code":617,"[\"":618,"url":619,"Ġv":620,"sed":621,"Ġun":622,"port":623,"sh":624,"Ġ<":625,"mb":626,"::":627,"unt":628,"ĠE":629,"ten":630,"pec":631,"Ġset":632,").":633,"Ġthat":634,"Ġen":635,"ON":636,"Ġassert":637,"AT":638,"import":639,"Ġout":640,"Ġ__":641,"IT":642,"Ġ('":643,"Ċĉĉ":644,"Ġget":645,"ip":646,"eck":647,"Ġstr":648,"Ġx":649,"Ġon":650,"Ġma":651,"ist":652,"\"]":653,"Ġl":654,"cess":655,"line":656,"tic":657,"ind":658,"rent":659,"roup":660,"stance":661,"Ġit":662,"Ġpar":663,"fa":664,"ĠĠĠĠĠĠ":665,"Ġthis":666,"Ġdata":667,"ĠW":668,"host":669,"field":670,"bo":671,"ĠN":672,"pre":673,"Ġal":674,"dir":675,"tes":676,"ory":677,"rint":678,"01":679,"Ġfrom":680,"Ġ*":681,"Ġpa":682,"version":683,"thod":684,"Con":685,"kw":686,"Ġ3":687,"py":688,"dex":689,"Ġra":690,"ms":691,"read":692,"dd":693,"Ġ`":694,"rite":695,"ader":696,"Ġat":697,"RE":698,"'),":699,">>":700,"ĠTrue":701,"ĠB":702,"ren":703,"db":704,"tp":705,"low":706,"ore":707,"net":708,"vel":709,"ense":710,"jo":711,"error":712,"ary":713,"ther":714,"try":715,"cept":716,"ource":717,"module":718,"param":719,"Ġwh":720,"Ġos":721,"Ġby":722,"__(":723,"append":724,"ĠThe":725,"################":726,"atch":727,"Ġ{'":728,"ĠFalse":729,"Ġle":730,"onse":731,"CT":732,"AL":733,"ST":734,"Ġtype":735,"col":736,"..":737,"unction":738,"ener":739,"ir":740,"ĊĠĠĠĠĠĠĠĠĠĠĠĠĠĠĠĠĠĠĠĠĠĠĠ":741,"ĠU":742,"ded":743,"und":744,"ml":745,"user":746,"ark":747,"kwargs":748,"Ġ)":749,"AR":750,"tent":751,"ome":752,"string":753,"init":754,"Ġkey":755,"vice":756,"Ġresult":757,"late":758,"ĠĠĠĠĠĠĠĠĠĠĠĠĠĠĠĠ":759,"wa":760,"os":761,"ray":762,"scri":763,"om":764,"ssage":765,"ok":766,"ree":767,"ext":768,"fe":769,"che":770,"//":771,"ask":772,"object":773,"Ġraise":774,"ns":775,"ans":776,"([":777,"lib":778,"tribu":779,"False":780,"Ġwe":781,"uth":782,"ator":783,"qui":784,"jang":785,"vent":786,"sub":787,"----------------":788,"abel":789,"jango":790,"ill":791,"tions":792,"OR":793,"Ġlen":794,"Ġ**":795,"log":796,"ou":797,"ĊĊĠ":798,"work":799,"ant":800,"tive":801,"ument":802,"count":803,"Test":804,"array":805,"stri":806,"Val":807,"ĠRe":808,"Ġcl":809,"ali":810,"min":811,"temp":812,"Ġare":813,"EN":814,"Ġsho":815,"rect":816,"Ġlist":817,"dict":818,"write":819,"ception":820,"sponse":821,"Ch":822,"Ġ@":823,"den":824,"ave":825,"ds":826,"gs":827,"ings":828,"ph":829,"info":830,"ET":831,"ari":832,"ca":833,"pp":834,"Ex":835,"load":836,"valid":837,"():":838,"Ġprint":839,"uld":840,"ĠR":841,"lient":842,"ft":843,"no":844,"Ġmode":845,"icense":846,"ĠH":847,"ses":848,"ample":849,"Ġtry":850,"uct":851,"ler":852,"lay":853,"ID":854,"Ġ}":855,"default":856,"Ġexcept":857,"state":858,"own":859,"join":860,"ger":861,"ress":862,"pen":863,"ust":864,"comp":865,"10":866,"25":867,"Ġdefault":868,"tain":869,"his":870,"td":871,"cur":872,"Ġnode":873,"ght":874,"Ġpre":875,"mmand":876,"Ġnew":877,"node":878,"og":879,"instance":880,"Ġpath":881,"umb":882,"son":883,"ES":884,"AN":885,"Ġmodule":886,"Ġsub":887,"ĠLicense":888,"ken":889,"arget":890,"Ġ4":891,"format":892,"Ġro":893,"im":894,"update":895,"'}":896,"Ġmo":897,"group":898,"ĊĠĠĠĠĠĠĠĠĠ":899,"form":900,"ble":901,"fields":902,"Ġcan":903,"size":904,"cal":905,"Ġlog":906,"request":907,"Ġ[]":908,"lement":909,"Ġ\"\\":910,"ters":911,"Ġwill":912,"models":913,"://":914,"gn":915,"create":916,"atus":917,"thon":918,"Ġsup":919,"St":920,"Name":921,"SE":922,"com":923,"Value":924,"UT":925,"opy":926,"Ġuse":927,"Type":928,"'):":929,"uti":930,"Ġelif":931,"fic":932,"ume":933,"ard":934,"fix":935,"ign":936,"''":937,"mage":938,"ine":939,"gth":940,"'],":941,"Ġpo":942,"========":943,"Ġoption":944,"ated":945,"start":946,"ĊĊĠĠĠĠĠĠĠĠĠĠĠ":947,"Ġtime":948,"pected":949,"Ġuser":950,"Ġ->":951,"attr":952,"Pro":953,"ll":954,"lit":955,"Ġ+=":956,"Ġlevel":957,"Set":958,"LE":959,"Ġfield":960,"ape":961,"umber":962,"config":963,"lock":964,"ĠThis":965,"Ġdo":966,"back":967,"spa":968,"nd":969,"Co":970,"Ġno":971,"Ftd":972,"hostFtd":973,"hostFtdc":974,"32":975,"ug":976,"Ġnp":977,"context":978,"new":979,"Ġobject":980,".__":981,"arker":982,"Ġsys":983,"iv":984,"ĠIn":985,"ket":986,"right":987,"Ġpass":988,"method":989,"gra":990,"ĠIf":991,"Ġall":992,"Ġhas":993,"ute":994,"lace":995,"arch":996,"orm":997,"čĊĠĠĠĠĠĠĠ":998,"Ġ[],":999,"Ġfunction":1000,"Ġrequest":1001,"arn":1002,"Ġcol":1003,"by":1004,"max":1005,"Ġhe":1006,"Ġclass":1007,"ject":1008,"http":1009,"ull":1010,"Ġversion":1011,"ery":1012,"tro":1013,"with":1014,"())":1015,"link":1016,"Ġ{}":1017,"scription":1018,"sor":1019,"ww":1020,"json":1021,"main":1022,".\"\"\"":1023,"CThostFtdc":1024,"De":1025,"index":1026,"čĊĠĠĠ":1027,"12":1028,"Ġ>":1029,";\":":1030,"unc":1031,"****":1032,"Ċĉĉĉ":1033,"Ġ['":1034,"sing":1035,"Ke":1036,"Ġspec":1037,"Ġsi":1038,"da":1039,"Ġcontext":1040,"ound":1041,"Ġso":1042,"Get":1043,"ity":1044,"tra":1045,"rame":1046,"loat":1047,"</":1048,"IC":1049,"Ġadd":1050,"Ġshould":1051,"inter":1052,"result":1053,"Ġcomp":1054,"parse":1055,"ection":1056,"Ġurl":1057,"ding":1058,"word":1059,"run":1060,"Ġsh":1061,"Ġ!":1062,"ware":1063,"Ġac":1064,"ron":1065,"cor":1066,"base":1067,"map":1068,"item":1069,"Ġoutput":1070,"Ġge":1071,"DE":1072,"].":1073,"Ġk":1074,"Ġ5":1075,"option":1076,"ee":1077,"django":1078,"Ġ>>":1079,"(),":1080,"ail":1081,"Ġint":1082,"Key":1083,"ime":1084,"Ġbu":1085,"Ġ\\":1086,"ometry":1087,"sent":1088,"Ġarg":1089,"view":1090,"AP":1091,"check":1092,"Ġ!=":1093,"ost":1094,"ight":1095,"ulti":1096,"File":1097,"Ġstate":1098,"umn":1099,"row":1100,"64":1101,"Ġla":1102,"led":1103,"ĊĠĠĠĠĠĠĠĠĠĠĠĠĠĠĠĠĠĠ":1104,"Ġline":1105,"pl":1106,"dent":1107,"clu":1108,"11":1109,"place":1110,"Ġother":1111,"md":1112,"ĊĠĠĠĠĠĠĠĠĠĠĠĠĠĠĠĠĠĠĠĠĠĠĠĠĠĠĠĠĠĠĠĠĠĠĠĠ":1113,"\"),":1114,"Ġapp":1115,"Ġstring":1116,"mail":1117,"mit":1118,"pi":1119,"quired":1120,"Ġconfig":1121,"ticle":1122,"stribu":1123,"space":1124,"we":1125,"label":1126,"conn":1127,"Par":1128,"Ġcur":1129,"tle":1130,"ts":1131,"'t":1132,"(*":1133,"Ġ/":1134,"TER":1135,"RO":1136,"ner":1137,"Ġmethod":1138,"obj":1139,"ION":1140,"At":1141,"ĊĠĠĠĠĠĠĠĠ":1142,"tribute":1143,"Ġpy":1144,"Ġerror":1145,"Ġ>>>":1146,"'s":1147,"ĠV":1148,"ING":1149,"query":1150,"'])":1151,"ĊĠĠĠĠĠĠĠĠĠĠĠĠĠĠĠĠĠĠĠĠĠĠĠĠĠĠĠ":1152,"Ġcheck":1153,"use":1154,"auth":1155,"input":1156,"20":1157,"return":1158,"output":1159,"move":1160,"Ġper":1161,"Ġns":1162,"andler":1163,"server":1164,"Ġcreate":1165,"utils":1166,"av":1167,"rc":1168,"čĊ":1169,"not":1170,"ref":1171,"Ġhave":1172,"'))":1173,"Ġid":1174,"split":1175,"AM":1176,"ked":1177,"length":1178,"perty":1179,"ich":1180,"model":1181,"zer":1182,"ally":1183,"Ġgeometry":1184,"0000":1185,"ash":1186,"sign":1187,"template":1188,"sets":1189,"Ġrun":1190,"Ġused":1191,"((":1192,"ED":1193,"ĠAN":1194,"do":1195,"tings":1196,"client":1197,"ariable":1198,"IL":1199,"man":1200,"Ġresponse":1201,"().":1202,"urse":1203,"tern":1204,"sys":1205,"tributes":1206,"Ġli":1207,"ĠEx":1208,"act":1209,"Ġcode":1210,"22":1211,"Ġitem":1212,"params":1213,"exp":1214,"Ġht":1215,"Ġspeci":1216,"Ġexp":1217,"lete":1218,"particle":1219,"ations":1220,"ong":1221,"Ġyou":1222,"Ġmessage":1223,"ran":1224,"face":1225,"99":1226,"status":1227,"bs":1228,"ach":1229,"reg":1230,"ready":1231,"equal":1232,"_.":1233,"cs":1234,"AS":1235,"Ġne":1236,"ream":1237,"})":1238,"ay":1239,"process":1240,"ite":1241,"response":1242,"tring":1243,"lose":1244,"foo":1245,"iter":1246,"table":1247,"Ġcls":1248,"ublic":1249,"doc":1250,"sible":1251,"ises":1252,"Ġisinstance":1253,"html":1254,"ual":1255,"call":1256,"ers":1257,"ody":1258,"ors":1259,"so":1260,"ies":1261,"fil":1262,"tial":1263,"sg":1264,"ne":1265,"org":1266,"Ġany":1267,"change":1268,"header":1269,"IG":1270,"``":1271,"network":1272,"Ġbut":1273,"CH":1274,"rans":1275,"title":1276,"ĠĊĠĠĠĠĠĠĠĠĠĠĠĠĠĠĠĠĠĠ":1277,"yn":1278,"################################":1279,"pri":1280,"Ġvalues":1281,"Ġcopy":1282,"struct":1283,"Ġbase":1284,"Ġdict":1285,"'.":1286,"uto":1287,"Ġsuper":1288,"service":1289,"ps":1290,"Ġarray":1291,"loc":1292,"message":1293,"ax":1294,"Ġunder":1295,"uple":1296,"ftware":1297,"msg":1298,"uc":1299,"UR":1300,"sta":1301,"core":1302,"Ġwor":1303,"Di":1304,"ump":1305,"AB":1306,"mis":1307,"men":1308,"Ġargs":1309,"shape":1310,"indow":1311,"action":1312,"ĠX":1313,"Ra":1314,"bug":1315,"fied":1316,"Ġwhich":1317,"Ġcall":1318,"To":1319,"Ġbo":1320,"Ġ6":1321,"ĊĠĠĠĠĠĠĠĠĠĠĠĠĠĠĠĠ":1322,"ake":1323,"Ġindex":1324,"ĠQ":1325,"names":1326,"content":1327,"UL":1328,"build":1329,"lan":1330,"Ġend":1331,"'}),":1332,"Data":1333,"Ġexpected":1334,"ved":1335,"ix":1336,"pack":1337,"\">":1338,"Ġj":1339,"contro":1340,"Ġparam":1341,"Res":1342,"Ġinput":1343,"feren":1344,"Ġmarker":1345,"point":1346,"tin":1347,"IS":1348,"mpty":1349,"sions":1350,"ties":1351,"ValueError":1352,"sk":1353,"16":1354,"outfile":1355,"rap":1356,"HT":1357,"ting":1358,"open":1359,"api":1360,"Ġdoc":1361,"24":1362,"lean":1363,"token":1364,"Ġstart":1365,"options":1366,"ĊĠĠĠĠĠĠĠĠĠĠĠĠĠĠĠĠĠĠĠĠĠĠĠĠĠĠĠĠĠĠĠĠĠĠĠĠĠĠĠĠĠĠĠĠ":1367,"Ġalready":1368,"List":1369,"Ġ``":1370,"Ġone":1371,"ols":1372,"Se":1373,"ain":1374,"child":1375,"pos":1376,"En":1377,"Ser":1378,"Ġmatch":1379,"Ġoutfile":1380,"match":1381,"Ġconn":1382,"04":1383,"Add":1384,"Ġvi":1385,"be":1386,"ĠTest":1387,"rectory":1388,"mber":1389,"ature":1390,"Ġconst":1391,"its":1392,"target":1393,"Ġwhen":1394,"OT":1395,"ager":1396,"spec":1397,"Ġmodel":1398,"orted":1399,"turns":1400,"Ġnumber":1401,"(_":1402,"Ġgroup":1403,"Ġrange":1404,"ments":1405,"ETTER":1406,"meta":1407,"=[":1408,"ak":1409,":`":1410,"ath":1411,"cri":1412,"rid":1413,"ĠLETTER":1414,"ffer":1415,"fy":1416,"ANT":1417,"lines":1418,"Ġinstance":1419,"Ġcurrent":1420,"AG":1421,"Time":1422,"Ġobj":1423,"Ġoptions":1424,"Ġz":1425,"root":1426,"Ġ.":1427,"print":1428,"ENT":1429,"Ġ10":1430,"ĠCon":1431,"Un":1432,"my":1433,"Ġcommand":1434,"olume":1435,"Ġmay":1436,"pv":1437,"vo":1438,"Ġdescription":1439,"--------------------------------":1440,"ĠOR":1441,"Ġonly":1442,"cre":1443,"Ġsource":1444,"Ġhttp":1445,"Ġup":1446,"sit":1447,"select":1448,"func":1449,"andom":1450,"elp":1451,"CO":1452,"comm":1453,"PO":1454,"idget":1455,"Ġtoken":1456,"[:":1457,"clude":1458,"iven":1459,"float":1460,"values":1461,"Ġreg":1462,"cy":1463,"tag":1464,"ld":1465,"irst":1466,"ĠGener":1467,"ract":1468,"ITH":1469,"ep":1470,"Ġad":1471,"000":1472,"Ġrequired":1473,"Ġpl":1474,"Ġopen":1475,"Ġport":1476,"Ġcontain":1477,"Ġ..":1478,"Ġtarget":1479,"Ġdistribu":1480,"Ġheader":1481,"Ġtext":1482,"Case":1483,"30":1484,"ugin":1485,"_,":1486,"nel":1487,"Ġmax":1488,"ote":1489,"ion":1490,"objects":1491,"Ġdjango":1492,"AC":1493,"{'":1494,"ures":1495,"Ġtag":1496,"const":1497,"Bo":1498,"viron":1499,"Ġ]":1500,"ton":1501,"env":1502,"teger":1503,"char":1504,"Base":1505,"filename":1506,"NU":1507,"Ġ|":1508,"Ġformat":1509,"trans":1510,"Ġmsg":1511,"Ġmust":1512,"bar":1513,"Ġ'''":1514,"rix":1515,"types":1516,"task":1517,"ameters":1518,"andle":1519,"dition":1520,"lob":1521,"ĠIN":1522,"Ġshow":1523,"Mode":1524,"Ġ##":1525,"exec":1526,"IP":1527,"Ġhost":1528,"filter":1529,"'\\":1530,"ĠOF":1531,"num":1532,"bin":1533,"event":1534,"pr":1535,"Ġevent":1536,"function":1537,"Ġinter":1538,"15":1539,"are":1540,"ids":1541,"IM":1542,"ĠWITH":1543,"ize":1544,"Po":1545,"rt":1546,"Ġdate":1547,"mbda":1548,"čĊĠĠĠĠĠĠĠĠĠĠĠ":1549,"www":1550,"ci":1551,"ql":1552,"Ġcontent":1553,"Ġlabel":1554,"Ġfiles":1555,"iz":1556,"Ġpart":1557,"ify":1558,"utf":1559,"Ġelement":1560,"Ġ8":1561,"Ġmock":1562,"Raises":1563,"Ġargument":1564,"ML":1565,"pass":1566,"ops":1567,"icode":1568,"ging":1569,"34":1570,"Ġnet":1571,"copy":1572,"Ġ'%":1573,"String":1574,"assertRaises":1575,"Ġgener":1576,"Ġchange":1577,"inal":1578,"Up":1579,"Ġread":1580,"================":1581,"TP":1582,"ence":1583,"HE":1584,"alize":1585,"Ġtra":1586,"Ġsp":1587,"command":1588,"ock":1589,"ĠY":1590,"Ġgiven":1591,"ped":1592,"idth":1593,"flow":1594,"keys":1595,"ĊĠĠĠĠĠĠĠĠĠĠĠĠĠ":1596,"assertTrue":1597,"cessed":1598,"Ġfields":1599,"ĉĉ":1600,"Ġver":1601,"ALL":1602,"14":1603,"python":1604,"close":1605,"script":1606,"find":1607,"tail":1608,"yle":1609,"std":1610,"err":1611,"Ġattr":1612,"][":1613,"adata":1614,"course":1615,"Ac":1616,"Ġfirst":1617,"********":1618,"var":1619,"ĠSee":1620,"fail":1621,"the":1622,"Char":1623,"Ġdoes":1624,"\".":1625,"dit":1626,"Ġnamespace":1627,"eta":1628,"lated":1629,"fore":1630,".,":1631,"Ġfol":1632,"iled":1633,"block":1634,"Ġ,":1635,"Ġ'\\":1636,"Ġsize":1637,"Me":1638,"sy":1639,"raw":1640,"Exception":1641,"has":1642,"ast":1643,"any":1644,"Ġimage":1645,"Ġmore":1646,"imal":1647,"uage":1648,"ĠCh":1649,"19":1650,"source":1651,"anguage":1652,"post":1653,"Ġchild":1654,"lags":1655,"ont":1656,"image":1657,"store":1658,"coding":1659,"Text":1660,"ĠLAT":1661,"fter":1662,"cord":1663,"ĠLATIN":1664,"lect":1665,"DI":1666,"ĠGNU":1667,"sition":1668,"']['":1669,"18":1670,"license":1671,"Not":1672,"Ġ7":1673,"exten":1674,"ference":1675,"ell":1676,"ĠPublic":1677,"ĊĠĠĠĠĠĠĠĠĠĠ":1678,"uration":1679,"frame":1680,"For":1681,"ini":1682,"ython":1683,"expected":1684,"ĠReturns":1685,"als":1686,"Ġprovi":1687,"TR":1688,")))":1689,"make":1690,"ration":1691,"lection":1692,"licy":1693,"order":1694,"tity":1695,"Ġ&":1696,"box":1697,"201":1698,"marker":1699,"property":1700,"tensor":1701,"arning":1702,"ĠGeneral":1703,"lot":1704,"np":1705,"Ġvalid":1706,"cr":1707,"prefix":1708,"Col":1709,"TestCase":1710,"ĠK":1711,"Ġ--":1712,"02":1713,"Path":1714,"_)":1715,"ither":1716,"uid":1717,"Ġtrans":1718,"of":1719,"Ġoff":1720,"xml":1721,"mary":1722,"33":1723,"DO":1724,"delete":1725,"Ġ(\"":1726,"*-":1727,"cript":1728,"ates":1729,"opyright":1730,"Ar":1731,"how":1732,"member":1733,"ameter":1734,"_='":1735,"User":1736,"processed":1737,"ĊĠĠĠĠĠĠĠĠĠĠĠĠĠĠ":1738,"xy":1739,"fact":1740,"aliz":1741,"export":1742,"over":1743,"17":1744,"ĠANY":1745,"ĠAn":1746,"ĠDe":1747,"Ġform":1748,"Ġquery":1749,"Ġmodels":1750,"ste":1751,"address":1752,"Ġop":1753,"ateg":1754,"fault":1755,"other":1756,"mark":1757,"stall":1758,"Ġ-*-":1759,"LO":1760,"TE":1761,"ittest":1762,"Ġsy":1763,"page":1764,"controls":1765,"mt":1766,"duct":1767,"Ġwork":1768,"ĠCo":1769,"ĠValueError":1770,"Ġca":1771,"ists":1772,"ful":1773,"50":1774,"amples":1775,"Ġmin":1776,"files":1777,"ous":1778,"Ġfilename":1779,"Ġimp":1780,"Ġover":1781,"ched":1782,"subnet":1783,"items":1784,"ĠGet":1785,"Ġparent":1786,"cache":1787,"Ġclient":1788,"fir":1789,"Or":1790,"ven":1791,"Ġ201":1792,"ilter":1793,"here":1794,"Ġmake":1795,"AD":1796,"Ġfe":1797,"swith":1798,"Vi":1799,"mon":1800,"Ġaction":1801,"body":1802,"parent":1803,")]":1804,"Ġupdate":1805,"tinue":1806,"ĠCopyright":1807,"ĠUn":1808,"Tag":1809,"rary":1810,"Ġchar":1811,"current":1812,"MP":1813,"Ġbuild":1814,"tadata":1815,"Ġserver":1816,"pc":1817,"Ġag":1818,"Object":1819,"abled":1820,"[-":1821,"lied":1822,"Ġuid":1823,"cmd":1824,"tk":1825,"PE":1826,"Ġparams":1827,"raph":1828,"56":1829,"ĊĠĠĠĠĠĠĠĠĠĠĠĠĠĠĠĠĠĠĠĠĠĠĠĠĠĠĠĠĠĠĠ":1830,"ackage":1831,"ĠCON":1832,"ä»":1833,"Ġtuple":1834,"level":1835,"ocket":1836,"OUT":1837,"alled":1838,"Ġtable":1839,"local":1840,"vert":1841,"ili":1842,"Ġusing":1843,"debug":1844,"ression":1845,"13":1846,"').":1847,"verse":1848,"Id":1849,"UN":1850,"},":1851,"session":1852,"mock":1853,"cle":1854,"ister":1855,"OF":1856,"ources":1857,"Ġdistributed":1858,"200":1859,"ĊĠĠĠĠĠĠĠĠĠĠĠĠĠĠĠĠĠĠĠĠĠĠĠĠ":1860,"ats":1861,"Ipv":1862,"Attributes":1863,"replace":1864,"ning":1865,"Ġback":1866,"Ġinto":1867,"Ġmodi":1868,"LI":1869,"Dict":1870,"Ġeach":1871,"ative":1872,"oo":1873,"29":1874,"Ġdirectory":1875,"seri":1876,"onent":1877,"Tra":1878,"Ġparser":1879,"wo":1880,"ultip":1881,"uture":1882,"trib":1883,"Ġwithout":1884,"Item":1885,"present":1886,"Model":1887,"Ġ'/":1888,"ync":1889,"fication":1890,"annel":1891,"Ġsign":1892,"Ġwhile":1893,"old":1894,"splay":1895,"project":1896,"sw":1897,"ESS":1898,"03":1899,"Ġauth":1900,"lank":1901,"compile":1902,"Ġax":1903,"Request":1904,"Ġcor":1905,"strip":1906,"description":1907,"ĠWAR":1908,"Ġorder":1909,"lication":1910,"elper":1911,"By":1912,"quire":1913,"Ġneed":1914,"river":1915,"55":1916,"lease":1917,"ITY":1918,"AME":1919,"Node":1920,"ique":1921,"Ġsee":1922,"atab":1923,"Ġprocess":1924,"ick":1925,"Ġeither":1926,"Ġfollow":1927,"ĊĠĠĠĠĠĠĠĠĠĠĠĠĠĠĠĠĠĠĠĠĠ":1928,"Ġextra":1929,"Ġdb":1930,"df":1931,"sup":1932,"gram":1933,"settings":1934,"tree":1935,"State":1936,"Ġlib":1937,"Ġ',":1938,"queue":1939,"Ġvariable":1940,"Ġval":1941,"uccess":1942,"atabase":1943,"Ġter":1944,"cope":1945,"Ġhelp":1946,"Ġsome":1947,"Ġnames":1948,"fer":1949,"Ġnum":1950,"direct":1951,"perties":1952,"Ġrow":1953,"Is":1954,"remove":1955,"80":1956,"RANT":1957,"27":1958,"','":1959,"No":1960,"utton":1961,"unk":1962,"Ġcontinue":1963,"igh":1964,"Ġwas":1965,"lag":1966,"reak":1967,"datetime":1968,"ĠWARRANT":1969,"active":1970,"lass":1971,"exception":1972,"Ġenv":1973,"rate":1974,"Ġoper":1975,"lish":1976,"nown":1977,"off":1978,"Ġroot":1979,"The":1980,"down":1981,"Ġcase":1982,"location":1983,"element":1984,"ating":1985,"src":1986,"quence":1987,"Ġ},":1988,"Ġresults":1989,"abs":1990,"connect":1991,"stract":1992,"Ġab":1993,"ĠSt":1994,"Ġq":1995,"ĠSo":1996,"Ġreturned":1997,"Bu":1998,"sum":1999,"stream":2000,"Ġmap":2001,"Ġ9":2002,"US":2003,"mation":2004,"ĠJ":2005,"Ver":2006,"ice":2007,"layer":2008,"Ġjson":2009,"Config":2010,"ive":2011,"mi":2012,"23":2013,"req":2014,"ĊĠĠĠĠĠĠĠĠĠĠĠĠĠĠĠĠĠ":2015,"ord":2016,"Ġreq":2017,"Ġsoftware":2018,"pk":2019,"Ġpri":2020,"attern":2021,"related":2022,"Content":2023,"Ġcount":2024,"Info":2025,"range":2026,"Action":2027,"tiv":2028,"Qu":2029,"email":2030,"now":2031,"Ġfind":2032,"trol":2033,"FI":2034,"wh":2035,"atures":2036,"Ġblock":2037,"ined":2038,"tocol":2039,"Ġprefix":2040,"fier":2041,"Child":2042,"headers":2043,"password":2044,"ial":2045,"Ġfloat":2046,"CON":2047,"less":2048,"part":2049,")),":2050,"Ġsame":2051,"Ġexception":2052,"DAT":2053,"~~":2054,"tails":2055,"atrix":2056,"Ġlogging":2057,"atform":2058,"Ġsu":2059,"ĠSM":2060,"etch":2061,"100":2062,"Event":2063,"ĊĠĠĠĠĠĠĠĠĠĠĠĠĠĠĠĠĠĠĠĠĠĠĠĠĠ":2064,"search":2065,"conf":2066,"ailable":2067,"asses":2068,"ĊĠĠĠĠĊĠĠĠ":2069,"send":2070,"Ġpage":2071,"Ġthen":2072,"Ġexec":2073,"handler":2074,"ie":2075,"ĠYou":2076,"\"],":2077,"Ġfound":2078,"\"))":2079,"Ġdel":2080,"tx":2081,"derr":2082,"column":2083,"Ġlink":2084,"88":2085,"section":2086,"ected":2087,"su":2088,"Context":2089,"util":2090,"ĠHT":2091,"entry":2092,"CharField":2093,"xx":2094,"Ġpackage":2095,"Ġtemplate":2096,"gr":2097,"05":2098,"pop":2099,"show":2100,"çł":2101,"chema":2102,"çłģ":2103,"true":2104,"encode":2105,"!!":2106,"77":2107,"lation":2108,"ĊĊĊĠĠĠ":2109,"Ġkwargs":2110,"mote":2111,"thing":2112,"cond":2113,"otal":2114,"older":2115,"VER":2116,"mented":2117,"Ġoffset":2118,"Out":2119,"number":2120,"Ġcomm":2121,"Ġ'.":2122,"distribu":2123,"ĠTHE":2124,"Address":2125,"CL":2126,"width":2127,"Ġar":2128,"Ġstatus":2129,"gener":2130,"ride":2131,"Ġexten":2132,"TY":2133,"FF":2134,"ui":2135,"Ġlast":2136,"ĠPython":2137,"anager":2138,"ĠSet":2139,"Element":2140,"patch":2141,"UP":2142,"XX":2143,"oly":2144,"resh":2145,"ĊĠĠĠĠĠĠĠĠĊĠĠĠĠĠĠĠ":2146,"cket":2147,"ĠAr":2148,"Ġshape":2149,"Ġconnection":2150,"255":2151,"Ġtask":2152,"Ġdiff":2153,"parser":2154,"save":2155,"SS":2156,"]]":2157,"cer":2158,"abc":2159,"vision":2160,"ights":2161,"volume":2162,"sa":2163,"Ġses":2164,"Ġyour":2165,"Ġnon":2166,"Ġ\"%":2167,"Ġyield":2168,"ector":2169,"can":2170,"Ġ200":2171,"mask":2172,"last":2173,"system":2174,"Ġallow":2175,"Ġdocument":2176,"ponse":2177,"ILITY":2178,"Ġopt":2179,"Ġdevice":2180,"ants":2181,"28":2182,"EX":2183,"Ġlambda":2184,"Ġwri":2185,"('/":2186,"cls":2187,"ush":2188,"Ġentry":2189,"IO":2190,"go":2191,"ecimal":2192,"Group":2193,"null":2194,"Ġsk":2195,".\"":2196,"ublish":2197,"ĠWe":2198,"structor":2199,"26":2200,"ud":2201,"prec":2202,"ĠSoftware":2203,"Fa":2204,"Ġspecified":2205,"okup":2206,"ĠAND":2207,"ported":2208,"exit":2209,"Ġdtype":2210,"Ġpos":2211,"Ġload":2212,"umns":2213,"Ġsession":2214,"ices":2215,"pool":2216,"job":2217,"Ġ'-":2218,"dices":2219,"ĠException":2220,"Input":2221,"ogle":2222,"Create":2223,"du":2224,"her":2225,"ĠSMALL":2226,"]:":2227,"Ġexist":2228,"package":2229,"KE":2230,"bose":2231,"Ġdatetime":2232,")):":2233,"fs":2234,"Ġattribute":2235,"iteral":2236,"FA":2237,"uri":2238,"Indent":2239,"Ġcmd":2240,"ution":2241,"cp":2242,"Ġlimit":2243,"rec":2244,"mod":2245,"mplemented":2246,"Ġsettings":2247,"rapper":2248,"OP":2249,"Ġorig":2250,"rule":2251,"render":2252,"TH":2253,"ategory":2254,"mbol":2255,"Order":2256,"del":2257,"alog":2258,"dic":2259,"Literal":2260,"ility":2261,"Ġpython":2262,"ati":2263,"NAME":2264,"changed":2265,"QU":2266,"21":2267,"io":2268,"olean":2269,"Ġprogram":2270,"ustom":2271,"results":2272,"account":2273,"Ġcourse":2274,"pache":2275,"Date":2276,"Ġpoint":2277,"Check":2278,"round":2279,"itch":2280,"Ġspecific":2281,"fn":2282,"Ġdis":2283,"All":2284,"oper":2285,"stor":2286,".\")":2287,"blank":2288,"ceiv":2289,"Ġheaders":2290,"36":2291,"ĠFor":2292,"Ġloc":2293,"Size":2294,"Ġhere":2295,"vironment":2296,"lobal":2297,"admin":2298,"empty":2299,"hash":2300,"ĠTO":2301,"Ġtests":2302,"startswith":2303,"ale":2304,"Ġ''":2305,"Ġrule":2306,"Valid":2307,"åı":2308,"ker":2309,"deo":2310,"Ġlength":2311,"tools":2312,"ĠshowIndent":2313,"59":2314,"ITAL":2315,"Ġafter":2316,"Ġmeta":2317,"Ġattrs":2318,"dev":2319,"Ġ[\"":2320,"Ġframe":2321,"Ġservice":2322,"44":2323,"Ġnext":2324,"site":2325,"ART":2326,"denti":2327,"oreign":2328,"Ġbool":2329,"ĠZ":2330,"Ġthere":2331,"Ġresource":2332,"web":2333,"ä»£":2334,"Index":2335,"actory":2336,"Ġact":2337,"Ġnetwork":2338,"ä»£çłģ":2339,"Lo":2340,"ries":2341,"86":2342,"_(":2343,"{}":2344,"APITAL":2345,"Ġfunc":2346,"resource":2347,"Ġav":2348,"licenses":2349,"til":2350,"stamp":2351,"ĠIS":2352,"Ġtemp":2353,"MA":2354,"ater":2355,"groups":2356,"gex":2357,"ĠCAPITAL":2358,"Ġdep":2359,"RL":2360,"Ġaxis":2361,"Ġtensor":2362,"ĊĠĠĠĠĠĠĠĠĠĠĠĠĠĠĠĠĠĠĠĠĠĠĠĠĠĠ":2363,"static":2364,"ternal":2365,"`.":2366,"eg":2367,"URL":2368,"Ġright":2369,"Ġpassword":2370,"'].":2371,"ĠPar":2372,"dis":2373,"andard":2374,"37":2375,"emp":2376,"%(":2377,"dep":2378,"plugin":2379,"ABILITY":2380,"Children":2381,"formation":2382,"Ġerr":2383,"Ġdir":2384,"\\\\":2385,"flags":2386,"variable":2387,"Attribute":2388,"Option":2389,"device":2390,"Ġexport":2391,"Ġthan":2392,"Log":2393,"Ġini":2394,"example":2395,"]))":2396,"ĠPro":2397,"errors":2398,"top":2399,"exc":2400,"first":2401,"ĊĊĠĠĠĠĠĠĠĠĠĠĠĠĠĠĠ":2402,"utable":2403,"ĊĠĠĠĠĠĠĠĠĠĠĠĠĠĠĠĠĠĠĠĠĠĠĠĠĠĠĠĠĠĠ":2404,"Al":2405,"tags":2406,"Ġits":2407,"Response":2408,"čĊĠĠĠĠĠĠĠĠĠĠĠĠĠĠĠ":2409,"Ġ--------":2410,"ĠCheck":2411,"Ġcho":2412,"Ġ>=":2413,"Default":2414,"domain":2415,"interface":2416,"ared":2417,"eval":2418,"Ġproject":2419,"ĠWITHOUT":2420,"penden":2421,"arnings":2422,"ULT":2423,"OL":2424,"exists":2425,"nodes":2426,".')":2427,"Class":2428,"Run":2429,"Ġbreak":2430,"park":2431,"ctionary":2432,"Ġsupport":2433,"ish":2434,"cale":2435,"Ġfa":2436,"ultiple":2437,"ĠFOR":2438,"Ġobjects":2439,"Ċĉĉĉĉ":2440,"tests":2441,"repo":2442,"Ġrecord":2443,"ranch":2444,"Handler":2445,"required":2446,"UB":2447,"future":2448,"argument":2449,"ĠVer":2450,"except":2451,"Ġdest":2452,"manager":2453,"contain":2454,"({'":2455,"uint":2456,"Ġren":2457,"Ġbody":2458,"lower":2459,"Ġparse":2460,"connection":2461,"oto":2462,"Box":2463,"Ġold":2464,"Inter":2465,"sl":2466,"ingle":2467,"stack":2468,"Ġinfo":2469,"umpy":2470,"40":2471,"\"):":2472,"---":2473,"Ġdetails":2474,"random":2475,"Ġwhere":2476,"'''":2477,"ceived":2478,"div":2479,"only":2480,"Ġinst":2481,"mission":2482,"offset":2483,"logger":2484,"čĊč":2485,"bstract":2486,"Ġkeys":2487,"Ġhandle":2488,"Ġbefore":2489,"Ġimplied":2490,"ait":2491,"termin":2492,"stop":2493,"Fe":2494,"View":2495,"Ġbin":2496,"Ġmain":2497,"ob":2498,"gine":2499,"Ġfin":2500,"Ġfollowing":2501,"He":2502,"Ġwrite":2503,"timeout":2504,"Ġunicode":2505,"=%":2506,"Ġfail":2507,"89":2508,"Ġlanguage":2509,"graph":2510,"ARE":2511,"ĠType":2512,"else":2513,"username":2514,"norm":2515,"ince":2516,"Ġsearch":2517,"IGHT":2518,"gen":2519,"metadata":2520,"wait":2521,"Ġsa":2522,"oding":2523,"Return":2524,"ĠNot":2525,"ink":2526,"sitive":2527,"Ġcom":2528,"Ġcr":2529,"Ġstd":2530,"cul":2531,"fl":2532,"assi":2533,"asic":2534,"Ġview":2535,"ba":2536,"tition":2537,"IES":2538,"cho":2539,"čĊčĊĠĠĠ":2540,"dump":2541,"Ġdf":2542,"stdout":2543,"ĊĠĠĠĠĠĠĠĠĠĠĠĠĠĠĠĠĠĠĠĠĠĠ":2544,"Ġgetattr":2545,"Ġaddress":2546,"60":2547,"ditional":2548,"Ġref":2549,"eca":2550,"Ġqu":2551,"Ġreturns":2552,"zero":2553,"skip":2554,"aly":2555,"Ġret":2556,"CE":2557,"gor":2558,"nap":2559,"Ġrandom":2560,"Ġfilter":2561,"57":2562,"Ġrepo":2563,"mplement":2564,"sql":2565,"Service":2566,"non":2567,"tmp":2568,"wise":2569,"keep":2570,"Ġempty":2571,"decode":2572,"aster":2573,"Ġlocal":2574,"auto":2575,"esca":2576,"cen":2577,"mory":2578,"Ġ'--":2579,"coder":2580,"Ġtrue":2581,"Ġob":2582,"ĠCreate":2583,"Ġparameter":2584,"Ġlogger":2585,"Ġass":2586,"style":2587,"setup":2588,"rag":2589,"left":2590,"Tests":2591,"49":2592,"Dis":2593,"Sh":2594,"oreignKey":2595,"sen":2596,"HTTP":2597,"fg":2598,"Ġho":2599,"next":2600,"alized":2601,"Ġ'__":2602,"cap":2603,"wer":2604,"Ġ{\"":2605,"Net":2606,"common":2607,"ling":2608,"39":2609,"]),":2610,"Ġtitle":2611,"Ġbeen":2612,"And":2613,"Pre":2614,"assed":2615,"Ġtwo":2616,"ithub":2617,"gorith":2618,"Ġlines":2619,"Ġerrors":2620,"ear":2621,"Frame":2622,"'})":2623,"Ġresp":2624,"dia":2625,"Ġarguments":2626,"grid":2627,"Ġcoding":2628,"void":2629,"(-":2630,"\"])":2631,"Ġthread":2632,"Ġalso":2633,"Ġauto":2634,"ib":2635,"zip":2636,"ĊĊĠĠĠĠĠ":2637,"dist":2638,"yload":2639,"ĊĠĠĠĠĠĠĠĠĠĠĠĠĠĠĠĠĠĠĠĠĠĠĠĠĠĠĠĠĠĠĠĠĠĠĠ":2640,"Ġcreated":2641,":%":2642,"book":2643,"An":2644,"Ġtf":2645,"side":2646,"Ġcolumn":2647,">\\":2648,"repr":2649,"ĊĠĠ":2650,"control":2651,"imat":2652,"Ġ'<":2653,"ĠString":2654,"uster":2655,"Count":2656,"mplete":2657,"Ġinclude":2658,"ummy":2659,"Ġutf":2660,"dio":2661,"olve":2662,"pace":2663,"window":2664,"Ġsubnet":2665,"missions":2666,"onents":2667,"diff":2668,"Ġbet":2669,"tical":2670,"Module":2671,"gin":2672,"uuid":2673,"bit":2674,"ĠIP":2675,"Ġstruct":2676,"ĠNOT":2677,"chedule":2678,"Ġavailable":2679,"color":2680,"66":2681,"served":2682,"Ġman":2683,"Ġproperty":2684,"tific":2685,"']:":2686,"...":2687,"Ġpost":2688,"ensor":2689,"Ġnorm":2690,"Ġprovided":2691,"hi":2692,"Ġbytes":2693,"ĠFound":2694,"mer":2695,"alizer":2696,"Ġsel":2697,"ĠKey":2698,"shot":2699,"br":2700,"properties":2701,"actions":2702,"aded":2703,"****************":2704,"ĠAdd":2705,"Ġcache":2706,"ecause":2707,"48":2708,"Ġremove":2709,"assertFalse":2710,"ORT":2711,"author":2712,"Ġiter":2713,"LIC":2714,"profile":2715,"oid":2716,"lex":2717,"Th":2718,"bool":2719,"Conn":2720,"execute":2721,"Ġaccess":2722,"Ġscript":2723,"ĊĊĉ":2724,"Message":2725,"vate":2726,"usr":2727,"Ġsplit":2728,"Ġmodify":2729,"TYPE":2730,"ĊĠĠĠĠĠĠ":2731,"Ġcre":2732,"Ġemail":2733,"ose":2734,"><":2735,"tify":2736,"(?":2737,"PI":2738,"ĊĠĠĠĠĠĠĠĠĠĠĠĠĠĠĠĠĠĠĠĠĠĠĠĠĠĠĠĠĠĠĠĠ":2739,"From":2740,"################################################################":2741,"({":2742,"vider":2743,"oci":2744,"ATE":2745,"argv":2746,"ĠCol":2747,"Ġsystem":2748,")[":2749,"unittest":2750,"mbed":2751,"NO":2752,"txt":2753,"policy":2754,"Tree":2755,"Ġsample":2756,"Ġ<=":2757,"Account":2758,"way":2759,"bytes":2760,"rf":2761,"rop":2762,"added":2763,"Ġeven":2764,"Ġdon":2765,"cli":2766,"ĊĠĠĠĠĠĠĠĠĠĠĠĠĠĠĠĠĠĠĠĠĠĠĠĠĠĠĠĠĠ":2767,"Ġhasattr":2768,"win":2769,"09":2770,"54":2771,"driver":2772,"ĠFoundation":2773,"Ġhandler":2774,").__":2775,"PAT":2776,"ux":2777,"day":2778,"sitory":2779,"very":2780,"Ġdist":2781,"extra":2782,"gorithm":2783,"EL":2784,"ForeignKey":2785,"ves":2786,"ipel":2787,"Ġ\".":2788,"ĠURL":2789,"sis":2790,"unique":2791,"Ġparameters":2792,"install":2793,"mac":2794,"Ġterms":2795,"ha":2796,"lambda":2797,"Ġ...":2798,"Ġoptional":2799,"Ġ,'":2800,"batch":2801,"environ":2802,"Row":2803,"tuple":2804,"entic":2805,"Ġ[[":2806,"IONS":2807,"Map":2808,"Ġtmp":2809,"Ġsend":2810,"alias":2811,"Ġhash":2812,"Form":2813,"Ġstream":2814,"Manager":2815,"DATA":2816,"features":2817,"wd":2818,"Ġfalse":2819,"limit":2820,"Ġdiffe":2821,"clo":2822,"resp":2823,"ntry":2824,"ift":2825,"Ġabs":2826,"Ġwant":2827,"apping":2828,"ĠIt":2829,"Ġgo":2830,"Ġraw":2831,"vari":2832,"Ġfree":2833,"ĠAt":2834,"uble":2835,"ators":2836,"OM":2837,"=['":2838,"ĠNo":2839,"ENSE":2840,"Parser":2841,"67":2842,"Le":2843,"äº":2844,"multi":2845,"ways":2846,"primary":2847,"ank":2848,"Ġapi":2849,"lice":2850,"Ġdictionary":2851,"Ġlong":2852,"ĠArgs":2853,"IB":2854,"('-":2855,"Integer":2856,"Ġunittest":2857,"ĠWARRANTIES":2858,"Ġap":2859,"factory":2860,"thread":2861,"Per":2862,"Ġte":2863,"seq":2864,"Ġpassed":2865,"ĠHTTP":2866,"olute":2867,"buffer":2868,"extend":2869,"score":2870,"UM":2871,"gest":2872,"dest":2873,"idden":2874,"ases":2875,":`.":2876,"Output":2877,"FAULT":2878,"Ġuseful":2879,"Ġjust":2880,"AGE":2881,"Ġrepresent":2882,"register":2883,"Meta":2884,"Sub":2885,"plot":2886,"Ġfl":2887,"([[":2888,"35":2889,"Trans":2890,"let":2891,"Ġexample":2892,"Ġ%(":2893,"sentry":2894,"Ġinformation":2895,"acket":2896,"les":2897,"virt":2898,"Param":2899,"desc":2900,"Ġcalled":2901,"Ġtop":2902,"rel":2903,"Ġlater":2904,"AND":2905,"TEST":2906,"KEY":2907,"sm":2908,"most":2909,"ward":2910,"Ġpublish":2911,"napshot":2912,"namespace":2913,"Comp":2914,"head":2915,"NESS":2916,"Ġcontrol":2917,"ĠUser":2918,"imum":2919,"ories":2920,"Ġchanged":2921,"ipeline":2922,"=(":2923,"metri":2924,"':'":2925,"cc":2926,"tils":2927,"opt":2928,"Ġinterface":2929,"yp":2930,"Ġnull":2931,"display":2932,"fake":2933,"constant":2934,"RA":2935,"Ġxml":2936,"Column":2937,"uter":2938,"Ġtree":2939,"Cur":2940,"OK":2941,"This":2942,"imator":2943,"38":2944,"sv":2945,"like":2946,"(['":2947,"06":2948,"platform":2949,"conds":2950,"Do":2951,"\"]=":2952,"gnore":2953,"Ġfull":2954,"dirs":2955,"fin":2956,"sort":2957,"ason":2958,"Ġsingle":2959,"addr":2960,"With":2961,"IGN":2962,"scope":2963,"js":2964,"ĠID":2965,"delta":2966,"stderr":2967,"trl":2968,"Result":2969,"eff":2970,"record":2971,"Ġgra":2972,"ERCH":2973,"Format":2974,"escape":2975,"Client":2976,"Ġnumpy":2977,"Ġencoding":2978,"ITNESS":2979,"eq":2980,"play":2981,"six":2982,"Ġ[])":2983,"Implemented":2984,"insert":2985,"tera":2986,"ditions":2987,"matrix":2988,"Ġ</":2989,"https":2990,"ERCHANT":2991,"DB":2992,"dtype":2993,"Ġbecause":2994,"lative":2995,"Ġali":2996,"POSE":2997,"ends":2998,"ĠDecimal":2999,"Ġalong":3000,"Ġweb":3001,"real":3002,"ĠFree":3003,"ĠAnsible":3004,"ARTIC":3005,"tf":3006,"Ġ20":3007,"+)":3008,"45":3009,"tered":3010,"Ġids":3011,"train":3012,"]['":3013,"idx":3014,"edge":3015,"ĠFITNESS":3016,"ULAR":3017,"BU":3018,"Lay":3019,"Widget":3020,"attributes":3021,"Ġinteger":3022,"access":3023,"FOR":3024,"css":3025,"Ġnow":3026,"'},":3027,"URPOSE":3028,"used":3029,"Ġsw":3030,"licit":3031,"widget":3032,"tep":3033,"Ġsc":3034,"ĠPURPOSE":3035,"Ġtimeout":3036,"MO":3037,"ĠPARTIC":3038,"Ċĉĉĉĉĉ":3039,"ĠPARTICULAR":3040,"QL":3041,"handle":3042,"æľ":3043,"product":3044,"points":3045,"></":3046,"ava":3047,"ards":3048,"ĠMERCHANT":3049,"fit":3050,"login":3051,"42":3052,"istr":3053,"quires":3054,"children":3055,"Auth":3056,"tab":3057,"Gener":3058,"full":3059,"peri":3060,"stats":3061,"Ġdelete":3062,":]":3063,"Ġstyle":3064,"ĠEn":3065,"modules":3066,"DIR":3067,"#!":3068,"ĠAll":3069,"Ġeval":3070,"ABLE":3071,"Ġ%}":3072,"ĠOpen":3073,"ATION":3074,"Ġdoesn":3075,"\"}":3076,"={'":3077,"issing":3078,"Ġdisplay":3079,"Ġreceived":3080,"ugh":3081,"stead":3082,"Mock":3083,"imp":3084,"imple":3085,"Ġlin":3086,"ĠRun":3087,"Ġlike":3088,"ient":3089,"Ġsta":3090,"Reg":3091,"Query":3092,"channel":3093,"Ġph":3094,"tach":3095,"assertEquals":3096,"ged":3097,")],":3098,"Ġdown":3099,"Ġcharac":3100,"assertIs":3101,"ession":3102,"states":3103,"gl":3104,"idd":3105,"classes":3106,"allback":3107,"Des":3108,"Entry":3109,"many":3110,"Ġ'_":3111,"Ġinstead":3112,"buf":3113,"exportLiteral":3114,"verage":3115,"ĠImport":3116,"force":3117,"tenant":3118,"dered":3119,"Ġdirect":3120,"75":3121,"={":3122,"cted":3123,"ĠMERCHANTABILITY":3124,"IZ":3125,"Ġarch":3126,"Ġvar":3127,"ports":3128,"Exchange":3129,"CC":3130,"Ġ),":3131,"/%":3132,"cat":3133,"vices":3134,".*":3135,"================================":3136,"ffix":3137,"Ġdebug":3138,"Ġaccount":3139,"Ġfailed":3140,"App":3141,"Code":3142,"Ctrl":3143,"ĠDO":3144,"CK":3145,"sue":3146,"rep":3147,"library":3148,"Ġskip":3149,"press":3150,"iddle":3151,"ization":3152,"SP":3153,"cry":3154,"Version":3155,"button":3156,"ctx":3157,"Ġsetup":3158,"Command":3159,"EV":3160,"cure":3161,"Ġ'',":3162,"Ġsubprocess":3163,"Ġitems":3164,"Window":3165,"rough":3166,"Ġ_(\"":3167,"INE":3168,"Invalid":3169,"commit":3170,"orig":3171,"Ġwait":3172,"ttp":3173,"{%":3174,"Len":3175,"rev":3176,"tice":3177,"ancel":3178,"ween":3179,"Ġzip":3180,"Ġinclu":3181,"contrib":3182,"Ġmulti":3183,"raise":3184,"sport":3185,"callback":3186,"include":3187,"Ġimplement":3188,"called":3189,"labels":3190,"ĠEN":3191,"af":3192,"Ġwidget":3193,"WARE":3194,"pattern":3195,"ĠNotImplemented":3196,"__,":3197,"forms":3198,"Ġselect":3199,"VAL":3200,"bind":3201,"greg":3202,"Ġthem":3203,"Ġconfiguration":3204,"æĺ":3205,"Factory":3206,"bot":3207,"hether":3208,"clear":3209,"ĠName":3210,"Button":3211,"edit":3212,"ular":3213,"entries":3214,"Ġmethods":3215,"(\\":3216,"ium":3217,"Ġabout":3218,"PATH":3219,"roid":3220,"Ġthey":3221,"Ġcorrect":3222,"Ġsure":3223,"Ġsorted":3224,"Ġsuccess":3225,"Ġus":3226,"INGS":3227,"proxy":3228,"dirname":3229,"Ġattributes":3230,"herit":3231,"As":3232,"Ġmask":3233,"Dir":3234,"git":3235,"Ġplugin":3236,"Ġexisting":3237,"We":3238,"spaces":3239,"istry":3240,"olver":3241,"VE":3242,"ination":3243,"Auto":3244,"brow":3245,"inst":3246,"Ġcal":3247,"Ġtri":3248,"Warning":3249,"allow":3250,"('\\":3251,"okie":3252,"Ġhtml":3253,"precated":3254,"Ġchoices":3255,"07":3256,"known":3257,"ĠĠĠĠĠĠĠĠĠĠĠĠĠĠĠĠĠĠĠĠĠĠĠĠĠĠĠĠĠĠĠĠ":3258,"ERR":3259,"font":3260,"Ġfake":3261,"ello":3262,"()[":3263,"opts":3264,"Ġtags":3265,"PRE":3266,"Ġ\"'":3267,"Ġsave":3268,"Instance":3269,"ĠEX":3270,"ef":3271,"utes":3272,"encoding":3273,"urls":3274,"fetch":3275,"aml":3276,"Ġobtain":3277,"Ġsess":3278,"46":3279,"unicode":3280,"Ġforce":3281,"äº¤":3282,"UD":3283,"Ġ}}":3284,"è¯":3285,"ĠQt":3286,"Ġoriginal":3287,"Ġbinary":3288,")\"":3289,"08":3290,"Open":3291,"Qry":3292,"Str":3293,"Ġnodes":3294,"Image":3295,"pid":3296,"remote":3297,"Ġipv":3298,"mbo":3299,"OS":3300,"bove":3301,"Label":3302,"à¤":3303,"ics":3304,"curity":3305,"nan":3306,"attrs":3307,"Ġdomain":3308,"Ġadded":3309,"Ġreverse":3310,"Ġsum":3311,"Start":3312,"#!/":3313,"MM":3314,"')])":3315,"Ġdatabase":3316,"actor":3317,"IME":3318,"Ġkeep":3319,"INT":3320,"Ġencode":3321,"Ġlabels":3322,"Ġactual":3323,"moved":3324,"Ġdataset":3325,"aries":3326,"253":3327,"Ġrender":3328,"Connection":3329,"sive":3330,"validate":3331,"ĠnodeName":3332,"orter":3333,"Ġabove":3334,"Ġexc":3335,"subclass":3336,"Build":3337,"Abstract":3338,"samples":3339,"Ġverbose":3340,"step":3341,"helper":3342,"annot":3343,"\").":3344,"ffff":3345,"Ad":3346,"SC":3347,"Ġwarnings":3348,"Header":3349,"pol":3350,"Ġ):":3351,"see":3352,"span":3353,"Change":3354,"dag":3355,"Ġcer":3356,"Ġtypes":3357,"ĠTODO":3358,"Ġ\"-":3359,"Ġreal":3360,"pb":3361,"Ġ100":3362,"Ġpresent":3363,"Ġfunctions":3364,"Ġcontaining":3365,"Ġdup":3366,"ube":3367,"Ref":3368,"Ġdifferent":3369,"Ġ],":3370,"Ġ\"/":3371,"vious":3372,"åı·":3373,"]])":3374,"47":3375,"Py":3376,"raint":3377,"Ġseri":3378,"total":3379,"olution":3380,"ĠVersion":3381,"Ġsocket":3382,"convert":3383,"ferences":3384,"emplate":3385,"-%":3386,"dmp":3387,"case":3388,"58":3389,"Ġ\"\"":3390,"Ġlocation":3391,"ng":3392,"pha":3393,"dat":3394,"dec":3395,"Ġsrc":3396,"ĠMe":3397,"ĠWARRANTY":3398,"Ptr":3399,"Ġsection":3400,"sure":3401,"Ġconditions":3402,"Server":3403,"ĠColumn":3404,"Ġpublished":3405,"Ġmetadata":3406,"Ġlook":3407,"dential":3408,"inputs":3409,"ixin":3410,"ground":3411,"public":3412,"Ġreference":3413,"oken":3414,"Ġcolor":3415,"axis":3416,"sted":3417,"Ġsequence":3418,"ĠNote":3419,"Ġurllib":3420,"ized":3421,"Ġbetween":3422,"TO":3423,"ured":3424,"ĠData":3425,"IND":3426,"++":3427,"Ġreplace":3428,"ntax":3429,"Exec":3430,"Ġcollection":3431,"download":3432,"Number":3433,"classmethod":3434,"umerate":3435,"~~~~":3436,"Ġcommon":3437,"Ġ::":3438,"ĊĠĠĠĠĠĠĠĠĠĠĠĠĠĠĠĠĠĠĠĠĠĠĠĠĠĠĠĠĠĠĠĠĠĠĠĠĠĠĠĠĠĠĠĠĠĠĠĠĠĠĠĠ":3439,"duce":3440,",'":3441,"69":3442,"rs":3443,"Ġwindow":3444,"DEFAULT":3445,"alt":3446,"roll":3447,"Ġredistribu":3448,"Ġow":3449,"(\"%":3450,"ending":3451,"question":3452,"components":3453,"00000000":3454,"SH":3455,"loader":3456,"igration":3457,"\"].":3458,"ĠBase":3459,"Ġelements":3460,"dentifier":3461,"Ġstatic":3462,"(__":3463,"Down":3464,"ification":3465,"Ġbit":3466,"ĠAPI":3467,"hook":3468,"EM":3469,"Ġ[(":3470,"Ġvoid":3471,"Ro":3472,"des":3473,"ĠLI":3474,"ystem":3475,"Device":3476,"none":3477,"sity":3478,"('%":3479,"OFT":3480,"Ġdisable":3481,"Ġfp":3482,"ĠLO":3483,"CONF":3484,"æĺĵ":3485,"ki":3486,"cell":3487,"gate":3488,"indent":3489,"raises":3490,"Ġstack":3491,"acy":3492,"BC":3493,"uff":3494,"quote":3495,"partner":3496,"Ġalways":3497,"iddleware":3498,"sten":3499,"AA":3500,"FO":3501,"PL":3502,"SION":3503,"Ġflag":3504,"__)":3505,"ĠTypeError":3506,"Core":3507,"aa":3508,"{{":3509,"Ġet":3510,"atter":3511,"ship":3512,"Ġpaths":3513,"comment":3514,"ĠImportError":3515,"äº¤æĺĵ":3516,"(**":3517,"unter":3518,"ACK":3519,"stat":3520,"ric":3521,"Ġdefined":3522,"constructor":3523,"Ġstrings":3524,"Ġpolicy":3525,"Network":3526,"79":3527,"ourse":3528,"Ġparts":3529,"Ġextension":3530,"DS":3531,"GET":3532,"UE":3533,"cent":3534,"vm":3535,"lem":3536,"Ġignore":3537,"cision":3538,"Ġopts":3539,"invalid":3540,"GL":3541,"Oper":3542,"PRO":3543,"category":3544,"Ġmod":3545,"ĠReturn":3546,"serialize":3547,"ical":3548,"short":3549,"Contain":3550,"----------------------------------------------------------------":3551,"Matrix":3552,"SER":3553,"tran":3554,"Ġglobal":3555,"fmt":3556,"warning":3557,"Ġpermissions":3558,"virtual":3559,"BO":3560,"SAP":3561,"cies":3562,"ĠPRO":3563,"ĠsetUp":3564,"indices":3565,"Ġmath":3566,"Ġstdout":3567,"Ġexpression":3568,"ĠRE":3569,"medi":3570,">\"":3571,"Sta":3572,"long":3573,"language":3574,"Ġ'$":3575,"]],":3576,"cb":3577,"dar":3578,"ç»":3579,"ĠBO":3580,"ĊĠĠĠĠĠĠĠĠĠĠĠĠĠĠĠĠĠĠĠĠĠĠĠĠĠĠĠĠĠĠĠĠĠĠ":3581,"board":3582,"report":3583,"loaded":3584,"ĠOption":3585,"ĊĠĠĠĠĠĠĠĠĠĠĠĠĠĠĠĠĠĠĠĠĠĠĠĠĠĠĠĠĠĠĠĠĠĠĠĠĠĠĠ":3586,"Ġfil":3587,"collect":3588,"ORS":3589,"Interface":3590,"Ġ16":3591,"visit":3592,"Ġsecond":3593,"Ġcontains":3594,")])":3595,"If":3596,"Rec":3597,"ified":3598,"mor":3599,"Ġmac":3600,"Returns":3601,"Ġsignal":3602,"Ġredistribute":3603,"FL":3604,"va":3605,"zone":3606,"rer":3607,"leted":3608,"columns":3609,"Int":3610,"some":3611,"Ġim":3612,"ROM":3613,"Filter":3614,"sparse":3615,"Ġenumerate":3616,"Sign":3617,"hen":3618,"rand":3619,"pping":3620,"internet":3621,"Bro":3622,"End":3623,"Page":3624,"Ġmy":3625,"strument":3626,"Ġproduct":3627,"ixed":3628,"Update":3629,"tificate":3630,"31":3631,"quot":3632,"ĠApache":3633,"ĠList":3634,"cheduler":3635,"assertIn":3636,"IntegerField":3637,"čĊĠĠĠĠĠ":3638,"Ġdag":3639,"ĠMock":3640,"Ġusername":3641,"byte":3642,"Qt":3643,"ws":3644,"simple":3645,"ily":3646,"safe":3647,"lour":3648,"Ġmessages":3649,"success":3650,"rpc":3651,"directory":3652,"users":3653,"owner":3654,"Ġregister":3655,"FORM":3656,"Ġjoin":3657,"Ġmatrix":3658,"Ġmultiple":3659,"chain":3660,"Ġpayload":3661,"document":3662,"78":3663,"tex":3664,"Ġtake":3665,"fill":3666,"!!!!":3667,"Ġassoci":3668,"ĠNotImplementedError":3669,")'":3670,"Loc":3671,"ĠAuth":3672,"On":3673,"wx":3674,"release":3675,"this":3676,"Ġsort":3677,"optional":3678,"rew":3679,"med":3680,"rations":3681,"cii":3682,"Ġsql":3683,"vals":3684,"Ġfeature":3685,"FT":3686,"Ġwar":3687,"Ġapplic":3688,"Ġiniti":3689,"SD":3690,"URE":3691,"WOR":3692,"eeded":3693,"Ġwriting":3694,"OFTWARE":3695,"76":3696,"sq":3697,"Ġinstall":3698,"Ġthese":3699,"Ġ12":3700,">'":3701,"Ġpk":3702,"Status":3703,"methods":3704,"ĠComp":3705,"schema":3706,"iso":3707,"Ġhope":3708,"ĠAttribute":3709,"/',":3710,"Sto":3711,"Ġ----":3712,"ceback":3713,"__':":3714,"Ġsimple":3715,"iden":3716,"Ġstop":3717,"gnu":3718,"SON":3719,"Ġpick":3720,"parameters":3721,"Ġsupported":3722,"umer":3723,"Process":3724,"Session":3725,"YR":3726,"`,":3727,"udent":3728,"role":3729,"layout":3730,"Ġposition":3731,"signed":3732,"storage":3733,"Ġmon":3734,"Ġunique":3735,"Ġagain":3736,"dient":3737,"ĊĠĠĠĠĠĠĠĠĠĠĠĠĠĠĠĠĠĠĠĠĠĠĠĠĠĠĠĠĠĠĠĠĠ":3738,"WN":3739,"ually":3740,"Ġgover":3741,"Ġabsolute":3742,"ensed":3743,"Ġfoo":3744,"quen":3745,"tact":3746,"ĠFile":3747,"Ġansible":3748,"cheme":3749,"ĠRes":3750,"scale":3751,"ĠInc":3752,"Ġdocumentation":3753,"Ġcustom":3754,"Ġsince":3755,"############":3756,"ĠDE":3757,"Ġenvironment":3758,"grade":3759,"gt":3760,"Ġvolume":3761,"cast":3762,"Ġbuil":3763,"ERROR":3764,"Found":3765,"after":3766,"Ġrelative":3767,"Ġplace":3768,"prog":3769,"POST":3770,"eno":3771,"enter":3772,"Ġdec":3773,"position":3774,"folder":3775,"Ġ$":3776,"attribute":3777,"Ġflags":3778,"idr":3779,"HTML":3780,"Line":3781,"timestamp":3782,"rency":3783,"DateTime":3784,"Ġwarran":3785,"engine":3786,"')),":3787,"TypeError":3788,"collection":3789,"ĠUse":3790,"ignore":3791,"override":3792,"Of":3793,"poly":3794,"sample":3795,"enable":3796,"light":3797,"Ġleft":3798,"Ġlibrary":3799,"ished":3800,"Ġ15":3801,"vars":3802,".'":3803,"cf":3804,"Helper":3805,"Wrapper":3806,"dot":3807,"Ġsm":3808,"verify":3809,"parts":3810,"ĠPo":3811,"AY":3812,"unit":3813,"Ġgenerate":3814,"Ġgenerated":3815,"Ġ----------":3816,"reset":3817,"Ġfeed":3818,"ActionField":3819,"fp":3820,"sep":3821,"lookup":3822,"application":3823,"links":3824,"Ġtensorflow":3825,"Ġjob":3826,"require":3827,"Ġtx":3828,"riter":3829,"loy":3830,"Ġbeing":3831,"ĠParameters":3832,"Ġwarranty":3833,"Ġnotice":3834,"binary":3835,"Ġ-=":3836,"sym":3837,"ĠKIND":3838,"apache":3839,"Ġctx":3840,"backend":3841,"Comm":3842,"Seq":3843,"scriptor":3844,"pendencies":3845,"Ġip":3846,"Ġbound":3847,"Ġest":3848,"CThostFtdcQry":3849,"Ġvariables":3850,"clean":3851,"lint":3852,"ability":3853,"google":3854,"lang":3855,"Ġ((":3856,"math":3857,"Ġvari":3858,"istory":3859,"Ġfinally":3860,"Ġrep":3861,"\");":3862,"tended":3863,">.":3864,"unded":3865,"xture":3866,"Ġbyte":3867,"Ġvisit":3868,"æĬ":3869,"ĠConfig":3870,"Ġcommands":3871,"Ġtrain":3872,");":3873,"Ġremote":3874,"ĠSOFTWARE":3875,"ĠAs":3876,"pkg":3877,"dentials":3878,"EST":3879,"License":3880,"Ġutils":3881,"Broker":3882,"holder":3883,"rl":3884,"Ġti":3885,"Ġreport":3886,"Ġinvalid":3887,"Ġconver":3888,"height":3889,"Mixin":3890,"bility":3891,"cd":3892,"Ġindices":3893,"ĠPy":3894,"Ġrequests":3895,"æī":3896,"Ġcell":3897,"GY":3898,"HER":3899,"security":3900,"regex":3901,"Ġtheir":3902,"Ġcallback":3903,"ULL":3904,"DIT":3905,"Ge":3906,"nb":3907,"Ġpattern":3908,"Ġrc":3909,"RAW":3910,"Ġinit":3911,"API":3912,"dim":3913,"DEL":3914,"Ġconvert":3915,"Ġgraph":3916,"icensed":3917,"ĠRa":3918,"extension":3919,"verbose":3920,"resources":3921,"------------":3922,"Ġidx":3923,"Host":3924,"XML":3925,"rp":3926,"year":3927,"words":3928,"alization":3929,"help":3930,"pac":3931,"Ġgen":3932,"[:,":3933,"NE":3934,"dl":3935,"na":3936,"reed":3937,"redirect":3938,"Ġstderr":3939,"']),":3940,"Ġnamed":3941,"ifest":3942,"Boolean":3943,"ĠKeyError":3944,"Dec":3945,"Ġboth":3946,"CLUD":3947,"Link":3948,"Ġwhether":3949,"Ġstri":3950,"Control":3951,"AccountField":3952,"ould":3953,"Ġrequire":3954,"phic":3955,"container":3956,"Ġcomment":3957,"Many":3958,"fd":3959,"vs":3960,"Ġcli":3961,"')],":3962,"Point":3963,"ĠHTML":3964,"DF":3965,"wi":3966,"Ġconstant":3967,"()))":3968,"Read":3969,"256":3970,"cursor":3971,"false":3972,"cker":3973,"hould":3974,"mitted":3975,"Ġcopyright":3976,"respon":3977,"Obs":3978,"asked":3979,"Ġtotal":3980,"ĠLicensed":3981,"Ġloop":3982,"Ġsix":3983,"bad":3984,"ored":3985,"provider":3986,"SET":3987,"Table":3988,"reverse":3989,"LICENSE":3990,"\",\"":3991,"icro":3992,"bl":3993,"Position":3994,"'re":3995,"Pl":3996,"IAL":3997,"Ġpatch":3998,"HO":3999,"PORT":4000,"Ġscope":4001,"weight":4002,"Ġapplicable":4003,"DER":4004,"ber":4005,"ascii":4006,"video":4007,"Ġext":4008,"Ġdisc":4009,"Stream":4010,"Ġcolumns":4011,"egg":4012,"Current":4013,"morphic":4014,"'+":4015,"Ca":4016,"github":4017,"Ġ))":4018,"ĠĠĠĠĠĠĠĠĠ":4019,"matic":4020,"endswith":4021,"ighb":4022,"CLUDING":4023,"PUT":4024,"bi":4025,"Ġfn":4026,"ones":4027,"ĠPO":4028,"usage":4029,"Ġbuffer":4030,"rest":4031,"Ġdmp":4032,"mplex":4033,"ĠGe":4034,"weights":4035,"leep":4036,"namespaces":4037,"assertAll":4038,"Ġconf":4039,"filters":4040,"symbol":4041,"FILE":4042,"dumps":4043,"orage":4044,"Ġour":4045,"pair":4046,"Ġlookup":4047,"loads":4048,"nored":4049,"crement":4050,"ĠBOX":4051,"90":4052,"mk":4053,"Feature":4054,"95":4055,"Back":4056,")).":4057,"Ġotherwise":4058,"ĠDefault":4059,"'\",":4060,"Mo":4061,"zy":4062,"attrib":4063,"ecked":4064,"Ġwould":4065,"'][":4066,"ĠWindow":4067,"Ġcannot":4068,"UTE":4069,"Ġ/>":4070,"Ġassociated":4071,"Ġfetch":4072,"proto":4073,"Ġpylint":4074,"gh":4075,"Ġexists":4076,"ĠDRAW":4077,"REE":4078,"cords":4079,"ĠDRAWINGS":4080,"MS":4081,"ĠCONTR":4082,"Simple":4083,"sig":4084,"('<":4085,"buil":4086,"Ġbased":4087,"AutoField":4088,"tu":4089,"ority":4090,"Ġrel":4091,"Ġretri":4092,"liance":4093,"lav":4094,"Protocol":4095,"ĊĠĠĠĠĠĠĠĠĠĠĠĠĠĠĠĠĠĠĠĠĠĠĠĠĠĠĠĠĠĠĠĠĠĠĠĠĠĠ":4096,"tokens":4097,"pendency":4098,"liter":4099,"Ġhand":4100,"END":4101,"Ġapplication":4102,"CP":4103,"LL":4104,"Edit":4105,"sur":4106,"tten":4107,"ĠĠĠĠĠĠĠĠĠĠĠ":4108,"Ġ[('":4109,"ĠSer":4110,"lendar":4111,"Ġ})":4112,"ĊĠĠĠĠĠĠĠĠĠĠĠĠĠĠĠĠĠĠĠĠĠĠĠĠĠĠĠĠĠĠĠĠĠĠĠĠĠ":4113,"IMIT":4114,"_=":4115,"Ġmer":4116,"feed":4117,"dn":4118,"Ġmissing":4119,"iler":4120,"Ġevery":4121,"Parse":4122,".%":4123,"Function":4124,"Ġbatch":4125,"hosts":4126,"CTION":4127,"ĠUnless":4128,"Bit":4129,"rot":4130,"rays":4131,"dataset":4132,"cum":4133,"times":4134,"ĠGo":4135,"Ġwhat":4136,"zeros":4137,"SAPT":4138,"Ġqueue":4139,"Ġhttps":4140,"USER":4141,"RI":4142,"Ġmark":4143,"argin":4144,"Ġexpress":4145,"mount":4146,"mbols":4147,"COMM":4148,"Ġclose":4149,"ctions":4150,"ERGY":4151,"signal":4152,"ĠENERGY":4153,"Token":4154,"nu":4155,"Ġwho":4156,"ordin":4157,"68":4158,"Ġmember":4159,"Property":4160,"Ġcompliance":4161,"expr":4162,"(('":4163,"lear":4164,"tems":4165,"tempt":4166,"initi":4167,"Options":4168,"HBC":4169,"Variable":4170,"basic":4171,"tim":4172,"loop":4173,"tool":4174,"enabled":4175,"Ġoc":4176,"cks":4177,"enerp":4178,"UBLE":4179,"52":4180,"ret":4181,"rome":4182,"elow":4183,"exceptions":4184,"DITIONS":4185,"=-":4186,"Ġclo":4187,"bound":4188,"Project":4189,"ific":4190,"complete":4191,"ĠAffer":4192,"modi":4193,"img":4194,"choices":4195,"ĠAffero":4196,"43":4197,"Ġinte":4198,"ĠPer":4199,"ĠOn":4200,"ĠHttp":4201,"single":4202,"Decimal":4203,"çº":4204,"sec":4205,"ĠTo":4206,"Ġuses":4207,"ĠSH":4208,"Ġrunning":4209,"Sp":4210,"uce":4211,"ĠĊĠĠĠ":4212,"repe":4213,"ĠOS":4214,"ASIS":4215,"Tool":4216,"Ġinputs":4217,"Buffer":4218,"gment":4219,"pu":4220,"sid":4221,"mag":4222,"Ġadmin":4223,"Ġentity":4224,"Ġlaw":4225,"Ġoperation":4226,"Ġinitial":4227,"mpy":4228,"ĠLo":4229,"Req":4230,"ĠDi":4231,"Ġsepar":4232,"DEF":4233,"ASS":4234,"Ġlimitations":4235,"Ġforms":4236,"ctype":4237,"bucket":4238,"jobs":4239,"Ġpoints":4240,"ines":4241,"ĠĠĠĠĠĠĠĠĠĠ":4242,"Ġclean":4243,"Ġway":4244,"activ":4245,"ĠMy":4246,"AGS":4247,"Task":4248,"Ġrelated":4249,"vestor":4250,"Investor":4251,"extract":4252,"Ġclasses":4253,"Exp":4254,"Ġplt":4255,"Close":4256,"gg":4257,"hs":4258,"ana":4259,"Ġbranch":4260,"havi":4261,"84":4262,"uch":4263,"Ġ\"--":4264,"assword":4265,"ĠBASIS":4266,"Ġagreed":4267,"ĠCONDITIONS":4268,"Ġappro":4269,"Max":4270,"iti":4271,"fiers":4272,"dius":4273,"Ġwidth":4274,"upload":4275,"ĠMake":4276,"dense":4277,"Ġpossible":4278,"Ġimplementation":4279,"Ġgoverning":4280,"Ns":4281,"_):":4282,"ĠSQL":4283,"Ġgroups":4284,"java":4285,"memory":4286,"Ġig":4287,"Ġcondition":4288,"Ġcontents":4289,",))":4290,"65":4291,"Job":4292,"PS":4293,"hex":4294,"čĊĉ":4295,"ĠDo":4296,"RECT":4297,"ANG":4298,"Ġmodules":4299,"Ġspecify":4300,"ICE":4301,"ĠExamples":4302,"Seri":4303,"BUG":4304,"Ext":4305,"master":4306,"learn":4307,"runner":4308,"outputs":4309,"wrap":4310,"åĲ":4311,"inder":4312,"inherit":4313,"uring":4314,"kemon":4315,"Ġgtk":4316,"strict":4317,"created":4318,"Ġsuch":4319,"=_":4320,"Tensor":4321,"eve":4322,"stub":4323,"Ġ'')":4324,"ĠTH":4325,"Ġrv":4326,"Ġ30":4327,"aved":4328,"9999":4329,"NN":4330,"ace":4331,"ving":4332,"warn":4333,"Ġlicense":4334,"inx":4335,"Ġthrough":4336,"ĊĊĊ":4337,"Ġsetting":4338,"switch":4339,"IX":4340,"Sy":4341,"Sec":4342,"Ġweights":4343,"Ġoverride":4344,"\"'":4345,"74":4346,"au":4347,"dk":4348,"iver":4349,"åħ":4350,"Ġindic":4351,"Bar":4352,"Volume":4353,"amp":4354,"Ġ')":4355,"route":4356,"Ġhow":4357,"Ġmetri":4358,"variables":4359,"'^":4360,"car":4361,"pred":4362,"ficient":4363,"contents":4364,"ja":4365,"ritems":4366,"Ġstandard":4367,"defaults":4368,"Ġdistribution":4369,"Ġfinal":4370,"Ġpi":4371,"Ġsparse":4372,"Ġwx":4373,"Ġwithin":4374,"basename":4375,"Ġrights":4376,"##############":4377,"Match":4378,"leg":4379,"Ġstep":4380,"Ġglob":4381,"Ġbutton":4382,"missing":4383,")/":4384,"STAT":4385,"rows":4386,"cription":4387,"OrderField":4388,"Block":4389,"exist":4390,"unch":4391,"\"}),":4392,"anti":4393,"ested":4394,"feature":4395,"blem":4396,"MPL":4397,"XT":4398,"Ġmapping":4399,"Ġchannel":4400,"inity":4401,"Ġredirect":4402,"('.":4403,"apt":4404,"ACE":4405,"generate":4406,"Off":4407,"elif":4408,"Ġcould":4409,"Ġmatches":4410,"Ġalias":4411,"reen":4412,"lite":4413,"Ġsen":4414,"../":4415,"soft":4416,"LIST":4417,"ACT":4418,"éĩ":4419,"Ġkw":4420,"One":4421,"PER":4422,"global":4423,"inf":4424,"arm":4425,"Ġcfg":4426,"ĠAttributeError":4427,"lim":4428,"0001":4429,"ventory":4430,"ĊĠĠĠĠĠĠĠĠĠĠĠĠĠĠĠĠĠĠĠĠĠĠĠĠĠĠĠĠĠĠĠĠĠĠĠĠĠĠĠĠ":4431,"menu":4432,"xb":4433,"Ġuri":4434,"Ġrec":4435,"Ġtoo":4436,"Ġ11":4437,"lah":4438,"packages":4439,"Doc":4440,"dt":4441,"xa":4442,"ross":4443,"loss":4444,"Select":4445,"Vector":4446,"Ġchunk":4447,"Ġoperator":4448,"periment":4449,"Callback":4450,"Ġbar":4451,"Ġdefaults":4452,"cret":4453,"Method":4454,"initial":4455,"Ġcorrespon":4456,"BooleanField":4457,"gument":4458,"Ġser":4459,"arr":4460,"Ġ\"__":4461,"Ġneeded":4462,"Ġderi":4463,"Ġprofile":4464,"Web":4465,"BB":4466,"IF":4467,"database":4468,"čĊĠĠĠĠĠĠĠĠĠĠĠĠĠĠĠĠĠĠĠ":4469,"rection":4470,"cons":4471,"paths":4472,"quality":4473,"gits":4474,"Ġexit":4475,"ĠAd":4476,"Ġanother":4477,"csv":4478,"Ġplatform":4479,"Ġvalidate":4480,"ĠDOUBLE":4481,"DateTimeField":4482,"87":4483,"96":4484,"FIL":4485,"Ġraised":4486,"striction":4487,"Ġstates":4488,"PT":4489,"53":4490,"just":4491,"ned":4492,"Ġrepr":4493,"sired":4494,"Ġdimen":4495,"acked":4496,"month":4497,"ME":4498,"NA":4499,"RC":4500,"done":4501,"Ġinsert":4502,"Ġbind":4503,"ĠSIGN":4504,"``.":4505,"ĠGoogle":4506,"entity":4507,"__.":4508,"shared":4509,"ITS":4510,"'\"":4511,"MENT":4512,"protocol":4513,"Ġproperties":4514,"Attr":4515,")+":4516,"hidden":4517,"mul":4518,"ç¼":4519,"Ġcv":4520,"Ġcategory":4521,"utron":4522,"Ġden":4523,"Ġprotocol":4524,"Ġsent":4525,"Ġcallable":4526,"functions":4527,"mbedding":4528,"sequence":4529,"ĠCOP":4530,"ĠRequest":4531,"Ġadditional":4532,"culate":4533,"cloud":4534,"CA":4535,"Port":4536,"Source":4537,"mar":4538,"upper":4539,"Ġstore":4540,"private":4541,"Access":4542,"Bad":4543,"tom":4544,"lert":4545,"calar":4546,"Ġsymbol":4547,"\"\\":4548,"97":4549,"Pick":4550,"Ġ\",":4551,"flush":4552,"Ġcharacters":4553,"Gui":4554,"branch":4555,"invo":4556,"Ġgr":4557,"VERSION":4558,"Ġselected":4559,"gative":4560,"same":4561,"alle":4562,"Ġreserved":4563,"Ġbad":4564,"ĠUSE":4565,"=',":4566,"zen":4567,"()),":4568,"sha":4569,"Container":4570,"PAR":4571,"Socket":4572,"ia":4573,"socket":4574,"Ġ])":4575,"almost":4576,"urllib":4577,"Ġitera":4578,"Ġfont":4579,"Ġ14":4580,"messages":4581,"Ġvideo":4582,"mean":4583,"Ġ(_":4584,"prop":4585,"Ġallowed":4586,"æľŁ":4587,"ç¼ĸ":4588,")\",":4589,"zb":4590,"orary":4591,"chine":4592,"subprocess":4593,"compute":4594,"Ġevents":4595,"Met":4596,"ptr":4597,"}'.":4598,"STR":4599,"intern":4600,"Ġauthentic":4601,"Pa":4602,"gm":4603,"ping":4604,"ins":4605,"Ġdone":4606,"ĠLE":4607,"ĠZZ":4608,"ĠIPv":4609,",)":4610,"Target":4611,"nn":4612,"defined":4613,"ĠSe":4614,"THER":4615,"'/":4616,"pg":4617,"Ġfactory":4618,"Ġdesc":4619,"Ġunit":4620,"Ġpartition":4621,"Ġpair":4622,"ETE":4623,"Ġprevious":4624,"uted":4625,"Ġzero":4626,"aris":4627,"123":4628,"days":4629,"Ġactive":4630,"atterns":4631,"Ed":4632,"pytest":4633,"Ġbuf":4634,"reshold":4635,"Packet":4636,"(\"\\":4637,"ARK":4638,"Array":4639,"61":4640,"tio":4641,"Ġseconds":4642,"SED":4643,"Ġversionadded":4644,"[:-":4645,"Ġnamespacedef":4646,"Ġimages":4647,"Ġauthor":4648,"Logger":4649,"92":4650,"hd":4651,"ells":4652,"Ġdat":4653,"ĠDI":4654,"Parameter":4655,"inition":4656,"ĠexportLiteral":4657,"Spec":4658,"Ġ\"<":4659,"sertion":4660,"Ġmany":4661,"agraph":4662,"failed":4663,"ĠNO":4664,"Ġkeyword":4665,"Settings":4666,"_='',":4667,"IZE":4668,"CS":4669,"ook":4670,"hasContent":4671,"PC":4672,"snapshot":4673,"Ġdst":4674,"ONE":4675,"Ġsubclass":4676,"##############################################################################":4677,"98":4678,"IE":4679,"MET":4680,"uous":4681,"inv":4682,"inner":4683,"Ġremoved":4684,"utor":4685,"under":4686,"country":4687,"CThostFtdcExchange":4688,"ĊĠĠĠĠĠĠĠĠĠĠĠĠĠĠĠĠĠĠĠĠĠĠĠĠĠĠĠĠĠĠĠĠĠĠĠĠĠĠĠĠĠ":4689,"Ġswitch":4690,"41":4691,"BA":4692,"Ph":4693,"mc":4694,"tv":4695,"Ġcop":4696,"Ġ_('":4697,"Ġcomplete":4698,"targets":4699,"abspath":4700,"gis":4701,"çĶ":4702,"selected":4703,"lause":4704,"partition":4705,"INTER":4706,"ĠWhen":4707,"Ġsym":4708,"72":4709,"igrations":4710,"Ġenable":4711,"hour":4712,"ĠEV":4713,"unknown":4714,"click":4715,"ae":4716,"pto":4717,"Ġpublic":4718,"mapping":4719,"ĠCT":4720,"pose":4721,"timeError":4722,"agent":4723,"ĊĠĠĠĠĠĠĠĠĠĠĠĠĠĠĠĠĠĠĠĠĠĠĠĠĠĠĠĠĠĠĠĠĠĠĠĠĠĠĠĠĠĠĠ":4724,"sole":4725,"controller":4726,"Root":4727,"/>.":4728,"xe":4729,"æĪ":4730,"Ġlayer":4731,"integer":4732,"reference":4733,"Ġ32":4734,"ransport":4735,"docs":4736,"LOG":4737,"Ġmd":4738,"Ġequal":4739,"faces":4740,"ROOT":4741,"ĠQgs":4742,"Ġinstances":4743,"support":4744,"Failed":4745,"(%":4746,"Ġuv":4747,"ĠAl":4748,"Ġdetermin":4749,"ĠOTHER":4750,"ARY":4751,"Ġbucket":4752,"Ġword":4753,"Ġupdated":4754,"]):":4755,"fc":4756,"ycle":4757,"Ġsim":4758,"(\"/":4759,"quested":4760,"ĠMo":4761,"Ġcursor":4762,"ski":4763,"Ġencoded":4764,"PY":4765,"interval":4766,"staticmethod":4767,"Ġevalu":4768,"Ġdownload":4769,"gregate":4770,"]+":4771,"native":4772,"uest":4773,"ateri":4774,"ctor":4775,"ĠApp":4776,"INFO":4777,"hostname":4778,"Ġusers":4779,")\"\"\"":4780,"Multi":4781,"arrow":4782,"Ġschema":4783,"Ġgl":4784,"ĠUp":4785,"Ġshort":4786,"70":4787,"ide":4788,"where":4789,"ĠĊĠĠĠĠĠĠĠĠĠĠĠ":4790,"ane":4791,"Ġpacket":4792,"Ġeq":4793,"ĠIMP":4794,"Ġpartner":4795,"Ġtermin":4796,"Cl":4797,"\\.":4798,"]*":4799,"']\"}),":4800,"Ġexpr":4801,"commands":4802,"WORD":4803,"pipeline":4804,"star":4805,"ĠST":4806,"home":4807,"Pri":4808,"WS":4809,"second":4810,"atten":4811,"Ġreason":4812,"ollow":4813,"Ġparsed":4814,"depth":4815,"assifier":4816,"adding":4817,"LECT":4818,"CThostFtdcReq":4819,"imer":4820,"executable":4821,"Rel":4822,"vol":4823,"ural":4824,"Ġplot":4825,"combo":4826,"cluster":4827,"ĊĉĠ":4828,"Ġdivision":4829,"reduce":4830,"1234":4831,"Resource":4832,"Ġchildren":4833,"ragment":4834,"Ġoccur":4835,"82":4836,"Make":4837,"TIME":4838,"drop":4839,"two":4840,"Ġ'{":4841,"cookie":4842,"condition":4843,"Ġdecode":4844,"posix":4845,"Ġupload":4846,"atible":4847,"Ġusage":4848,"Cache":4849,"85":4850,"Imp":4851,"cm":4852,"è¡":4853,"reader":4854,"ections":4855,"unic":4856,"']))":4857,"LIED":4858,"$',":4859,"gments":4860,"Ġec":4861,"ĠĠĠĠĠĠĠĠĠĠĠĠ":4862,"gether":4863,"ĠTh":4864,"ĠCourse":4865,"agement":4866,"1111":4867,"Password":4868,"yaml":4869,"ueue":4870,"unpack":4871,"issue":4872,"ĠAbstract":4873,"ĠDAM":4874,"xxxx":4875,"warnings":4876,"seconds":4877,"Ġtr":4878,"lide":4879,"('--":4880,"ĠSP":4881,"vey":4882,"Ġfeatures":4883,"compiler":4884,"LA":4885,"You":4886,"Ġutil":4887,"Ġ_,":4888,"amily":4889,"ĠLIMIT":4890,"CHE":4891,"Ġtokens":4892,"Ġsympy":4893,"havior":4894,"hort":4895,"Ġseq":4896,"ĠOr":4897,"IPE":4898,"Ġmapper":4899,"Ġlinks":4900,"free":4901,"publish":4902,"Ġpop":4903,"lack":4904,"ĠRedistribu":4905,"Layer":4906,"EVT":4907,"[^":4908,"rb":4909,"tification":4910,"peed":4911,"Ġenti":4912,"Ġalgorithm":4913,"UTH":4914,"Ġexplicit":4915,"Bytes":4916,"gid":4917,"æĹ":4918,"att":4919,"mpt":4920,"Ġaccept":4921,"Ġrows":4922,"reshape":4923,"FORMAT":4924,"Obj":4925,"cfg":4926,"amo":4927,"ĠLog":4928,"Ġensure":4929,"double":4930,"Validator":4931,"Thread":4932,"ĠIMPLIED":4933,"hello":4934,"Ġmenu":4935,"moves":4936,"ATA":4937,"Ġoutstr":4938,"Exten":4939,"internal":4940,")',":4941,"cir":4942,"lr":4943,"sync":4944,"vlan":4945,"arge":4946,"boolean":4947,">>>":4948,"views":4949,"51":4950,"Template":4951,"undle":4952,"Length":4953,"payload":4954,"scribe":4955,"Ġappend":4956,"super":4957,"matically":4958,"draw":4959,"wis":4960,"cols":4961,"sian":4962,"heet":4963,"Ġapply":4964,"baz":4965,"bb":4966,"custom":4967,"ev":4968,"wards":4969,"term":4970,"001":4971,"agic":4972,"Ġhosts":4973,"Ġchanges":4974,"Ġtransform":4975,"supported":4976,"sources":4977,"stics":4978,"fixture":4979,"Ġmat":4980,"Ġwin":4981,"ĠBUT":4982,"rappe":4983,"events":4984,"Ġopenerp":4985,":\\":4986,"Cho":4987,"EC":4988,"Font":4989,"oted":4990,"Ġtool":4991,"conv":4992,"Ġwere":4993,"Ġexpect":4994,"Ġneeds":4995,"ĠLOG":4996,"Script":4997,"xc":4998,"alpha":4999,"Ġpe":5000,"ĠPre":5001,"ffect":5002,"estimator":5003,"Ġsubject":5004,"rong":5005,"arison":5006,".\",":5007,"bc":5008,"gress":5009,"Ġblank":5010,"lain":5011,"Ġround":5012,"available":5013,"suffix":5014,"FLAGS":5015,"æīĢ":5016,"81":5017,"Graph":5018,"ga":5019,"Ġmanager":5020,"pare":5021,"Ġ00":5022,"Ġstats":5023,"Instrument":5024,"ĠUN":5025,"Ġcluster":5026,"Delete":5027,"Ġcommit":5028,"Ġextensions":5029,"ĠLIMITED":5030,"lon":5031,"åį":5032,"Ġrequires":5033,"tras":5034,"spatch":5035,"Ġmean":5036,"Ġxrange":5037,"Ġpytest":5038,"Ġspecial":5039,"Ġcontainer":5040,"framework":5041,"Ġexceptions":5042,"(\"\"\"":5043,"Ġthose":5044,"distance":5045,"Ġ(%":5046,"Ġissue":5047,"logging":5048,"currency":5049,"Ġbackend":5050,"ighbors":5051,"ç¼ĸåı·":5052,"lt":5053,"Ġ[-":5054,"Ġdev":5055,"ocab":5056,"correct":5057,"pick":5058,"Ġtrack":5059,"elements":5060,"browse":5061,"My":5062,"png":5063,"asy":5064,"testing":5065,"ĠAR":5066,"Ġmemory":5067,"transform":5068,"Description":5069,"curement":5070,"ope":5071,"sleep":5072,"bosity":5073,"Ġ60":5074,"TEXT":5075,"Elements":5076,"metric":5077,"original":5078,"Write":5079,"flag":5080,"Ġ//":5081,"analy":5082,"come":5083,"ĠSy":5084,"pository":5085,"Ġvia":5086,"ĠCommand":5087,"Ġwritten":5088,"Ġhook":5089,"Ġstructure":5090,"Ġpkg":5091,"Dist":5092,"SA":5093,"cing":5094,"inja":5095,"Ġops":5096,"Ġindent":5097,"Ġwrapper":5098,"Ġhigh":5099,"Ġgrid":5100,"angle":5101,"Edge":5102,"meth":5103,"Ġpoly":5104,"Ġtab":5105,"chunk":5106,"ough":5107,"Dialog":5108,"ĠQtCore":5109,"dns":5110,"dims":5111,"ATTR":5112,"trace":5113,"ĊĠĠĠĠĠĠĠĠĠĠĠĠĠĠĠĠĠĠĠĠĠĠĠĠĠĠĠĠĠĠĠĠĠĠĠĠĠĠĠĠĠĠ":5114,"Ġignored":5115,")*":5116,"Sync":5117,"tty":5118,"setdefault":5119,"compat":5120,"Ġrole":5121,"sorted":5122,"structDict":5123,"when":5124,"center":5125,">',":5126,"iform":5127,"lineno":5128,"Color":5129,"ĠCThostFtdc":5130,"63":5131,"73":5132,"GR":5133,"Range":5134,"Ġreset":5135,"Ġscore":5136,"Ġdriver":5137,"apps":5138,"reater":5139,"DIFF":5140,"Trading":5141,"normal":5142,"Ġpickle":5143,"ĠWindows":5144,"assign":5145,"Ġ(-":5146,"isinstance":5147,"ipv":5148,"Ġ42":5149,"Ġprovider":5150,"Ġmacro":5151,"Has":5152,"tz":5153,"Ġentries":5154,"ĠSub":5155,"Ġmost":5156,"eek":5157,"iteritems":5158,"before":5159,":`~":5160,"CR":5161,"Flag":5162,"VID":5163,"ork":5164,"ram":5165,"quare":5166,"LED":5167,"ĠExtended":5168,"Ġcurrently":5169,"********************************":5170,"CRE":5171,"dc":5172,"Ġgot":5173,"Ġmeans":5174,"Ġpool":5175,"Ġcompute":5176,"expect":5177,"Ġtempfile":5178,"è¡Į":5179,"Rsp":5180,"cidr":5181,"dummy":5182,"lat":5183,"ä¸":5184,"inp":5185,"Ġfi":5186,"units":5187,"vide":5188,"ressed":5189,"ĠMA":5190,"umeric":5191,"operator":5192,"VALUE":5193,"Ġcollections":5194,"ĠLIABILITY":5195,"83":5196,"System":5197,"details":5198,"Ġpid":5199,"Ġuint":5200,"rence":5201,"Ġstatement":5202,"Unless":5203,"rozen":5204,"ĠTree":5205,"Ġconstructor":5206,"house":5207,"cessary":5208,"ĠBy":5209,"Ġpermission":5210,"images":5211,"Quote":5212,"Ġpackages":5213,"èµ":5214,"Ġimplemented":5215,"gettext":5216,"Ġstill":5217,"Provider":5218,"mapper":5219,"firm":5220,"PIPE":5221,"big":5222,"xf":5223,"ĠAc":5224,"Ġ<<":5225,"osv":5226,"team":5227,"fies":5228,"ading":5229,"Ġresources":5230,"curses":5231,"Ġsupp":5232,"Ġactiv":5233,"Plugin":5234,"Import":5235,"Min":5236,"rive":5237,"\"\"\")":5238,"Const":5239,"expand":5240,"FIX":5241,"Ġ-------":5242,"ĠDjango":5243,"Ġleast":5244,"Ġtimestamp":5245,"Ġoutputs":5246,"Ġinstalled":5247,"Feed":5248,"effect":5249,"dash":5250,"ĊĊĠĠĠĠĠĠĠĠĠĠĠĠĠĠĠĠĠĠĠ":5251,"Ġ----------------------------------------------------------------":5252,"lap":5253,"parsed":5254,"Reference":5255,"Ġlock":5256,"Ġlower":5257,"Selection":5258,"Ġfolder":5259,"Ġactions":5260,"Ġrules":5261,"disable":5262,"1000":5263,"ied":5264,"Ġrelation":5265,"Ġduring":5266,"packet":5267,"Ġep":5268,"Ġdesired":5269,"Ġprop":5270,"scal":5271,"Ġans":5272,"Ġlet":5273,"sock":5274,"62":5275,"800":5276,"93":5277,"Empty":5278,"Iter":5279,"}\".":5280,"uess":5281,"Ġvm":5282,"Ġgenerator":5283,"Ġworks":5284,"Ġdirectly":5285,"wisted":5286,".',":5287,"94":5288,"Hex":5289,"Python":5290,"ceive":5291,"listen":5292,"ĠIO":5293,"mbers":5294,"Ġattempt":5295,"omial":5296,"StringIO":5297,"Ġsklearn":5298,"ĠStringIO":5299,"Ġaliases":5300,"Ġcorresponding":5301,"raries":5302,"perly":5303,"ĠDIS":5304,"Ġansw":5305,"bob":5306,"Ġcalls":5307,"NotFound":5308,"localhost":5309,"Ġprimary":5310,"Ġprivate":5311,"plugins":5312,"äº¤æĺĵæīĢ":5313,"Rate":5314,"cancel":5315,"fr":5316,"ian":5317,"serve":5318,"Ġhref":5319,"Ġ13":5320,"ĠFROM":5321,"ĠDis":5322,"Sequence":5323,"amount":5324,"dst":5325,"fname":5326,"rup":5327,"media":5328,"locale":5329,"itor":5330,"pow":5331,"Ġuntil":5332,"company":5333,"Ġshutil":5334,"ferred":5335,"Ġsafe":5336,"MAP":5337,"duration":5338,"vec":5339,"Ġrelease":5340,"Ġwarning":5341,"small":5342,"Offset":5343,".)":5344,"/'":5345,"Margin":5346,"Norm":5347,"uction":5348,"uting":5349,"pear":5350,"appen":5351,"Ġtargets":5352,"Ġcharacter":5353,"ĠTHIS":5354,",),":5355,"Su":5356,"seed":5357,"apter":5358,"ower":5359,"isect":5360,"begin":5361,"[:]":5362,"Schema":5363,"revision":5364,"ANS":5365,"DEBUG":5366,"ĊĠĠĠĠĠĠĠĠĊĠĠĠ":5367,"IBUT":5368,"èµĦ":5369,"FN":5370,"Sty":5371,"student":5372,"Ġmight":5373,"')]":5374,"Ġlocale":5375,"Ġyet":5376,"ONT":5377,"creen":5378,"Ġ&',":5379,"MAX":5380,"Params":5381,"åħ¬":5382,",\\":5383,"SIZE":5384,"cnt":5385,"ĠError":5386,"align":5387,"raction":5388,"Ġassign":5389,"Ġmav":5390,"Loader":5391,"Layout":5392,"Admin":5393,"LINE":5394,"ii":5395,"vis":5396,"alk":5397,"Ġsq":5398,"digest":5399,"Ġboto":5400,"Ġ17":5401,"lations":5402,"ĠLIC":5403,"Proxy":5404,"rank":5405,"IPT":5406,"tives":5407,"Transfer":5408,"Store":5409,"Bank":5410,"gle":5411,"ident":5412,"yment":5413,"()):":5414,"Ġ1000":5415,"ipy":5416,"Ġonce":5417,"ĠReg":5418,"fixed":5419,"browser":5420,"kip":5421,"ĠĊĠĠĠĠĠĠĠ":5422,"ĠĠĠĠĠĠĠĠĠĠĠĠĠ":5423,"testType":5424,"ĠMode":5425,"Ġversions":5426,"ness":5427,"Ġmatching":5428,"choice":5429,"ĠNotes":5430,"GE":5431,"OO":5432,"SO":5433,"Ġ'*":5434,"252":5435,"Enable":5436,"summary":5437,"Ġsuffix":5438,"Ġdelta":5439,"mediate":5440,"ĠExtendedContext":5441,"ĠLICENSE":5442,"lev":5443,"Ġfill":5444,"Ġsnapshot":5445,"lict":5446,"parameter":5447,"Ġmove":5448,"ĠInput":5449,"calls":5450,"EXT":5451,"lavor":5452,"history":5453,"ni":5454,"nail":5455,"pus":5456,"Ġ\")":5457,"Ġsig":5458,"named":5459,"Ġtesting":5460,"ITE":5461,"0101":5462,"umbnail":5463,"Ġworld":5464,"TextField":5465,"NS":5466,"rees":5467,"tected":5468,"Ġspace":5469,"assertNot":5470,"chemy":5471,"region":5472,"Ġregion":5473,"generator":5474,"Ġetc":5475,"identity":5476,"Ġagainst":5477,"Picker":5478,"æĪ·":5479,"gy":5480,"pted":5481,"inc":5482,"Ġ'&":5483,"Ġanaly":5484,"Ġvpc":5485,"ĠHe":5486,"expression":5487,"otes":5488,"Ġspa":5489,"###":5490,"romium":5491,"Ġdeprecated":5492,"Files":5493,"ĠRuntimeError":5494,"YRIGHT":5495,"COMMAND":5496,"selection":5497,"Ġslice":5498,"ssl":5499,"Ġfilenames":5500,"Ġperform":5501,"registry":5502,"Ġconnect":5503,"CODE":5504,"Ġfilters":5505,"Ð°":5506,"sim":5507,"Ġstat":5508,"Ġcomb":5509,"vely":5510,"running":5511,"FilePath":5512,"Search":5513,"factor":5514,"Ġ2012":5515,"ĠJSON":5516,"Ġmerge":5517,"Url":5518,"\\'":5519,"game":5520,"ites":5521,"once":5522,"roy":5523,"cture":5524,"åı¸":5525,"Operation":5526,"åħ¬åı¸":5527,"ftime":5528,"Ġplay":5529,"Ġast":5530,"Ġchain":5531,"ĊĉĉĊĉ":5532,"achine":5533,"AGES":5534,"Policy":5535,"extensions":5536,"Ġprovide":5537,"cwd":5538,"gui":5539,"ible":5540,"vas":5541,"enu":5542,"enum":5543,"shift":5544,"ĠInter":5545,"Ġboolean":5546,"Ġverify":5547,"LOCK":5548,"UND":5549,"Ġrepresenting":5550,"DELETE":5551,"NAM":5552,"vc":5553,"}}":5554,"secret":5555,"Ġproxy":5556,"dence":5557,"ĠIndex":5558,"Ġ{})":5559,"callable":5560,"tasks":5561,"Ġcases":5562,"assertAllEqual":5563,"å®":5564,"è´":5565,"deprecated":5566,"aller":5567,"ĠOUT":5568,"ĠGroup":5569,"Ġheight":5570,"translation":5571,"New":5572,"edi":5573,"glob":5574,"kind":5575,"Ġ).":5576,"Ġ'#":5577,"Ġ>',":5578,"čĊčĊĠĠĠĠĠĠĠ":5579,"ĠQu":5580,"OrderActionField":5581,"Ġautomatically":5582,"variance":5583,"gateway":5584,"ĠOptional":5585,"ĠCOPYRIGHT":5586,"az":5587,"gger":5588,"æł":5589,"attach":5590,"Ġ\"[":5591,"Ġok":5592,"()]":5593,"ĠText":5594,"apply":5595,"ĠBu":5596,"DATE":5597,"Float":5598,"MIN":5599,"ords":5600,"lip":5601,"Ġmasked":5602,"external":5603,"ĠSource":5604,"prod":5605,"boot":5606,"ĠNe":5607,"Channel":5608,"TypeId":5609,"Ġnote":5610,"Def":5611,"(_(\"":5612,"Ġnormal":5613,"Ġincluded":5614,"Ġpacked":5615,"ulation":5616,"__()":5617,"person":5618,"Ġwords":5619,"_%":5620,"pdf":5621,"Ġpol":5622,"spect":5623,"Ġdisk":5624,"Ġord":5625,"Ġnecessary":5626,"Stack":5627,"Email":5628,"nc":5629,"sn":5630,"ä¿":5631,"anization":5632,"resses":5633,"ips":5634,"Ġperson":5635,"ached":5636,"ynam":5637,"DD":5638,"tect":5639,"teration":5640,"descriptor":5641,"Ġdt":5642,"Ġelem":5643,"Ġprecision":5644,"rowser":5645,"ĠXML":5646,"Ġvirt":5647,"contains":5648,"Level":5649,":])":5650,"scheme":5651,"ond":5652,"cores":5653,"__\":":5654,"Ġ255":5655,"ĠOther":5656,"Ġenabled":5657,"Ġlang":5658,"ĠInvalid":5659,"Ġmodified":5660,"Ġarchive":5661,"Ġpur":5662,"Ġstorage":5663,"prob":5664,"Ġprob":5665,"Ġlisten":5666,"Ġextract":5667,"Ġowner":5668,"Foo":5669,"MB":5670,"OW":5671,"ier":5672,"Ġisn":5673,"Ġdistance":5674,"Ġ23":5675,"ĠVER":5676,"signature":5677,"Ġsignature":5678,"=\"\"":5679,"arange":5680,"Ġregex":5681,"ris":5682,"about":5683,"=\"%":5684,"dates":5685,"aving":5686,"tables":5687,"567":5688,"Ġsuite":5689,"Ġincluding":5690,"derer":5691,"titem":5692,"Ġsetattr":5693,"ĠRIGHT":5694,"suite":5695,"XXXX":5696,"ĠWeb":5697,"Checker":5698,"æĬķ":5699,"ĠLEFT":5700,"çĶ¨":5701,"ai":5702,"should":5703,"stage":5704,"Ġscale":5705,"__.__":5706,"ĠTemplate":5707,"Ġproto":5708,"yspark":5709,"ĠWH":5710,"Exit":5711,"Ġtimes":5712,"Ġtraceback":5713,"failure":5714,"Ġworking":5715,"transport":5716,"éĩĳ":5717,"Style":5718,"IST":5719,"multiple":5720,"tod":5721,"Ġstored":5722,"ĠBE":5723,"ĠThese":5724,"ARCH":5725,"notify":5726,"Product":5727,"ICAL":5728,"Directory":5729,"astype":5730,"300":5731,"DU":5732,"Fail":5733,"Machine":5734,"Sup":5735,"city":5736,"pan":5737,"oriz":5738,"Ġwrap":5739,"ilar":5740,"REQU":5741,"nsure":5742,"GER":5743,"wn":5744,"tili":5745,"lid":5746,"Ġbelow":5747,"timer":5748,"Ġloss":5749,"DataFrame":5750,"StateSet":5751,"Load":5752,"Mapper":5753,"FR":5754,"Future":5755,"II":5756,"tabs":5757,"čĊĉĉ":5758,"detail":5759,"environment":5760,"ĊĠĠĠĠĠĠĠĠĠĠĠĠĊĠĠĠĠĠĠĠĠĠĠĠ":5761,"Ġput":5762,"velop":5763,"submit":5764,"priate":5765,"symbols":5766,"ĠGeo":5767,"'d":5768,"(':":5769,"router":5770,"Ġrest":5771,"ulate":5772,"isdir":5773,"Ġlate":5774,"Ġlogin":5775,"Could":5776,"8859":5777,"Prefix":5778,"HTMLEqual":5779,"Ġanswer":5780,"91":5781,"Writer":5782,"getLogger":5783,"ĠImage":5784,"mox":5785,"templates":5786,"ĊĠĠĠĠĠĠĠĠĠĠĠĠĠĠĠĠĠĠĠĠĠĠĠĠĠĠĠĠĠĠĠĠĠĠĠĠĠĠĠĠĠĠĠĠĠĠ":5787,"Trade":5788,"Ġviews":5789,"Only":5790,"([\"":5791,"Day":5792,"break":5793,"Ġcs":5794,"absent":5795,"ĠTag":5796,"found":5797,"fully":5798,"Ġsomething":5799,"cert":5800,"Ġassume":5801,"metrics":5802,"åįķ":5803,"FE":5804,"Op":5805,"ike":5806,"izer":5807,"Ġinvo":5808,"sib":5809,"ands":5810,"laimer":5811,"\")),":5812,"fast":5813,"Ġattach":5814,"layers":5815,"Standard":5816,"Ġtuples":5817,"polymorphic":5818,"hn":5819,"wrapper":5820,"deleted":5821,"alf":5822,"Ġidenti":5823,"unct":5824,"assertHTMLEqual":5825,"versions":5826,"compress":5827,"Ġkind":5828,"Ġ600":5829,"Ġnumbers":5830,"Ġrepository":5831,"'%":5832,")\\":5833,"follow":5834,"rtype":5835,"åĪ":5836,"Ġquestion":5837,"ĠTensor":5838,"ĠIs":5839,"Inf":5840,"pendent":5841,"compare":5842,"Ġconstants":5843,"COL":5844,"handlers":5845,"Ġactually":5846,"literals":5847,"+\"":5848,"Rule":5849,"em":5850,"lst":5851,"tb":5852,"Ġescape":5853,"requen":5854,"ced":5855,"counter":5856,"']\",":5857,"amma":5858,"ĊĉĊ":5859,"licate":5860,"Ġknown":5861,"2014":5862,"2001":5863,"OLDER":5864,"IBUTORS":5865,"(',":5866,"jar":5867,"spark":5868,"ĠValid":5869,"atype":5870,"Ġfd":5871,"rac":5872,"Ġconstruct":5873,"precation":5874,"Lock":5875,"SV":5876,"So":5877,"}.":5878,"Ġedge":5879,"Ġrecur":5880,"geo":5881,"Ġmigrations":5882,"omment":5883,"128":5884,"special":5885,"Ġthreading":5886,"Ġtmpl":5887,"!!!!!!!!":5888,"BrokerID":5889,"Ġdisclaimer":5890,"inheritance":5891,"Driver":5892,"Queue":5893,"fb":5894,"Ġcgl":5895,"Ġfit":5896,"Ġblah":5897,"Ġdraw":5898,"conver":5899,"formed":5900,"SELECT":5901,"constants":5902,"requirements":5903,"/')":5904,"card":5905,"ever":5906,"sf":5907,"ril":5908,"Ġwell":5909,"Ġbehavior":5910,"findall":5911,"duction":5912,".\\":5913,"SK":5914,"bisect":5915,"sess":5916,"Ġio":5917,"etri":5918,"ssh":5919,"lso":5920,"ĠDummy":5921,"ĠThere":5922,"Ġ50":5923,"ROUP":5924,"authors":5925,"sgi":5926,"DIRECT":5927,"Args":5928,"Ġ2013":5929,"_():":5930,"tn":5931,"utc":5932,"exclude":5933,"INCLUDING":5934,"ird":5935,"ograph":5936,"cording":5937,"Enabled":5938,"foreign":5939,"Author":5940,"seek":5941,"Ġappropriate":5942,"ECT":5943,"cut":5944,"yes":5945,"meter":5946,"Ġnd":5947,"cos":5948,"raft":5949,"isfile":5950,"paragraph":5951,"heb":5952,"lists":5953,"Ġseen":5954,"imit":5955,"Types":5956,"CThostFtdcRsp":5957,"Ġsite":5958,"Ġsupports":5959,"crypt":5960,"ĠCONTRIBUTORS":5961,"Menu":5962,"Ġremain":5963,"sitions":5964,"Ġhome":5965,"ORIZ":5966,"Profile":5967,"Ġknow":5968,"Ġbox":5969,"Ġexecute":5970,"71":5971,"Cre":5972,"Middleware":5973,"former":5974,"phase":5975,"Ġplat":5976,"Byte":5977,"Ġdirectories":5978,"Ġtakes":5979,"Ġrepe":5980,"cod":5981,"exe":5982,"istration":5983,"\"]:":5984,"Ġchecks":5985,"Timeout":5986,"variant":5987,"DEFIN":5988,"ynamic":5989,"Hash":5990,"Ren":5991,"bd":5992,"ĠValue":5993,"expi":5994,"setting":5995,"Ġdeleted":5996,"calendar":5997,"sqrt":5998,"HOST":5999,")}":6000,")**":6001,"dup":6002,"hand":6003,"scheduler":6004,"Ġes":6005,"Ġavoid":6006,"')[":6007,"Ġdrop":6008,"ĠSpec":6009,"ĠMan":6010,"Ġfromsubclass":6011,"archive":6012,"specific":6013,"Unexpected":6014,"ç»ı":6015,"*.":6016,"uses":6017,"Ġlayout":6018,"argo":6019,"ĊĠĠĠĠĠĠĠĠĠĠĠĠĠĠĠĠĠĠĠĠĠĠĠĠĠĠĠĠĠĠĠĠĠĠĠĠĠĠĠĠĠĠĠĠĠ":6020,"MODE":6021,"Generator":6022,"period":6023,"efficient":6024,"~~~~~~~~":6025,")(":6026,"Next":6027,"NOT":6028,"]+)":6029,"pub":6030,"xd":6031,"éĵ":6032,"algorithm":6033,"arab":6034,"Ġ':":6035,"iling":6036,"(\"-":6037,"scan":6038,"accept":6039,"comments":6040,"Ġside":6041,"``,":6042,"buildAttributes":6043,"ĊĠĠĠĠĠĠĠĠĠĠĠĠĠĠĠĠĠĠĠĠĠĠĠĠĠĠĠĠĠĠĠĠĠĠĠĠĠĠĠĠĠĠĠĠĠĠĠĠĠĠĠĠĠĠĠĠĠĠĠĠ":6044,"exportAttributes":6045,"exportLiteralAttributes":6046,"exportLiteralChildren":6047,"Changed":6048,"Ġiterable":6049,"Metadata":6050,"éĵ¶":6051,"Na":6052,"hy":6053,"ªåħ¬åı¸":6054,"inte":6055,"Ġrev":6056,"Ġrecords":6057,"ribu":6058,"ulk":6059,"itle":6060,"ĠRead":6061,"Ġmaximum":6062,"Ġtrace":6063,"rules":6064,"Ġown":6065,"çºªåħ¬åı¸":6066,"Ġderived":6067,"ç»ıçºªåħ¬åı¸":6068,"See":6069,"afi":6070,"cate":6071,"Ġscalar":6072,"Ġcons":6073,"Ġcontrib":6074,"ĠSystem":6075,"....":6076,"subset":6077,"gration":6078,"Trace":6079,"CONT":6080,"merge":6081,")')":6082,"Popen":6083,"TF":6084,"ansible":6085,"Ġfix":6086,"ros":6087,"coeff":6088,"radius":6089,"forward":6090,"FIEL":6091,"grp":6092,"divid":6093,"Choice":6094,"wri":6095,"ernel":6096,"getattr":6097,"Ġexact":6098,"ĠMeta":6099,"ĠNet":6100,"Ġnegative":6101,"translate":6102,"atibility":6103,"Local":6104,"existing":6105,"\"+":6106,"Ã©":6107,"alth":6108,"Ġcb":6109,"Ġinp":6110,"disk":6111,"configuration":6112,"999":6113,"ADD":6114,"arabic":6115,">')":6116,"BX":6117,"Lib":6118,"WI":6119,"identifier":6120,"vector":6121,"dead":6122,"Ġcap":6123,"Ġ\"\",":6124,"dian":6125,"abstract":6126,"ĠAC":6127,"partial":6128,"Ġedit":6129,"Ġbest":6130,"([(":6131,"updated":6132,"Ġshell":6133,"tinuous":6134,"href":6135,"jor":6136,"Ġcat":6137,"Ġclear":6138,"Ġinternal":6139,"ĠTime":6140,"edx":6141,"Ġhappen":6142,"laces":6143,"Ġgithub":6144,"Ġraises":6145,"Ġcompiler":6146,"price":6147,"Argument":6148,"ilities":6149,"(?:":6150,"Ġappear":6151,"Cell":6152,"LEN":6153,"linux":6154,"heel":6155,"pokemon":6156,"Ġmedia":6157,"Ġengine":6158,"ticket":6159,"logy":6160,"processor":6161,"identical":6162,"OB":6163,"ited":6164,"Ġ64":6165,"eries":6166,"Ġsl":6167,"Ġsur":6168,"Ġsources":6169,"Ġsync":6170,"Ġspark":6171,"together":6172,"======":6173,"strings":6174,"Ġlists":6175,"ront":6176,"plus":6177,"Encoder":6178,"pages":6179,"sistent":6180,"rillic":6181,"Clean":6182,"FC":6183,"lots":6184,"Ġdump":6185,"istered":6186,"Ġhex":6187,"ARD":6188,"dentity":6189,"cpu":6190,"slug":6191,"elem":6192,"Ġpip":6193,"Remove":6194,"ĠBY":6195,"ORY":6196,"Ġshared":6197,"Ġprocessing":6198,"certain":6199,"Ġwidgets":6200,"ĠQtGui":6201,"NING":6202,"beta":6203,"zil":6204,"onts":6205,"stimator":6206,"dialog":6207,"Ġexternal":6208,"Ġdependencies":6209,"codes":6210,"ĠNumber":6211,"transaction":6212,"Bitmap":6213,"ĠIOError":6214,"Use":6215,"final":6216,"slice":6217,"èĢ":6218,"mes":6219,"ero":6220,"ĠAlso":6221,"ational":6222,"subject":6223,"actual":6224,"Record":6225,"ĠPoint":6226,"wiki":6227,"ĠOSError":6228,"èĢħ":6229,"500":6230,"SQL":6231,"embed":6232,"gree":6233,"Ġidentifier":6234,"road":6235,"Ġpd":6236,"='',":6237,"answer":6238,"([])":6239,"Ġprev":6240,"formats":6241,"ynch":6242,"ĠXXX":6243,"posal":6244,"HEAD":6245,"ĠRaises":6246,"Hello":6247,"Temp":6248,"dtypes":6249,"Ġmime":6250,"struction":6251,"Ġqs":6252,"Num":6253,"Sparse":6254,"UID":6255,"arDown":6256,"ceed":6257,"dimen":6258,"ĠSh":6259,"quet":6260,"Ġalign":6261,"ENCE":6262,"Ġshift":6263,"widgets":6264,"ĠUpdate":6265,"Extension":6266,"afii":6267,"404":6268,"EB":6269,"GT":6270,"\\\"":6271,"oms":6272,"titions":6273,"utors":6274,"itu":6275,"setUp":6276,"Ġdescriptor":6277,"ĠDB":6278,"ysql":6279,"cached":6280,"Ġroute":6281,"neighbors":6282,"gral":6283,"assertIsInstance":6284,"Ġstrip":6285,"Jo":6286,"Ne":6287,"gent":6288,"zes":6289,"orrent":6290,"urlo":6291,"Ġ24":6292,"ĠBSD":6293,"quiv":6294,"NetDevice":6295,"èµĦèĢħ":6296,"æĬķèµĦèĢħ":6297,"gon":6298,"multip":6299,"push":6300,"ĠĠĠĠĠĠĠĠĠĠĠĠĠĠĠ":6301,"Ġbasic":6302,"Ġprocurement":6303,"bounded":6304,"refresh":6305,"Ġinterval":6306,"56789":6307,"Http":6308,"mall":6309,"lier":6310,"clone":6311,"cesses":6312,"Ġcodecs":6313,"Ġprovides":6314,"swig":6315,"underscore":6316,"ĠRedistributions":6317,"Cancel":6318,"Rou":6319,"numpy":6320,"tile":6321,"Ġreferences":6322,"urtle":6323,"unexpected":6324,"Ġlow":6325,"configure":6326,"Ġcredentials":6327,"=('":6328,"Course":6329,"nw":6330,"ple":6331,"rst":6332,"Ġrequested":6333,"ulator":6334,"')))":6335,"('_":6336,"Ġds":6337,"____":6338,"Ġhelper":6339,"Regex":6340,"ĠReserved":6341,"Ġtimer":6342,"plt":6343,"PEC":6344,"LIB":6345,"FaON":6346,"FaNN":6347,"repository":6348,"Ġgradient":6349,"è¯ģ":6350,"requency":6351,"dividual":6352,"Help":6353,"SG":6354,"udio":6355,"Ġir":6356,"enium":6357,"Ġdefine":6358,"Ġofp":6359,"ĠCode":6360,"filepath":6361,"props":6362,"permissions":6363,"Ġvector":6364,"RED":6365,"ĠUP":6366,"validation":6367,"INGLE":6368,"authentic":6369,"arguments":6370,"lexible":6371,"PRESS":6372,"builtin":6373,"åĲĪ":6374,"PDF":6375,"separ":6376,"stone":6377,"Ġdefinition":6378,"ables":6379,"endor":6380,"]).":6381,"Ġrouter":6382,"Ġcalcul":6383,"ordinates":6384,"Ġmetric":6385,"SIGN":6386,"ateway":6387,"chrome":6388,"Ġ{%":6389,"strftime":6390,"Ġchecked":6391,"pie":6392,"2015":6393,"Stock":6394,"ĠOnly":6395,"ĠHttpResponse":6396,"ĠEVENT":6397,"Ġsupplied":6398,"Can":6399,"JECT":6400,"Lin":6401,"SIG":6402,"Ġ\"_":6403,"Ġ#:":6404,"Ġ()":6405,"ĠTra":6406,"contact":6407,"verification":6408,"ĠAnd":6409,"resolve":6410,"Redirect":6411,"Ġendpoint":6412,"ridge":6413,"Ġimg":6414,"Suite":6415,".],":6416,"Sample":6417,"lab":6418,"middleware":6419,"vl":6420,"å¿":6421,"Ġicon":6422,"Ġfmt":6423,"proj":6424,"Ġresolve":6425,"acquire":6426,"012":6427,"READ":6428,"okies":6429,"Ġexecutable":6430,"ĠPROVID":6431,"ĠDAMAGES":6432,"ORIZONT":6433,"JSON":6434,"ele":6435,"icon":6436,"čĊĠĠĠĠĠĠĠĠ":6437,"retry":6438,"requires":6439,"dependencies":6440,"async":6441,"Ġpix":6442,"Ġinside":6443,"ĠSE":6444,"appa":6445,"ERP":6446,"ĠDate":6447,"ario":6448,"Positive":6449,"Ġexecution":6450,"ntaxError":6451,"tude":6452,"ORIZONTAL":6453,"BE":6454,"Mapping":6455,"ays":6456,"ascript":6457,"Ġinner":6458,"lider":6459,"rable":6460,"Ġexclude":6461,"Ġunpack":6462,"Ġhead":6463,"Verify":6464,"caten":6465,"OOF":6466,"pure":6467,"sses":6468,"Ġqui":6469,"']})":6470,"fromHex":6471,"Ġyear":6472,"ETHER":6473,"Ġcols":6474,"priority":6475,"ToMany":6476,"ĠTests":6477,"192":6478,"which":6479,"FaOOF":6480,"operation":6481,"æłĩ":6482,"FaOOFa":6483,"\"})":6484,"TICAL":6485,"_[":6486,"tar":6487,"inclu":6488,"delay":6489,"Ġ\"\")":6490,"Ġedi":6491,"Ġloader":6492,"Ġyaml":6493,"placeholder":6494,"avascript":6495,"ashes":6496,"Ġconstraint":6497,"ĠINCLUDING":6498,"facts":6499,"Ġrendered":6500,"hooks":6501,"WISE":6502,"best":6503,"ru":6504,"}/":6505,"Ġrevision":6506,"extras":6507,"Ġui":6508,"Ġcomple":6509,"Ġproblem":6510,"ĠNULL":6511,"Pool":6512,"series":6513,"Ġthreads":6514,"decimal":6515,"cremental":6516,"survey":6517,"Ġcopies":6518,",\"":6519,"IVE":6520,"LC":6521,"SY":6522,"mu":6523,"comb":6524,"vif":6525,"ĠDist":6526,"zeug":6527,"licked":6528,"Ġvtk":6529,"Ġmail":6530,"Ġnothing":6531,"Unable":6532,"DOC":6533,"ĠState":6534,"generic":6535,"installed":6536,"afe":6537,"kzeug":6538,"sin":6539,"writer":6540,"Ġtenant":6541,"records":6542,"Ġtm":6543,"Ġ19":6544,"Ġexpi":6545,"Ġdigits":6546,"Reader":6547,"Err":6548,"Ġvlan":6549,"Ġsets":6550,"Ġ{},":6551,"need":6552,"2013":6553,"absolute":6554,"GG":6555,"Right":6556,"dom":6557,"gpu":6558,"tl":6559,"secs":6560,"inventory":6561,"Ġinv":6562,"Ġ18":6563,"ĠSpark":6564,"Ġbegin":6565,"prev":6566,"States":6567,"avg":6568,"processing":6569,"sensitive":6570,"Ġphase":6571,"Application":6572,"Decode":6573,"REEK":6574,"Last":6575,"VICE":6576,"family":6577,"micro":6578,"deserialize":6579,"Ġnor":6580,"Ġscan":6581,"Ġaut":6582,"verti":6583,"Ġ128":6584,"visible":6585,"power":6586,"perm":6587,"ĠGREEK":6588,"ĠModule":6589,"Ġmade":6590,"REG":6591,"Stop":6592,"Ġdouble":6593,"Ġ1024":6594,"subnetpool":6595,"distribution":6596,"Ġdestination":6597,"ĠLIABLE":6598,"ĠSHALL":6599,"repeated":6600,"Iterator":6601,"Database":6602,"Over":6603,"PK":6604,"uz":6605,"inator":6606,"relative":6607,"Ġscheme":6608,"Ġbug":6609,"Ġmaster":6610,"')).":6611,"bus":6612,"ĠField":6613,"ĠEach":6614,"worker":6615,"Ġrot":6616,"Ġcomponents":6617,"ISING":6618,"Ġvim":6619,"Ġzone":6620,"ĠUnicode":6621,"ĠAuthors":6622,"Ġsmall":6623,"Ġglobals":6624,"ĠARISING":6625,"Copy":6626,"gmail":6627,"titude":6628,"disc":6629,"sibility":6630,"ably":6631,"ĠCA":6632,"Ġalpha":6633,"Filename":6634,"crete":6635,"Ġregistry":6636,"scripts":6637,"criptor":6638,"Ġbetter":6639,"Ġdecimal":6640,"ĠBuild":6641,"ĠPROVIDED":6642,"#----------------------------------------------------------------":6643,"duc":6644,"fun":6645,"kit":6646,"pending":6647,"lies":6648,"ĊĊĉĉ":6649,"Ġdecor":6650,"ĠDATA":6651,"ĠRights":6652,"compo":6653,"Ġbuff":6654,"ĠExp":6655,"Ġallows":6656,"diffe":6657,"destination":6658,"VALID":6659,"Ġcorrectly":6660,"ĠACUTE":6661,"\"%":6662,"WAR":6663,"rm":6664,"mem":6665,"Ġwrong":6666,"paren":6667,"upgrade":6668,"ĠTORT":6669,"mav":6670,"ressions":6671,"Ġsegment":6672,"rypto":6673,"STATE":6674,"note":6675,"based":6676,"ĠConn":6677,"Ġterm":6678,"alent":6679,"normalize":6680,"Permission":6681,"ĠCONTRACT":6682,"ĠWHETHER":6683,"/\"":6684,"400":6685,"600":6686,"Cannot":6687,"Poly":6688,"Show":6689,"acl":6690,"high":6691,"ools":6692,"pad":6693,"Ð¾":6694,"Ġfixed":6695,"Ġ\"{":6696,"Ġturn":6697,"services":6698,"dictions":6699,"dispatch":6700,"ĠCho":6701,"Ġcomplex":6702,"poch":6703,"Entity":6704,"Runner":6705,"Ġfails":6706,"Mar":6707,"Pipeline":6708,"got":6709,"å¤":6710,"alchemy":6711,"roke":6712,"Ġamount":6713,"android":6714,"ĠSU":6715,"Ġgit":6716,"ĠMulti":6717,"share":6718,"ĠNode":6719,"Ġurlparse":6720,"area":6721,"stdin":6722,"mitive":6723,"Ġgood":6724,"posixpath":6725,"éĵ¶è¡Į":6726,"ç»ıçºªåħ¬åı¸ä»£çłģ":6727,"Handle":6728,"Ġscheduler":6729,"posed":6730,"tries":6731,"Ġunknown":6732,"curr":6733,"Unit":6734,"Ġcharset":6735,"Configuration":6736,"ĠNOTE":6737,"Descriptor":6738,"Common":6739,"Ġdimension":6740,"æĹ¥":6741,"ĠModel":6742,"quivalent":6743,"NT":6744,"Same":6745,"allation":6746,"Ġfact":6747,"Ġfrappe":6748,"roles":6749,"uniform":6750,"using":6751,"ĠOver":6752,"acter":6753,"Ġmachine":6754,"Ġparsing":6755,"ĠRemove":6756,"ĠRepository":6757,"Colour":6758,"funcs":6759,"Ġ2015":6760,"Ġ'/'":6761,"Ġcreating":6762,"Ġbuiltin":6763,"kel":6764,"Ġfrozen":6765,"Ġind":6766,"romote":6767,"ĠImp":6768,"listdir":6769,"'),\\":6770,"Dele":6771,"track":6772,"NotSet":6773,"initions":6774,"Ġvals":6775,"Ġoperations":6776,"Ġarrays":6777,"Ġhandlers":6778,"tabstop":6779,"Geometry":6780,"Ġdense":6781,"argoyle":6782,":-":6783,"Flow":6784,"vtk":6785,"Ġaverage":6786,"ĠTrans":6787,"etail":6788,"Ġhour":6789,"ĠSTR":6790,"ĠCYR":6791,"proc":6792,"Ġ40":6793,"ILLIC":6794,"LOAD":6795,"subnets":6796,"Video":6797,"white":6798,"closed":6799,"Ġrepresentation":6800,"Ġcert":6801,"Ġvariant":6802,"modified":6803,"sertionError":6804,"pickle":6805,"ĠCYRILLIC":6806,"It":6807,"PASS":6808,"]'":6809,"sr":6810,"teps":6811,"through":6812,"ado":6813,"Ġ[{'":6814,"ationError":6815,"Ġsec":6816,"Ġleg":6817,"phinx":6818,"Ġpositive":6819,"Keys":6820,"Ġvalidation":6821,"operations":6822,"disabled":6823,"impl":6824,"ĠEXPRESS":6825,"ĠOtherwise":6826,"Be":6827,"bum":6828,"cmp":6829,"jax":6830,"reason":6831,"Ġexperiment":6832,"ĠClient":6833,"uber":6834,"Ġembedding":6835,"prox":6836,"Rep":6837,"ĠPBX":6838,"screen":6839,"ĠON":6840,"readline":6841,"good":6842,"Ġentities":6843,"CAL":6844,"Gra":6845,"migration":6846,"sage":6847,"ech":6848,"fid":6849,"ĠSimple":6850,"Ġ37":6851,"caling":6852,"000000":6853,"epcopy":6854,"Ġverbosity":6855,"ategories":6856,"Double":6857,"SERVER":6858,"('),\\":6859,"Call":6860,"Man":6861,"player":6862,"ä½":6863,"å¸":6864,"lected":6865,"Ġcidr":6866,"Ġfname":6867,"ges":6868,"Ġdom":6869,"Ġcore":6870,"Ġlon":6871,"Ġitself":6872,"predict":6873,"counts":6874,"Ġclf":6875,"instances":6876,"gramm":6877,"traceback":6878,"Ġcalling":6879,"Ġmanifest":6880,"Asc":6881,"patterns":6882,"ĠSta":6883,"Ġorg":6884,"ĠPath":6885,"iff":6886,"ĠOne":6887,"acute":6888,"ĠEvent":6889,"Ġ31":6890,"scrib":6891,"compatible":6892,"ĠInte":6893,"manifest":6894,"Ġconnections":6895,"Ġreadonly":6896,"Ġdocuments":6897,"binding":6898,"PREFIX":6899,"ordinate":6900,"ĠOTHERWISE":6901,"ynchron":6902,"Mask":6903,"Msg":6904,"vhd":6905,"åĳ":6906,"alg":6907,"geometry":6908,"Ġmateri":6909,"Ġ25":6910,"pools":6911,"veloper":6912,"updates":6913,"Comb":6914,"structure":6915,"steps":6916,"Ġblocks":6917,"Ġwriter":6918,"Ġtraining":6919,"Extract":6920,"Limit":6921,"Please":6922,"Save":6923,"SUB":6924,"UI":6925,"iod":6926,"Ġfig":6927,"Ġts":6928,"lices":6929,"loor":6930,"ĠtestType":6931,"\"][\"":6932,"ongo":6933,"venio":6934,"ESSAGE":6935,"Ġprior":6936,"while":6937,"Ġtasks":6938,"kernel":6939,"Algorithm":6940,"Ġgoogle":6941,"Ġcertificate":6942,"Backend":6943,"FILES":6944,"Ġauthentication":6945,"AV":6946,"LIN":6947,"flex":6948,"nl":6949,"rd":6950,"rx":6951,"eng":6952,"chan":6953,"ĠTable":6954,"ĠSINGLE":6955,"Ġunits":6956,"msgs":6957,"Parameters":6958,"Timer":6959,"Ġpages":6960,"QUAL":6961,"Ġfailure":6962,"capt":6963,"ĠVERTICAL":6964,"+'":6965,"->":6966,":\"":6967,"DV":6968,"Success":6969,"hass":6970,"wfs":6971,"wsgi":6972,"çļ":6973,"secure":6974,"standard":6975,"urses":6976,"digit":6977,"('.')":6978,"ĠSER":6979,"Install":6980,"Exist":6981,"ĠVi":6982,"iterable":6983,"Raw":6984,"Ġ2014":6985,"evalu":6986,"Ġscipy":6987,"ĠAuthor":6988,"Ascii":6989,"çļĦ":6990,"=[\"":6991,"Cer":6992,"Top":6993,"saved":6994,"ony":6995,"selenium":6996,"ceiver":6997,"serv":6998,"('#":6999,"sph":7000,"Ġeffect":7001,"ĠFIX":7002,"positive":7003,"latex":7004,"Expected":7005,"Ġsubscription":7006,"Names":7007,"copyright":7008,"Notify":7009,"Ġdepth":7010,"SCR":7011,"literal":7012,"invoice":7013,"allel":7014,"CF":7015,"Flexible":7016,"Work":7017,"but":7018,"ire":7019,"Ġfuture":7020,"live":7021,"loud":7022,"Ġbrowser":7023,"Ġstage":7024,"Ġev":7025,"(\"--":7026,"Ġdele":7027,"ĠDoc":7028,"ĠMARK":7029,"logs":7030,"ĠContent":7031,"Unknown":7032,"UMENT":7033,"orizont":7034,"*(":7035,"EE":7036,"FS":7037,"ather":7038,"Ġ?":7039,"relation":7040,"Ġstmt":7041,"xtures":7042,"ĠMac":7043,"Ġgettext":7044,"Stub":7045,"Ġcompile":7046,"servers":7047,"Ġhostname":7048,"xyz":7049,"Ġtables":7050,"assification":7051,"Ġquote":7052,"Ġnormalize":7053,"æĬ¥":7054,"FlexibleForeignKey":7055,"nor":7056,"watch":7057,"ĠĠĠĠĠĠĠĠĠĠĠĠĠĠ":7058,"Ġ'=',":7059,"Ġnone":7060,"Ġbot":7061,"pet":7062,"Ġ27":7063,"Ġfilepath":7064,"ĠMap":7065,"ĠNE":7066,"ĠInteger":7067,"127":7068,"Ġcompare":7069,"clusive":7070,"Ġvif":7071,"(_('":7072,"assertIsNone":7073,"Ġskipped":7074,"HERE":7075,"Ġretrieve":7076,"ToManyField":7077,"sphinx":7078,"/(?":7079,"ahead":7080,"geom":7081,"=='":7082,"prompt":7083,"licies":7084,"Ġpartic":7085,"component":7086,"splits":7087,"ĊĠĠĠĠĠĠĠĠĠĠĠĠĠĠĠĠĠĠĠĠĠĠĠĠĠĠĠĠĠĠĠĠĠĠĠĠĠĠĠĠĠĠĠĠĠĠĠ":7088,"POINT":7089,"Ġoptim":7090,"Disposal":7091,"builder":7092,"StockDisposal":7093,"ĠFIXME":7094,"YPE":7095,"ered":7096,"gargoyle":7097,"rstrip":7098,"æķ":7099,"erkzeug":7100,"Ġmuch":7101,"unity":7102,"Ġiface":7103,"Ġseed":7104,"Ġvol":7105,"tracker":7106,"shapes":7107,"Serial":7108,"TEMPL":7109,"volumes":7110,"depends":7111,"================================================================":7112,"duced":7113,"-------------":7114,"Ġ'[":7115,"Ġtyp":7116,"Ġtwisted":7117,"setValue":7118,"Ġutili":7119,"Ġcounter":7120,"Ġcoefficient":7121,"acc":7122,"Ġweight":7123,"ĠHORIZONTAL":7124,"ANCE":7125,"UTF":7126,"Ġneutron":7127,"Ġformats":7128,"ordering":7129,"ĠAny":7130,"projects":7131,"wxEVT":7132,"Ġdimensions":7133,"Constraint":7134,"MachineState":7135,")\")":7136,"Detail":7137,"Pcap":7138,"SR":7139,"Title":7140,"ctive":7141,"gb":7142,"jvm":7143,"px":7144,"witch":7145,"decoder":7146,"Ġbits":7147,"\"\"\",":7148,"payment":7149,"mmutable":7150,"ĠEnsure":7151,"ĠWrite":7152,"ouse":7153,"constraint":7154,"Bounded":7155,"Ġcomments":7156,"poll":7157,"Ġ-----":7158,"Ġmetrics":7159,"Ġdetermine":7160,"å¿Ĺ":7161,"101":7162,"DES":7163,"vpc":7164,"arrays":7165,"Ġsaved":7166,"Ġtz":7167,"define":7168,"litext":7169,"cover":7170,"rase":7171,"Ġgyp":7172,"Ġ28":7173,"usted":7174,"([('":7175,"Ġzope":7176,"Upload":7177,"ategy":7178,"Buil":7179,"Ġdirs":7180,"Left":7181,"assertIsNot":7182,"Ġndarray":7183,"Post":7184,"Step":7185,"zation":7186,"Ġ--------------------------------":7187,"tid":7188,"Ġ''.":7189,"Ġpr":7190,"Ġ{}),":7191,"uncer":7192,"returns":7193,"netes":7194,"ĠParse":7195,"finished":7196,"ffffffff":7197,"rollment":7198,"randint":7199,"assertAllClose":7200,"Normal":7201,"æłĩå¿Ĺ":7202,"ubernetes":7203,"125":7204,"UST":7205,"aws":7206,"urity":7207,"Ġsamples":7208,"Ġtools":7209,"esser":7210,"vig":7211,"too":7212,"ĠForm":7213,"ĠOut":7214,"ĠBo":7215,"Ġwebob":7216,"backends":7217,"runtime":7218,"Ġtransaction":7219,"Ġconverted":7220,"Cleanup":7221,">[":7222,"SL":7223,"Utils":7224,"]\",":7225,"mas":7226,"qs":7227,"arded":7228,"Ġtran":7229,"digits":7230,"Ġmultip":7231,"Ġuuid":7232,"ĠLesser":7233,"Repe":7234,"Ġmet":7235,"Ġvocab":7236,"fede":7237,"backup":7238,"plat":7239,"Ġstrict":7240,"Cells":7241,"Mon":7242,"Print":7243,"freq":7244,"ks":7245,"}'":7246,"Ġurls":7247,"Ġdefer":7248,"versed":7249,"Ġstar":7250,"ĠCO":7251,"Cons":7252,"Ġless":7253,"nova":7254,"pix":7255,"Ġinterpre":7256,"Ġgeneric":7257,"ĠStart":7258,"escaped":7259,"Ġestimator":7260,"çº¦":7261,"repeat":7262,"Ġplatforms":7263,"Body":7264,"CLI":7265,"GROUP":7266,"vendor":7267,"Ð½":7268,"stic":7269,"threshold":7270,"Ġmis":7271,"=''):":7272,"aging":7273,"Named":7274,"Ġtimedelta":7275,"Ġcomparison":7276,"theme":7277,"Ġaxes":7278,"mited":7279,"OME":7280,"allowed":7281,"zilla":7282,"CD":7283,"Mac":7284,"TION":7285,"aken":7286,"gi":7287,"mysql":7288,"Ġpush":7289,"Ġalert":7290,"Ġms":7291,"sist":7292,"Conf":7293,"Ġatom":7294,"denom":7295,"Ġaddr":7296,"certificate":7297,"Ġorigin":7298,"plotlib":7299,"Ġstaticmethod":7300,"ĠDEFAULT":7301,"magic":7302,"Ġexplicitly":7303,"DEFINED":7304,"roadcast":7305,"IR":7306,"Sum":7307,"Width":7308,"]\")":7309,"ye":7310,"rou":7311,"Ġthings":7312,"__',":7313,"ĠLa":7314,"ĠDec":7315,"ATOR":7316,"Ġcompatibility":7317,"ĠExample":7318,"Ġ80":7319,"makedirs":7320,"Does":7321,"ĠOpenERP":7322,"rewall":7323,"urlopen":7324,"uncertain":7325,";\"":7326,"Te":7327,"bet":7328,"decor":7329,"Ġtarg":7330,"Ġday":7331,"ĠTEST":7332,"\":\"":7333,"Ġlarge":7334,"ĠHOLDER":7335,"IDENT":7336,"imate":7337,"Ġcollect":7338,"Ġcomponent":7339,"blocks":7340,"Ġcounts":7341,"JobManager":7342,"CURE":7343,"Package":7344,"Tuple":7345,"gu":7346,"kt":7347,"numer":7348,"cedence":7349,"Ġpack":7350,"Ġforward":7351,"Ġdot":7352,"Ġdummy":7353,"(\"<":7354,"outube":7355,"Ġclone":7356,"beat":7357,"2012":7358,"nbsp":7359,"Ġseparate":7360,"legacy":7361,"Document":7362,"marked":7363,"unicate":7364,"åĲĪçº¦":7365,"'ll":7366,"(\"\"":7367,"bg":7368,"Ġ\"\"\"<":7369,"=\"/":7370,"tics":7371,"STFN":7372,"irflow":7373,"plan":7374,"Encoding":7375,"Ġminimum":7376,"Ġnullable":7377,"teractive":7378,"Ġlineno":7379,"collector":7380,"Ġbounds":7381,"Ġhandling":7382,"STRING":7383,"BASE":7384,"scalar":7385,"REQUEST":7386,"etrieve":7387,"211":7388,"Batch":7389,"Missing":7390,"ade":7391,"vid":7392,"čĊĠĠĠĠĠĠĠĠĠĠĠĠĠĠĠĠĠĠĠĠĠĠĠ":7393,"ante":7394,"Ġsolver":7395,"Ġinherit":7396,"utation":7397,"Ġhard":7398,"Ġstati":7399,"ĠSp":7400,"ĠLine":7401,"ĠPY":7402,"latest":7403,"writeline":7404,"ĠHow":7405,"Setup":7406,"=[\\":7407,"COMP":7408,"recv":7409,"Ċĉĉĉĉĉĉ":7410,"decla":7411,"Parent":7412,"Ġpairs":7413,"ribution":7414,"Github":7415,"LS":7416,"ino":7417,"teri":7418,"Ġthree":7419,"Ġwarn":7420,"Ġ([":7421,"ITEM":7422,"Ġkernel":7423,"Ġapplied":7424,"networks":7425,"ynomial":7426,"deploy":7427,"ĠVerify":7428,"Disabled":7429,"rupt":7430,"assertIsNotNone":7431,"\"},":7432,"+?":7433,";'":7434,"Tri":7435,"flavor":7436,"dependent":7437,"article":7438,"Ġctypes":7439,"exact":7440,"abilities":7441,"ĠAS":7442,"Ġproperly":7443,"RES":7444,"ĠCONF":7445,"ighted":7446,"SSL":7447,"Ġincludes":7448,"ĠtearDown":7449,"progress":7450,"QuoteField":7451,"ĠNetwork":7452,"orizontal":7453,"bits":7454,"clicked":7455,"ka":7456,"oauth":7457,"xm":7458,"Ġpower":7459,"ecycle":7460,"cost":7461,"ĠAUTH":7462,"ĠCan":7463,"ĠItem":7464,"ĠEL":7465,"background":7466,"Ġruns":7467,"prefixlen":7468,"mtree":7469,"UPER":7470,"DefaultAttributes":7471,"Windows":7472,"Phase":7473,"hebrew":7474,"PositiveIntegerField":7475,".\"),":7476,"Api":7477,"CB":7478,"GB":7479,"sheet":7480,"semb":7481,"reload":7482,"ench":7483,"Ġfast":7484,"Ġreader":7485,"getitem":7486,"Ġable":7487,"Ġdue":7488,"vertical":7489,"intain":7490,"],\\":7491,"Ġ22":7492,"ĠPl":7493,"ĠExt":7494,"ĠNa":7495,"prepare":7496,"irt":7497,"gradient":7498,"ENTIAL":7499,"failUnless":7500,"Shader":7501,"hide":7502,"destroy":7503,"ĠAnsibleModule":7504,"quences":7505,"Ġbuilt":7506,"Impl":7507,"ĠUNDEFINED":7508,"Ġpixel":7509,"\"',":7510,"={}":7511,"AUTH":7512,"VS":7513,"ess":7514,"tc":7515,"}\"":7516,"lazy":7517,"splitext":7518,"ĠDIG":7519,"Ġloaded":7520,"Ġlogits":7521,"CThostFtdcInput":7522,"Ġshard":7523,"splitlines":7524,"ĠGenerate":7525,"Ġvery":7526,"Ġworker":7527,"ĠStandard":7528,"Ġiterator":7529,"ĠMessage":7530,"Ġbinding":7531,"PLE":7532,"dr":7533,"fficient":7534,"imation":7535,"mid":7536,"Ġcc":7537,"',)":7538,"Ġmar":7539,"()).":7540,"rain":7541,"('],\\":7542,"ectors":7543,"Ġ29":7544,"Restriction":7545,"ically":7546,"Ġprogress":7547,"shard":7548,"Ġenviron":7549,"previous":7550,"ĠRec":7551,"coming":7552,"ICES":7553,"ROL":7554,"ASK":7555,"transfer":7556,"Items":7557,"Ġvars":7558,"ManyToManyField":7559,"agicMock":7560,"ĠSparkContext":7561,":\",":7562,"Big":7563,"Skip":7564,"USE":7565,"average":7566,"ko":7567,"must":7568,"mime":7569,"»å":7570,"ons":7571,"Ġcm":7572,"Ġinf":7573,"sited":7574,"Ġdtypes":7575,"ĠTe":7576,"ĠLIGHT":7577,"Ġdeal":7578,"ĠDes":7579,"lying":7580,"without":7581,"\"></":7582,"TYP":7583,"Ġdistutils":7584,"Geo":7585,"PARAM":7586,"Ġmavproxy":7587,"ĠDIGIT":7588,"BITS":7589,"Zip":7590,"Ġjobs":7591,"dependency":7592,"asc":7593,"Ġnested":7594,"mpath":7595,"complex":7596,"')(":7597,"ĠSUB":7598,"ĠAb":7599,"ĠCall":7600,"tached":7601,"Ġgdata":7602,"Ġvs":7603,"php":7604,"Ġnever":7605,"ĠQU":7606,"Ġones":7607,"Enter":7608,"ĠTestCase":7609,"credentials":7610,"Arch":7611,"Ġpriority":7612,"Ġcreation":7613,">`":7614,"Bin":7615,"Fin":7616,"Grid":7617,"black":7618,"gf":7619,"gain":7620,"hist":7621,"alone":7622,"encoder":7623,"utdown":7624,"machine":7625,"ĠSome":7626,"qualified":7627,"ERS":7628,"lyr":7629,"ĠNow":7630,"riteri":7631,"RESP":7632,"([^":7633,"refs":7634,"Active":7635,"Ġtranslation":7636,"Ġaround":7637,"Ġrequirement":7638,"Ġservices":7639,"invoke":7640,"MESSAGE":7641,"Transport":7642,"bal":7643,"bundle":7644,"catch":7645,"ftp":7646,"pip":7647,"pyspark":7648,"wb":7649,"ĊĊĠĠĠĠĠĠĠĠĠ":7650,"restart":7651,"deri":7652,"Ġcwd":7653,"Ġ\"{{":7654,"Ġawait":7655,"chase":7656,"Ġhidden":7657,"Ġembed":7658,"iface":7659,"nsor":7660,"statement":7661,"CThostFtdcSync":7662,"Ġaccording":7663,"Ġrunner":7664,"=[],":7665,"Ġsprite":7666,"macro":7667,"SERT":7668,"Ġmonth":7669,"Ġclick":7670,"apture":7671,"\"')":7672,"Branch":7673,"Del":7674,"cinder":7675,"gence":7676,"Ġeta":7677,"rit":7678,"lave":7679,"Ġgiv":7680,"ĠLanguage":7681,"INPUT":7682,"ffinity":7683,"mplements":7684,"tenv":7685,"Ġanything":7686,"Ġsyntax":7687,"Ġ2010":7688,"Ġtemplates":7689,"rected":7690,"Ġtemporary":7691,"domains":7692,"ClassDefaultAttributes":7693,"ĠDataFrame":7694,"Download":7695,"DIS":7696,"EP":7697,"zure":7698,"three":7699,"Ġhes":7700,"sprite":7701,"Ġnova":7702,"checks":7703,"pipe":7704,"Ġexpand":7705,"website":7706,"ĠDOWN":7707,"Failure":7708,"Ġfrozenset":7709,"Av":7710,"Main":7711,"cus":7712,"ndim":7713,"speed":7714,"ua":7715,"Ġcf":7716,"cel":7717,"Ġbl":7718,"Ġ[{":7719,"ssue":7720,"']]":7721,"ĠSec":7722,"Ġequivalent":7723,"acters":7724,"ATURE":7725,"Ġnotify":7726,"Debug":7727,"Ġruntime":7728,"ASH":7729,"neg":7730,"buildChildren":7731,"ldp":7732,"exportChildren":7733,"tivity":7734,"Null":7735,"tm":7736,"Ġtb":7737,"olved":7738,"ĠCH":7739,"Inst":7740,"ĠDatabase":7741,"Ġheap":7742,"checkbox":7743,"Ġconfigure":7744,"Ġpermitted":7745,"matches":7746,"ĠComm":7747,"Ġdisabled":7748,"MAIL":7749,"ufffe":7750,"Ġsqlalchemy":7751,"Route":7752,"Ġparticular":7753,")-":7754,"Sys":7755,"Single":7756,"hbox":7757,"kb":7758,"king":7759,"zed":7760,"segment":7761,"ensure":7762,"Ġpad":7763,"Ġna":7764,"trunc":7765,"Ġexamples":7766,"produce":7767,"Ġsep":7768,"ĠMark":7769,"shell":7770,"Ġgets":7771,"ĠUsed":7772,"Example":7773,"curacy":7774,"requests":7775,"Ġsimp":7776,"changes":7777,"Ġbasestring":7778,"Ġregular":7779,"Ġreading":7780,"Ġsymbols":7781,"OFP":7782,"ĊĠĠĊĠ":7783,"Ġrepresents":7784,"Ġxmlns":7785,"packed":7786,",-":7787,"Cor":7788,"FB":7789,"MD":7790,"bulk":7791,"wit":7792,"week":7793,"xff":7794,"yper":7795,"erature":7796,"Ġ'+":7797,"ulary":7798,"(\".":7799,"Required":7800,"scen":7801,"ATED":7802,"newexp":7803,"FileName":7804,"čĊčĊč":7805,"servicelist":7806,"parents":7807,"encoded":7808,"ĠArgument":7809,"Ġgrad":7810,"Modi":7811,"Ġpipe":7812,"ä¿Ŀ":7813,"cpp":7814,"gz":7815,"ology":7816,"qty":7817,"å¼":7818,"receive":7819,"stock":7820,"members":7821,"inger":7822,"diction":7823,"ĠTry":7824,"verified":7825,"Ġ21":7826,"Inte":7827,"aggregate":7828,"irror":7829,"SEQU":7830,"utili":7831,"Ġadding":7832,"csrf":7833,"metaclass":7834,"serial":7835,"serializer":7836,"limits":7837,"metrical":7838,"ĠMethod":7839,">,":7840,"BACK":7841,"sdk":7842,"Âł":7843,"sect":7844,"Ġthing":7845,"Ġnc":7846,"Ġindividual":7847,"ĠLoc":7848,"ĠFunction":7849,"Ġdelay":7850,"Ġrpc":7851,"world":7852,"168":7853,"Visit":7854,"locals":7855,"Loop":7856,"Role":7857,"STATUS":7858,"precationWarning":7859,"SCRIPT":7860,"VAR":7861,"`\")":7862,"ea":7863,"()[-":7864,"andalone":7865,"setter":7866,"ĠFind":7867,"endpoint":7868,"tence":7869,"ĠBit":7870,"Ġwhite":7871,"Values":7872,"Ġargv":7873,"APP":7874,"Ġdoctest":7875,"Ġagent":7876,"Ġcalculate":7877,"Ġ}}\"":7878,"--------------":7879,"rottle":7880,"Ġclosed":7881,"InvestorPosition":7882,"Serializer":7883,"ĠMAX":7884,"itespace":7885,"ĠHOLDERS":7886,"GithubObject":7887,"TREE":7888,"below":7889,"åĬ":7890,"Ġul":7891,"cee":7892,"ective":7893,"cookies":7894,"ortran":7895,"peak":7896,"Ġcontact":7897,"ĠCal":7898,"buff":7899,"Ġcolour":7900,"Ġunsigned":7901,"tential":7902,"tempts":7903,"notes":7904,"Ġ500":7905,"organization":7906,"Ġdocs":7907,"NotExist":7908,"THON":7909,"Ġfinished":7910,"Ġmanual":7911,"Struct":7912,"CONFIG":7913,"sqlite":7914,"itialize":7915,"dashboard":7916,"\"/":7917,"First":7918,"FUN":7919,"HOME":7920,"Pattern":7921,"ham":7922,"nf":7923,"xpath":7924,"Ġ^":7925,"atom":7926,"urlen":7927,"ĠCl":7928,"ĠFe":7929,"aged":7930,"ĠPlease":7931,"Ġvl":7932,"ä»·":7933,"Ġdirname":7934,"Ġhashlib":7935,"threads":7936,"Ġtopic":7937,"Ġcontroller":7938,"ĠResponse":7939,"stubs":7940,"STATIC":7941,"consumer":7942,"Ġcontributors":7943,"Estimator":7944,"_()":7945,"ffic":7946,"hw":7947,"half":7948,"ncurses":7949,"Ġpatterns":7950,"getvalue":7951,"getCurrent":7952,"cont":7953,"002":7954,"ĊĊĊĊ":7955,"ĠSAP":7956,"ĠSPEC":7957,"ĠFake":7958,"Ġdependency":7959,"ĠWhether":7960,"precision":7961,"ESIS":7962,"Stats":7963,"Ġstarting":7964,"ĊĠĠĠĠĠĠĠĠĠĠĠĠĠĠĠĠĠĠĠĠĠĠĠĠĠĠĠĠĠĠĠĠĠĠĠĠĠĠĠĠĠĠĠĠĠĠĠĠĠĠ":7965,"Enum":7966,"2010":7967,"Ġmodification":7968,"ĠfindEntry":7969,"canvas":7970,"termine":7971,"Ġwhose":7972,"/.":7973,"Find":7974,"LY":7975,"Red":7976,"Some":7977,"Vari":7978,"band":7979,"ln":7980,"nested":7981,"walk":7982,"inel":7983,"theta":7984,"Ġful":7985,"Ġpipeline":7986,"coun":7987,"checked":7988,"isol":7989,"ĠPost":7990,"perform":7991,"lyph":7992,"Ġunless":7993,"Ġxm":7994,"outer":7995,"Ġcandi":7996,"errno":7997,"Ġcause":7998,"mplementation":7999,"Generate":8000,"origin":8001,"annotate":8002,"Ġoccurred":8003,"levant":8004,"urlencode":8005,"Var":8006,"ao":8007,"tt":8008,"Ġretain":8009,"Ġpag":8010,"Ġinventory":8011,"isode":8012,"etc":8013,"ĠLib":8014,"Ġdiag":8015,"Ġenum":8016,"Conver":8017,"Condition":8018,"alib":8019,"Ġsuperclass":8020,"AttributeValue":8021,"svc":8022,"Ġserialized":8023,"Ġvarious":8024,"Ġsimilar":8025,"Ġmatplotlib":8026,"äº¤æĺĵæīĢä»£çłģ":8027,"Market":8028,"EVER":8029,"SU":8030,"Ġide":8031,"Ġfactor":8032,"Ġpadding":8033,"amera":8034,"Ġouter":8035,"ellan":8036,"terms":8037,"pagin":8038,"Ġhist":8039,"spi":8040,"spose":8041,"RESS":8042,"orean":8043,"Ġresulting":8044,"ogr":8045,"120":8046,"tract":8047,"Ġchecking":8048,"locked":8049,"Env":8050,"abcdef":8051,"Ġflask":8052,"ĠEnvironment":8053,"channels":8054,"ExchangeID":8055,"crypted":8056,"ĠOptions":8057,"SeqRow":8058,"ObsRow":8059,"ĠAdmin":8060,"PASSWORD":8061,"pixel":8062,"ceeded":8063,"ICT":8064,"WIN":8065,"_))":8066,"cdef":8067,"gres":8068,"javascript":8069,"slot":8070,"since":8071,"Ã¤":8072,"à¥":8073,"oration":8074,"stmt":8075,"deps":8076,"Ġfs":8077,"rol":8078,"Ġplan":8079,"Ġsalt":8080,"Ġmigration":8081,"radio":8082,"quared":8083,"ĠSize":8084,"Ġdid":8085,"scar":8086,"istic":8087,"Ġperiod":8088,"aves":8089,"doctype":8090,"expdat":8091,"iterator":8092,"locate":8093,"ĊĠĠĠĠĠĠĠĠĠĠĠĠĠĠĠĠĠĠĠĠĠĠĠĠĠĠĠĠĠĠĠĠĠĠĠĠĠĠĠĠĠĠĠĠĠĠĠĠĠ":8094,"ĠConvert":8095,"ĠCONT":8096,"ĠProcess":8097,"nonzero":8098,"AndReturn":8099,"Ġselection":8100,"reply":8101,"++++":8102,"today":8103,"catenate":8104,"??":8105,"AF":8106,"CESS":8107,"GTH":8108,"Utf":8109,"USED":8110,"`:":8111,"fds":8112,"padding":8113,"Ġcells":8114,"Ġcached":8115,"Ġscen":8116,"Ġtar":8117,"Ġgateway":8118,"timezone":8119,"permission":8120,"mous":8121,"ĠObject":8122,"notification":8123,"ĠINTER":8124,"Nodes":8125,"txid":8126,"CLA":8127,"Ġface":8128,"Ġreply":8129,"ĠAssertionError":8130,"DULE":8131,"normpath":8132,"/$',":8133,">%":8134,"EPS":8135,"Icon":8136,"Scope":8137,"Wait":8138,"ere":8139,"Ðµ":8140,"Ġri":8141,"ŀĭ":8142,"oring":8143,"Ġcy":8144,"('</":8145,"Ġprocessed":8146,"presen":8147,"STIT":8148,"////":8149,"subscription":8150,"ivar":8151,"grad":8152,"manual":8153,"frames":8154,"Ġcalendar":8155,"Ġmakes":8156,"ĠUnit":8157,"Ġlibraries":8158,"Ġabstract":8159,"MAIN":8160,"variants":8161,"Ġtrim":8162,"polys":8163,"Ġproducts":8164,"ĠPOST":8165,"circle":8166,"(':')":8167,"Ġlatest":8168,"Builder":8169,"ĠOutput":8170,"ellanzb":8171,"AIN":8172,"Spa":8173,"WR":8174,"deepcopy":8175,"examples":8176,"silon":8177,"concat":8178,"Ġcond":8179,"Ġgran":8180,"igrate":8181,"Ġrt":8182,"ĠDon":8183,"Ġasync":8184,"datastore":8185,"licity":8186,"ĠMO":8187,"createDataFrame":8188,"checkpoint":8189,"ĠProject":8190,"Ġitertools":8191,"Contains":8192,"QtCore":8193,"ObsMatrix":8194,"mkdir":8195,"Symbol":8196,"../../":8197,"comboBox":8198,"globals":8199,"çĶ¨æĪ·":8200,"CONTENT":8201,"TEMPLATE":8202,"130":8203,"EMPL":8204,"bf":8205,"tot":8206,"orn":8207,"thumbnail":8208,"Ġfh":8209,"ues":8210,"exis":8211,"003":8212,"Ġcookie":8213,"ĠWh":8214,"ĠHAS":8215,"Ġregression":8216,"Ġopengm":8217,"ĠINC":8218,"Ġshown":8219,"Ġ2011":8220,"Login":8221,"relpath":8222,"Ġsummary":8223,"Price":8224,"RateField":8225,"gramming":8226,"CThostFtdcSyncing":8227,"'<":8228,"har":8229,"kana":8230,"sal":8231,"ya":8232,"ysi":8233,"}]":8234,"tell":8235,"deli":8236,"Ġ=>":8237,"asset":8238,"ĊĠĠĠĠĠĠĠĠĠĠĠĠĊĠĠĠĠĠĠĠ":8239,"Ġtaken":8240,"cohort":8241,"Insert":8242,"anced":8243,"aliases":8244,"Ġsubst":8245,"Ġ{}\".":8246,"syntax":8247,"mizer":8248,"svn":8249,".*?":8250,"RefCount":8251,"Ġserializer":8252,"SimpleRefCount":8253,"started":8254,"Ġsqrt":8255,"FutureSign":8256,"LENGTH":8257,"DoesNotExist":8258,"'m":8259,"PRI":8260,"vrf":8261,"ç±":8262,"ĵį":8263,"reindex":8264,"Ġflow":8265,"Ġretry":8266,"Ġsteps":8267,"direction":8268,"ctl":8269,"tral":8270,"ĠAuto":8271,"Ġegg":8272,"Ġgm":8273,"Ġgu":8274,"Received":8275,"Ġseries":8276,"Ġaddresses":8277,"Ġappen":8278,"topic":8279,"Ġstdin":8280,"flat":8281,"books":8282,"Ġinitialize":8283,"Ġmonitor":8284,"Ġbuilder":8285,"cumulator":8286,"MarketData":8287,"CLAIM":8288,"Note":8289,"Random":8290,"eps":8291,"wf":8292,"tistics":8293,"Ġsuc":8294,"coin":8295,"Ġwon":8296,"unnel":8297,"fromUtf":8298,"ques":8299,"phi":8300,"ĠRO":8301,"oston":8302,"locations":8303,"openElements":8304,"Ġupper":8305,"clip":8306,"IBILITY":8307,"Ġteam":8308,"ĠService":8309,"visor":8310,"========================================================================":8311,"Visitor":8312,"'*":8313,"219":8314,"Comment":8315,"PH":8316,"recur":8317,"Ġce":8318,"Ġ\"+":8319,"Ġ\"(('":8320,"Ġsn":8321,"Ġssh":8322,"major":8323,"004":8324,"ĠFirst":8325,"timedelta":8326,"ised":8327,"moo":8328,"Ġenc":8329,"IDD":8330,"KeyError":8331,"Ġliter":8332,"negative":8333,"ĊĠĠĠĠĠĠĠĠĠĠĠĠĠĠĠĠĠĠĠĠĠĠĠĠĠĠĠĠĠĠĠĠĠĠĠĠĠĠĠĠĠĠĠĠĠĠĠĠ":8334,"NUM":8335,"('/')":8336,"Ġhandled":8337,"initialize":8338,"Spin":8339,"PickerCtrl":8340,"AUT":8341,"Long":8342,"Send":8343,"Tab":8344,"fri":8345,"tap":8346,"å¯":8347,"reet":8348,"repos":8349,"dee":8350,"Ġsin":8351,"comple":8352,"confirm":8353,"Ġconside":8354,"Ġgame":8355,"Ġpretty":8356,"startTag":8357,"Setting":8358,"Dep":8359,"communicate":8360,"containers":8361,"Generic":8362,"Ġcaller":8363,"ĠDISCLAIM":8364,"velopment":8365,"dimension":8366,"SIGNAL":8367,"ĠSPECIAL":8368,"/<":8369,"Fetch":8370,"NC":8371,"Other":8372,"TC":8373,"alert":8374,"numeric":8375,"qa":8376,"Ġreproduce":8377,"ura":8378,"Ġtp":8379,"Ġtheta":8380,"Ġ(?":8381,"Ġhistory":8382,"ĠIF":8383,"usters":8384,"more":8385,"ĠGET":8386,"ĠMax":8387,"ĠWHERE":8388,"017":8389,"Ġgeo":8390,"DEX":8391,"Unicode":8392,"charset":8393,"Ġcountry":8394,"CLASS":8395,"{}'.":8396,"catalog":8397,"lavors":8398,"initializer":8399,"Serialized":8400,"NAMES":8401,"Ġvirtual":8402,"DOCUMENT":8403,"Ġmaterials":8404,"STITUTE":8405,"199":8406,"Ab":8407,"Hook":8408,"Part":8409,"VICES":8410,"hard":8411,"enti":8412,"asure":8413,"Ġ\"#":8414,"Ġreally":8415,"Ġstub":8416,"atakana":8417,"addCleanup":8418,"Ġencoder":8419,"Ġrather":8420,"'),)\",":8421,"Ġlex":8422,"Ġclassifier":8423,"Arg":8424,"Ġoverwrite":8425,"UNK":8426,"Ġordering":8427,"Ġloading":8428,"Ġimmediate":8429,"cleanup":8430,"Split":8431,"ĠDict":8432,"åĳĺ":8433,"((\"":8434,"Actor":8435,"DP":8436,"Django":8437,"have":8438,"ien":8439,"stant":8440,"leaf":8441,"timizer":8442,"Ġ'(":8443,"Ġcatch":8444,"Ġssl":8445,"()])":8446,"unlink":8447,"Ġ%.":8448,"tage":8449,"Ġdead":8450,"=====":8451,"tend":8452,"Ġradius":8453,"Ġatt":8454,"250":8455,"caller":8456,"ailability":8457,"Ġconfigured":8458,"chars":8459,"Ġ'%(":8460,"ĠDelete":8461,"Ġqueryset":8462,"skipped":8463,"ĠAddress":8464,"smart":8465,"Processing":8466,"Ġeverything":8467,"issues":8468,"Ġentire":8469,"Ġrelationship":8470,"ĠTensorFlow":8471,"»åŀĭ":8472,"ç±»åŀĭ":8473,"SM":8474,"]',":8475,"gyp":8476,"plain":8477,"srf":8478,"Ġcpu":8479,"enforce":8480,"Ġbig":8481,"opf":8482,"(\"!":8483,"togg":8484,"ĠPri":8485,"ĠPort":8486,"Ġmem":8487,"little":8488,"Ġacc":8489,"Ġcreates":8490,"Ġcodec":8491,"Collection":8492,"OUTPUT":8493,"Ġbackwards":8494,"ĠStop":8495,"Ġmapped":8496,"Ġquot":8497,"Ġseparator":8498,"ĠDIRECT":8499,"aemon":8500,"evaluate":8501,"ĠSUBSTITUTE":8502,"SEQUENTIAL":8503,"BIT":8504,"masked":8505,"vn":8506,"Ġmp":8507,"stra":8508,"Ġtheme":8509,"firewall":8510,"covery":8511,"ĠLe":8512,"Reset":8513,"Ġsecurity":8514,"aggreg":8515,"ĠThey":8516,"START":8517,"minutes":8518,"Ġprevent":8519,"iness":8520,"Ġ51":8521,"Dataset":8522,"Environment":8523,"ĠCONSEQUENTIAL":8524,"2007":8525,"mostEqual":8526,"svg":8527,"deredDict":8528,"helpers":8529,"documents":8530,"pairs":8531,"FIELD":8532,"æĬ¥åįķ":8533,"/*":8534,"PU":8535,"RIGHT":8536,"lti":8537,"æŁ":8538,"éĹ":8539,"onal":8540,"anded":8541,"etag":8542,"ĠASC":8543,"ĠFoo":8544,"perf":8545,"Ġrank":8546,"subscribe":8547,"dicts":8548,"ĠRow":8549,"Ġstatements":8550,"CHANG":8551,"ĠContext":8552,"ĠINDIRECT":8553,"supports":8554,"QUE":8555,"AlmostEqual":8556,"Ġchoice":8557,"ç»ĵ":8558,"WORK":8559,"11111111":8560,"panel":8561,"piece":8562,"federation":8563,"(.":8564,")?":8565,"033":8566,"Bind":8567,"ISED":8568,"Multiple":8569,"]{":8570,"]')":8571,"bra":8572,"uation":8573,"xF":8574,"};":8575,"ä¼":8576,"inct":8577,"Ġ'':":8578,"Ġty":8579,"Ġoauth":8580,"sites":8581,"Ġreturning":8582,"ĠSup":8583,"ĠSphinx":8584,"Ġrate":8585,"Ġproc":8586,"Ġlogs":8587,"moving":8588,"ĠHandle":8589,"ĠXcode":8590,"Ġconnected":8591,"Ġtransfer":8592,"Ġ'.'":8593,"dicate":8594,"Short":8595,"Ġcreator":8596,"Transaction":8597,"symmetrical":8598,"('<%":8599,"activity":8600,"listener":8601,"unctools":8602,"Deleter":8603,"ĠDocument":8604,"Ori":8605,"Used":8606,"jpg":8607,"Ñĸ":8608,"atal":8609,"cepted":8610,"Ġbeta":8611,"cogn":8612,"chor":8613,"unused":8614,"ism":8615,"construct":8616,"take":8617,"Ġ256":8618,"ĠPrint":8619,"ĠNew":8620,"ouquet":8621,"noti":8622,"Ġchecker":8623,"Ġbasename":8624,"URCE":8625,"241":8626,"cycle":8627,"Book":8628,"2011":8629,"Ġbackground":8630,"Ġ2006":8631,"slash":8632,"({\"":8633,"finite":8634,"Ġsetuptools":8635,"ĠPROF":8636,"SyntaxError":8637,"audio":8638,"è´§":8639,"UPERUSER":8640,"enchmark":8641,"220":8642,"Basic":8643,"DL":8644,"FER":8645,"Func":8646,"border":8647,"blah":8648,"gamma":8649,"kill":8650,"mg":8651,"vp":8652,"åľ":8653,"čĊĠ":8654,"ģ¯":8655,"Ġfew":8656,"Ġfragment":8657,"Ġband":8658,"Ġwerkzeug":8659,"))[":8660,"='/":8661,"Ġangle":8662,"\"\"\"\\":8663,"Ġpartial":8664,"ENAME":8665,"Ġexpressions":8666,"IGENCE":8667,"COUN":8668,"Ġimported":8669,"Ġupdates":8670,"sually":8671,"Authentic":8672,"ĠLOSS":8673,"GLIGENCE":8674,"Seqs":8675,"editable":8676,"=======":8677,"01234":8678,"ĠSTRICT":8679,"Ġlonger":8680,"LINK":8681,"ĠPROFITS":8682,"ILE":8683,"MAT":8684,"]\\":8685,"aut":8686,"dp":8687,"fk":8688,"guest":8689,"Ġimplements":8690,"Ġrestriction":8691,"Ġtransport":8692,"',),":8693,"colour":8694,"Ġstudent":8695,"ĠShould":8696,"spf":8697,"Ġdim":8698,"resolver":8699,"Ġenough":8700,"Continuous":8701,"RET":8702,"ĠBasic":8703,"libraries":8704,"ETIME":8705,"Proto":8706,"Ġargparse":8707,"izard":8708,"Collect":8709,"OPEN":8710,"realpath":8711,"Ġboundary":8712,"modify":8713,"ĠLoad":8714,"ĠNEGLIGENCE":8715,"ZB":8716,"epoch":8717,"nav":8718,"ring":8719,"Ã¡":8720,"æģ¯":8721,"always":8722,"Ġreactor":8723,"Ġsyn":8724,"chdir":8725,"union":8726,"Ġdefines":8727,"getcwd":8728,"Ġtol":8729,"Ġ{{":8730,"INF":8731,"ĠGOO":8732,"Ġenter":8733,"Ġenforce":8734,"ĠBack":8735,"ARGET":8736,"logical":8737,"ĠRo":8738,"Prop":8739,"Ġ{}'.":8740,"Ġshouldn":8741,"Ġperm":8742,"čĊĠĠ":8743,"URI":8744,"Ġbook":8745,"selector":8746,"Actions":8747,"iodic":8748,"Ġdeploy":8749,"Formatter":8750,"Ġplaceholder":8751,"pacity":8752,"boundary":8753,"ĠMoved":8754,"æĹ¶":8755,"sibly":8756,"Flags":8757,"FROM":8758,"RP":8759,"dh":8760,"suc":8761,"schedule":8762,"youtube":8763,"tier":8764,"Ġcsv":8765,"Ġfallback":8766,"Ġpie":8767,"peer":8768,"('{":8769,"continue":8770,"Ġconversion":8771,"ĠCor":8772,"Ġgive":8773,"Ġdescrib":8774,"Ġdigest":8775,"INST":8776,"INSERT":8777,"Fields":8778,"ĠWith":8779,"interfaces":8780,"Ġcompatible":8781,"Partition":8782,"objs":8783,"Tags":8784,"Ġmaps":8785,"windows":8786,"éĩı":8787,"=\"\",":8788,"codon":8789,"Temporary":8790,":'":8791,"Slider":8792,"bidden":8793,"jected":8794,"mq":8795,"|\\":8796,"Ġcycle":8797,"Ġ#@":8798,"Ġ123":8799,"ders":8800,"sca":8801,"REW":8802,"Ġmodulestore":8803,"LEFT":8804,"Ġgeom":8805,"queryset":8806,"signals":8807,"staff":8808,"mydate":8809,"ĠCount":8810,"tificates":8811,"ĠEND":8812,"Ġreplacement":8813,"Operator":8814,"Ġbytearray":8815,"XMLSchema":8816,"InvestorID":8817,"xxxxxxxx":8818,"æĬķèµĦèĢħä»£çłģ":8819,"irtual":8820,"TYPES":8821,"Agent":8822,"Greater":8823,"ama":8824,"btn":8825,"cu":8826,"cgl":8827,"embedding":8828,"za":8829,"Ġ################################":8830,"inline":8831,"stroke":8832,"decl":8833,"routes":8834,"Ġsan":8835,"ametri":8836,"additional":8837,"illi":8838,"Ġstuff":8839,"Ġimports":8840,"Ġgain":8841,"ĠWAY":8842,"Ġlogic":8843,"Storage":8844,"Ġpygame":8845,"prise":8846,"Radio":8847,"Ġjs":8848,"ridden":8849,"COOK":8850,"Ġregistered":8851,"Member":8852,"hasattr":8853,"tensors":8854,"LOCAL":8855,"Ġarr":8856,"Ġextended":8857,"certs":8858,"Optional":8859,"Ġquotes":8860,"training":8861,"crypto":8862,"Labels":8863,"WNER":8864,"ĠEVEN":8865,"gather":8866,"ĠIndexError":8867,"(')":8868,")._":8869,"BL":8870,"Non":8871,"Opt":8872,"cas":8873,"mand":8874,"smi":8875,"Ġslim":8876,"Ġwild":8877,"005":8878,"ĠSpa":8879,"ĠARE":8880,"food":8881,"focus":8882,"ussion":8883,"ENABLE":8884,"Ġsubclasses":8885,"Uncertain":8886,"Ġupgrade":8887,"translations":8888,"Ġtrailing":8889,"ä»ĵ":8890,"Ġabort":8891,"herited":8892,"MODULE":8893,"Ġfiltered":8894,"assertNotEqual":8895,"Ġremaining":8896,"ĠINCIDENT":8897,"IDDLE":8898,"Factor":8899,"Migration":8900,"Rect":8901,"[(":8902,"ares":8903,"gml":8904,"identi":8905,"lu":8906,"lar":8907,"nx":8908,"retries":8909,"Ġclause":8910,"Ġpor":8911,"coords":8912,"Ġmk":8913,"')):":8914,"adow":8915,"ĠTask":8916,"ĠADV":8917,"ĠCAR":8918,"ĠCloud":8919,"Ġdialog":8920,"ĠGE":8921,"ĠBLOCK":8922,"ORM":8923,"ĠRule":8924,"umed":8925,"umeri":8926,"DED":8927,"Ġkappa":8928,"Ġlaunch":8929,"Ġjinja":8930,"Ġinterfaces":8931,"Configured":8932,"FFFF":8933,"OPT":8934,"Register":8935,"ighbor":8936,"ĠPOSS":8937,"Ġlistener":8938,"Decoder":8939,"ä½ľ":8940,"æķ°":8941,"UncertainStateSet":8942,"ĠINCIDENTAL":8943,".'''":8944,":],":8945,">=":8946,"Custom":8947,"ILED":8948,"Mark":8949,"Wh":8950,"guid":8951,"tw":8952,"xis":8953,"}\\":8954,"ÑĢ":8955,"æĵį":8956,"that":8957,"Ġthumbnail":8958,"Ġpred":8959,"Ġnative":8960,"Ġinspect":8961,"pag":8962,"associ":8963,"vides":8964,"Ġdecoder":8965,"Ġfilesystem":8966,"Ġ*=":8967,"Ġkeywords":8968,"libs":8969,"titles":8970,"ĊĠĠĠĠĠĠĠĠĠĠĠĠĠĠĠĠĠĠĠĠĠĠĠĠĠĠĠĠĠĠĠĠĠĠĠĠĠĠĠĠĠĠĠĠĠĠĠĠĠĠĠ":8971,"0005":8972,"ĠChromium":8973,"TextAttr":8974,"Ġ90":8975,"Ġinstanti":8976,"tifications":8977,"Ġflat":8978,"ĠPOINTER":8979,"Ġcopied":8980,"ĠDAMAGE":8981,"ĠSERVICES":8982,"Ġstarted":8983,"CLIENT":8984,"CUREMENT":8985,"('</%":8986,"Ġconsidered":8987,"ĠDISCLAIMED":8988,"éĹ´":8989,"ĠADVISED":8990,"ĠPOSSIBILITY":8991,"æĵįä½ľ":8992,"RUP":8993,"Zero":8994,"ball":8995,"korean":8996,"rv":8997,"rmtree":8998,"sd":8999,"ulo":9000,"rename":9001,"tection":9002,"sians":9003,"Ġduration":9004,"setText":9005,"problem":9006,"Ġ26":9007,"Ġorm":9008,"Ġsever":9009,"scape":9010,"ipient":9011,"ospace":9012,"ĠRel":9013,"calcul":9014,"Ġlevels":9015,"326":9016,"Ġcolors":9017,"prites":9018,"Ġdistributions":9019,"Ġvalidator":9020,"levels":9021,"general":9022,"EXAM":9023,"disconnect":9024,"Domain":9025,"Ġserial":9026,"ĠDataType":9027,"Ġreplaced":9028,"ExecOrderField":9029,"requirement":9030,"Classifier":9031,"foreignkey":9032,"Ġexactly":9033,"ĠAndroid":9034,"vertices":9035,"WARNING":9036,"kely":9037,"ingerprint":9038,"'ve":9039,"/{":9040,"Dest":9041,"GS":9042,"NULL":9043,"Qgs":9044,"TL":9045,"`)":9046,"clause":9047,"dll":9048,"æĢ":9049,"degree":9050,"selfref":9051,"tively":9052,"ano":9053,"Ġbpy":9054,"chart":9055,"visions":9056,"Ġchart":9057,"bou":9058,"016":9059,"ferer":9060,"working":9061,"phrase":9062,"ĠHost":9063,"NameStr":9064,"Ġpokemon":9065,"ĠhasContent":9066,"ILD":9067,"equals":9068,"ABSTFN":9069,"Ġports":9070,"ĠIND":9071,"TEGER":9072,"Ġminutes":9073,"2006":9074,"ĠStream":9075,"visioner":9076,"tmpdir":9077,"ragma":9078,"Cursor":9079,"ClientError":9080,"Assign":9081,"ĠĠĠĠĠĠĠĠĠĠĠĠĠĠĠĠĠĠĠĠĠĠĠĠĠĠĠĠĠĠĠĠĠĠĠĠĠĠĠĠĠĠĠĠĠĠĠĠĠĠĠĠĠĠĠĠĠĠĠĠĠĠĠĠ":9082,"ĠEXEMPL":9083,"è¯¢":9084,"ĠPROCUREMENT":9085,"pacing":9086,"Ġterminal":9087,"ĠSUCH":9088,"ĠINTERRUP":9089,"ĠASCII":9090,"ĠGOODS":9091,"æĹ¶éĹ´":9092,"ĠEXEMPLARY":9093,",%":9094,"DK":9095,"Diff":9096,"LANG":9097,"Space":9098,"TA":9099,"cards":9100,"frappe":9101,"lp":9102,"slide":9103,"xA":9104,"zA":9105,"ĊĊĠĠĠĠĠĠĠĠĠĠĠĠĠĠĠĠĠĠĠĠĠĠĠ":9106,"infer":9107,"Ġcir":9108,"atoms":9109,"roken":9110,"roperly":9111,"Ġpow":9112,"Ġplease":9113,"Ġpromote":9114,"exer":9115,"chmod":9116,"getAttribute":9117,"('>\\":9118,"ople":9119,"allclose":9120,"filesystem":9121,"spon":9122,"Ġele":9123,"liststore":9124,"ĠvalueOf":9125,"INESS":9126,"ĠBlock":9127,"ĠBUS":9128,"askbot":9129,"ĠHEB":9130,"LEX":9131,"Ġcomputed":9132,"plural":9133,"ROSK":9134,"ĊĠĠĠĠĠĠĠĠĠĠĠĠĠĠĠĠĊĠĠĠĠĠĠĠĠĠĠĠĠĠĠĠ":9135,"ĠChange":9136,"_=''):":9137,"ADATA":9138,"ĠbuildAttributes":9139,"ĠbuildChildren":9140,"Ġagree":9141,"ĠTHEORY":9142,"('/>\\":9143,"Ġerrno":9144,"ĠexportAttributes":9145,"ĠexportChildren":9146,"datatype":9147,"Ġbitmap":9148,"HelperFor":9149,"Hosts":9150,"Ġiterations":9151,"ĠexportLiteralAttributes":9152,"ĠexportLiteralChildren":9153,"Ġprobably":9154,"ĠCAUSED":9155,"composite":9156,"difference":9157,"BigAutoField":9158,"ĠINTERRUPTION":9159,"ĠBUSINESS":9160,"ĠHEBREW":9161,"ROSKA":9162,"Go":9163,"Iteration":9164,"Mul":9165,"Pos":9166,"]\"":9167,"fragment":9168,"itial":9169,"kinter":9170,"solver":9171,"vbox":9172,"restore":9173,"Ġ'\"":9174,"Ġ'{{":9175,"Ġcrypto":9176,"Ġfonts":9177,"rog":9178,"Ġreview":9179,"Ġplayer":9180,"Ġtt":9181,"Ġam":9182,"Ġmagic":9183,"eting":9184,"apsed":9185,"ĠCur":9186,"ĠCustom":9187,"Ġdispatch":9188,"ĠOper":9189,"ĠMS":9190,"Ġunused":9191,"([],":9192,"Ġposix":9193,"Ġregard":9194,"UPPORT":9195,"Ġ2004":9196,"Ġtensors":9197,"FromString":9198,"bottom":9199,"aterial":9200,"ĠCommandline":9201,"ĠInterface":9202,"ĠManagement":9203,"ĠConnection":9204,"/(":9205,"EQUAL":9206,"MAN":9207,"PR":9208,"emit":9209,"ior":9210,"pull":9211,"æĿ":9212,"čĊĠĠĠĠ":9213,"Ġed":9214,"rea":9215,"ality":9216,"Ġsleep":9217,"raps":9218,"ĠSince":9219,"ĠCOM":9220,"Ġdirection":9221,"ticast":9222,"ĠBad":9223,"colors":9224,"ĠHOW":9225,"Ġnewline":9226,"KeyField":9227,"ofp":9228,"sections":9229,"Created":9230,"assistant":9231,"converter":9232,"NaN":9233,"BoundedBigAutoField":9234,"declared":9235,"ĠHOWEVER":9236,":].":9237,"Clear":9238,"MIS":9239,"Site":9240,"Scalar":9241,"TOP":9242,"gtk":9243,"hb":9244,"lg":9245,"vocab":9246,"æĶ":9247,"æĸ":9248,"čĊĠĠĠĠĠĠĠĠĠĠĠĠ":9249,"ston":9250,"Ġiteration":9251,"Ġsile":9252,"Ġscreen":9253,"look":9254,"utter":9255,"Ġbi":9256,"Ġdx":9257,"assertAlmostEqual":9258,"ĠSession":9259,"ĠSkip":9260,"ĠAT":9261,"Repository":9262,"Ġsecure":9263,"Ġannot":9264,"readonly":9265,"STO":9266,"ĠUSA":9267,"foobar":9268,"openstack":9269,"Engine":9270,"matched":9271,"execution":9272,"Trader":9273,"ĠStatus":9274,"bitrary":9275,"Ġflush":9276,"ACKET":9277,"blue":9278,"protobuf":9279,"ĠServer":9280,"Ġwhole":9281,"ographic":9282,"ĠCONTROL":9283,"existent":9284,"ORMAL":9285,"+',":9286,"BD":9287,"GIN":9288,"Ip":9289,"Pay":9290,"PACE":9291,"TI":9292,"iro":9293,"mtime":9294,"ores":9295,"pod":9296,"ĊĊĊĠĠĠĠĠĠĠ":9297,"Ġtes":9298,"increment":9299,"onen":9300,"strap":9301,"aring":9302,"Ġcross":9303,"Ġdash":9304,"Ġ\"\"\")":9305,"optim":9306,"Ġcohort":9307,"addWidget":9308,"Ġvis":9309,"preview":9310,"REPO":9311,"phan":9312,"phone":9313,"ĠHas":9314,"1024":9315,"Provisioner":9316,"TERN":9317,"aching":9318,"=[]":9319,"rawler":9320,"Ġparents":9321,"Ġ2016":9322,"Ġsignals":9323,"ĠIPython":9324,"={\"":9325,"Security":9326,"IEW":9327,"ĠOverride":9328,"Ġcoefficients":9329,"ä¼ļ":9330,"roperlyConfigured":9331,")['":9332,"AER":9333,"Dummy":9334,"Gm":9335,"dynamic":9336,"gif":9337,"uk":9338,"Ġ~":9339,"Ġ\";\"":9340,"lobs":9341,"chromium":9342,"may":9343,"appro":9344,"***":9345,"\")]":9346,"ĠEC":9347,"ĠElement":9348,"ĠBook":9349,"netloc":9350,"ĠUTF":9351,"ressor":9352,"Properties":9353,"Ġnoqa":9354,"Ġklass":9355,"weet":9356,"Ġformatted":9357,"180":9358,"Ġ70":9359,"ĠJava":9360,"Ġdepends":9361,"Ġscripts":9362,"Ġflatten":9363,"TESTS":9364,"Ġ%}{%":9365,"reporter":9366,"Ġretries":9367,"ĠPermission":9368,"Ġindicates":9369,"ĠSelect":9370,"META":9371,"ĠLibrary":9372,"/\",":9373,"2000":9374,">\",":9375,"Usage":9376,"VM":9377,"_'":9378,"bile":9379,"mix":9380,"}:":9381,"}',":9382,"ÑĤ":9383,"ining":9384,"inet":9385,"ancer":9386,"Ġ'{%":9387,"Ġ\"(":9388,"mpo":9389,"serted":9390,"('',":9391,"------":9392,"olds":9393,"argtypes":9394,"']):":9395,"ĊĊĠĠ":9396,"Ġconv":9397,"ĠLin":9398,"pathname":9399,"Instr":9400,"ĠOp":9401,"codecs":9402,"Ġ34":9403,"Ġ36":9404,"254":9405,"ogram":9406,"Cookie":9407,"ucket":9408,"Ġarticle":9409,"Ġsuccessfully":9410,"PLES":9411,"ĠDefaults":9412,"ĠDIAER":9413,"cedure":9414,"entities":9415,"æŁ¥":9416,"ĠDIAERESIS":9417,"Dag":9418,"Sensor":9419,"TARGET":9420,"bridge":9421,"dldp":9422,"lm":9423,"oom":9424,"qt":9425,"srid":9426,"}),":9427,"remain":9428,"altern":9429,"album":9430,"erry":9431,"Ġidentity":9432,"Ġcenter":9433,"Ġ\"</":9434,"Ġscores":9435,"Ġdefinitions":9436,"itable":9437,"prot":9438,"Ġdidn":9439,"pores":9440,"Ġsecret":9441,"Ġsequences":9442,"Convert":9443,"modulestore":9444,"__(*":9445,"ĠRFC":9446,"comparison":9447,"Ġsock":9448,"Ġacross":9449,"axes":9450,"OptionInstr":9451,"Features":9452,"Display":9453,"Ġwebpage":9454,"Ċĉĉĉĉĉĉĉ":9455,"Ġsuccessful":9456,"bounds":9457,"Serialize":9458,"ĠRedistribution":9459,"lapse":9460,"sessment":9461,"æĹ¥æľŁ":9462,"10000":9463,"Ali":9464,"EY":9465,"HH":9466,"PDD":9467,"YY":9468,"Ġer":9469,"received":9470,"ordered":9471,"det":9472,"tip":9473,"Ġct":9474,"Ġthreshold":9475,"Ġmicro":9476,"___":9477,"Ġgreater":9478,"scr":9479,"ĠWSG":9480,"Ġpointer":9481,"Ġapps":9482,"ĠExpected":9483,"\"><":9484,"DATETIME":9485,"Ġqueries":9486,"skipUnless":9487,"Less":9488,"Ġscra":9489,"buttons":9490,"editor":9491,"Ġtrigger":9492,"activate":9493,"SOURCE":9494,"!!!!!!!!!!!!!!!!":9495,"Library":9496,"Ġimmediately":9497,"PDDM":9498,"'[":9499,"IRC":9500,"Mis":9501,"PF":9502,"]=":9503,"dating":9504,"hr":9505,"uv":9506,"uom":9507,"references":9508,"tet":9509,"Ġschedule":9510,"rices":9511,"ritical":9512,"008":9513,"Ġconsole":9514,"ĠSY":9515,"clf":9516,"-----------":9517,"Ġcoordinates":9518,"trim":9519,"Produc":9520,"Dependency":9521,"connected":9522,"Ġspecification":9523,"URN":9524,"Ġvertex":9525,"Ġtranslate":9526,"OFF":9527,"Ġfollowed":9528,"Ġoperators":9529,"Ġabsent":9530,"EXP":9531,"ValidationError":9532,"webcontext":9533,"QueryAccountField":9534,"Assert":9535,"Ġrequirements":9536,"CACHE":9537,"ĠQuery":9538,"ARCHAR":9539,"separator":9540,"After":9541,"MagicMock":9542,"NIST":9543,"Pi":9544,"[::":9545,"](":9546,"bz":9547,"goto":9548,"sma":9549,"udo":9550,"zon":9551,"reactor":9552,"demo":9553,"Ġrecent":9554,"ullet":9555,"urnal":9556,"007":9557,"launch":9558,"Ġeasy":9559,"protected":9560,"Ġpartitions":9561,"ĠNon":9562,"ĠBoston":9563,"validators":9564,"maps":9565,"Ġ\\\\":9566,"Ratio":9567,"Columns":9568,"Ġminimal":9569,"patcher":9570,"Ġlanguages":9571,"tmpfile":9572,"Ġlookahead":9573,"Ġ::=":9574,"æľŁè´§":9575,"TIMEOUT":9576,"Ġpolynomial":9577,"HEADER":9578,"onymous":9579,"rouped":9580,"ĠQUOT":9581,"Ġfully":9582,"0123456789":9583,":,":9584,":',":9585,"DC":9586,"Ignore":9587,"NORMAL":9588,"Play":9589,"RUN":9590,"Word":9591,"alect":9592,"fh":9593,"orse":9594,"erge":9595,"Ġcancel":9596,"Ġthrow":9597,"Ġtap":9598,"Ġinverse":9599,"ulated":9600,"-----":9601,"ety":9602,"009":9603,"ĊĊĊĠ":9604,"))]":9605,"ĠCre":9606,"ĠCity":9607,"spector":9608,"(\"#":9609,"Ġdirec":9610,"owen":9611,"Ġmeter":9612,"Ġmembers":9613,"ĠGra":9614,"ĠEmpty":9615,"velope":9616,"([-":9617,"External":9618,"calc":9619,"ardown":9620,"ĠInst":9621,"GetOutput":9622,"Ġcompress":9623,"Ġlinear":9624,"EDI":9625,"221":9626,"tiny":9627,"cyrillic":9628,"ĠKEY":9629,"2008":9630,"DefaultDeleter":9631,"Analy":9632,"drivers":9633,"Ġwebsite":9634,"Static":9635,"ĠDEBUG":9636,"symlinks":9637,"sidual":9638,"HttpRequest":9639,"riterion":9640,"${":9641,"Cal":9642,"]}":9643,"draft":9644,"gri":9645,"nm":9646,"xia":9647,"Ð¸":9648,"å¹":9649,"Ġquality":9650,"Ġ'?":9651,"Ġscaling":9652,"elf":9653,"echo":9654,"diag":9655,"experiment":9656,"rad":9657,"ratio":9658,"('__":9659,"('''":9660,"verbosity":9661,"arger":9662,"Ġconfir":9663,"spection":9664,"Ġear":9665,"ĠPay":9666,"Ġrp":9667,"Ġprompt":9668,"anging":9669,"ipher":9670,"ĠRen":9671,"noop":9672,"Ġprepare":9673,"Ġrout":9674,"Stat":9675,"Ġcompat":9676,"Ġcompany":9677,"Series":9678,"Memory":9679,"3333":9680,"DOMAIN":9681,"oose":9682,"serialized":9683,"swap":9684,"candi":9685,"sender":9686,"Any":9687,"realm":9688,"ĠOpenStack":9689,"Ġlooking":9690,"000000000000":9691,"Signature":9692,"Location":9693,"morphicStateSet":9694,"restype":9695,"Ġderiv":9696,"Ġevaluate":9697,"CRIPT":9698,"Ġsqlite":9699,"SparseTensor":9700,"StubOut":9701,"Repeal":9702,"ĠWSGI":9703,":')":9704,"BR":9705,"Called":9706,"Language":9707,"MON":9708,"RF":9709,"cv":9710,"fecycle":9711,"scores":9712,"review":9713,"allen":9714,"Ġspeed":9715,"Ġincoming":9716,"limited":9717,"Ġmm":9718,"cha":9719,"quent":9720,"quoted":9721,"Ġconven":9722,"struc":9723,"heap":9724,"Ġordered":9725,"Ġcover":9726,"Ġrng":9727,"ALF":9728,"Ġarea":9729,"lerance":9730,"joined":9731,"Ġnose":9732,"does":9733,"management":9734,"ABC":9735,"tkinter":9736,"quirement":9737,"accounts":9738,"Ġsubnets":9739,"WithMock":9740,"Ġarchiv":9741,"ĠEXCH":9742,"NECTION":9743,"Ġspecifying":9744,"ĠDISP":9745,"Ġspaces":9746,"Infinity":9747,"abstractmethod":9748,"ĠELST":9749,"Variant":9750,"StubOutWithMock":9751,"@@":9752,"Fl":9753,"Fact":9754,"Small":9755,"TT":9756,"Tax":9757,"TAG":9758,"gba":9759,"ifies":9760,"wt":9761,"Ġ################":9762,"anel":9763,"Ġcrt":9764,"urther":9765,"rites":9766,"sider":9767,"Ġdays":9768,"ĠTarget":9769,"Ġhaving":9770,"ĠStr":9771,"ĠSolution":9772,"ĠAP":9773,"parametri":9774,"ĠCa":9775,"ĠClass":9776,"ĠComment":9777,"Ġcome":9778,"reddit":9779,"Ġ400":9780,"CThostFtdcNotify":9781,"Ġadds":9782,"sentinel":9783,"224":9784,"Ġmatched":9785,"ĠContain":9786,"Ġready":9787,"Ġaggregate":9788,"Ġ2009":9789,"æľº":9790,"Codec":9791,"EVENT":9792,"uffle":9793,"rpm":9794,"Ġapprox":9795,"METADATA":9796,"Photo":9797,"CHECK":9798,"Ġgranted":9799,"ysical":9800,"';":9801,"CUR":9802,"Free":9803,"Total":9804,"VIEW":9805,"bank":9806,"cname":9807,"dx":9808,"green":9809,"square":9810,"wls":9811,"åº":9812,"seudo":9813,"Ġ''),":9814,"Ġsrf":9815,"Ġtgt":9816,"Ġobs":9817,"Ġbus":9818,"();":9819,"Ġhass":9820,"Ġextras":9821,"accent":9822,"ĠMigration":9823,"urlparse":9824,"Ġaltern":9825,"ddt":9826,"blems":9827,"CThostFtdcTransfer":9828,"Ġresponses":9829,"explicit":9830,"Ġspecifies":9831,"Selected":9832,"matching":9833,"arest":9834,"Ġverification":9835,"terminal":9836,"Transform":9837,"Ġswap":9838,"QuerySet":9839,"Ġmerged":9840,"ĠImproperlyConfigured":9841,"Ġliteral":9842,"DOCUMENTATION":9843,"Ġelems":9844,"WA":9845,"cases":9846,"ilo":9847,"rnn":9848,"slices":9849,"Ġà¤":9850,"seg":9851,"devices":9852,"memo":9853,"ermin":9854,"Ġphi":9855,"Ġtw":9856,"diere":9857,"Ġwatch":9858,"Ġ(@":9859,"ula":9860,"andas":9861,"('')":9862,"Ġdns":9863,"Ġ[(\"":9864,"setEqual":9865,"Ġstride":9866,"ĠACTION":9867,"ĠLink":9868,"Replay":9869,"Internal":9870,"trigger":9871,"acle":9872,"Ġyes":9873,"mmar":9874,"ĠWork":9875,"Programming":9876,"Ġcurr":9877,"ROID":9878,"Ġendorse":9879,"IPS":9880,"Ġ'\\\\":9881,"LOW":9882,"Ġchoose":9883,"imators":9884,"IBLE":9885,"Ġwindows":9886,"SimpleTestCase":9887,"Ġretrie":9888,"cumflex":9889,"InstrumentID":9890,"Distribution":9891,"latin":9892,"incip":9893,"è¯ģéĩĳ":9894,"Ġdecorator":9895,"ĠView":9896,"ä¿Ŀè¯ģéĩĳ":9897,"ĠCARON":9898,"æŁ¥è¯¢":9899,"Csma":9900,"dm":9901,"ek":9902,"hf":9903,"ipt":9904,"mx":9905,"Ñģ":9906,"Ġ####":9907,"Ġforeign":9908,"Ġinstrument":9909,"Ġ(<":9910,"une":9911,"ulls":9912,"andbox":9913,"quad":9914,"Ġugettext":9915,"fileobj":9916,"----------":9917,"ĠGiven":9918,"ĠMIT":9919,"figure":9920,"Ġpayment":9921,"ossible":9922,"Ġ}),":9923,"Ġ48":9924,"ICK":9925,"Ġindexes":9926,"Ġvisible":9927,"creation":9928,"0006":9929,"expectedresults":9930,"2016":9931,"Ġcorpus":9932,"Ġoptparse":9933,"CEPT":9934,"Ġgoing":9935,"Ġdownloaded":9936,"Ġzipfile":9937,"ĠCompute":9938,"ĠGeometry":9939,"Background":9940,"rotate":9941,")+'":9942,"METHO":9943,"Ġhooks":9944,"attachment":9945,"itude":9946,"Ġfigure":9947,"Ġ------------------------------------------------":9948,"COOKIE":9949,"$')":9950,"Full":9951,"MARK":9952,"XY":9953,"]})":9954,"_{":9955,"nzb":9956,"xB":9957,"yy":9958,"æĮ":9959,"Ġslot":9960,"dif":9961,"Ġbg":9962,"Ġ[%":9963,"pared":9964,"openerp":9965,"006":9966,"health":9967,"endTag":9968,"fox":9969,"lenv":9970,"EqualSign":9971,"Ġseg":9972,"INDEX":9973,"lica":9974,"assertEqualAnd":9975,"linear":9976,"predictions":9977,"nsup":9978,"ENSION":9979,"ogc":9980,"Ġtimezone":9981,"CThostFtdcBroker":9982,"warehouse":9983,"Ġboot":9984,"ListCtrl":9985,"UserID":9986,"Ġopcode":9987,"Ġoverridden":9988,"Running":9989,"TreeCtrl":9990,"Ġrelativedelta":9991,"collections":9992,"Ġnamedtuple":9993,"icrosoft":9994,"Ġconflict":9995,"Ġintegration":9996,"99999999":9997,"Ġbuttons":9998,"Ġtrunc":9999,"videos":10000,"Ġletter":10001,"åĲĪçº¦ä»£çłģ":10002,"ĠQUOTATION":10003,"assertEqualAndEqualSign":10004,"Kind":10005,"La":10006,"Sim":10007,"Tube":10008,"cla":10009,"salt":10010,"Ġls":10011,"reat":10012,"Ġ'').":10013,"endian":10014,"Ġrelevant":10015,"urations":10016,"liz":10017,"lick":10018,"Ġbal":10019,"Ġbundle":10020,"coped":10021,"ĠCIRC":10022,"intf":10023,"Ġ224":10024,"Ġunexpected":10025,"ĠEmail":10026,"noise":10027,"Ġrobot":10028,"SECRE":10029,"connections":10030,"Ġservers":10031,"ä»¶":10032,"tilde":10033,"Allow":10034,"Interval":10035,"Shape":10036,"sisten":10037,"Ġlinprog":10038,"ĠConfiguration":10039,"surface":10040,"ToolBar":10041,"ĠHeader":10042,"Ġperformance":10043,"Ġwrapped":10044,"Ġrepeat":10045,"Binary":10046,"Ġsimply":10047,"witter":10048,"Ġtested":10049,"SECRET":10050,"Copyright":10051,"EMAIL":10052,"QObject":10053,"RNA":10054,"Retrieve":10055,"VAC":10056,"categories":10057,"eof":10058,"gge":10059,"hint":10060,"nr":10061,"xE":10062,"xp":10063,"yrillic":10064,"ç®":10065,"éĶ":10066,"lead":10067,"meters":10068,"ancy":10069,"asket":10070,"urchase":10071,"uts":10072,"Ġws":10073,"otu":10074,"opro":10075,"))),":10076,"ĠSto":10077,"tax":10078,"Ġguess":10079,"Ġgamma":10080,"Ġdetect":10081,"probs":10082,"---------":10083,"trip":10084,"Ġlst":10085,"ĠNorm":10086,"joint":10087,"STY":10088,"chemas":10089,"Ġdefaultdict":10090,"formset":10091,"''')":10092,"trols":10093,"indexes":10094,"Ġlight":10095,"Ġbases":10096,"Bool":10097,"Ġinternet":10098,"Posi":10099,"Characters":10100,"DOWN":10101,"Objects":10102,"OpenDay":10103,"InterfaceAddress":10104,"documentation":10105,"Processor":10106,"CREATE":10107,"Ġpersons":10108,"åĪĨ":10109,"FIELDS":10110,"chanism":10111,"Certificate":10112,"Ġstatistics":10113,"ualenv":10114,"EXAMPLES":10115,":\")":10116,";&":10117,"Identity":10118,"MC":10119,"Pr":10120,"[%":10121,"jc":10122,"junction":10123,"rn":10124,"turtle":10125,"¢æĪ·":10126,"ç§":10127,"seen":10128,"Ġpull":10129,"Ġpragma":10130,"geos":10131,"Ġnzb":10132,"Ġtries":10133,"defer":10134,"Ġaren":10135,"sively":10136,"tack":10137,"Ġguest":10138,"**(":10139,"Ġcoverage":10140,"Init":10141,"ERY":10142,"ances":10143,"Ġproduction":10144,"shutdown":10145,").\"\"\"":10146,"Ġlat":10147,"Ġ```":10148,"ĠĠĠĠĠĠĠĠĠĠĠĠĠĠĠĠĠ":10149,"ĠRed":10150,"configs":10151,"archy":10152,"Ġsha":10153,"weighted":10154,"processors":10155,"specs":10156,"assertRaisesRegex":10157,"Ġgeneral":10158,"Ġ2017":10159,"Ġexecuted":10160,"Ġarbitrary":10161,"{}/":10162,"Interrupt":10163,"Ġrefresh":10164,"Ġsending":10165,"replication":10166,"Ġinitializer":10167,"BBBB":10168,"uestion":10169,"ĠSymbol":10170,"Ġhigher":10171,"å®¢æĪ·":10172,"Ġembedded":10173,"umerical":10174,"!\"":10175,"512":10176,"AIL":10177,"CAP":10178,"Fake":10179,"IV":10180,"segments":10181,"Ġincorrect":10182,"fixtures":10183,"Ġ(%(":10184,"Ġiso":10185,"Ġtogether":10186,"esh":10187,"Ġusually":10188,"intro":10189,"Ġresolved":10190,"Ġuncertain":10191,"prep":10192,"TestSuite":10193,"Ġclassi":10194,"Deferred":10195,"GetClassDefaultAttributes":10196,"miss":10197,"COM":10198,"POS":10199,"Ġ|=":10200,"scriptors":10201,"ofc":10202,"CLU":10203,"Ġdiffs":10204,"ioxia":10205,"egin":10206,"Ġduplicate":10207,"symlink":10208,"Controller":10209,"hours":10210,"Ġaccepts":10211,"Ġrounding":10212,"ä¿¡":10213,"numerator":10214,"ĠHowever":10215,"ĠNaN":10216,"rolled":10217,"COUNT":10218,"onential":10219,"ReplayAll":10220,"incipal":10221,">\")":10222,"Done":10223,"FLEX":10224,"Neg":10225,"Uri":10226,"aux":10227,"cn":10228,"rsa":10229,"slots":10230,"Ã³":10231,"antity":10232,"Ġpt":10233,"Ġplain":10234,"Ġol":10235,"Ġbel":10236,"Ġisol":10237,"setCurrent":10238,"assertAccess":10239,"ĠALL":10240,"uman":10241,"strong":10242,"Invariants":10243,"appings":10244,"datasets":10245,"ĠONE":10246,"Ġxb":10247,"fieldname":10248,"Ġ404":10249,"spawn":10250,"arness":10251,"CThostFtdcErr":10252,"parseError":10253,"primitive":10254,"Direct":10255,"Ġdocstring":10256,"=[])":10257,"Accept":10258,"extends":10259,"streams":10260,"Verification":10261,"what":10262,"Events":10263,"Ġrenderer":10264,"HTTPClientError":10265,"multipart":10266,"UMFLEX":10267,"OutputStream":10268,"è¯·":10269,"DEFINE":10270,"ctypes":10271,"PARATOR":10272,"RootEdge":10273,"combobox":10274,"Ġidentify":10275,"Software":10276,"utcnow":10277,"Archive":10278,"Ġappended":10279,"Collector":10280,"ĠCIRCUMFLEX":10281,":]:":10282,"DNA":10283,"Place":10284,"_('":10285,"fm":10286,"grees":10287,"nex":10288,"obs":10289,"slave":10290,"ught":10291,"xsi":10292,"yield":10293,"zz":10294,"onds":10295,"Ġfunctools":10296,"Ġpyspark":10297,"Ġsprites":10298,"Ġtail":10299,"dictionary":10300,"uni":10301,"abort":10302,"Ġexclu":10303,"Ġeas":10304,"Ġeps":10305,"ĠLabel":10306,"Report":10307,"ocial":10308,"Ġmaintain":10309,"Ġleading":10310,"Ġsouth":10311,"111":10312,"Ġcontained":10313,"Ġformatter":10314,"ĠDef":10315,"monitor":10316,"such":10317,"Ġ2008":10318,"Creates":10319,"FAILED":10320,"Lookup":10321,"AttributeChecker":10322,"Ġintegers":10323,"Ġplugins":10324,"timesince":10325,"Ġmarkup":10326,"ĠSHA":10327,"branches":10328,"LOGGER":10329,"evolve":10330,"ĠHere":10331,"Ð°Ð":10332,"Ġassumed":10333,"Extractor":10334,"ĠExtract":10335,"Ġsilent":10336,"RepealField":10337,"OpenDaylight":10338,"BAD":10339,"Category":10340,"GO":10341,"RU":10342,"Round":10343,"Win":10344,"iri":10345,"wheel":10346,"xD":10347,"inted":10348,"removed":10349,"tein":10350,"Ġ\"&":10351,"Ġ\"\":":10352,"Ġborder":10353,"Ġmiddleware":10354,"sizes":10355,"setDisabled":10356,"assertContains":10357,"Ġandroid":10358,"ĠAss":10359,"ĠAWS":10360,"toString":10361,"\")[":10362,"\")],":10363,"ici":10364,"Ġrhs":10365,"ĠDEV":10366,"apple":10367,"INIT":10368,"triple":10369,"anger":10370,"shards":10371,"msvc":10372,"cairo":10373,"Ġpathname":10374,"ĠInfo":10375,"Ġ59":10376,"manent":10377,"ASC":10378,"ĊĠĠĠĠĠĠĠĠĠĠĠĠĠĠĠĠĊĠĠĠĠĠĠĠ":10379,"contenttypes":10380,"roots":10381,"votes":10382,"COUR":10383,"transactions":10384,"DOM":10385,"xxx":10386,"Groups":10387,"herits":10388,"recent":10389,"Ġlocations":10390,"Alter":10391,"DefaultSize":10392,"Compute":10393,"annotations":10394,"Ġetree":10395,"boardInterrupt":10396,"ĠResource":10397,"providers":10398,"sigma":10399,"Ġcleanup":10400,"Ġactivity":10401,"Ġgradients":10402,"digital":10403,"denominator":10404,"ShaderNode":10405,"ĠAbout":10406,"deriv":10407,"PRIV":10408,"Ġguar":10409,"!=":10410,"!\")":10411,",_":10412,"=\\":10413,"Ln":10414,"NW":10415,"ban":10416,"Ġ=========================================================================":10417,"ticks":10418,"Ġcast":10419,"enc":10420,"asarray":10421,"assessment":10422,"Ġpub":10423,"Ġintro":10424,"courses":10425,"isual":10426,"quotes":10427,"Ġstandalone":10428,"ĠAB":10429,"Ġemit":10430,"Ġimportant":10431,"ĠForeignKey":10432,"Represent":10433,"='%":10434,"Incremental":10435,"Ġxmodule":10436,"Ġ38":10437,"Ġwhitespace":10438,"omer":10439,"ĠĠĠĠĠĠĠĠĠĠĠĠĠĠĠĠĠĠ":10440,"ivot":10441,"Ġcheckpoint":10442,"iterations":10443,"doctest":10444,"ABEL":10445,"Ġstarts":10446,"Separ":10447,"specified":10448,"ĠGeneric":10449,"150":10450,"509":10451,"CONST":10452,"rfc":10453,"ANDROID":10454,"finish":10455,"wire":10456,"TradingAccountField":10457,"****************************************************************":10458,"Ġmimetype":10459,"ynchronize":10460,"åĳĺä»£çłģ":10461,"Ġcrtwls":10462,"ggered":10463,"LP":10464,"OIN":10465,"Solver":10466,"ajax":10467,"idi":10468,"katakana":10469,"migrations":10470,"çĽ":10471,"Ġ========":10472,"Ġfun":10473,"Ġ\"|":10474,"Ġplaces":10475,"Ġtabs":10476,"lope":10477,"cove":10478,"()}":10479,"idle":10480,"Ġdynamic":10481,"conc":10482,"ĠCer":10483,"Ġgui":10484,"ĠFilter":10485,"Ġdetected":10486,"strp":10487,"Ġassigned":10488,"ocked":10489,"coded":10490,"Ġallocation":10491,"Ġ35":10492,"tempdir":10493,"Ġmoment":10494,"Ġ['-":10495,"returncode":10496,"Ġchars":10497,"UNIT":10498,"IOError":10499,"FAIL":10500,"Ġfuncs":10501,"Ġfinish":10502,"tmpl":10503,"stylesheet":10504,"lette":10505,"Compiler":10506,"Ġcertain":10507,"Ġgoverned":10508,"blk":10509,"Ġ/>')":10510,"Ġcompletely":10511,"ĠRegression":10512,"assertNotIn":10513,"uzz":10514,"å¸Ĳ":10515,"Ġutility":10516,"ĠPlugin":10517,"Ġhessian":10518,"IDDLEWARE":10519,")})":10520,",(":10521,".'))":10522,"212":10523,"ASE":10524,"CXX":10525,"Folder":10526,"Sl":10527,"]_":10528,"ael":10529,"guess":10530,"justed":10531,"syn":10532,"tcp":10533,"ude":10534,"Ġ----------------":10535,"inations":10536,"instrument":10537,"readed":10538,"alarm":10539,"Ġite":10540,"Ġthough":10541,"Ġreduce":10542,"Ġturtle":10543,"defs":10544,"Ġblack":10545,"Ġbroadcast":10546,"cool":10547,"concatenate":10548,"']},":10549,"hemer":10550,"Ġcoordinate":10551,"igi":10552,"Ġproblems":10553,"Ġlarger":10554,"logo":10555,"ĠRandom":10556,"Ġ44":10557,"Ġcolli":10558,"ĠVariable":10559,"Ġ###":10560,"2949":10561,"serif":10562,"Ġqwebcontext":10563,"dicted":10564,"ĠEnable":10565,"Execution":10566,"EMENT":10567,"Ġmonkey":10568,"Ġindicating":10569,"ĠCOPY":10570,"published":10571,"Ġpeer":10572,"ĠAccount":10573,"å¯Ĩ":10574,"sistency":10575,"Ġxbmc":10576,"OutputStreamWrapper":10577,"hemeral":10578,"/\\":10579,"=+":10580,"AX":10581,"BLOCK":10582,"Fi":10583,"Fixed":10584,"GLen":10585,"ming":10586,"torrent":10587,"vg":10588,"æµ":10589,"é¢":10590,"orld":10591,"Ġcity":10592,"Ġfurther":10593,"Ġomitted":10594,"Ġintern":10595,"lify":10596,"econ":10597,"coordinates":10598,"Ġdd":10599,"Ġdaemon":10600,"__))":10601,"ils":10602,"verts":10603,"vie":10604,"Ġdevices":10605,"program":10606,"Reverse":10607,"ussian":10608,"owski":10609,"])]":10610,"Ġchr":10611,"Console":10612,"ĠBar":10613,"Testing":10614,"ĠRPC":10615,"compiled":10616,"umeration":10617,"ndarray":10618,"Combo":10619,"within":10620,"Design":10621,"Ġsoft":10622,"checksum":10623,"pider":10624,"ĠExec":10625,"Ġmarkers":10626,"Ġuploaded":10627,"arehouse":10628,"Visible":10629,"Ġmodifiers":10630,"udp":10631,"ĠZIP":10632,"---+":10633,"([[[":10634,"OKEN":10635,"Ġdisplayed":10636,"ĊĠĠĠĠĠĠĠĠĠĠĠĠĠĠĠĠĠĠĠĠĠĠĠĠĠĠĠĠĠĠĠĠĠĠĠĠĠĠĠĠĠĠĠĠĠĠĠĠĠĠĠĠĠ":10637,"cleaned":10638,"=_(\"":10639,"Ġpreviously":10640,"Ġpolymorphic":10641,"ĠNeither":10642,"COLOR":10643,"ĠValidate":10644,"Ġrecursive":10645,"TeX":10646,"InvestorPositionField":10647,"0338":10648,"HostsFile":10649,"STYLE":10650,"GLenum":10651,"230":10652,"IFI":10653,"Kioxia":10654,"Switch":10655,"VARCHAR":10656,"ZZ":10657,"]/":10658,"bre":10659,"gam":10660,"lstrip":10661,"Ġ99":10662,"Ġlyr":10663,"iny":10664,"Ġ'{}":10665,"Ġcen":10666,"atural":10667,"Ġthird":10668,"Ġps":10669,"ames":10670,"ingo":10671,"rases":10672,"isnan":10673,"ilation":10674,"ĠTR":10675,"assertSerialized":10676,"Ġhit":10677,"Ġ199":10678,"party":10679,"Ġdecl":10680,"keywords":10681,"perms":10682,"lenium":10683,"Ġsensor":10684,"\"]),":10685,"Ġdatasets":10686,"irth":10687,"ĠUsing":10688,"workflow":10689,"phases":10690,"Ġshare":10691,"204":10692,"conflict":10693,"Ġmetavar":10694,"ĠUserFactory":10695,"ĠEnforce":10696,"implicit":10697,"Append":10698,"Headers":10699,"ĠREG":10700,"bytearray":10701,"QtGui":10702,"loyee":10703,"hexdigest":10704,"legal":10705,"Ġdatatype":10706,"unication":10707,"Authorization":10708,"builtins":10709,"Gradient":10710,"vigation":10711,"spider":10712,"WINDO":10713,"ĠCOPYING":10714,"NONE":10715,"glish":10716,"kf":10717,"kube":10718,"qdn":10719,"rating":10720,"targ":10721,"describe":10722,"Ġiris":10723,"Ġfore":10724,"Ġreceive":10725,"Ġaux":10726,"rift":10727,"directed":10728,"pedia":10729,"abe":10730,"mations":10731,"ĠStep":10732,"ĠInt":10733,"Ġdetail":10734,"Ġcourses":10735,"Ġrrp":10736,"Ġprod":10737,"ĠOK":10738,"Ġydl":10739,"codename":10740,"Ġ('/":10741,"ĠdataSize":10742,"ĠNull":10743,"colon":10744,"gsm":10745,"cach":10746,"ĠHellanzb":10747,"Ġchecksum":10748,"Ġperiodic":10749,"Ġunderlying":10750,"statistics":10751,"ToType":10752,"ISO":10753,"Ġcharge":10754,"Ġ'/')":10755,"OLD":10756,"Ġduplic":10757,"TODO":10758,"Ġindicate":10759,"Ġdecoded":10760,"ĠCThostFtdcQry":10761,"TransferField":10762,"ĠGeoIP":10763,"........":10764,"________":10765,"Ġbottom":10766,"ĠArguments":10767,"bouquet":10768,"KioxiaProvisioner":10769,"!'":10770,")==":10771,")'),":10772,"210":10773,"CG":10774,"MULT":10775,"Screen":10776,"VC":10777,"ah":10778,"aw":10779,"drive":10780,"eb":10781,"flavors":10782,"mate":10783,"material":10784,"plist":10785,"want":10786,"Ġescaped":10787,"Ġrestart":10788,"Ġinvenio":10789,"Ġmut":10790,"Ġtodo":10791,"assertQuery":10792,"via":10793,"ultin":10794,"Ġemp":10795,"Ġnamespaces":10796,"Ġcomes":10797,"Ġlr":10798,"ĠWill":10799,"010":10800,"ĠURI":10801,"Comple":10802,"Ġpassing":10803,"grave":10804,"utex":10805,"runs":10806,"Ġshall":10807,"bsocket":10808,"misc":10809,"credit":10810,"0003":10811,"transformer":10812,"Arrow":10813,"Ġbuilding":10814,"NodeContainer":10815,"ĠJo":10816,"deva":10817,"Ġdepending":10818,"cular":10819,"chool":10820,"letter":10821,"Ġjoincond":10822,"ĠResult":10823,"Extra":10824,"superuser":10825,"expandtab":10826,"shiftwidth":10827,"unctuation":10828,"codings":10829,"Renderer":10830,"written":10831,"colours":10832,"CLUDE":10833,"ä¿¡æģ¯":10834,"Ġiteritems":10835,"assertQuerysetEqual":10836,";\\":10837,"AK":10838,"Bouquet":10839,"Bucket":10840,"Cmd":10841,"Drive":10842,"Fragment":10843,"Tcl":10844,"Two":10845,"cross":10846,"nop":10847,"ãģ":10848,"Ġfrequency":10849,"Ġpprint":10850,"Ġnumeric":10851,"Ġss":10852,"definition":10853,"coverage":10854,"getter":10855,"vile":10856,"ĠSave":10857,"ĠSparse":10858,"mentError":10859,"ĠAM":10860,"ĠAction":10861,"ĠCLA":10862,"ĠPackage":10863,"ĠMet":10864,"Ġgetopt":10865,"Ġpara":10866,"temperature":10867,"compressed":10868,"Ġ45":10869,"Ġfunctionality":10870,"corpus":10871,"checkout":10872,"2048":10873,"Ġlikely":10874,"Ġexponent":10875,"neutron":10876,"TRANS":10877,"monospace":10878,"connector":10879,"ĠSetup":10880,"cannot":10881,"duces":10882,"hashes":10883,"Height":10884,"graphy":10885,"Ġmanually":10886,"Ġnormalized":10887,"ĠKeyword":10888,"Ġdifferen":10889,"Ġinitialization":10890,"Ġcloud":10891,"Ġchannels":10892,"ĠSearch":10893,"PYTHON":10894,"Ġoccurs":10895,"Ġassignment":10896,"Ġsigma":10897,"Ġcompleted":10898,"RESULT":10899,"Ġmarked":10900,"Ġcandidate":10901,"Ġpieces":10902,"å¹³":10903,"structed":10904,"ç®Ĺ":10905,")|":10906,">\"\"\")":10907,"AWS":10908,"Car":10909,"COR":10910,"Git":10911,"Safe":10912,"bed":10913,"due":10914,"wild":10915,"ĠĊĊĠĠĠ":10916,"Ġcinder":10917,"ens":10918,"Ġfour":10919,"Ġrestore":10920,"Ġpn":10921,"Ġinline":10922,"ecome":10923,"Ġwheel":10924,"opener":10925,"Ġ10000":10926,"trunk":10927,"ĠSum":10928,"ĠSign":10929,"tok":10930,"ĠLay":10931,"ĠFrame":10932,"Ġcost":10933,"Include":10934,"Ġmemo":10935,"Ġprox":10936,"ĠMin":10937,"Ġunion":10938,"Ġunchanged":10939,"pyc":10940,"ĠBe":10941,"journal":10942,"Ġweak":10943,"minus":10944,"pename":10945,"Ġmoved":10946,"litch":10947,"Ġlazy":10948,"ROW":10949,"2022":10950,"226":10951,"registered":10952,"ĠQueue":10953,"=[('":10954,"Ġformatting":10955,"Ġintersection":10956,"LOB":10957,"ItemId":10958,"ĠURLs":10959,"6729":10960,"BUILD":10961,"Registry":10962,"CCESS":10963,"includes":10964,"Ġsmaller":10965,"SeqMatrix":10966,"Platform":10967,"bias":10968,"softtabstop":10969,"Ġissues":10970,"Ġhomeassistant":10971,"Linked":10972,"AsciiTrace":10973,"(\"\")":10974,"performance":10975,"æĢģ":10976,"nsupported":10977,"AlterField":10978,"strptime":10979,"ĠEnforcementError":10980,"110":10981,"=\"\"\"":10982,"?\\":10983,"[\\":10984,"clock":10985,"pot":10986,"places":10987,"van":10988,"yml":10989,"ģæ":10990,"tis":10991,"arily":10992,"Ġcar":10993,"Ġpas":10994,"getenv":10995,"Ġogr":10996,"atever":10997,"ĠTake":10998,"ĠTimer":10999,"Ġhold":11000,"filenames":11001,"toc":11002,"ĠFA":11003,"reated":11004,"rypt":11005,"ĠGtk":11006,"Conv":11007,"Ġratio":11008,"ENV":11009,"Ġsubs":11010,"calculate":11011,"Ġapplies":11012,"227":11013,"itecture":11014,"ToOne":11015,"160":11016,"Selenium":11017,"community":11018,"Vertex":11019,"ĠISO":11020,"Ġretval":11021,"centage":11022,"Frames":11023,"Ġtell":11024,"TESTFN":11025,"Ġrealm":11026,"Ġserialize":11027,"ExecOrderActionField":11028,"transpose":11029,"Ġsmart":11030,"ĠAssert":11031,"'+',":11032,"bian":11033,"Ġdatas":11034,"CHEMA":11035,"Ġattachment":11036,"bdry":11037,"Ġcatalog":11038,"multiply":11039,"StockDisposalActionField":11040,"smartindent":11041,"allenge":11042,"parametrize":11043,"'#":11044,"232":11045,"Eval":11046,"Json":11047,"MASK":11048,"RST":11049,"SITE":11050,"TOKEN":11051,"_]":11052,"dy":11053,"efs":11054,"vv":11055,"requested":11056,"Ġ=========":11057,"Ġcare":11058,"ene":11059,"Ġrect":11060,"ament":11061,"Ġmocked":11062,"unce":11063,"adapter":11064,"oney":11065,"etry":11066,"ĠSSL":11067,"ĠCopy":11068,"fileno":11069,"ĠPlace":11070,"foot":11071,"lend":11072,"Ġproduce":11073,"agtail":11074,"\"][":11075,"Ġosv":11076,"...\")":11077,"subs":11078,"dentical":11079,"Ġpreserve":11080,"Sets":11081,"grams":11082,"rontend":11083,"checker":11084,"CHAR":11085,"Ġjava":11086,"Addr":11087,"Ġhttplib":11088,"ĠChar":11089,"Ġopener":11090,"ĠFormat":11091,"webdriver":11092,"Ġcrash":11093,"Currency":11094,"æľĢ":11095,"Ġdebugging":11096,"OpenAccountField":11097,"Ġlooks":11098,"BOOK":11099,"ĠRadio":11100,"redirects":11101,"Ġsymlink":11102,"ĠAllow":11103,"comes":11104,"Ġinvoked":11105,"ceeds":11106,"CancelAccountField":11107,"PKG":11108,"SerialField":11109,"ĠAUTHORS":11110,"RESPON":11111,"ĠCalculate":11112,"'(":11113,"*'":11114,"=\",":11115,"Pe":11116,"Pag":11117,"Rpc":11118,"bee":11119,"cule":11120,"crc":11121,"hes":11122,"horizontal":11123,"tbody":11124,"uent":11125,"Ġlayers":11126,"throw":11127,"lent":11128,"asn":11129,"assets":11130,"Ġinference":11131,"losses":11132,"Ġbr":11133,"ital":11134,"paper":11135,"']\"})":11136,"Ġgather":11137,"Ġdeli":11138,"linspace":11139,"ĠPL":11140,"poses":11141,"igs":11142,"ĠOWNER":11143,"ĠMAT":11144,"Ġmaking":11145,"Ġparallel":11146,"energy":11147,"alite":11148,"Chart":11149,"Ġtrying":11150,"ĠInstall":11151,"neighbor":11152,"ĠstartTag":11153,"Ġzinfo":11154,"POINTER":11155,"prefixes":11156,"Article":11157,"ByName":11158,"Ġoperand":11159,"Ġexecutor":11160,"samp":11161,"Ġ2007":11162,"('/',":11163,"DefaultPosition":11164,"Ġhandles":11165,"nonce":11166,"ĠCreates":11167,"diffs":11168,"Ġmanage":11169,"Connect":11170,"Ġsplits":11171,"Ġinclusion":11172,"bindings":11173,"something":11174,"ĠQgsVector":11175,"ĠOrderedDict":11176,"ĠBytes":11177,"Ġ-----------------------------------------------------------------------------":11178,"ĠChoice":11179,"Ġlegacy":11180,"ĠStatic":11181,"LANGU":11182,"errypy":11183,"29496729":11184,"*',":11185,"-',":11186,";')":11187,">).":11188,"AVE":11189,"Identifier":11190,"NI":11191,"Public":11192,"Push":11193,"UUID":11194,"dtemp":11195,"front":11196,"frequency":11197,"imap":11198,"mixed":11199,"sans":11200,"solve":11201,"æ±":11202,"already":11203,"Ġcp":11204,"Ġcss":11205,"Ġflavor":11206,"Ġreuse":11207,"Ġpcs":11208,"Ġsquare":11209,"Ġtxt":11210,"Ġthemes":11211,"Ġmu":11212,"confir":11213,"opo":11214,"(\"_":11215,"(\"{":11216,"Ġdisp":11217,"agers":11218,"estimators":11219,"Ġgetting":11220,"pretty":11221,"msvs":11222,"logits":11223,"Chrome":11224,"Expr":11225,"nobs":11226,"Ġlogged":11227,"Counter":11228,"Ġnotification":11229,"parseDOM":11230,"ĠVector":11231,"Ġcodes":11232,"Ġplus":11233,"ACY":11234,"ĠDele":11235,"Ġaggreg":11236,"Ġprimitive":11237,"generated":11238,"---\\":11239,"flatten":11240,"caption":11241,"hier":11242,"Ġdecla":11243,"ä¸ļ":11244,"LockField":11245,"Ġquiet":11246,"included":11247,"engali":11248,"************************************************************************":11249,"BOT":11250,"DR":11251,"Section":11252,"SCHEMA":11253,"gzip":11254,"ggregate":11255,"hic":11256,"åĨ":11257,"Ġzeros":11258,"also":11259,"eriv":11260,"Ġcnt":11261,"Ġcard":11262,"atory":11263,"Ġfaster":11264,"Ġpending":11265,"Ġsol":11266,"Ġsolution":11267,"lifecycle":11268,"keh":11269,"ĠSim":11270,"clusters":11271,"],[":11272,"linalg":11273,"Ġdigit":11274,"percent":11275,"INVALID":11276,"ĠMay":11277,"ĠManager":11278,"ĠNUM":11279,"Conditional":11280,"CTRL":11281,"omaly":11282,"ENTER":11283,"Ġprecedence":11284,"CThostFtdcInstrument":11285,"Ġperformed":11286,"Ġlisted":11287,"Ġ``'":11288,"Ġgeneration":11289,"overwrite":11290,"Ġfollows":11291,"InfoField":11292,"\")).":11293,"Ġextend":11294,"FAKE":11295,"operators":11296,"Ġdifference":11297,"gestion":11298,"æľ¬":11299,"Ġobtaining":11300,"Ġkeepdims":11301,"ĊĠĠĠĠĠĠĠĠĠĠĠĠĠĠĠĠĠĠĠĠĠĠĠĠĠĠĠĠĠĠĠĠĠĠĠĠĠĠĠĠĠĠĠĠĠĠĠĠĠĠĠĠĠĠ":11302,"AAAA":11303,"Expression":11304,"123456789":11305,"ĠOrder":11306,"expanduser":11307,"FRAME":11308,"Ġslug":11309,"čĊĠĠĠĠĠĠĠĠčĊĠĠĠĠĠĠĠ":11310,"Ġcmds":11311,"toggle":11312,"RETURN":11313,"ĠCurrent":11314,"ĠLinux":11315,"ASCII":11316,"!')":11317,"'')":11318,">\"\"\"":11319,"BIN":11320,"GPL":11321,"MAC":11322,"[[":11323,"lator":11324,"nos":11325,"ospf":11326,"vor":11327,"war":11328,"°´":11329,"oral":11330,"tially":11331,"Ġreload":11332,"Ġreversed":11333,"Ġpb":11334,"Ġintended":11335,"Ġindependent":11336,"Ġ(`":11337,"simul":11338,"ulari":11339,"ĠToken":11340,"Ġhad":11341,"latitude":11342,"Ġconditional":11343,"ĠCED":11344,"resolution":11345,"ĠPAT":11346,"Ġproper":11347,"applic":11348,"ipd":11349,"ĠNON":11350,"Ġleaf":11351,"ĠĠĠĠĠĠĠĠĠĠĠĠĠĠĠĠĠĠĠĠ":11352,"subtype":11353,"ouch":11354,"ustomer":11355,"Ġ43":11356,"sizeof":11357,"calInfo":11358,"configured":11359,"interpol":11360,"Ġcompiled":11361,"mapped":11362,"ILLA":11363,"structures":11364,"Ġindexing":11365,"aker":11366,"aking":11367,"voice":11368,"Ġtextwrap":11369,"IPAddress":11370,"ContentType":11371,"going":11372,"Ġframework":11373,"ragments":11374,"Shell":11375,"NOWN":11376,"Perform":11377,"edges":11378,"MODEL":11379,"Ġsections":11380,"Ġpositional":11381,"iversity":11382,"ĠLEG":11383,"analyzer":11384,"Feedback":11385,"Ġplaylist":11386,"Ġinvoke":11387,"cuts":11388,"duplicate":11389,"elems":11390,"mavproxy":11391,"Ġgives":11392,"Ġseveral":11393,"æµģæ":11394,"ĠCEDILLA":11395,"æµģæ°´":11396,"$\",":11397,"Marker":11398,"dry":11399,"dtd":11400,"gre":11401,"hl":11402,"iet":11403,"iris":11404,"jection":11405,"xs":11406,"}))":11407,"setitem":11408,"dele":11409,"least":11410,"allocation":11411,"Ġcapture":11412,"Ġ\"''":11413,"Ġpys":11414,"Ġinserted":11415,"covariance":11416,"Ġmag":11417,"extent":11418,"Ġ(('":11419,"().__":11420,"adjust":11421,"Ġdr":11422,"Ġhyper":11423,"uby":11424,"Ġeg":11425,"probe":11426,"procurement":11427,"ignored":11428,"Ġasset":11429,"ffe":11430,"ATOM":11431,"013":11432,"REQ":11433,"infos":11434,"validator":11435,"curve":11436,"ficial":11437,"Ġdoing":11438,"CThostFtdcMarketData":11439,"Ġsizes":11440,"ĠVM":11441,"222":11442,"Ġdicts":11443,"Tools":11444,"ĠTesting":11445,"Timestamp":11446,"creator":11447,"factories":11448,"ĠDeprecationWarning":11449,"Ġimporter":11450,"27241":11451,"ranges":11452,"numberOf":11453,"Ġlimits":11454,"Ġlimitation":11455,"atis":11456,"Ġnetworks":11457,"ĠKeyboardInterrupt":11458,"Ġlinux":11459,"IntToType":11460,"Ġfooter":11461,"SETT":11462,"toolbar":11463,"limiter":11464,"BadValueError":11465,"ANSIBLE":11466,"Ġastroid":11467,"Neutron":11468,"Ġbuiltins":11469,"Finished":11470,"pagination":11471,"presented":11472,"METHOD":11473,"å¸Ĳåı·":11474,"%}":11475,".])":11476,"/\")":11477,"214":11478,"315":11479,";,":11480,"Bound":11481,"DAG":11482,"GIS":11483,"Ids":11484,"LAN":11485,"NET":11486,"Pix":11487,"Std":11488,"bt":11489,"fam":11490,"qtile":11491,"sho":11492,"schemas":11493,"vr":11494,"vanced":11495,"you":11496,"Ġke":11497,"Ġcflags":11498,"Ġcategories":11499,"ato":11500,"asis":11501,"Ġ\"*":11502,"Ġ\"\".":11503,"mpa":11504,"Ġaws":11505,"sertions":11506,"silent":11507,"uppet":11508,"setattr":11509,"\",\\":11510,"0011":11511,"ĠSwitch":11512,"vest":11513,"ĠAp":11514,"ĠCL":11515,"Ġea":11516,"prov":11517,"Requires":11518,"ĠPa":11519,"ĠPe":11520,"ĠEnd":11521,"014":11522,"Ġ300":11523,"john":11524,"owned":11525,"comma":11526,"UTC":11527,"intersection":11528,"Ġtracker":11529,"MPTY":11530,"ĠCONNECTION":11531,"serialization":11532,"emails":11533,"Ġsuitable":11534,"Face":11535,"Ġhereby":11536,"ales":11537,"Ġchosen":11538,"flash":11539,"HTTPRequest":11540,"gorithms":11541,"Ġgrammar":11542,"ĠPyQt":11543,"MSBuild":11544,"USERNAME":11545,"ĠLookup":11546,"ĠThat":11547,"ĠSyntaxError":11548,"todo":11549,"velopers":11550,"Redirects":11551,"ĠSELECT":11552,"ĠLaTeX":11553,"Available":11554,"idity":11555,",**":11556,"215":11557,";;":11558,"Atom":11559,"CV":11560,"GCC":11561,"Pack":11562,"Sc":11563,"][\"":11564,"eth":11565,"gd":11566,"hit":11567,"jump":11568,"jinja":11569,"mongo":11570,"pd":11571,"qos":11572,"rsplit":11573,"sug":11574,"vectors":11575,"wind":11576,"xC":11577,"xo":11578,"Ã§":11579,"ç½":11580,"Ġlittle":11581,"developer":11582,"lecule":11583,"alloc":11584,"ĊĠĠĠĠĠĠĠĠĠĠĠĠĊĠĠĠ":11585,"Ġrename":11586,"Ġsr":11587,"Ġbecome":11588,"ando":11589,"('//":11590,"itute":11591,"conditions":11592,"console":11593,"Ġconcrete":11594,"spike":11595,"ĠIssue":11596,"ĠFl":11597,"Ġcoeff":11598,"positions":11599,"policies":11600,"ĠDown":11601,"typ":11602,"ĠOPT":11603,"ĠMAC":11604,"Ġuniform":11605,"ĠEasy":11606,"Ġ33":11607,"ddy":11608,"ĠBoo":11609,"oggle":11610,"202":11611,"skb":11612,"Ġtokenize":11613,"Ġregistration":11614,"Ġplural":11615,"character":11616,"ALLOW":11617,"Ġimplicit":11618,"Tagged":11619,"Ġbackup":11620,"7777":11621,"parsers":11622,"abcd":11623,"ServiceReference":11624,"AndVerify":11625,"ĠIDs":11626,".*)":11627,"movedIn":11628,"Updates":11629,"years":11630,"Ġsender":11631,"Ġchunks":11632,"Accessor":11633,"Related":11634,"WriteLn":11635,"Ġfixture":11636,"Ġdistances":11637,"ography":11638,"expired":11639,"hyper":11640,"ĠMovedAttribute":11641,"calculator":11642,"ĠContainer":11643,"ilometer":11644,"Bits":11645,"Clause":11646,"CFLAGS":11647,"FG":11648,"Lexer":11649,"Tran":11650,"boto":11651,"ginal":11652,"gcd":11653,"ij":11654,"kubernetes":11655,"mad":11656,"margin":11657,"tml":11658,"utive":11659,"čĊĉĉĉ":11660,"onical":11661,"allet":11662,"Ġcas":11663,"Ġcred":11664,"Ġrepresented":11665,"Ġnx":11666,"Ġincre":11667,"peers":11668,"Ġdc":11669,"isten":11670,"concrete":11671,"Ġhalf":11672,"ĠSu":11673,"ĠSend":11674,"classi":11675,"Ġ_(":11676,"(\"[":11677,"processes":11678,"strategy":11679,"heat":11680,"Real":11681,"Remote":11682,"Information":11683,"addTest":11684,"codec":11685,"tention":11686,"ITION":11687,"ĠgetUrl":11688,"Ġattached":11689,"Ġlead":11690,"Checked":11691,"Exists":11692,"Ġsubmit":11693,"Ġpositions":11694,"Ġcontextlib":11695,"availability":11696,"228":11697,"responses":11698,"menian":11699,"BaseReg":11700,"140":11701,"makeOne":11702,"TagName":11703,"Ġauthors":11704,"topology":11705,"Alchemy":11706,"Ġmanagement":11707,"ELL":11708,"playlist":11709,"glance":11710,"ChangeAccountField":11711,"Ġstacklevel":11712,"Editor":11713,"Secure":11714,"Ġkwarg":11715,"Ġedges":11716,"Ð¾Ð":11717,"Ġhours":11718,"Conflict":11719,"NAMESPACE":11720,"HelperForIpv":11721,"SmallIntegerField":11722,"ĠAboutInfo":11723,"ĠQgsVectorLayer":11724,"æµģæ°´åı·":11725,")``":11726,"234":11727,"217":11728,"Card":11729,"DST":11730,"FEX":11731,"HAS":11732,"Math":11733,"RUL":11734,"TCP":11735,"UES":11736,"])))":11737,"kub":11738,"mv":11739,"osite":11740,"pn":11741,"sink":11742,"mesh":11743,"arti":11744,"Ġrefer":11745,"Ġslow":11746,"unked":11747,"Ġdce":11748,"oned":11749,"etree":11750,"endant":11751,"ĠPh":11752,"scra":11753,"scipy":11754,"addresses":11755,"ĠMapping":11756,"shake":11757,"prefs":11758,"Ġalarm":11759,"osync":11760,"//%":11761,"Ġnewly":11762,"ANY":11763,"Ġ429496729":11764,"utiful":11765,"contextmanager":11766,"ĠInitial":11767,"Keep":11768,"Ġ\\\"":11769,"Ġpermit":11770,"Division":11771,"ĠConstruct":11772,"NUMB":11773,"2004":11774,"dfs":11775,"ragana":11776,"closing":11777,"ĠMedia":11778,"ĊĠĠĠĠĠĠĠĠĠĠĠĠĠĠĠĠĠĠĠĠĠĠĠĠĠĠĠĠĠĠĠĠĠĠĠĠĠĠĠĠĠĠĠĠĠĠĠĠĠĠĠĠĠĠĠĠ":11779,"ĊĠĠĠĠĠĠĠĠĠĠĠĠĠĠĠĠĠĠĠĠĠĠĠĠĠĠĠĠĠĠĠĠĠĠĠĠĠĠĠĠĠĠĠĠĠĠĠĠĠĠĠĠĠĠĠ":11780,"CThostFtdcQryExchange":11781,"Ġgrd":11782,"EnableAscii":11783,"è´¹":11784,"Ġvocabulary":11785,"ĠLocal":11786,"Ġidea":11787,"ĠCorp":11788,"Ġposixpath":11789,"é¢Ŀ":11790,"132":11791,"134":11792,"Amount":11793,"Clo":11794,"CENT":11795,"Ensure":11796,"Fit":11797,"GINE":11798,"TIM":11799,"WITH":11800,"bam":11801,"fallback":11802,"frac":11803,"gst":11804,"hSlider":11805,"lli":11806,"migrate":11807,"wp":11808,"ĠERROR":11809,"ora":11810,"Ġpul":11811,"elcome":11812,"deflate":11813,"coord":11814,"Ġ({":11815,"()`":11816,"Ġdn":11817,"Ġdraft":11818,"pause":11819,"conda":11820,"Ġhack":11821,"))))":11822,"ĠFin":11823,"ĠFrom":11824,"qualname":11825,"mozilla":11826,"ĠMon":11827,"...,":11828,"alive":11829,"ĠHelper":11830,"sorship":11831,"INGEMENT":11832,"Ġvisited":11833,"episode":11834,"Ġdistribute":11835,"ACCESS":11836,"Ġextracted":11837,"downloaded":11838,"Ġnormally":11839,"hiragana":11840,"authorized":11841,"seqs":11842,"letters":11843,"SERVICE":11844,"BOARD":11845,"Ġinitialized":11846,"Ġmembership":11847,"iversal":11848,"ĠAdditional":11849,"'\"},":11850,"Ġevaluation":11851,"Cluster":11852,"HasField":11853,"ĠTreeItemId":11854,"Ġanalysis":11855,"FRINGEMENT":11856,"Soup":11857,"dimensions":11858,"LimitPosi":11859,"gradients":11860,"WAIT":11861,"ĠDEVICE":11862,"ultinomial":11863,"TclError":11864,"'\")":11865,"Cube":11866,"DN":11867,"Global":11868,"IRED":11869,"LIMIT":11870,"Mesh":11871,"RS":11872,"TS":11873,"cart":11874,"ganization":11875,"iel":11876,"ifier":11877,"lms":11878,"stand":11879,"seline":11880,"algs":11881,"Ġident":11882,"Ġips":11883,"Ġfly":11884,"ropy":11885,"Ġ\":":11886,"Ġreceiv":11887,"Ġpq":11888,"Ġsco":11889,"copg":11890,"Ġmc":11891,"Ġwi":11892,"']}":11893,"endants":11894,"Ġmeters":11895,"ancestor":11896,"Ġprov":11897,"Ġprocesses":11898,"mos":11899,"=\"\\":11900,"Ġundefined":11901,"tenants":11902,"imports":11903,"dirty":11904,"ĠBR":11905,"Ġwhy":11906,"quick":11907,"cay":11908,"Namespace":11909,"backward":11910,"dae":11911,"imen":11912,"picture":11913,"Partial":11914,"clients":11915,"Ġlive":11916,"ListItem":11917,"Ġreads":11918,"2009":11919,"ESSION":11920,"HTTPError":11921,"...'":11922,"################################################################################################":11923,"NOW":11924,"Component":11925,"Layers":11926,"GLint":11927,"PROJECT":11928,"ĠDEAL":11929,"Ġclosing":11930,"ĠTool":11931,"wrapped":11932,"Ġsense":11933,"Ġdetermined":11934,"FORMATS":11935,"chunks":11936,"Ġpurposes":11937,"Ġlatex":11938,"coeffs":11939,"Ġcalculated":11940,"Manifest":11941,"DESCRIPT":11942,"Ġdeferred":11943,">`_":11944,"ĠFeed":11945,"MISS":11946,"PhotoVerification":11947,"Placeholder":11948,"Ġ==============================================================================":11949,"-\\":11950,":&":11951,"MT":11952,"RY":11953,"SUPPORT":11954,"VR":11955,"^^":11956,"bn":11957,"dpid":11958,"fan":11959,"grate":11960,"kg":11961,"kin":11962,"mut":11963,"pdb":11964,"wall":11965,"ÅĤ":11966,"è®":11967,"ĠÐ":11968,"Ġcla":11969,"attempt":11970,"enrollment":11971,"Ġfault":11972,"Ġthus":11973,"Ġreceiver":11974,"Ġpdb":11975,"Ġotu":11976,"fidence":11977,"Ġwf":11978,"Ġtoday":11979,"__),":11980,"isc":11981,"0004":11982,"Ġexclusive":11983,"classification":11984,"Ġeff":11985,"pointer":11986,"ĠEstimator":11987,"Ġoutside":11988,"readlines":11989,"REES":11990,"netmask":11991,"STRE":11992,"ppings":11993,"news":11994,"ĠInitialize":11995,"Ġ56":11996,"Parked":11997,"203":11998,"refund":11999,"contenttype":12000,"openssl":12001,"ĠContact":12002,"0008":12003,"mtu":12004,"Ġprocessor":12005,"FFER":12006,"Ġloads":12007,"autoescape":12008,"importer":12009,"Ġtriple":12010,"Adjust":12011,"SHA":12012,"languages":12013,"Ġsorting":12014,"Functions":12015,"Ġoverrides":12016,"Ġpicture":12017,"antize":12018,"WebDriver":12019,"ĠThread":12020,"YouTube":12021,"vecs":12022,"namedtuple":12023,"NAMatrix":12024,"MBOL":12025,"Supported":12026,"ByteSize":12027,"Ġespec":12028,"Join":12029,"LIBR":12030,"authenticated":12031,"viding":12032,"Ġgiving":12033,"Ġdiagno":12034,"OPTIONS":12035,"å¯Ĩçłģ":12036,"LOBAL":12037,"RESPONSE":12038,"&#":12039,"(%(":12040,".+?":12041,"316":12042,":<":12043,"Sur":12044,"_(\"":12045,"cxx":12046,"crawler":12047,"ities":12048,"implementation":12049,"knobs":12050,"large":12051,"mgr":12052,"promote":12053,"sound":12054,"vacy":12055,"wpt":12056,"¶æĢģ":12057,"çĬ":12058,"ĠĊĠĠĠĠĠĠĠĠĠĠĠĠĠĠĠ":12059,"instructor":12060,"alist":12061,"Ġcut":12062,"Ġfreq":12063,"Ġred":12064,"Ġsdk":12065,"rics":12066,"()'":12067,"()``":12068,"unquote":12069,"pagate":12070,"edu":12071,"lacing":12072,"Ġconsider":12073,"ĠClear":12074,"ctionaries":12075,"ĠPassword":12076,"Errors":12077,"Initialize":12078,"INFRINGEMENT":12079,"ĠOri":12080,"Ġld":12081,"favor":12082,"Ġatol":12083,"thernet":12084,"Ġpredictions":12085,"intervals":12086,"Raised":12087,"possible":12088,"Ġadjust":12089,"executor":12090,"Ġnetloc":12091,"TagList":12092,"udnn":12093,"ĠZip":12094,"webpage":12095,"distinct":12096,"Ansible":12097,"ĠAttributes":12098,"fullname":12099,"InvalidOperation":12100,"datum":12101,"bytecode":12102,"ParseError":12103,"Metrics":12104,"###############################################################################":12105,"Ġactivation":12106,"Importance":12107,"Ġcombined":12108,"Render":12109,"Ġyears":12110,"ĠIntegral":12111,"decorator":12112,"Ġpagure":12113,"Ġplane":12114,"mooth":12115,"QUEUE":12116,"cognized":12117,"ĠSpatial":12118,"Ġportions":12119,"sponder":12120,"memoized":12121,"Ġguarante":12122,"targobj":12123,"ietf":12124,"ĠBoolean":12125,"çĬ¶æĢģ":12126,"CATION":12127,"DT":12128,"Guess":12129,"NG":12130,"RON":12131,"Should":12132,"bold":12133,"bib":12134,"mf":12135,"mass":12136,"mutable":12137,"runc":12138,"vin":12139,"was":12140,"{\"":12141,"Ġ################################################################":12142,"sequent":12143,"reuse":12144,"reverification":12145,"orient":12146,"desk":12147,"alo":12148,"Ġira":12149,"Ġ'@":12150,"Ġ'</":12151,"Ġfid":12152,"Ġfall":12153,"Ġfront":12154,"Ġrespec":12155,"Ġsatis":12156,"Ġinteractive":12157,"Ġbra":12158,"Ġ())":12159,"Ġdry":12160,"Ġtopo":12161,"setEnabled":12162,"consistent":12163,"mappings":12164,"Ġhier":12165,"Ġstock":12166,"ĠFloat":12167,"Ġdialect":12168,"hest":12169,"ĠDump":12170,"Ġask":12171,"Ġassertion":12172,"appengine":12173,"ĠGraph":12174,"ĠMust":12175,"ONLY":12176,"Ġoslo":12177,"logout":12178,"curdir":12179,"Ġpolicies":12180,"Ġcolwidth":12181,"207":12182,"223":12183,"filled":12184,"Resp":12185,"Ġ./":12186,"myprop":12187,"Ġaddition":12188,"Ġformset":12189,"swf":12190,"Ġseek":12191,"Ġlibcloud":12192,"Ġextends":12193,"ĠSets":12194,"Ġquoted":12195,"setuptools":12196,"Shift":12197,"tuples":12198,"implied":12199,"cryption":12200,"TOOL":12201,"Commit":12202,"NEW":12203,"ĠMyObj":12204,"FILTER":12205,"Ġmatrices":12206,"Ġactivate":12207,"alignment":12208,"Polygon":12209,"ATURES":12210,"ĠCHAR":12211,"Converter":12212,"æ±Ĥ":12213,"ĠLEGACY":12214,"ç½®":12215,"AW":12216,"Begin":12217,"CW":12218,"Issue":12219,"Lost":12220,"Mod":12221,"OG":12222,"RM":12223,"hh":12224,"ially":12225,"land":12226,"tlement":12227,"vac":12228,"zh":12229,"æŀ":12230,"onec":12231,"Ġfamily":12232,"cedi":12233,"Ġpp":12234,"Ġtcp":12235,"Ġmirror":12236,"Ġ(\\":12237,"peGraph":12238,"kes":12239,"spot":12240,"ĠFont":12241,"keyword":12242,"outing":12243,"ĠDif":12244,"ĠDEL":12245,"matmul":12246,"INY":12247,"ippet":12248,"Ġmajor":12249,"uthook":12250,"TestBase":12251,"notifications":12252,"ĠHALF":12253,"formatter":12254,"ĠInvenio":12255,"jector":12256,"Ġcompression":12257,"bases":12258,"Ġperf":12259,"Ġidset":12260,"ichael":12261,"registration":12262,"iteration":12263,"filtered":12264,"0002":12265,"CaseImportance":12266,"305":12267,"cib":12268,"Ġ87":12269,"Forward":12270,"orders":12271,"Ġ-->":12272,"Ġbackends":12273,"Traits":12274,"OLON":12275,"RuntimeError":12276,"čĊčĊĠĠĠĠĠ":12277,"vateKey":12278,"Ġmultioutput":12279,"Ġimplementations":12280,"StartTag":12281,"EndTag":12282,"ĠDomain":12283,"IFY":12284,"Ġdatum":12285,"ĠGeoQuerySet":12286,"Ġrepeated":12287,"ĠManage":12288,"Ġhappens":12289,"Ġrotation":12290,"å¤´":12291,"inotify":12292,"([^\"]":12293,"counters":12294,"dhcp":12295,"TemporaryFile":12296,"ĠGEOS":12297,"PRIVATE":12298,";,&":12299,"SecurePhotoVerification":12300,"'``":12301,"*\\":12302,"/>":12303,"311":12304,":#":12305,"AE":12306,"Binder":12307,"Com":12308,"EOF":12309,"HIT":12310,"Scale":12311,"Slope":12312,"cgi":12313,"given":12314,"kappa":12315,"ove":12316,"otify":12317,"rant":12318,"san":12319,"|'":12320,"Ã¶":12321,"çİ":12322,"inspect":12323,"decision":12324,"Ġ\"^":12325,"Ġsid":12326,"Ġtc":12327,"Ġttk":12328,"Ġome":12329,"ravel":12330,"('[":12331,"('^":12332,"ĠTABLE":12333,"Ġconfirm":12334,"['_":12335,"ams":12336,"amble":12337,"Ġdependent":12338,"Ġdegrees":12339,"quee":12340,"ĠPEP":12341,"Ġlosses":12342,"Ġcherrypy":12343,"Ġlu":12344,"CTYPE":12345,"Ġraiseit":12346,"logfile":12347,"Ġprediction":12348,"commen":12349,"maxdb":12350,"runk":12351,"corded":12352,"DEVICE":12353,"Ġ\\'":12354,"ploration":12355,"websocket":12356,"ToString":12357,"302":12358,"cio":12359,"ByTagName":12360,"Ġroots":12361,"EventBinder":12362,"]]],":12363,"Ġ'-'":12364,"Ġinstallation":12365,"ĠNOTICE":12366,"NODE":12367,"Rows":12368,"BUFFER":12369,"Ġselector":12370,"PyEventBinder":12371,"Ġreferenced":12372,"Ġconvergence":12373,"Points":12374,"Ġwhom":12375,"FILENAME":12376,"ElementsByTagName":12377,"cntrl":12378,"jarati":12379,"ĠDummyJobManager":12380,"FaONFaON":12381,"FaONFaNN":12382,"FaNNFaNN":12383,"FaOOFaON":12384,"FaOOFaOO":12385,"discussion":12386,"ĠChore":12387,"å¸ģ":12388,"Ġinheritance":12389,"PARAMS":12390,"BranchID":12391,"ĠStopIteration":12392,"aggregates":12393,"Multicast":12394,"éĶĻ":12395,"è¯·æ±Ĥ":12396,"ularization":12397,"Ġ\"''\",":12398,"Drop":12399,"DAY":12400,"LABEL":12401,"PEND":12402,"SRC":12403,"TMP":12404,"Werror":12405,"csel":12406,"fort":12407,"fac":12408,"klass":12409,"rfind":12410,"squared":12411,"xhtml":12412,"âĢ":12413,"resize":12414,"reversed":12415,"tee":12416,"thai":12417,"Ġitr":12418,"Ġcum":12419,"Ġresidual":12420,"Ġpandas":12421,"gested":12422,"until":12423,"abi":12424,"ĠTuple":12425,"Ġ05":12426,"etched":12427,"Ġ127":12428,"ĠSingle":12429,"aper":12430,"parallel":12431,"ĠCritical":12432,"ami":12433,"ĠLet":12434,"ĠFraction":12435,"keystone":12436,"ĠPIL":12437,"ighest":12438,"Ġ:]":12439,"Ġmesh":12440,"modes":12441,"istEx":12442,"ĠUsage":12443,"ENC":12444,"compose":12445,"://%":12446,"Ġ['<":12447,"ĠVPC":12448,"041":12449,"=[(":12450,"ĠControl":12451,"DIO":12452,"Paths":12453,"Trait":12454,"Ġsigned":12455,"Ġfloating":12456,"bookmark":12457,"Ġsell":12458,"MessageBox":12459,"TreeNode":12460,"Ġphoto":12461,"Ġwaiting":12462,"Ġfetches":12463,"caron":12464,"Matches":12465,"legend":12466,"Ġdenom":12467,"Extensions":12468,"otedge":12469,"scaling":12470,"Ġpoll":12471,"Ġlisteners":12472,"XXXXXXXX":12473,"ĠSpecify":12474,"EPSG":12475,"çĶ¨æĪ·ä»£çłģ":12476,"åľ°":12477,"Ġregarding":12478,"Taxon":12479,"dieresis":12480,"ĠCLAIM":12481,"RUListEx":12482,"STREAM":12483,"Break":12484,"Browser":12485,"CMP":12486,"Den":12487,"Home":12488,"Pop":12489,"Stri":12490,"TON":12491,"WO":12492,"bill":12493,"blob":12494,"je":12495,"narrow":12496,"nulls":12497,"rust":12498,"wers":12499,"wagtail":12500,"zap":12501,"Ñı":12502,"ĊĊĠĠĠĠĠĠ":12503,"Ġ;":12504,"ĠĊ":12505,"relay":12506,"orical":12507,"tick":12508,"antial":12509,"enroll":12510,"Ġpod":12511,"Ġaudio":12512,"Ġaffinity":12513,"Ġmix":12514,"Ġmappings":12515,"\"\",":12516,"Ġ(.":12517,"ung":12518,"undefined":12519,"ots":12520,"__'":12521,"queries":12522,"assertRedirects":12523,"Ġhb":12524,"Ġhs":12525,"Ġhint":12526,"Ġconsist":12527,"parm":12528,"Ġgtest":12529,"Ġcos":12530,"four":12531,"ffected":12532,"ĠGROUP":12533,"ĠEOF":12534,"Ġxcode":12535,"ĠReport":12536,"ENGINE":12537,"SetInput":12538,"Settlement":12539,"DeprecationWarning":12540,"Ġ/=":12541,"managed":12542,"aches":12543,"opened":12544,"matchField":12545,"048":12546,"Ġvisibility":12547,"ldap":12548,"ditor":12549,"TextCtrl":12550,"extended":12551,"TRA":12552,"Arn":12553,"174":12554,"ĠUnder":12555,"138":12556,"ModelForm":12557,"directories":12558,"Ġabc":12559,"Contents":12560,"QUERY":12561,"8601":12562,"tilt":12563,"URLCONF":12564,"ĠProfile":12565,"normalization":12566,"Ġcomma":12567,"Results":12568,"BOSE":12569,"ificant":12570,"ĠSQLite":12571,"MultiDict":12572,"cmds":12573,"Ġhighlight":12574,"HasTraits":12575,"Ġfixtures":12576,"mappers":12577,"Minimum":12578,"Ġ'*'":12579,"Ġanalyzer":12580,"(',')":12581,"~~~~~~~~~~~~~~~~":12582,"inclusion":12583,"capture":12584,"Ġtypically":12585,"articles":12586,"ZipFile":12587,"cells":12588,"æķ°éĩı":12589,"ĠStruct":12590,"Ġtwice":12591,"ĠNONINFRINGEMENT":12592,"NUMBER":12593,"ĠDEALINGS":12594,"\")))":12595,"216":12596,":.":12597,"=(-":12598,"JS":12599,"LM":12600,"LT":12601,"Let":12602,"Mso":12603,"RGB":12604,"bat":12605,"every":12606,"pci":12607,"passed":12608,"sol":12609,"twisted":12610,"your":12611,"Ġĉ":12612,"Ġticket":12613,"Ġqualified":12614,"inated":12615,"receiver":12616,"thro":12617,"Ġ'!":12618,"Ġcron":12619,"Ġreports":12620,"Ġsolve":12621,"copi":12622,"Ġmi":12623,"chi":12624,"idad":12625,"maker":12626,"Ġhar":12627,"vided":12628,"Ġ{\\":12629,"Ġgc":12630,"Ġdiv":12631,"endly":12632,"Revision":12633,"Ġcombo":12634,"Ġbehavi":12635,"ĠDAG":12636,"mobile":12637,"011":12638,"IDs":12639,"Ġ41":12640,"LEV":12641,"interp":12642,"Ġconfigs":12643,"ROP":12644,"AMPLE":12645,"Ġopened":12646,"transforms":12647,"Ġinterpol":12648,"Ġvertical":12649,"Ġtranslations":12650,"ĠDevice":12651,"supp":12652,"2110":12653,"Framework":12654,"Ġrespon":12655,"distutils":12656,"Ġiterate":12657,"PATTERN":12658,"MockValue":12659,"è¯¯":12660,"à¤¾":12661,"Ready":12662,"Ġrecipient":12663,"[^\\":12664,"ImportError":12665,"ranklin":12666,"01010101":12667,"Support":12668,"Ġcontributor":12669,"servation":12670,"ĠContentType":12671,"atomic":12672,"Ġsubstantial":12673,"Producer":12674,"angerous":12675,"COURSE":12676,"ĠmonkeyScript":12677,"daemon":12678,"éĶĻè¯¯":12679,"MsoNormal":12680,")\")),":12681,"/#":12682,";</":12683,"=%(":12684,"Che":12685,"Given":12686,"HASH":12687,"Html":12688,"Java":12689,"RG":12690,"Tex":12691,"bbox":12692,"fraction":12693,"fonts":12694,"hot":12695,"ipa":12696,"implemented":12697,"lance":12698,"pin":12699,"qweb":12700,"wrong":12701,"å°":12702,"inge":12703,"onor":12704,"stored":12705,"decoding":12706,"ala":12707,"Ġii":12708,"Ġfar":12709,"ameteri":12710,"Ġbz":12711,"Ġmtime":12712,"urnished":12713,"adder":12714,"paces":12715,"ĠTiny":12716,"parsing":12717,"tailed":12718,"Ġgst":12719,"ĠFail":12720,"Ġdictionaries":12721,"ĠPopen":12722,"ĠGui":12723,"ĠMissing":12724,"Ġvec":12725,"ATFORM":12726,"Ġxy":12727,"Ġattempts":12728,"...\"":12729,"ENS":12730,"photo":12731,"cade":12732,"ĠRetrieve":12733,"nounce":12734,"statements":12735,"Progress":12736,"grace":12737,"GetItem":12738,"119":12739,"Ġ65":12740,"Ġmaybe":12741,"Ġ]),":12742,"Ġreadline":12743,"Forbidden":12744,"2005":12745,"queues":12746,"ConfigParser":12747,"OutField":12748,"ĠArray":12749,"Logs":12750,"Disk":12751,"ĠCollection":12752,"threading":12753,"Without":12754,"aaa":12755,"Ġhowever":12756,"Pickle":12757,"Ġmacroop":12758,"NotFoundError":12759,"hebang":12760,"ADDRESS":12761,"Ġlegend":12762,"ĠSplit":12763,"Structure":12764,"ĠSAPMessage":12765,"Ġhisto":12766,"FutureSignOutField":12767,"Ġstubs":12768,"Origin":12769,"identifiers":12770,"remaining":12771,"econfig":12772,"assertSerializedEqual":12773,"cedil":12774,"LEVEL":12775,"+'.":12776,"225":12777,"BUT":12778,"Duration":12779,"Fore":12780,"Front":12781,"HD":12782,"HBox":12783,"JOB":12784,"NEL":12785,"PARE":12786,"QQ":12787,"SF":12788,"airflow":12789,"affinity":12790,"djang":12791,"east":12792,"gw":12793,"gtest":12794,"ghi":12795,"ience":12796,"needed":12797,"udi":12798,"water":12799,"xl":12800,"æŃ":12801,"ï¼":12802,"Ġur":12803,"sensor":12804,"inverse":12805,"dedent":12806,"alformed":12807,"around":12808,"Ġrelay":12809,"ceil":12810,"Ġtv":12811,"Ġaa":12812,"Ġami":12813,"Ġmid":12814,"Ġmul":12815,"getElementsByTagName":12816,"(''.":12817,"Ġissubclass":12818,"paque":12819,"upic":12820,"ĠThen":12821,"odbc":12822,"Ġ192":12823,"']).":12824,"visibility":12825,"ĠSET":12826,"apters":12827,"tour":12828,"Ġtestvol":12829,"Ġcovariance":12830,"Initi":12831,"])[":12832,"Ġchanging":12833,"ĠOO":12834,"ĠGit":12835,"ĠMIDDLEWARE":12836,"ĊĉĉĠĠĠ":12837,"Ġln":12838,"Ġthisown":12839,"preferences":12840,"pyplot":12841,"Ġ`[":12842,"REVIEW":12843,"ĠBut":12844,"jom":12845,"TestRunner":12846,"ĠReference":12847,"Ġclassification":12848,"Ġmodes":12849,"Ġsublicense":12850,"Ġpotential":12851,"Ġ['_":12852,"IGNO":12853,"Ġboard":12854,"beam":12855,"Ġzlib":12856,"198":12857,"posts":12858,"ĠUnix":12859,"Ġ','.":12860,"Ġqgis":12861,"Ġfloats":12862,"suer":12863,"numbers":12864,"Ġavg":12865,"Shared":12866,"...)":12867,"Ġsystems":12868,"macros":12869,"darwin":12870,"Ġ${":12871,"æīĭ":12872,"Ġclip":12873,"ĠSQLAlchemy":12874,"teams":12875,"Ġepsilon":12876,"ĠNeed":12877,"SKIP":12878,"Ġslash":12879,"swigregister":12880,"muk":12881,"#---------------------------------------------------------------------------":12882,"proxies":12883,"CombActionField":12884,"Consumer":12885,"scenario":12886,"å¼Ģ":12887,"ĠSAPParam":12888,"SUCCESS":12889,"Ġdashboard":12890,"ĠCache":12891,"oproject":12892,"***************************************************************************":12893,"314":12894,"655":12895,";',":12896,"IAS":12897,"RPC":12898,"Slice":12899,"]==":12900,"bdist":12901,"don":12902,"hparam":12903,"pas":12904,"rink":12905,"ä¹":12906,"Ġ'^":12907,"attempts":12908,"Ġfee":12909,"routing":12910,"Ġrevisions":12911,"urmuk":12912,"Ġtorrent":12913,"Ġinc":12914,"Ġaffect":12915,"fire":12916,"cov":12917,"Ġdrive":12918,"__('":12919,"itation":12920,"oll":12921,"lam":12922,"ĠSection":12923,"spy":12924,"xtante":12925,"Ġdesign":12926,"='.":12927,"Ġsemi":12928,"Ġsegments":12929,"addon":12930,"Ġonerror":12931,"Ġlhs":12932,"Ġalph":12933,"ĠBin":12934,"ĠĠĠĠĠĠĠĠĠĠĠĠĠĠĠĠĠĠĠ":12935,"workspace":12936,"Ġroutes":12937,"124":12938,"plug":12939,"ĠVolume":12940,"ĠExten":12941,"229":12942,"itervalues":12943,"docid":12944,"Models":12945,"IMAGE":12946,"Ġspan":12947,"ĠChannel":12948,"NotImplemented":12949,"crm":12950,"alizes":12951,"5678":12952,"1301":12953,"Ġbackward":12954,"Train":12955,"Alt":12956,"playbook":12957,"ĠEngine":12958,"Desc":12959,"datas":12960,"collectors":12961,"mkdtemp":12962,"CPP":12963,"Ġauthenticated":12964,"ĠSequence":12965,"Ġauthorized":12966,"èµĦéĩĳ":12967,"Super":12968,"Creation":12969,"NextToken":12970,"forwarding":12971,"ĠAUTHOR":12972,"åĬ¡":12973,"Ġscenario":12974,"Depth":12975,"associated":12976,"ĠCertificate":12977,"Ġdeclar":12978,"çİĩ":12979,"djangoproject":12980,"urmukhi":12981,"'',":12982,"AST":12983,"DY":12984,"Hi":12985,"Known":12986,"Player":12987,"PAGE":12988,"SPEC":12989,"Spacing":12990,"There":12991,"blink":12992,"hop":12993,"immutable":12994,"ÅĦ":12995,"åĽ":12996,"éĢ":12997,"stick":12998,"encrypted":12999,"Ġ\"$":13000,"Ġpwd":13001,"Ġsrid":13002,"life":13003,"Ġ(),":13004,"pay":13005,"concept":13006,"odon":13007,"Ġ120":13008,"ĠSEC":13009,"ĠSUPERUSER":13010,"ĠSDK":13011,"ĠCSR":13012,"Ġem":13013,"ĠFL":13014,"Release":13015,"='')":13016,"Ġsextante":13017,"Ġchdir":13018,"accuracy":13019,"ĠGUI":13020,"::/":13021,"ĠEntry":13022,"ATES":13023,"Ġstrategy":13024,"ĠWait":13025,"Ġatn":13026,"ĠBecause":13027,"irc":13028,"irq":13029,"quiet":13030,"ĠRestriction":13031,"ENER":13032,"deny":13033,"104":13034,"Ġmoves":13035,"newline":13036,"Dev":13037,"Ġkill":13038,"Ġcurve":13039,"Ġcurrency":13040,"208":13041,"avor":13042,"ASeq":13043,"Direction":13044,"Ġendfor":13045,"sky":13046,"240":13047,"possibly":13048,"ĠConsole":13049,"------------------------------------------------":13050,"[:],":13051,"337":13052,"ĠAnaly":13053,"markdown":13054,"monic":13055,"ObjectName":13056,"Ġprice":13057,"nowait":13058,"ĠSettings":13059,"Ġ2005":13060,"AttributeError":13061,"Threshold":13062,"heading":13063,"={})":13064,"Ġmultiprocessing":13065,"Ġ'$(":13066,"FORMS":13067,"Ġplaced":13068,"mathml":13069,"Move":13070,"ĠDictionary":13071,"Maximum":13072,"æĪĲ":13073,"attues":13074,"distances":13075,"SyncKeyField":13076,"ĠTreeEstimator":13077,"Ġpurpose":13078,"Ġattachments":13079,"InfParam":13080,"Ġsurvey":13081,"ĠDateTime":13082,"Ġeditable":13083,"PolyData":13084,"captcha":13085,"Ġinterpreted":13086,"ĠTeam":13087,"ĠROOT":13088,"Ġlexer":13089,"resolvers":13090,"scaler":13091,"IPSIS":13092,"assertRaisesRegexp":13093,"Ġolder":13094,"Paginated":13095,"PaginatedList":13096,"5000":13097,"FLO":13098,"FACE":13099,"GLE":13100,"High":13101,"Hidden":13102,"Ob":13103,"OID":13104,"Routing":13105,"VB":13106,"bw":13107,"greater":13108,"ico":13109,"mirror":13110,"sun":13111,"åī":13112,"åķ":13113,"stors":13114,"arp":13115,"ars":13116,"Ġ''))":13117,"Ġfurnished":13118,"ursel":13119,"Ġoid":13120,"Ġai":13121,"Ġazure":13122,"exclusive":13123,"Ġwalk":13124,"Ġwire":13125,"sic":13126,"adm":13127,"('\\\\":13128,"Ġdy":13129,"ĠTYPE":13130,"assertValid":13131,"Ġstores":13132,"ĠSO":13133,"ĠSafe":13134,"aps":13135,"umable":13136,"sprites":13137,"Ġ+----------------":13138,"touch":13139,"Ġelapsed":13140,"ĠPRE":13141,"ĠPUT":13142,"Ġrand":13143,"Ġrgba":13144,"Ġascii":13145,"fft":13146,"Ġresolution":13147,"ĠOG":13148,"acrule":13149,"tences":13150,"015":13151,"Ġ*',":13152,"Ġ302":13153,"ALY":13154,"ĠĠĠĠĠĠĠĠĠĠĠĠĠĠĠĠĠĠĠĠĠĠĠ":13155,"loading":13156,"ĠHE":13157,"ĠHVAC":13158,"compression":13159,"Ġprep":13160,"Ġpreference":13161,"Ġsubdomain":13162,"ĠInsert":13163,"Ġaccuracy":13164,"Ġints":13165,"plane":13166,"ROUND":13167,"ĠVirtual":13168,"csr":13169,"prime":13170,"Ġ63":13171,"aks":13172,"Ġupdating":13173,"ĉĉĉ":13174,"TextInput":13175,"markup":13176,"popup":13177,"IndexError":13178,"ĠProtocol":13179,"ĠVerification":13180,"centered":13181,"Region":13182,"Regressor":13183,"ĠphKey":13184,"Ġmultipart":13185,"Weights":13186,"Ġcertificates":13187,"rollback":13188,"PROPER":13189,"Ġvariance":13190,"Ġconverter":13191,"bert":13192,"retch":13193,"Ġintegral":13194,"activated":13195,"ACTER":13196,"secondary":13197,"ĠSPRL":13198,"QuoteActionField":13199,"bigend":13200,"rupted":13201,"Ġconsumed":13202,"Ġquick":13203,"FaOOFaNN":13204,"Ġbeginning":13205,"USTOM":13206,"ĠLinear":13207,"recursive":13208,"ĠĠĠĠĠĠĠĠĠĠĠĠĠĠĠĠĠĠĠĠĠĠĠĠĠĠĠĠĠĠĠĠĠĠĠĠĠĠĠĠĠĠĠĠĠĠĠĠĠĠĠĠĠĠĠĠĠĠĠĠĠĠĠĠĠĠĠĠĠĠĠĠ":13209,"optimize":13210,"Mismatch":13211,"grity":13212,"ĠBytesIO":13213,"hicle":13214,"utifulSoup":13215,"ĠBRACKET":13216,"Ġespecially":13217,"åķĨ":13218,"/?":13219,"213":13220,"Offer":13221,"SIM":13222,"SUPERUSER":13223,"[]":13224,"bone":13225,"floor":13226,"glet":13227,"lb":13228,"maries":13229,"ov":13230,"rq":13231,"wan":13232,"xn":13233,"inspector":13234,"teen":13235,"leave":13236,"tialite":13237,"anonymous":13238,"Ġcapi":13239,"Ġfo":13240,"Ġrestri":13241,"Ġsug":13242,"Ġtreated":13243,"Ġincrement":13244,"Ġtheano":13245,"Ġba":13246,"Ġbroken":13247,"Ġwish":13248,"Ġwarehouse":13249,"chapter":13250,"idf":13251,"Ġtolerance":13252,"past":13253,"ypes":13254,"conditional":13255,"ĠCLI":13256,"**-":13257,"ancestors":13258,"artz":13259,"ĠMatch":13260,"ĠMatrix":13261,"Ġvectors":13262,"Ġsetter":13263,"Ġencrypted":13264,"boo":13265,"ARM":13266,"chem":13267,"minute":13268,"Ġ@@":13269,"Ġprec":13270,"ichr":13271,"achable":13272,"IPV":13273,"159":13274,"Activity":13275,"alizing":13276,"ĠDetermine":13277,"ĠUniversity":13278,"XXX":13279,"Ġwrites":13280,"ductions":13281,"rounding":13282,"448":13283,"graphics":13284,"497":13285,"caping":13286,"realms":13287,"Regression":13288,"annotation":13289,"enterprise":13290,"toolchain":13291,"çĶ³":13292,"Ġsymlinks":13293,"Ġownership":13294,"ĠSystemExit":13295,"embedded":13296,"combine":13297,"ĠDistribution":13298,"Ġeffects":13299,"Team":13300,"æĿĥ":13301,"ä¸ļåĬ¡":13302,"$'":13303,"Bus":13304,"CLO":13305,"Draw":13306,"FOLDER":13307,"Listen":13308,"MEM":13309,"Plot":13310,"UX":13311,"broadcast":13312,"gwin":13313,"snap":13314,"uist":13315,"xfail":13316,"Ä±":13317,"Ġque":13318,"telo":13319,"orator":13320,"oracle":13321,"sts":13322,"thost":13323,"ley":13324,"means":13325,"asing":13326,"Ġnan":13327,"Ġodl":13328,"Ġincar":13329,"ateField":13330,"divide":13331,"setpoint":13332,"Ġ02110":13333,"mach":13334,"Ġconstructed":13335,"ĠSite":13336,"uming":13337,"Ġgzip":13338,"ĠLINE":13339,"ĠFranklin":13340,"ĠMIN":13341,"Ġonto":13342,"Constructor":13343,"REAK":13344,"ALIGN":13345,"ĠUI":13346,"ĠUTC":13347,"wave":13348,"answers":13349,"subsets":13350,"ĠReset":13351,"ĠReplace":13352,"Ġpredicate":13353,"Ġroll":13354,"startup":13355,"Ġtimespan":13356,"SetItem":13357,"Ġ512":13358,"djangoapps":13359,"ĠVisual":13360,"csma":13361,"Ġneighbors":13362,"utoff":13363,"Resolver":13364,"ferential":13365,"Lists":13366,"mybucket":13367,"commits":13368,"ĠGenerated":13369,"cites":13370,"rawtransaction":13371,"Users":13372,"Username":13373,"vention":13374,"Ġfailures":13375,"merce":13376,"ĠAdding":13377,"anks":13378,"PREC":13379,"fetches":13380,"mbolic":13381,"Changes":13382,"questions":13383,"FOUND":13384,"Ġetag":13385,"PROTO":13386,"HostKey":13387,"mktemp":13388,"activation":13389,"('.',":13390,"WebSocket":13391,"databases":13392,"circ":13393,"Ġtracking":13394,"Ġhookenv":13395,"guide":13396,"Ġappears":13397,"Ġsurface":13398,"Ġstripped":13399,"John":13400,"Ġdeleting":13401,"Ġhessians":13402,"ĠMarkup":13403,"utilization":13404,"AUTO":13405,"ProcessingParameter":13406,"STORE":13407,"approved":13408,"Ġretrieved":13409,"lizard":13410,"Ġrobottelo":13411,"Slug":13412,"ĠCorporation":13413,"urselike":13414,"%%":13415,")[-":13416,"BY":13417,"Center":13418,"DA":13419,"GD":13420,"Gu":13421,"Hist":13422,"OVER":13423,"Termin":13424,"YES":13425,"brid":13426,"brew":13427,"benchmark":13428,"cudnn":13429,"gds":13430,"kr":13431,"srs":13432,"trees":13433,"Ã£":13434,"Ðº":13435,"Ġlicenses":13436,"ĠValidator":13437,"inference":13438,"inherits":13439,"tesian":13440,"orker":13441,"stuff":13442,"determine":13443,"Ġcent":13444,"Ġcaching":13445,"asm":13446,"asse":13447,"Ġnl":13448,"Ġsv":13449,"amel":13450,"utations":13451,"Ġbasis":13452,"unsigned":13453,"ados":13454,"ĠTEXT":13455,"qux":13456,"quares":13457,"eto":13458,"consistency":13459,"assertForm":13460,"opping":13461,"approx":13462,"partitions":13463,"ĠFortran":13464,"Ġdeps":13465,"Ġdelimiter":13466,"Requirement":13467,"Ġprocedure":13468,"Ġanti":13469,"addons":13470,"Ġ*,":13471,"Ġlearning":13472,"colspec":13473,"ircle":13474,"tribution":13475,"ĠRemovedIn":13476,"temporary":13477,"Ġpredict":13478,"Ġsubdir":13479,"Provides":13480,"Ġnotes":13481,"CThostFtdcInvestor":13482,"CThostFtdcOptionInstr":13483,"sysvals":13484,"exporter":13485,"242":13486,"ListBox":13487,"Adds":13488,"Ġobjs":13489,"POLIC":13490,"Ġopenstack":13491,"Ġintermediate":13492,"Ġ86":13493,"HEAT":13494,"flows":13495,"TEMP":13496,"populate":13497,"Ġdepend":13498,"Already":13499,"slt":13500,"skipIf":13501,"Ġlocals":13502,"Disable":13503,"Ġhashes":13504,"Subject":13505,"Ġfullname":13506,"Ġstaff":13507,"ĠNameError":13508,"GLuint":13509,"Locator":13510,"nacl":13511,"antiate":13512,"Methods":13513,"lru":13514,"Ġmeaning":13515,"analytic":13516,"ĠAccess":13517,"ĠDisk":13518,"similar":13519,"Ġcsma":13520,"sibling":13521,"followup":13522,"Rename":13523,"ArgumentParser":13524,"authenticate":13525,"authentication":13526,"Ġconstraints":13527,"Delta":13528,"countered":13529,"SpinBox":13530,"BITMAP":13531,"MATROSKA":13532,"Ġgains":13533,"čĊĠĠĠĠčĊĠĠĠ":13534,"LANGUAGE":13535,"Ġscored":13536,"onecall":13537,"idadao":13538,"BUTTON":13539,"!\\":13540,"+\\":13541,"164":13542,"4326":13543,"=')":13544,"BZ":13545,"BSD":13546,"Db":13547,"Final":13548,"Gen":13549,"Got":13550,"HI":13551,"TREES":13552,"VK":13553,"bp":13554,"cw":13555,"fingerprint":13556,"gpl":13557,"horted":13558,"oul":13559,"sched":13560,"xlink":13561,"zie":13562,"||":13563,"Ñĥ":13564,"redis":13565,"decompress":13566,"analog":13567,"Ġidentical":13568,"Ġ'>":13569,"Ġreported":13570,"ceipt":13571,"Ġairflow":13572,"Ġmatter":13573,"racle":13574,"otor":13575,"ada":13576,"ads":13577,"getpid":13578,"__'):":13579,"ĠTri":13580,"vertex":13581,"Ġconsistent":13582,"Ġcontrols":13583,"ĠAA":13584,"uml":13585,"tos":13586,"ĠLen":13587,"strpath":13588,"Ġtestdir":13589,"='\\":13590,"Inline":13591,"Ġmeeting":13592,"ĠDNS":13593,"scroll":13594,"Ġchrome":13595,"licas":13596,"=\"{":13597,"ĠMany":13598,"ĠNZB":13599,"dirpath":13600,"Conversion":13601,"ĠReferences":13602,"minimum":13603,"Ġsubmission":13604,"Ġposcar":13605,"spam":13606,"Ġnoise":13607,"Ġ{}).":13608,"ICS":13609,"ĠVB":13610,"Ġperms":13611,"rcv":13612,"docker":13613,"footer":13614,"locator":13615,"staur":13616,"Ġends":13617,"\">'":13618,"=[[":13619,"Ġ]))":13620,"prm":13621,"ĠChrome":13622,"Ġseems":13623,"ĠStorage":13624,"Ġsamp":13625,"Ġtmpfile":13626,"ANDARD":13627,"Ġaccounts":13628,"Ġfakes":13629,"Ġrendering":13630,"Execute":13631,"0000000000000000":13632,"median":13633,"FLAG":13634,"ĠSeri":13635,"=-=-":13636,"Ġseparated":13637,"privatekey":13638,"evolution":13639,"Ġexpects":13640,"analytics":13641,"Ġletters":13642,"SOCK":13643,"REQUIRED":13644,"TradeField":13645,"ADDR":13646,"OBJECT":13647,"Linux":13648,"StockDisposalField":13649,"beatle":13650,"semble":13651,"////////":13652,"quester":13653,"Ġtypename":13654,"ĠStore":13655,"wildcards":13656,"ĠCHARACTER":13657,"ĠChoreo":13658,"+-":13659,"858":13660,">'],":13661,"Bullet":13662,"HAL":13663,"PA":13664,"PAY":13665,"Util":13666,"VIS":13667,"Virtual":13668,"Your":13669,"_:":13670,"camera":13671,"eos":13672,"even":13673,"eye":13674,"glyph":13675,"lhs":13676,"rsh":13677,"synchronize":13678,"tling":13679,"tunnel":13680,"wid":13681,"§è¡Į":13682,"åĵ":13683,"ĠÃ":13684,"ģä»ĵ":13685,"retri":13686,"throttle":13687,"Ġfrog":13688,"Ġ\"{%":13689,"Ġreli":13690,"Ġrebase":13691,"Ġremoving":13692,"Ġpin":13693,"Ġplist":13694,"Ġtup":13695,"Ġbulk":13696,"Ġmx":13697,"exv":13698,"unlimited":13699,"andy":13700,"abling":13701,"abric":13702,"ilde":13703,"setObjectName":13704,"ĠTwo":13705,"Ġ01":13706,"Ġ\"\"\",":13707,"argmax":13708,"Ġconstruction":13709,"ĠShow":13710,"Ġefficient":13711,"Ġdeci":13712,"keyval":13713,"ĠPage":13714,"Ġmechanism":13715,"ĠDWORD":13716,"INTEGER":13717,"agger":13718,"ĠOB":13719,"ITER":13720,"Ġalt":13721,"Contact":13722,"Ġ39":13723,"Ġ330":13724,"later":13725,"ĠReal":13726,"Ġ47":13727,"Ġroles":13728,"ĠIncremental":13729,"Ġaccepted":13730,"ĠVSD":13731,"ĠXC":13732,"ISH":13733,"ĠcurrentNode":13734,"0009":13735,"ĠINT":13736,"Ġshows":13737,"Ġtransformation":13738,"DOUT":13739,"Ġclients":13740,"Ġbuilds":13741,"Tracker":13742,"descriptions":13743,"231":13744,"EXEC":13745,"ĠSoftwareSecurePhotoVerification":13746,"368":13747,"Ġframes":13748,"{}\".":13749,"ViewMiddleware":13750,"Messages":13751,"ColumnElement":13752,"SPACE":13753,"è¯Ŀ":13754,"Starting":13755,"ĠDataset":13756,"PROCESS":13757,"ĠOptionParser":13758,"Ġ1234":13759,"ĠConfigParser":13760,"æī§è¡Į":13761,"Ġmarkdown":13762,"ĠPerson":13763,"ĠPerform":13764,"ĠHttpRequest":13765,"arming":13766,"Ġauthenticate":13767,"PacketMetadata":13768,"Importer":13769,"TradingDay":13770,"expectations":13771,"ä¸Ń":13772,"EmptyString":13773,"Ġprotobuf":13774,"éĩĳé¢Ŀ":13775,"FEATURES":13776,"DEFINES":13777,"Ġ':'":13778,"wikipedia":13779,"NetDeviceContainer":13780,"swiginit":13781,"ĠCodec":13782,"BEGIN":13783,"highlight":13784,"servations":13785,"irefox":13786,"decorators":13787,"Ġstatistic":13788,"Ġpixels":13789,"srfViewMiddleware":13790,"Ġdescribed":13791,"pagation":13792,"æĮģä»ĵ":13793,"ç§į":13794,"Negative":13795,"Fixture":13796,"oucher":13797,"AndVerifyView":13798,"DivisionError":13799,"Ġirast":13800,"commended":13801,"POLICY":13802,"åĵģ":13803,"+=":13804,".'),":13805,"386":13806,"401":13807,"BREAK":13808,"Capture":13809,"Click":13810,"Fill":13811,"May":13812,"NZB":13813,"TABLE":13814,"Week":13815,"Yes":13816,"cx":13817,"eu":13818,"gc":13819,"hits":13820,"lse":13821,"nick":13822,"uary":13823,"reame":13824,"thumb":13825,"measure":13826,"tig":13827,"tivi":13828,"ander":13829,"Ġ'..":13830,"Ġcapt":13831,"Ġcrypt":13832,"Ġfc":13833,"Ġsched":13834,"fidf":13835,"dig":13836,"Ġbc":13837,"Ġwall":13838,"ota":13839,"('(":13840,"ctc":13841,"setnc":13842,"ola":13843,"vial":13844,"viation":13845,"visited":13846,"Ġandro":13847,"ĠCMake":13848,"filesize":13849,"spin":13850,"aming":13851,"ĠFloor":13852,"profiles":13853,"proba":13854,"##########":13855,"ĠPoly":13856,"ĠDial":13857,"Ġanchor":13858,"ocus":13859,"Ġycm":13860,"shaker":13861,"rendered":13862,"renderer":13863,"ORDER":13864,"TestResult":13865,"capacity":13866,"ĠHash":13867,"Ġpreprocess":13868,"Ġsubset":13869,"Ġsubsequent":13870,"320":13871,"Deserialize":13872,"129":13873,"intercept":13874,"DEV":13875,"Ġ57":13876,"APoly":13877,"weak":13878,"docstring":13879,"located":13880,"Ġjc":13881,"Ġjump":13882,"Union":13883,"ĠINTEGER":13884,"Ġreadable":13885,"ĠGetClassDefaultAttributes":13886,"Ġmodifier":13887,"VERBOSE":13888,"QUARE":13889,"_(['":13890,"ĠParser":13891,"terminate":13892,"Head":13893,"Dispatcher":13894,"Country":13895,"fines":13896,"Ġ\"-//":13897,"ç»Ħ":13898,"InterfaceContainer":13899,"ĠAuthentic":13900,"Ġ$(":13901,"ULLET":13902,"CPU":13903,"feeds":13904,"infinity":13905,"aneous":13906,"packets":13907,"snmp":13908,"Ġinvoice":13909,"TraceSource":13910,"Ġcaption":13911,"ArgumentError":13912,"microsoft":13913,"ĠConnect":13914,"Ġoptimize":13915,"PcapFile":13916,"platforms":13917,"between":13918,"ĠBitmap":13919,"iency":13920,"ĠATTR":13921,"ToOneField":13922,"erived":13923,"mpaign":13924,"æŀĦ":13925,"Ġbehaviour":13926,"ĠGuide":13927,"IGNORE":13928,"SlugField":13929,"setncattr":13930,"APolymorphicStateSet":13931,"./":13932,"299":13933,"403":13934,";\",":13935,"?\")":13936,"Axis":13937,"Bal":13938,"CM":13939,"Glance":13940,"HS":13941,"Retry":13942,"Spider":13943,"TV":13944,"Try":13945,"Unsupported":13946,"WAY":13947,"aussian":13948,"bq":13949,"bag":13950,"cred":13951,"cmap":13952,"cked":13953,"each":13954,"frozen":13955,"ik":13956,"ision":13957,"imin":13958,"kl":13959,"km":13960,"nans":13961,"pw":13962,"yu":13963,"reconc":13964,"desh":13965,"third":13966,"selves":13967,"Ġpat":13968,"Ġsale":13969,"Ġsrs":13970,"listed":13971,"servo":13972,"Ġbrow":13973,"extern":13974,"otos":13975,"getopt":13976,"above":13977,"quit":13978,"male":13979,"odb":13980,"Ġharness":13981,"vicon":13982,"ĠSIG":13983,"ĠSSH":13984,"ĠCmd":13985,"Ġequ":13986,"ĠIter":13987,"Ġcookies":13988,"ĠPK":13989,"='<":13990,"Ġrans":13991,"ĠDOT":13992,"Ġprops":13993,"addAction":13994,"=\"#":13995,"ĠESC":13996,"ONG":13997,"Ġdatastore":13998,"ĠWorld":13999,"Ġlearn":14000,"CTx":14001,"Ġkeystone":14002,"ORAGE":14003,"Chain":14004,"'}]":14005,"gnoring":14006,"umen":14007,"newaxis":14008,"Ġversionchanged":14009,"Ġ['--":14010,"Ġothers":14011,"ĠVAL":14012,"205":14013,"00001":14014,"044":14015,"behavior":14016,"crets":14017,"Ġadapter":14018,"nums":14019,"154":14020,"ĠKubernetes":14021,"ĠDevelopment":14022,"Ġ2018":14023,"oozie":14024,"ĠJust":14025,"VERS":14026,"URLField":14027,"Share":14028,"Annot":14029,"Ġmanip":14030,"winreg":14031,"Ġteardown":14032,"ĠHTTPS":14033,"scorer":14034,"Ġphrases":14035,"dags":14036,"BOX":14037,"ĠSeries":14038,"ĠMySQL":14039,"Selector":14040,"Ġterminated":14041,"doubleSpinBox":14042,"Distance":14043,"Before":14044,"DetailField":14045,"Ġprinted":14046,"ĠDesc":14047,"ĠDescription":14048,"truncated":14049,"getCurrentSelection":14050,"ç»ĵç®Ĺ":14051,"TOPIC":14052,"[::-":14053,"Ġderivative":14054,"Ġproxies":14055,"ĠFAKE":14056,"FramesInfo":14057,"oppingcart":14058,"Ġransac":14059,"!',":14060,"\"?":14061,"(\",":14062,"*)":14063,"+----------------":14064,":</":14065,"?',":14066,"Bundle":14067,"Calib":14068,"Drag":14069,"Est":14070,"Escape":14071,"Iso":14072,"IFT":14073,"LD":14074,"MQ":14075,"MIT":14076,"Merge":14077,"PM":14078,"PACK":14079,"Rot":14080,"WE":14081,"Wrap":14082,"When":14083,"]|":14084,"cub":14085,"criterion":14086,"hat":14087,"hold":14088,"ima":14089,"qlite":14090,"sx":14091,"ĊĊĠĠĠĠĠĠĠĠĠĠĠĠĠĠĠĠĊĠĠĠĠĠĠĠĠĠĠĠĠĠĠĠ":14092,"interactive":14093,"relate":14094,"eral":14095,"Ġ\".\"":14096,"Ġreduced":14097,"Ġpsy":14098,"Ġpseudo":14099,"Ġnm":14100,"Ġsay":14101,"Ġmargin":14102,"Ġmouse":14103,"Ġwraps":14104,"chr":14105,"unable":14106,"idset":14107,"ising":14108,"conversion":14109,"ĠCE":14110,"(\"'":14111,"ĠFILE":14112,"fromString":14113,"prof":14114,"ĠPR":14115,"ĠGH":14116,"portal":14117,"Ġencountered":14118,"ATCH":14119,"Ġ('%":14120,"ĠNAME":14121,"preserve":14122,"Ġpay":14123,"readable":14124,"ALIAS":14125,"umenta":14126,"251":14127,"Cost":14128,"Ġaccessed":14129,"ASCA":14130,"organ":14131,"msgid":14132,"uclide":14133,"ĠConverts":14134,"Ġupon":14135,"155":14136,"158":14137,"Ġgenerating":14138,"Ġchangesets":14139,"rawdata":14140,"ĠDeferred":14141,"Ġfeat":14142,"Ġseealso":14143,"UPLOAD":14144,"Validation":14145,"Ġlocalhost":14146,"Ġsubnetpool":14147,"Modules":14148,"Ġflash":14149,"Ġswift":14150,"MOD":14151,"Ġarchitecture":14152,"SPARK":14153,"fetchall":14154,"Ġfilled":14155,"simplefilter":14156,"Ġsqlparse":14157,"Ġapplications":14158,"COMMENT":14159,"Variables":14160,"Expand":14161,"densebasic":14162,"Matcher":14163,"Ġ(_(\"":14164,"ĠSTATE":14165,"circumflex":14166,"Ġtoolchain":14167,"assignment":14168,"needs":14169,"srv":14170,"Ġstages":14171,"Summary":14172,"Notebook":14173,"dimensional":14174,"maybe":14175,"Ġroutine":14176,"FactCollector":14177,"icious":14178,"Ġmomentum":14179,"ÅĦski":14180,"ĠCSRF":14181,"ASCADE":14182,"uclidean":14183,"233":14184,"CALL":14185,"Finder":14186,"GLOBAL":14187,"MEDI":14188,"Microsoft":14189,"Patch":14190,"Pane":14191,"RX":14192,"Toggle":14193,"]-":14194,"dw":14195,"dos":14196,"osc":14197,"purchase":14198,"tas":14199,"}-":14200,"è£":14201,"inherited":14202,"detect":14203,"than":14204,"leading":14205,"erce":14206,"animation":14207,"atar":14208,"ency":14209,"Ġfatal":14210,"Ġsphinx":14211,"Ġtaking":14212,"mped":14213,"',))":14214,"Ġinherited":14215,"Ġamp":14216,"dix":14217,"disp":14218,"could":14219,"Ġ():":14220,"Ġ[_":14221,"ablish":14222,"upstream":14223,"Ġhuman":14224,"Ġexe":14225,"ĠSchema":14226,"==\"":14227,"===":14228,"ĠAfter":14229,"ĠCSS":14230,"Ġ{:":14231,"Ġepoch":14232,"Ġimportlib":14233,"Ġglyph":14234,"Ġ2000":14235,"Restart":14236,"Ġcoords":14237,"ifth":14238,"posit":14239,"ErrorConditional":14240,"Ġproviding":14241,"INK":14242,"typec":14243,"Ġstrftime":14244,"Ġxpath":14245,"ĠWord":14246,"Ġattemp":14247,"ĠBea":14248,"CTOR":14249,"ALLED":14250,"ĠHelp":14251,"IDS":14252,"Ġpreferences":14253,"Ġprepared":14254,"Ġ409":14255,"Ġmount":14256,"Ġlogical":14257,"maxsize":14258,"Ġcompared":14259,"APH":14260,"APPS":14261,"signum":14262,"EDIT":14263,"explo":14264,"Ġ655":14265,"Ġ``(":14266,"040":14267,"critical":14268,"ĠORDER":14269,"Ġopening":14270,"183":14271,"frameset":14272,"TRAN":14273,"2017":14274,"172":14275,"Notification":14276,"dicates":14277,"Defaults":14278,"centile":14279,"={},":14280,"MatrixSeqRow":14281,"MatrixObsRow":14282,"#############":14283,"ĠPositive":14284,"Ġreplacing":14285,"Ġpatches":14286,"agents":14287,"Ġevaluated":14288,"ĠSTART":14289,"Relative":14290,"Ġ'{\"":14291,"ĠRegistry":14292,"bootstrap":14293,"Ġprobability":14294,"ĠValidationError":14295,"ĠSpecial":14296,"Ġeditor":14297,"OBJ":14298,"ĠDBAPI":14299,"separated":14300,"Ġutilities":14301,"Ġcollector":14302,"VARI":14303,"subscriptions":14304,"Ġrelationships":14305,"Authentication":14306,"ĠCountry":14307,"Destination":14308,"Align":14309,"ĠPayAndVerifyView":14310,"covered":14311,"hessians":14312,"ĠMATROSKA":14313,"ĠDownload":14314,"PROPERTY":14315,"Ã£o":14316,"ErrorConditionalOrderField":14317,">`.":14318,"AU":14319,"Ari":14320,"Bam":14321,"Cfg":14322,"Hub":14323,"LES":14324,"Ow":14325,"PP":14326,"Question":14327,"Rational":14328,"[_":14329,"_=\"":14330,"dyn":14331,"easy":14332,"implement":14333,"slow":14334,"xab":14335,"yum":14336,"ylabel":14337,"çī":14338,"éĻ":14339,"Ġlic":14340,"reports":14341,"requester":14342,"ortion":14343,"orge":14344,"stime":14345,"mech":14346,"metic":14347,"tices":14348,"Ġcmake":14349,"Ġfine":14350,"Ġ\"('":14351,"Ġpc":14352,"Ġpanel":14353,"Ġsquared":14354,"Ġincomplete":14355,"ellow":14356,"direc":14357,"Ġbs":14358,"Ġwsgi":14359,"Ġdu":14360,"Ġdct":14361,"Ġreturncode":14362,"__')":14363,"######":14364,"isabs":14365,"Ġ\"\"\"\\":14366,"0010":14367,"Ġ180":14368,"Ġstroke":14369,"ĠSame":14370,"ĠAL":14371,"ĠCPU":14372,"spend":14373,"ĠIg":14374,"ĠLoose":14375,"ĠFE":14376,"ĠFa":14377,"quets":14378,"Ġcoord":14379,"Ġproduc":14380,"Ġym":14381,"ĠMain":14382,"Ġvrf":14383,"Ġparen":14384,"dbtest":14385,"CTED":14386,"STORAGE":14387,"ĠUUID":14388,"fess":14389,"antum":14390,"TestData":14391,"sessions":14392,"Ġmox":14393,"Ġmojom":14394,"createVariable":14395,"fications":14396,"CThostFtdcErrorConditionalOrderField":14397,"Ġlag":14398,"Ġpercent":14399,"ILDE":14400,"Ġexpanded":14401,"building":14402,"Ġstartup":14403,"Segment":14404,"Encode":14405,"Enrollment":14406,"POOL":14407,"ĠINF":14408,"Ġspot":14409,"CharSet":14410,"sympy":14411,"ForQuoteField":14412,"ĠUnknown":14413,"Ġ','":14414,"USR":14415,"whitespace":14416,"]]),":14417,"DateField":14418,"keras":14419,"MAKE":14420,"topics":14421,"terminated":14422,"################################################################################":14423,"Ġ'_'":14424,"callbacks":14425,"Ġpatched":14426,"Ġinterest":14427,"Second":14428,"Ġserve":14429,"ONEK":14430,"Ġevaluator":14431,"ĠApplication":14432,"Ġmappers":14433,"ĠhostsFile":14434,"å®ī":14435,"Rules":14436,"Credentials":14437,"ĠSpecifies":14438,"Ġmimetypes":14439,"ĠSEPARATOR":14440,"kitpy":14441,"whitelist":14442,"ĠStack":14443,"Month":14444,"2111":14445,"FUNC":14446,"isolate":14447,"++++++++":14448,
[...]
