#version: 0.2
Ġ Ġ
ĠĠ ĠĠ
ĠĠ Ġ
Ċ ĠĠĠĠ
s e
i n
r e
o n
ĠĠĠĠ ĠĠĠĠ
t e
ĊĠĠĠĠ ĠĠĠ
o r
s t
d e
Ċ ĠĠĠ
Ġ =
t h
se l
l e
sel f
m e
a l
t i
a r
e r
a n
Ġ i
ĠĠĠĠ ĠĠĠ
Ġ '
Ġ c
Ġ self
ĊĠĠĠĠ ĠĠĠĠĠĠĠ
a t
e n
a s
Ġ f
ĊĠĠĠĠ ĠĠĠĠĠĠĠĠ
r o
Ġ th
Ġ "
Ġ re
c e
u r
Ġ p
ti on
g e
Ġ n
) :
- -
Ġ s
Ġ t
a me
# #
Ġ o
u e
m p
' ,
Ġ in
Ġth e
e l
in g
de f
Ġ a
a te
r i
l i
e c
f i
l o
se r
n t
d i
u t
Ġ #
Ġ b
c o
Ġ m
" "
e x
Ġ w
c h
Ġ (
Ċ ĊĠĠĠ
s i
( )
u n
Ġ def
Ġi f
r a
i d
or t
u l
p e
ur n
t urn
ĊĠĠĠĠĠĠĠĠĠĠĠĠ ĠĠĠ
an d
te r
' )
n ame
o t
a d
' :
ge t
( '
Ġf or
c t
v al
Ġ d
on e
Ġi s
Ġre turn
-- --
k e
Ġt o
_ _
Ġ [
a b
## ##
i t
o de
i s
i l
p a
u p
se t
Ġ T
Ġ 0
ser t
q u
ĊĠĠĠĠĠĠĠĠĠĠĠĠ ĠĠĠĠĠĠĠĠ
y pe
e t
o l
c on
as sert
m a
v er
e d
o d
) ,
te st
Ġ" ""
c k
" ,
as s
Ċ ĊĠĠĠĠĠĠĠ
s s
mp ort
Ġo f
Ġ h
N one
o p
0 0
ro m
Ġ 1
e s
Ġ st
l a
ar g
Ġ u
t r
de r
' ]
v i
at a
Ċ Ċ
Ġc on
el d
ec t
val ue
Ġ ex
ul t
) )
Ġ S
i th
. _
v e
Ġ and
c l
me nt
Ġn ot
= =
i le
Ġ A
a p
si on
p ar
Ġ C
a tion
u b
[ '
u m
h o
r or
Ġ %
al l
fi le
in t
r ue
Ġ -
c tion
s p
Ġ _
Ġ {
te d
Ġ +
Ġ e
x t
( "
Ġ I
ab le
b j
t o
b u
Ġi mport
t a
a m
a se
Ġ g
Ġ L
Ċ ĉ
Ġ F
Ġ de
f rom
en t
l s
] ,
a ge
ke y
p ro
arg s
ĊĠĠĠĠ Ġ
pa th
u le
Ġn ame
l in
st r
Ġ di
Ġ test
* *
Ġ None
ĊĠĠĠĠĠĠĠĠĠĠĠĠ ĠĠĠĠĠĠĠ
h e
p tion
te xt
f or
en d
t ype
Ġ 2
#### ####
Ġ= =
Ġ or
qu al
Ġ el
i eld
o ut
h t
re s
q ue
R e
---- ----
p ut
Ġc o
Ġ P
i f
p o
i g
Ċ Ġ
e w
cl ass
li st
al se
Ġb e
" )
ti me
p er
Ġw ith
i c
= '
f o
le n
Ġ r
u s
p t
E r
od ule
o w
Er ror
" :
ĊĠĠĠĠĠĠĠĠĠĠĠĠĠĠĠĠĠĠĠĠ ĠĠĠĠĠĠĠĠ
Ġ value
I n
E R
Ġ :
bj ect
Ġ me
an ce
Ġ D
a ult
m at
] )
Ġ as
Ġp ro
E qual
Ġ se
Ġ lo
Ġf ile
ap p
T rue
te m
I N
i se
s c
Ġ an
z e
que st
t y
o ur
re d
f f
mp le
y s
Ġre s
a g
m o
ar t
Ġc h
t ri
ad d
d ata
li c
Ġel se
il d
"" "
Ġ O
= "
assert Equal
w or
u re
re ate
a c
e st
r y
l y
Ġ G
o c
a ck
== ==
Ġ y
Ġ M
an g
ce s
d ate
m m
fi g
m ode
ĠĠĠĠ Ġ
F ield
an ge
co de
[ "
ur l
Ġ v
se d
Ġ un
p ort
s h
Ġ <
m b
: :
u nt
Ġ E
te n
p ec
Ġ set
) .
Ġth at
Ġ en
O N
Ġ assert
A T
i mport
Ġo ut
Ġ __
I T
Ġ( '
Ċĉ ĉ
Ġ get
i p
ec k
Ġst r
Ġ x
Ġ on
Ġm a
i st
" ]
Ġ l
ce ss
lin e
ti c
in d
re nt
ro up
st ance
Ġi t
Ġp ar
f a
ĠĠĠĠ ĠĠ
Ġth is
Ġd ata
Ġ W
ho st
fi eld
b o
Ġ N
p re
Ġ al
di r
te s
or y
r int
0 1
Ġf rom
Ġ *
Ġp a
ver sion
th od
C on
k w
Ġ 3
p y
de x
Ġ ra
m s
re ad
d d
Ġ `
ri te
a der
Ġ at
R E
') ,
> >
ĠT rue
Ġ B
re n
d b
t p
lo w
o re
n et
v el
en se
j o
er ror
ar y
th er
tr y
ce pt
our ce
m odule
par am
Ġw h
Ġo s
Ġb y
__ (
app end
ĠT he
######## ########
at ch
Ġ{ '
ĠF alse
Ġ le
on se
C T
A L
S T
Ġt ype
co l
. .
un ction
en er
i r
ĊĠĠĠĠĠĠĠĠĠĠĠĠĠĠĠĠĠĠĠĠ ĠĠĠ
Ġ U
de d
un d
m l
u ser
ar k
kw args
Ġ )
A R
te nt
o me
str ing
in it
Ġ key
vi ce
Ġres ult
l ate
ĠĠĠĠĠĠĠĠ ĠĠĠĠĠĠĠĠ
w a
o s
ra y
sc ri
o m
ss age
o k
re e
ex t
f e
ch e
/ /
as k
o bject
Ġra ise
n s
an s
( [
li b
tri bu
F alse
Ġw e
u th
at or
qu i
j ang
v ent
s ub
-------- --------
ab el
jang o
il l
tion s
O R
Ġ len
Ġ **
lo g
o u
ĊĊ Ġ
wor k
an t
ti ve
u ment
co unt
T est
ar ray
st ri
V al
Ġ Re
Ġc l
al i
m in
te mp
Ġa re
E N
Ġs ho
re ct
Ġ list
di ct
w rite
ce ption
sp onse
C h
Ġ @
de n
a ve
d s
g s
ing s
p h
in fo
E T
ar i
c a
p p
E x
lo ad
val id
( ):
Ġp rint
ul d
Ġ R
li ent
f t
n o
Ġm ode
ic ense
Ġ H
se s
a mple
Ġt ry
u ct
le r
la y
I D
Ġ }
def ault
Ġex cept
st ate
ow n
jo in
g er
re ss
p en
u st
co mp
1 0
2 5
Ġdef ault
ta in
h is
t d
c ur
Ġn ode
g ht
Ġp re
mm and
Ġn ew
n ode
o g
in stance
Ġpa th
um b
s on
E S
A N
Ġm odule
Ġs ub
ĠL icense
k en
ar get
Ġ 4
for mat
Ġ ro
i m
up date
' }
Ġm o
g roup
ĊĠĠĠĠ ĠĠĠĠĠ
for m
b le
field s
Ġc an
si ze
c al
Ġlo g
re quest
Ġ[ ]
le ment
Ġ" \
ter s
Ġw ill
mode ls
: //
g n
c reate
at us
th on
Ġs up
S t
N ame
S E
co m
Val ue
U T
op y
Ġu se
T ype
' ):
u ti
Ġel if
fi c
u me
ar d
fi x
ig n
' '
ma ge
in e
g th
'] ,
Ġp o
==== ====
Ġo ption
ate d
st art
Ċ ĊĠĠĠĠĠĠĠĠĠĠĠ
Ġ time
pec ted
Ġu ser
Ġ- >
at tr
P ro
l l
li t
Ġ+ =
Ġle vel
S et
L E
Ġf ield
a pe
umb er
con fig
lo ck
ĠT his
Ġd o
b ack
s pa
n d
C o
Ġn o
F td
host Ftd
hostFtd c
3 2
u g
Ġn p
con text
n ew
Ġo bject
. __
ark er
Ġs ys
i v
ĠI n
ke t
ri ght
Ġp ass
me thod
g ra
ĠI f
Ġ all
Ġh as
u te
la ce
ar ch
or m
č ĊĠĠĠĠĠĠĠ
Ġ[ ],
Ġf unction
Ġre quest
ar n
Ġc ol
b y
ma x
Ġh e
Ġcl ass
j ect
ht tp
ul l
Ġ version
er y
t ro
w ith
() )
lin k
Ġ{ }
scri ption
s or
w w
j son
ma in
. """
CT hostFtdc
D e
in dex
č ĊĠĠĠ
1 2
Ġ >
; ":
un c
** **
Ċĉĉ ĉ
Ġ[ '
s ing
K e
Ġs pec
Ġs i
d a
Ġcon text
o und
Ġs o
G et
it y
t ra
r ame
lo at
< /
I C
Ġa dd
Ġsho uld
in ter
res ult
Ġco mp
par se
ec tion
Ġ url
d ing
wor d
r un
Ġs h
Ġ !
wa re
Ġa c
r on
c or
b ase
ma p
i tem
Ġout put
Ġ ge
D E
] .
Ġ k
Ġ 5
op tion
e e
d jango
Ġ >>
() ,
a il
Ġin t
Ke y
i me
Ġb u
Ġ \
ome try
se nt
Ġ arg
vi ew
A P
ch eck
Ġ! =
o st
ig ht
ul ti
F ile
Ġst ate
um n
ro w
6 4
Ġ la
le d
ĊĠĠĠĠĠĠĠĠĠĠĠĠ ĠĠĠĠĠĠ
Ġ line
p l
de nt
cl u
1 1
p lace
Ġo ther
m d
ĊĠĠĠĠĠĠĠĠĠĠĠĠĠĠĠĠĠĠĠĠĠĠĠĠĠĠĠĠ ĠĠĠĠĠĠĠĠ
" ),
Ġa pp
Ġstr ing
ma il
m it
p i
qui red
Ġcon fig
tic le
stri bu
spa ce
w e
l abel
con n
P ar
Ġc ur
t le
t s
' t
( *
Ġ /
T ER
R O
n er
Ġme thod
o bj
I ON
A t
ĊĠĠĠĠ ĠĠĠĠ
tribu te
Ġp y
Ġ error
Ġ>> >
' s
Ġ V
IN G
qu ery
'] )
ĊĠĠĠĠĠĠĠĠĠĠĠĠĠĠĠĠĠĠĠĠ ĠĠĠĠĠĠĠ
Ġch eck
u se
a uth
in put
2 0
re turn
out put
mo ve
Ġp er
Ġn s
and ler
ser ver
Ġc reate
uti ls
a v
r c
č Ċ
n ot
re f
Ġh ave
') )
Ġi d
sp lit
A M
ke d
len gth
per ty
i ch
mode l
z er
all y
Ġge ometry
00 00
as h
si gn
temp late
set s
Ġr un
Ġu sed
( (
E D
ĠA N
d o
t ings
c lient
ari able
I L
m an
Ġre sponse
() .
ur se
ter n
s ys
tribu tes
Ġ li
ĠE x
a ct
Ġc ode
2 2
Ġi tem
param s
ex p
Ġh t
Ġspec i
Ġex p
le te
par ticle
ation s
on g
Ġy ou
Ġme ssage
r an
fa ce
9 9
st atus
b s
a ch
re g
read y
e qual
_ .
c s
A S
Ġn e
re am
} )
a y
pro cess
i te
re sponse
tr ing
lo se
fo o
i ter
t able
Ġc ls
ub lic
d oc
si ble
ise s
Ġis instance
ht ml
u al
c all
er s
od y
or s
s o
i es
fi l
ti al
s g
n e
or g
Ġan y
ch ange
he ader
I G
` `
net work
Ġb ut
C H
r ans
ti tle
Ġ ĊĠĠĠĠĠĠĠĠĠĠĠĠĠĠĠĠĠĠ
y n
################ ################
p ri
Ġvalue s
Ġc opy
str uct
Ġb ase
Ġdi ct
' .
ut o
Ġsup er
ser vice
p s
Ġ array
lo c
me ssage
a x
Ġun der
up le
ft ware
ms g
u c
U R
st a
co re
Ġw or
D i
u mp
A B
m is
me n
Ġ args
sh ape
ind ow
a ction
Ġ X
R a
bu g
fi ed
Ġwh ich
Ġc all
T o
Ġb o
Ġ 6
ĊĠĠĠĠĠĠĠĠĠĠĠĠ ĠĠĠĠ
a ke
Ġin dex
Ġ Q
name s
con tent
U L
bu ild
l an
Ġ end
'} ),
D ata
Ġex pected
v ed
i x
pa ck
" >
Ġ j
con tro
Ġpar am
R es
Ġin put
fe ren
Ġm arker
po int
t in
I S
mp ty
sion s
ti es
Value Error
s k
1 6
out file
ra p
H T
t ing
op en
ap i
Ġd oc
2 4
le an
to ken
Ġst art
op tions
ĊĠĠĠĠĠĠĠĠĠĠĠĠĠĠĠĠĠĠĠĠĠĠĠĠĠĠĠĠ ĠĠĠĠĠĠĠĠĠĠĠĠĠĠĠĠ
Ġal ready
L ist
Ġ` `
Ġ one
ol s
S e
a in
ch ild
po s
E n
S er
Ġm atch
Ġout file
mat ch
Ġcon n
0 4
A dd
Ġ vi
b e
ĠT est
rect ory
mb er
at ure
Ġcon st
it s
t arget
Ġwh en
O T
ag er
sp ec
Ġmode l
or ted
turn s
Ġn umber
( _
Ġg roup
Ġr ange
ment s
ET TER
me ta
= [
a k
: `
a th
c ri
ri d
ĠL ETTER
ff er
f y
AN T
lin es
Ġin stance
Ġcur rent
A G
T ime
Ġo bj
Ġoption s
Ġ z
ro ot
Ġ .
p rint
EN T
Ġ1 0
ĠC on
U n
m y
Ġco mmand
ol ume
Ġma y
p v
v o
Ġde scription
---------------- ----------------
ĠO R
Ġon ly
c re
Ġs ource
Ġht tp
Ġ up
si t
sel ect
f unc
and om
el p
C O
co mm
P O
id get
Ġto ken
[ :
clu de
iv en
f loat
value s
Ġre g
c y
ta g
l d
ir st
ĠG ener
ra ct
IT H
e p
Ġa d
00 0
Ġre quired
Ġp l
Ġo pen
Ġp ort
Ġcon tain
Ġ ..
Ġt arget
Ġdi stribu
Ġhe ader
Ġ text
C ase
3 0
ug in
_ ,
n el
Ġma x
o te
i on
object s
Ġd jango
A C
{ '
u res
Ġt ag
con st
B o
vi ron
Ġ ]
t on
en v
te ger
ch ar
B ase
file name
N U
Ġ |
Ġfor mat
tr ans
Ġm sg
Ġm ust
b ar
Ġ' ''
ri x
type s
t ask
ame ters
and le
di tion
lo b
ĠI N
Ġsho w
M ode
Ġ ##
ex ec
I P
Ġh ost
fil ter
' \
ĠO F
n um
b in
e vent
p r
Ġe vent
f unction
Ġin ter
1 5
a re
id s
I M
ĠW ITH
i ze
P o
r t
Ġd ate
mb da
č ĊĠĠĠĠĠĠĠĠĠĠĠ
ww w
c i
q l
Ġcon tent
Ġl abel
Ġfile s
i z
Ġp art
if y
ut f
Ġe lement
Ġ 8
Ġmo ck
Ra ises
Ġarg ument
M L
p ass
op s
i code
g ing
3 4
Ġn et
co py
Ġ' %
S tring
assert Raises
Ġg ener
Ġch ange
in al
U p
Ġre ad
======== ========
T P
en ce
H E
ali ze
Ġt ra
Ġs p
co mmand
o ck
Ġ Y
Ġg iven
pe d
id th
f low
key s
ĊĠĠĠĠĠĠĠĠĠĠĠĠ Ġ
assert True
ces sed
Ġfield s
ĉ ĉ
Ġ ver
AL L
1 4
py thon
c lose
scri pt
f ind
ta il
y le
st d
er r
Ġat tr
] [
ad ata
co urse
A c
Ġf irst
**** ****
v ar
ĠS ee
fa il
th e
Ch ar
Ġdo es
" .
di t
Ġname space
et a
late d
fo re
. ,
Ġf ol
ile d
b lock
Ġ ,
Ġ' \
Ġsi ze
M e
s y
ra w
Ex ception
h as
a st
an y
Ġi mage
Ġm ore
im al
u age
ĠC h
1 9
s ource
ang uage
po st
Ġch ild
la gs
on t
i mage
st ore
co ding
T ext
ĠL AT
f ter
cor d
ĠLAT IN
le ct
D I
ĠG NU
si tion
'] ['
1 8
lic ense
N ot
Ġ 7
ex ten
feren ce
el l
ĠP ublic
ĊĠĠĠĠ ĠĠĠĠĠĠ
ur ation
f rame
F or
in i
y thon
ex pected
ĠRe turns
al s
Ġpro vi
T R
)) )
ma ke
ra tion
le ction
lic y
or der
ti ty
Ġ &
bo x
2 01
m arker
pro perty
ten sor
arn ing
ĠGener al
lo t
n p
Ġ valid
c r
pre fix
C ol
Test Case
Ġ K
Ġ --
0 2
P ath
_ )
ith er
u id
Ġt rans
o f
Ġof f
x ml
m ary
3 3
D O
de lete
Ġ( "
* -
cri pt
ate s
opy right
A r
ho w
me mber
ame ter
_ ='
U ser
pro cessed
ĊĠĠĠĠĠĠĠĠĠĠĠĠ ĠĠ
x y
fa ct
ali z
ex port
o ver
1 7
ĠAN Y
ĠA n
ĠD e
Ġfor m
Ġ query
Ġmode ls
s te
add ress
Ġo p
ate g
f ault
o ther
m ark
st all
Ġ- *-
L O
T E
it test
Ġs y
pa ge
contro ls
m t
d uct
Ġwor k
ĠC o
Ġ ValueError
Ġc a
ist s
f ul
5 0
ample s
Ġm in
file s
o us
Ġfile name
Ġi mp
Ġo ver
ch ed
sub net
item s
ĠG et
Ġpa rent
ca che
Ġc lient
fi r
O r
v en
Ġ2 01
il ter
he re
Ġma ke
A D
Ġf e
s with
V i
m on
Ġa ction
b ody
pa rent
) ]
Ġ update
tin ue
ĠC opyright
ĠU n
T ag
r ary
Ġch ar
cur rent
M P
Ġbu ild
t adata
Ġ server
p c
Ġa g
O bject
able d
[ -
li ed
Ġu id
c md
t k
P E
Ġparam s
ra ph
5 6
ĊĠĠĠĠĠĠĠĠĠĠĠĠĠĠĠĠĠĠĠĠĠĠĠĠĠĠĠĠ ĠĠĠ
ack age
ĠC ON
ä »
Ġt uple
le vel
oc ket
O UT
al led
Ġt able
lo cal
ver t
i li
Ġu sing
de bug
res sion
1 3
') .
ver se
I d
U N
} ,
ses sion
mo ck
c le
is ter
O F
our ces
Ġdistribu ted
2 00
ĊĠĠĠĠĠĠĠĠĠĠĠĠĠĠĠĠĠĠĠĠ ĠĠĠĠ
at s
I pv
At tributes
re place
n ing
Ġb ack
Ġin to
Ġmo di
L I
Di ct
Ġe ach
a tive
o o
2 9
Ġdi rectory
se ri
on ent
T ra
Ġpar ser
w o
ulti p
ut ure
tri b
Ġwith out
I tem
pre sent
Mode l
Ġ' /
yn c
fic ation
an nel
Ġs ign
Ġwh ile
ol d
sp lay
pro ject
s w
ES S
0 3
Ġa uth
lan k
comp ile
Ġa x
Re quest
Ġc or
stri p
de scription
ĠW AR
Ġor der
lic ation
el per
B y
qui re
Ġne ed
ri ver
5 5
le ase
IT Y
AM E
N ode
i que
Ġse e
at ab
Ġpro cess
i ck
Ġe ither
Ġfol low
ĊĠĠĠĠĠĠĠĠĠĠĠĠĠĠĠĠĠĠĠĠ Ġ
Ġex tra
Ġd b
d f
s up
gra m
set tings
t ree
St ate
Ġ lib
Ġ' ,
que ue
Ġv ariable
Ġ val
uc cess
atab ase
Ġ ter
co pe
Ġh elp
Ġs ome
Ġname s
f er
Ġn um
di rect
per ties
Ġro w
I s
re move
8 0
R ANT
2 7
', '
N o
ut ton
un k
Ġcon tinue
ig h
Ġw as
la g
re ak
date time
ĠWAR RANT
ac tive
l ass
ex ception
Ġen v
r ate
Ġo per
li sh
n own
o ff
Ġro ot
T he
d own
Ġc ase
loc ation
e lement
at ing
s rc
qu ence
Ġ} ,
Ġresult s
ab s
conn ect
st ract
Ġa b
ĠS t
Ġ q
ĠS o
Ġreturn ed
B u
s um
st ream
Ġm ap
Ġ 9
U S
ma tion
Ġ J
V er
i ce
lay er
Ġ json
Con fig
i ve
m i
2 3
re q
ĊĠĠĠĠĠĠĠĠĠĠĠĠ ĠĠĠĠĠ
or d
Ġre q
Ġso ftware
p k
Ġp ri
at tern
re lated
Con tent
Ġco unt
In fo
r ange
A ction
ti v
Q u
e mail
n ow
Ġf ind
tro l
F I
w h
at ures
Ġb lock
in ed
to col
Ġpre fix
fi er
Ch ild
header s
pass word
i al
Ġf loat
C ON
le ss
par t
) ),
Ġs ame
Ġex ception
D AT
~ ~
tail s
at rix
Ġlog ging
at form
Ġs u
ĠS M
et ch
1 00
E vent
ĊĠĠĠĠĠĠĠĠĠĠĠĠĠĠĠĠĠĠĠĠ ĠĠĠĠĠ
se arch
con f
ail able
as ses
ĊĠĠĠĠ ĊĠĠĠ
se nd
Ġp age
Ġth en
Ġex ec
h andler
i e
ĠY ou
" ],
Ġf ound
" ))
Ġde l
t x
der r
col umn
Ġ link
8 8
se ction
ec ted
s u
Con text
uti l
ĠH T
en try
Char Field
x x
Ġp ackage
Ġ template
g r
0 5
p op
s how
ç ł
che ma
çł ģ
tr ue
en code
! !
7 7
la tion
Ċ ĊĊĠĠĠ
Ġ kwargs
mo te
th ing
con d
ot al
ol der
V ER
men ted
Ġoff set
O ut
n umber
Ġco mm
Ġ' .
di stribu
ĠT HE
Add ress
C L
w idth
Ġ ar
Ġst atus
g ener
ri de
Ġex ten
T Y
F F
u i
Ġla st
ĠP ython
an ager
ĠS et
E lement
p atch
U P
X X
ol y
res h
ĊĠĠĠĠĠĠĠĠ ĊĠĠĠĠĠĠĠ
c ket
ĠA r
Ġsh ape
Ġconn ection
25 5
Ġt ask
Ġdi ff
par ser
s ave
S S
] ]
c er
ab c
vi sion
ight s
v olume
s a
Ġse s
Ġy our
Ġn on
Ġ" %
Ġy ield
ect or
c an
Ġ2 00
m ask
la st
sys tem
Ġal low
Ġdoc ument
p onse
IL ITY
Ġo pt
Ġde vice
ant s
2 8
E X
Ġla mbda
Ġw ri
(' /
cl s
us h
Ġen try
I O
g o
ec imal
G roup
n ull
Ġs k
. "
ub lish
ĠW e
struct or
2 6
u d
pre c
ĠSo ftware
F a
Ġspeci fied
ok up
ĠAN D
p orted
ex it
Ġd type
Ġp os
Ġlo ad
um ns
Ġses sion
i ces
po ol
jo b
Ġ' -
di ces
ĠEx ception
In put
og le
C reate
d u
h er
ĠSM ALL
] :
Ġex ist
pack age
K E
bo se
Ġdate time
) ):
f s
Ġat tribute
iter al
F A
ur i
In dent
Ġc md
u tion
c p
Ġli mit
re c
m od
mple mented
Ġset tings
rap per
O P
Ġor ig
r ule
ren der
T H
ateg ory
mb ol
Or der
de l
al og
di c
L iteral
ili ty
Ġpy thon
a ti
N AME
change d
Q U
2 1
i o
o lean
Ġpro gram
ust om
result s
ac count
Ġco urse
pa che
D ate
Ġpo int
Ch eck
ro und
it ch
Ġspeci fic
f n
Ġdi s
A ll
op er
st or
. ")
b lank
ce iv
Ġheader s
3 6
ĠF or
Ġlo c
S ize
Ġhe re
viron ment
lob al
ad min
e mpty
h ash
ĠT O
Ġtest s
start swith
a le
Ġ' '
Ġr ule
Val id
å ı
k er
de o
Ġlen gth
to ols
Ġshow Indent
5 9
IT AL
Ġa fter
Ġme ta
Ġattr s
de v
Ġ[ "
Ġf rame
Ġ service
4 4
Ġn ext
si te
AR T
den ti
ore ign
Ġbo ol
Ġ Z
Ġthe re
Ġres ource
we b
ä» £
In dex
act ory
Ġa ct
Ġnet work
ä»£ çłģ
L o
ri es
8 6
_ (
{ }
AP ITAL
Ġf unc
res ource
Ġa v
license s
ti l
sta mp
ĠI S
Ġ temp
M A
ate r
group s
ge x
ĠC APITAL
Ġde p
R L
Ġax is
Ġ tensor
ĊĠĠĠĠĠĠĠĠĠĠĠĠĠĠĠĠĠĠĠĠ ĠĠĠĠĠĠ
sta tic
tern al
` .
e g
UR L
Ġ right
Ġpass word
'] .
ĠP ar
di s
and ard
3 7
e mp
% (
de p
pl ugin
AB ILITY
Child ren
for mation
Ġ err
Ġdi r
\ \
f lags
v ariable
At tribute
O ption
de vice
Ġex port
Ġth an
L og
Ġin i
ex ample
] ))
ĠP ro
error s
t op
ex c
fir st
Ċ ĊĠĠĠĠĠĠĠĠĠĠĠĠĠĠĠ
ut able
ĊĠĠĠĠĠĠĠĠĠĠĠĠĠĠĠĠĠĠĠĠĠĠĠĠĠĠĠĠ ĠĠ
A l
ta gs
Ġit s
Res ponse
č ĊĠĠĠĠĠĠĠĠĠĠĠĠĠĠĠ
Ġ --------
ĠCh eck
Ġc ho
Ġ> =
De fault
do main
inter face
a red
e val
Ġpro ject
ĠWITH OUT
pen den
arn ings
UL T
O L
ex ists
node s
. ')
C lass
R un
Ġb reak
par k
ction ary
Ġsup port
is h
ca le
Ġf a
ultip le
ĠF OR
Ġobject s
Ċĉĉĉ ĉ
test s
re po
Ġre cord
ran ch
H andler
re quired
U B
f uture
arg ument
ĠV er
ex cept
Ġde st
man ager
con tain
( {'
u int
Ġre n
Ġb ody
low er
Ġpar se
conn ection
ot o
Bo x
Ġo ld
In ter
s l
ing le
st ack
Ġin fo
ump y
4 0
" ):
-- -
Ġde tails
r andom
Ġw here
'' '
ceiv ed
di v
on ly
Ġin st
mis sion
off set
log ger
čĊ č
b stract
Ġkey s
Ġh andle
Ġbe fore
Ġimp lied
a it
ter min
st op
F e
Vi ew
Ġb in
Ġma in
o b
g ine
Ġf in
Ġfollow ing
H e
Ġw rite
time out
Ġun icode
= %
Ġf ail
8 9
Ġl anguage
gra ph
A RE
ĠT ype
el se
user name
n orm
in ce
Ġse arch
IG HT
g en
me tadata
wa it
Ġs a
od ing
Re turn
ĠN ot
in k
si tive
Ġco m
Ġc r
Ġst d
c ul
f l
as si
as ic
Ġ view
b a
ti tion
I ES
ch o
čĊ čĊĠĠĠ
d ump
Ġd f
std out
ĊĠĠĠĠĠĠĠĠĠĠĠĠĠĠĠĠĠĠĠĠ ĠĠ
Ġget attr
Ġadd ress
6 0
dition al
Ġre f
ec a
Ġ qu
Ġreturn s
zer o
sk ip
al y
Ġre t
C E
g or
n ap
Ġr andom
Ġf ilter
5 7
Ġre po
mple ment
s ql
Ser vice
n on
t mp
w ise
ke ep
Ġe mpty
de code
as ter
Ġlo cal
a uto
es ca
c en
m ory
Ġ' --
co der
Ġt rue
Ġo b
ĠC reate
Ġpar ameter
Ġlog ger
Ġ ass
st yle
set up
ra g
le ft
Test s
4 9
D is
S h
oreign Key
se n
HT TP
f g
Ġh o
n ext
aliz ed
Ġ' __
c ap
w er
Ġ{ "
N et
comm on
l ing
3 9
] ),
Ġ title
Ġbe en
A nd
P re
as sed
Ġt wo
ith ub
gor ith
Ġ lines
Ġerror s
e ar
F rame
'} )
Ġre sp
di a
Ġargument s
g rid
Ġc oding
vo id
( -
" ])
Ġth read
Ġal so
Ġa uto
i b
z ip
Ċ ĊĠĠĠĠĠ
di st
y load
ĊĠĠĠĠĠĠĠĠĠĠĠĠĠĠĠĠĠĠĠĠĠĠĠĠĠĠĠĠ ĠĠĠĠĠĠĠ
Ġcreate d
: %
bo ok
A n
Ġt f
si de
Ġcol umn
> \
re pr
Ċ ĠĠ
contro l
i mat
Ġ' <
ĠS tring
us ter
Co unt
mple te
Ġin clude
um my
Ġ utf
di o
ol ve
pa ce
w indow
Ġsub net
mis sions
onent s
di ff
Ġb et
tic al
M odule
g in
u uid
b it
ĠI P
Ġstr uct
ĠN OT
ched ule
Ġav ailable
col or
6 6
ser ved
Ġm an
Ġpro perty
ti fic
'] :
.. .
Ġpo st
en sor
Ġn orm
Ġprovi ded
h i
Ġby tes
ĠF ound
me r
ali zer
Ġ sel
Ġ Key
sh ot
b r
pro perties
action s
a ded
******** ********
ĠA dd
Ġca che
eca use
4 8
Ġre move
assert False
OR T
auth or
Ġi ter
L IC
pro file
o id
le x
T h
bo ol
Con n
exec ute
Ġac cess
Ġs cript
ĊĊ ĉ
Me ssage
v ate
us r
Ġsp lit
Ġmodi fy
TY PE
ĊĠĠĠĠ ĠĠ
Ġc re
Ġe mail
o se
> <
ti fy
( ?
P I
ĊĠĠĠĠĠĠĠĠĠĠĠĠĠĠĠĠĠĠĠĠĠĠĠĠĠĠĠĠ ĠĠĠĠ
F rom
################################ ################################
( {
vi der
oc i
AT E
arg v
ĠC ol
Ġsys tem
) [
un ittest
mb ed
N O
t xt
po licy
T ree
Ġs ample
Ġ< =
Ac count
wa y
by tes
r f
ro p
ad ded
Ġe ven
Ġd on
c li
ĊĠĠĠĠĠĠĠĠĠĠĠĠĠĠĠĠĠĠĠĠĠĠĠĠĠĠĠĠ Ġ
Ġhas attr
w in
0 9
5 4
d river
ĠFound ation
Ġh andler
). __
P AT
u x
da y
sit ory
ver y
Ġdi st
ext ra
gorith m
E L
F oreignKey
v es
ip el
Ġ" .
ĠU RL
si s
un ique
Ġpar ameters
in stall
ma c
Ġter ms
h a
la mbda
Ġ.. .
Ġoption al
Ġ, '
b atch
en viron
R ow
t uple
en tic
Ġ[ [
ION S
M ap
Ġt mp
Ġse nd
ali as
Ġhas h
F orm
Ġst ream
M anager
DAT A
fe atures
w d
Ġf alse
li mit
Ġdiff e
c lo
re sp
nt ry
if t
Ġa bs
Ġw ant
app ing
ĠI t
Ġg o
Ġra w
v ari
Ġf ree
ĠA t
ub le
ator s
O M
= ['
ĠN o
EN SE
Par ser
6 7
L e
ä º
m ulti
wa ys
pri mary
an k
Ġa pi
li ce
Ġdi ctionary
Ġl ong
ĠAr gs
I B
(' -
In teger
Ġun ittest
ĠWARRANT IES
Ġa p
fact ory
th read
P er
Ġ te
se q
Ġp assed
ĠHT TP
ol ute
bu ffer
exten d
s core
U M
ge st
de st
id den
ase s
:` .
Out put
FA ULT
Ġuse ful
Ġj ust
AG E
Ġre present
reg ister
M eta
S ub
p lot
Ġf l
([ [
3 5
T rans
le t
Ġex ample
Ġ% (
sent ry
Ġin formation
ac ket
le s
vi rt
Par am
de sc
Ġc alled
Ġto p
re l
Ġl ater
AN D
TE ST
KE Y
s m
mo st
w ard
Ġp ublish
nap shot
name space
Co mp
he ad
N ESS
Ġcon trol
ĠU ser
im um
or ies
Ġchange d
ipel ine
= (
me tri
': '
c c
ti ls
op t
Ġinter face
y p
Ġn ull
di splay
fa ke
const ant
R A
Ġx ml
Col umn
u ter
Ġt ree
C ur
O K
T his
imat or
3 8
s v
li ke
( ['
0 6
pl atform
con ds
D o
"] =
gn ore
Ġf ull
dir s
f in
s ort
as on
Ġs ingle
add r
W ith
IG N
s cope
j s
ĠI D
del ta
st derr
tr l
Res ult
e ff
re cord
Ġg ra
ER CH
For mat
esca pe
C lient
Ġn umpy
Ġen coding
IT NESS
e q
p lay
si x
Ġ[ ])
I mplemented
in sert
te ra
di tions
mat rix
Ġ< /
http s
ERCH ANT
D B
d type
Ġb ecause
la tive
Ġal i
PO SE
end s
ĠD ecimal
Ġal ong
Ġwe b
re al
ĠF ree
ĠAn sible
ART IC
t f
Ġ2 0
+ )
4 5
te red
Ġi ds
tra in
] ['
id x
ed ge
ĠF ITNESS
UL AR
B U
L ay
W idget
at tributes
Ġin teger
ac cess
F OR
c ss
Ġn ow
'} ,
UR POSE
u sed
Ġs w
lic it
w idget
te p
Ġs c
ĠP URPOSE
Ġtime out
M O
ĠP ARTIC
Ċĉĉĉ ĉĉ
ĠPARTIC ULAR
Q L
h andle
æ ľ
pro duct
point s
> </
av a
ar ds
ĠM ERCHANT
fi t
log in
4 2
i str
qui res
child ren
A uth
t ab
G ener
f ull
per i
st ats
Ġde lete
: ]
Ġst yle
ĠE n
module s
DI R
# !
ĠA ll
Ġe val
AB LE
Ġ% }
ĠO pen
AT ION
Ġdoes n
" }
= {'
is sing
Ġdi splay
Ġre ceived
ug h
ste ad
M ock
i mp
i mple
Ġ lin
ĠR un
Ġli ke
i ent
Ġst a
Re g
Qu ery
ch annel
Ġp h
ta ch
assertEqual s
ge d
) ],
Ġd own
Ġchar ac
assert Is
es sion
state s
g l
id d
cl asses
all back
D es
E ntry
man y
Ġ' _
Ġin stead
bu f
export Literal
ver age
ĠI mport
for ce
ten ant
de red
Ġdi rect
7 5
= {
c ted
ĠMERCHANT ABILITY
I Z
Ġ arch
Ġv ar
port s
Ex change
C C
Ġ ),
/ %
c at
vi ces
. *
================ ================
f fix
Ġde bug
Ġac count
Ġfa iled
A pp
C ode
C trl
ĠD O
C K
s ue
re p
lib rary
Ġsk ip
pre ss
idd le
iz ation
S P
c ry
Ver sion
b utton
ct x
Ġset up
Co mmand
E V
c ure
Ġ' ',
Ġsub process
Ġitem s
W indow
ro ugh
Ġ_ ("
IN E
In valid
comm it
or ig
Ġw ait
t tp
{ %
L en
re v
ti ce
ance l
we en
Ġz ip
Ġin clu
con trib
Ġm ulti
ra ise
sp ort
call back
in clude
Ġi mplement
cal led
label s
ĠE N
a f
Ġw idget
W ARE
p attern
ĠNot Implemented
__ ,
for ms
Ġ select
V AL
b ind
g reg
Ġthe m
Ġconfig uration
æ ĺ
F actory
b ot
he ther
cle ar
ĠN ame
B utton
e dit
ul ar
ent ries
Ġmethod s
( \
i um
Ġab out
PAT H
ro id
Ġthe y
Ġcor rect
Ġs ure
Ġs orted
Ġs uccess
Ġu s
ING S
pro xy
dir name
Ġat tributes
her it
A s
Ġm ask
D ir
g it
Ġpl ugin
Ġexist ing
W e
spa ces
istr y
ol ver
V E
in ation
A uto
b row
in st
Ġc al
Ġt ri
W arning
al low
(' \
ok ie
Ġht ml
prec ated
Ġcho ices
0 7
k nown
ĠĠĠĠĠĠĠĠĠĠĠĠĠĠĠĠ ĠĠĠĠĠĠĠĠĠĠĠĠĠĠĠĠ
ER R
f ont
Ġf ake
el lo
() [
op ts
Ġtag s
P RE
Ġ" '
Ġs ave
In stance
ĠE X
e f
u tes
en coding
ur ls
f etch
am l
Ġob tain
Ġse ss
4 6
un icode
Ġfor ce
äº ¤
U D
Ġ} }
è ¯
ĠQ t
Ġorig inal
Ġbin ary
) "
0 8
O pen
Q ry
S tr
Ġnode s
I mage
p id
re mote
Ġi pv
mb o
O S
bo ve
L abel
à ¤
ic s
cur ity
n an
attr s
Ġdo main
Ġad ded
Ġre verse
Ġs um
St art
#! /
M M
') ])
Ġd atabase
act or
IM E
Ġ keep
IN T
Ġen code
Ġlabel s
Ġact ual
mo ved
Ġdata set
ari es
25 3
Ġren der
Conn ection
si ve
valid ate
Ġnode Name
or ter
Ġa bove
Ġex c
sub class
Bu ild
A bstract
s amples
Ġver bose
ste p
h elper
an not
") .
ff ff
A d
S C
Ġw arnings
He ader
p ol
Ġ ):
se e
sp an
Ch ange
d ag
Ġc er
Ġtype s
ĠTO DO
Ġ" -
Ġre al
p b
Ġ1 00
Ġpre sent
Ġfunction s
Ġcontain ing
Ġd up
ub e
Re f
Ġdiffe rent
Ġ ],
Ġ" /
vi ous
åı ·
] ])
4 7
P y
ra int
Ġse ri
t otal
ol ution
ĠVer sion
Ġs ocket
con vert
feren ces
emp late
- %
d mp
c ase
5 8
Ġ" "
Ġloc ation
n g
ph a
d at
de c
Ġs rc
ĠM e
ĠWARRANT Y
P tr
Ġse ction
s ure
Ġcon ditions
Ser ver
ĠCol umn
Ġpublish ed
Ġme tadata
Ġlo ok
den tial
input s
ix in
g round
p ublic
Ġre ference
ok en
Ġcol or
ax is
s ted
Ġse quence
ĠN ote
Ġurl lib
iz ed
Ġbet ween
T O
u red
ĠD ata
IN D
+ +
Ġre place
nt ax
Ex ec
Ġcol lection
down load
N umber
class method
ume rate
~~ ~~
Ġcomm on
Ġ: :
ĊĠĠĠĠĠĠĠĠĠĠĠĠĠĠĠĠĠĠĠĠĠĠĠĠĠĠĠĠĠĠĠĠĠĠĠĠĠĠĠĠĠĠĠĠ ĠĠĠĠĠĠĠĠ
du ce
, '
6 9
r s
Ġw indow
DE FAULT
al t
ro ll
Ġre distribu
Ġo w
(" %
end ing
quest ion
comp onents
0000 0000
S H
lo ader
ig ration
"] .
ĠB ase
Ġelement s
denti fier
Ġsta tic
( __
D own
i fication
Ġb it
ĠA PI
ho ok
E M
Ġ[ (
Ġv oid
R o
de s
ĠL I
ys tem
De vice
n one
si ty
(' %
OF T
Ġdis able
Ġf p
ĠL O
CON F
æĺ ĵ
k i
ce ll
g ate
in dent
ra ises
Ġst ack
ac y
B C
u ff
qu ote
part ner
Ġal ways
iddle ware
s ten
A A
F O
P L
S ION
Ġf lag
__ )
ĠType Error
C ore
a a
{ {
Ġ et
at ter
sh ip
Ġpath s
com ment
ĠImport Error
äº¤ æĺĵ
( **
un ter
AC K
st at
ri c
Ġdef ined
con structor
Ġstr ings
Ġpo licy
Net work
7 9
our se
Ġpart s
Ġexten sion
D S
G ET
U E
c ent
v m
le m
Ġi gnore
ci sion
Ġopt s
in valid
G L
O per
P RO
c ategory
Ġm od
ĠRe turn
seri alize
ic al
sh ort
Con tain
-------------------------------- --------------------------------
M atrix
S ER
tr an
Ġg lobal
f mt
w arning
Ġper missions
virt ual
B O
S AP
c ies
ĠP RO
Ġset Up
in dices
Ġma th
Ġstd out
Ġexp ression
Ġ RE
me di
> "
S ta
l ong
l anguage
Ġ' $
] ],
c b
d ar
ç »
ĠB O
ĊĠĠĠĠĠĠĠĠĠĠĠĠĠĠĠĠĠĠĠĠĠĠĠĠĠĠĠĠ ĠĠĠĠĠĠ
bo ard
re port
lo aded
ĠO ption
ĊĠĠĠĠĠĠĠĠĠĠĠĠĠĠĠĠĠĠĠĠĠĠĠĠĠĠĠĠĠĠĠĠĠĠĠĠ ĠĠĠ
Ġf il
col lect
OR S
Inter face
Ġ1 6
vi sit
Ġse cond
Ġcontain s
) ])
I f
R ec
i fied
m or
Ġm ac
Re turns
Ġsign al
Ġredistribu te
F L
v a
z one
re r
le ted
col umns
I nt
s ome
Ġi m
RO M
F ilter
s parse
Ġen umerate
S ign
h en
r and
pp ing
inter net
B ro
E nd
P age
Ġm y
str ument
Ġpro duct
ix ed
Up date
tific ate
3 1
qu ot
ĠA pache
ĠL ist
chedule r
assert In
Integer Field
č ĊĠĠĠĠĠ
Ġd ag
ĠM ock
Ġuser name
by te
Q t
w s
si mple
il y
sa fe
lo ur
Ġmessage s
s uccess
r pc
di rectory
user s
own er
Ġreg ister
FOR M
Ġ join
Ġm atrix
Ġm ultiple
ch ain
Ġpa yload
doc ument
7 8
te x
Ġt ake
fi ll
!! !!
Ġass oci
ĠNotImplemented Error
) '
L oc
ĠA uth
O n
w x
re lease
th is
Ġs ort
option al
re w
me d
ra tions
ci i
Ġs ql
val s
Ġfe ature
F T
Ġw ar
Ġapp lic
Ġini ti
S D
U RE
W OR
ee ded
Ġwri ting
OFT WARE
7 6
s q
Ġin stall
Ġthe se
Ġ1 2
> '
Ġp k
St atus
method s
ĠCo mp
s chema
is o
Ġho pe
ĠAt tribute
/ ',
S to
Ġ ----
ce back
__ ':
Ġsi mple
i den
Ġst op
gn u
S ON
Ġp ick
par ameters
Ġsup ported
ume r
Pro cess
S ession
Y R
` ,
u dent
ro le
lay out
Ġpo sition
sign ed
stor age
Ġm on
Ġun ique
Ġag ain
di ent
ĊĠĠĠĠĠĠĠĠĠĠĠĠĠĠĠĠĠĠĠĠĠĠĠĠĠĠĠĠ ĠĠĠĠĠ
W N
u ally
Ġg over
Ġabs olute
en sed
Ġf oo
qu en
ta ct
ĠF ile
Ġan sible
che me
ĠR es
sc ale
ĠIn c
Ġdocument ation
Ġc ustom
Ġs ince
######## ####
ĠD E
Ġen vironment
gra de
g t
Ġv olume
ca st
Ġbu il
ERR OR
F ound
a fter
Ġre lative
Ġp lace
pro g
PO ST
en o
en ter
Ġde c
po sition
f older
Ġ $
at tribute
Ġf lags
id r
HT ML
L ine
time stamp
ren cy
Date Time
Ġwar ran
en gine
') ),
Type Error
col lection
ĠU se
ign ore
over ride
O f
p oly
s ample
en able
li ght
Ġle ft
Ġlib rary
ish ed
Ġ1 5
var s
. '
c f
H elper
W rapper
d ot
Ġs m
ver ify
par ts
ĠP o
A Y
un it
Ġgener ate
Ġgener ated
Ġ-------- --
re set
Ġfe ed
Action Field
f p
se p
lo okup
app lication
link s
Ġtensor flow
Ġ job
re quire
Ġt x
ri ter
lo y
Ġbe ing
ĠPar ameters
Ġwarran ty
Ġno tice
bin ary
Ġ- =
sy m
ĠK IND
a pache
Ġc tx
back end
Co mm
Se q
script or
penden cies
Ġi p
Ġb ound
Ġe st
CThostFtdc Qry
Ġvariable s
c lean
l int
ab ility
go ogle
l ang
Ġ( (
ma th
Ġv ari
ist ory
Ġfin ally
Ġre p
") ;
ten ded
> .
un ded
xt ure
Ġby te
Ġvi sit
æ Ĭ
ĠCon fig
Ġcommand s
Ġtra in
) ;
Ġre mote
ĠS OFTWARE
ĠA s
pk g
dential s
E ST
L icense
Ġu tils
Bro ker
h older
r l
Ġ ti
Ġre port
Ġin valid
Ġcon ver
he ight
M ixin
b ility
c d
Ġin dices
ĠP y
Ġrequest s
æ ī
Ġc ell
G Y
H ER
se curity
re gex
Ġthe ir
Ġcall back
UL L
D IT
G e
n b
Ġp attern
Ġr c
RA W
Ġin it
AP I
di m
DE L
Ġcon vert
Ġg raph
ic ensed
ĠR a
exten sion
ver bose
res ources
-------- ----
Ġid x
H ost
X ML
r p
y ear
wor ds
aliz ation
h elp
pa c
Ġg en
[: ,
N E
d l
n a
re ed
re direct
Ġst derr
'] ),
Ġname d
if est
Bo olean
ĠKey Error
D ec
Ġbo th
CL UD
L ink
Ġw hether
Ġst ri
Con trol
Account Field
o uld
Ġre quire
ph ic
contain er
Ġcom ment
M any
f d
v s
Ġc li
') ],
Po int
ĠHT ML
D F
w i
Ġconst ant
() ))
Re ad
25 6
cur sor
f alse
ck er
ho uld
mit ted
Ġcopy right
resp on
O bs
as ked
Ġt otal
ĠL icensed
Ġlo op
Ġsi x
b ad
o red
pro vider
S ET
T able
re verse
LIC ENSE
", "
ic ro
b l
Po sition
' re
P l
I AL
Ġp atch
H O
P ORT
Ġs cope
we ight
Ġapplic able
D ER
b er
as cii
vi deo
Ġex t
Ġdi sc
St ream
Ġcol umns
eg g
Cur rent
mor phic
' +
C a
g ithub
Ġ ))
ĠĠĠĠĠĠĠĠ Ġ
ma tic
end swith
igh b
CLUD ING
P UT
b i
Ġf n
one s
ĠP O
us age
Ġbu ffer
re st
Ġd mp
mple x
ĠG e
we ights
le ep
name spaces
assert All
Ġcon f
fil ters
sy mbol
FI LE
dump s
or age
Ġo ur
pa ir
Ġlo okup
load s
no red
cre ment
ĠBO X
9 0
m k
Fe ature
9 5
B ack
)) .
Ġother wise
ĠDe fault
' ",
M o
z y
at trib
ec ked
Ġw ould
'] [
ĠW indow
Ġcan not
UT E
Ġ/ >
Ġassoci ated
Ġf etch
pro to
Ġpy lint
g h
Ġex ists
ĠD RAW
RE E
cor ds
ĠDRAW INGS
M S
ĠCON TR
S imple
si g
(' <
bu il
Ġbase d
Auto Field
t u
or ity
Ġre l
Ġre tri
li ance
la v
Pro tocol
ĊĠĠĠĠĠĠĠĠĠĠĠĠĠĠĠĠĠĠĠĠĠĠĠĠĠĠĠĠĠĠĠĠĠĠĠĠ ĠĠ
token s
penden cy
li ter
Ġh and
EN D
Ġapp lication
C P
L L
E dit
s ur
t ten
ĠĠĠĠĠĠĠĠ ĠĠĠ
Ġ[ ('
ĠS er
len dar
Ġ} )
ĊĠĠĠĠĠĠĠĠĠĠĠĠĠĠĠĠĠĠĠĠĠĠĠĠĠĠĠĠĠĠĠĠĠĠĠĠ Ġ
IM IT
_ =
Ġme r
fe ed
d n
Ġm issing
ile r
Ġe very
Par se
. %
F unction
Ġb atch
host s
CT ION
ĠUn less
B it
ro t
ra ys
data set
c um
time s
ĠG o
Ġwh at
zer os
SAP T
Ġ queue
Ġhttp s
US ER
R I
Ġm ark
arg in
Ġex press
mo unt
mb ols
CO MM
Ġc lose
ction s
ER GY
sign al
ĠEN ERGY
T oken
n u
Ġw ho
ord in
6 8
Ġme mber
Pro perty
Ġcomp liance
exp r
( ('
le ar
tem s
temp t
ini ti
Option s
H BC
V ariable
b asic
ti m
lo op
to ol
en abled
Ġo c
ck s
ener p
UB LE
5 2
re t
ro me
el ow
exception s
DIT IONS
= -
Ġc lo
bo und
Pro ject
i fic
co mplete
ĠA ffer
mo di
im g
cho ices
ĠAffer o
4 3
Ġin te
ĠP er
ĠO n
ĠH ttp
sing le
D ecimal
ç º
se c
ĠT o
Ġu ses
ĠS H
Ġrun ning
S p
u ce
Ġ ĊĠĠĠ
re pe
ĠO S
AS IS
To ol
Ġinput s
Bu ffer
g ment
p u
si d
ma g
Ġad min
Ġen tity
Ġla w
Ġoper ation
Ġini tial
mp y
ĠL o
Re q
ĠD i
Ġse par
DE F
AS S
Ġlimit ations
Ġfor ms
ct ype
bu cket
jo bs
Ġpoint s
in es
ĠĠĠĠĠĠĠĠ ĠĠ
Ġc lean
Ġw ay
ac tiv
ĠM y
AG S
T ask
Ġre lated
ve stor
In vestor
ext ract
Ġcl asses
Ex p
Ġpl t
C lose
g g
h s
an a
Ġb ranch
ha vi
8 4
u ch
Ġ" --
ass word
ĠB ASIS
Ġag reed
ĠCON DITIONS
Ġap pro
M ax
i ti
fi ers
di us
Ġw idth
up load
ĠM ake
den se
Ġpos sible
Ġimplement ation
Ġgover ning
N s
_ ):
ĠS QL
Ġgroup s
j ava
me mory
Ġi g
Ġcon dition
Ġcontent s
, ))
6 5
J ob
P S
h ex
č Ċĉ
ĠD o
RE CT
AN G
Ġmodule s
Ġspec ify
IC E
ĠEx amples
Ser i
BU G
E xt
m aster
le arn
run ner
output s
w rap
å Ĳ
in der
in herit
ur ing
ke mon
Ġg tk
stri ct
create d
Ġsu ch
= _
T ensor
e ve
st ub
Ġ' ')
ĠT H
Ġr v
Ġ3 0
av ed
99 99
N N
a ce
v ing
w arn
Ġ license
in x
Ġth rough
ĊĊ Ċ
Ġset ting
sw itch
I X
S y
S ec
Ġwe ights
Ġover ride
" '
7 4
a u
d k
i ver
å ħ
Ġin dic
B ar
V olume
a mp
Ġ' )
ro ute
Ġh ow
Ġme tri
variable s
' ^
c ar
p red
fic ient
content s
j a
ri tems
Ġst andard
default s
Ġdistribu tion
Ġf inal
Ġp i
Ġs parse
Ġw x
Ġwith in
base name
Ġright s
############ ##
M atch
le g
Ġs tep
Ġg lob
Ġbut ton
mis sing
) /
ST AT
row s
cri ption
Order Field
B lock
ex ist
un ch
"} ),
an ti
es ted
fe ature
ble m
MP L
X T
Ġm apping
Ġch annel
init y
Ġre direct
(' .
ap t
AC E
gener ate
O ff
el if
Ġco uld
Ġmatch es
Ġali as
re en
li te
Ġse n
.. /
so ft
LI ST
A CT
é ĩ
Ġ kw
O ne
P ER
g lobal
in f
ar m
Ġc fg
ĠAttribute Error
li m
00 01
vent ory
ĊĠĠĠĠĠĠĠĠĠĠĠĠĠĠĠĠĠĠĠĠĠĠĠĠĠĠĠĠĠĠĠĠĠĠĠĠ ĠĠĠĠ
men u
x b
Ġ uri
Ġre c
Ġto o
Ġ1 1
la h
package s
D oc
d t
x a
ro ss
lo ss
Se lect
V ector
Ġch unk
Ġoper ator
peri ment
C allback
Ġb ar
Ġdefault s
cre t
Me thod
ini tial
Ġcor respon
Boolean Field
g ument
Ġ ser
ar r
Ġ" __
Ġn eeded
Ġde ri
Ġpro file
We b
B B
I F
d atabase
č ĊĠĠĠĠĠĠĠĠĠĠĠĠĠĠĠĠĠĠĠ
re ction
con s
path s
qual ity
g its
Ġex it
ĠA d
Ġan other
cs v
Ġpl atform
Ġvalid ate
ĠDO UBLE
DateTime Field
8 7
9 6
F IL
Ġraise d
stri ction
Ġstate s
P T
5 3
j ust
n ed
Ġre pr
si red
Ġdi men
ac ked
mon th
M E
N A
R C
d one
Ġin sert
Ġb ind
ĠS IGN
`` .
ĠGo ogle
en tity
__ .
sh ared
IT S
' "
M ENT
pro tocol
Ġpro perties
At tr
) +
h idden
m ul
ç ¼
Ġc v
Ġc ategory
ut ron
Ġde n
Ġpro tocol
Ġse nt
Ġcall able
function s
mbed ding
se quence
ĠC OP
ĠRe quest
Ġad ditional
cul ate
clo ud
C A
P ort
S ource
m ar
up per
Ġst ore
pri vate
Ac cess
B ad
to m
ler t
cal ar
Ġsy mbol
" \
9 7
P ick
Ġ" ,
fl ush
Ġcharac ters
G ui
b ranch
in vo
Ġg r
VER SION
Ġsel ected
g ative
s ame
al le
Ġre served
Ġb ad
ĠU SE
= ',
z en
() ),
sh a
Contain er
P AR
S ocket
i a
s ocket
Ġ ])
al most
url lib
Ġi tera
Ġf ont
Ġ1 4
message s
Ġvi deo
me an
Ġ( _
pro p
Ġallow ed
æľ Ł
ç¼ ĸ
) ",
z b
or ary
ch ine
sub process
comp ute
Ġevent s
M et
p tr
} '.
ST R
inter n
Ġauth entic
P a
g m
p ing
in s
Ġd one
ĠL E
ĠZ Z
ĠIP v
, )
T arget
n n
def ined
ĠS e
TH ER
' /
p g
Ġf actory
Ġde sc
Ġun it
Ġpar tition
Ġpa ir
ET E
Ġpre vious
u ted
Ġ zero
ar is
12 3
da ys
Ġac tive
atter ns
E d
py test
Ġbu f
resh old
P acket
(" \
AR K
Ar ray
6 1
ti o
Ġse conds
SE D
Ġversion added
[: -
Ġnamespace def
Ġimage s
Ġauth or
Log ger
9 2
h d
el ls
Ġd at
ĠD I
Par ameter
ini tion
Ġexport Literal
S pec
Ġ" <
ser tion
Ġm any
ag raph
fa iled
ĠN O
Ġkey word
Set tings
_=' ',
IZ E
C S
o ok
has Content
P C
s napshot
Ġd st
ON E
Ġsub class
################################################################ ##############
9 8
I E
M ET
u ous
in v
in ner
Ġre moved
ut or
un der
count ry
CThostFtdc Exchange
ĊĠĠĠĠĠĠĠĠĠĠĠĠĠĠĠĠĠĠĠĠĠĠĠĠĠĠĠĠĠĠĠĠĠĠĠĠ ĠĠĠĠĠ
Ġsw itch
4 1
B A
P h
m c
t v
Ġc op
Ġ_ ('
Ġco mplete
target s
abs path
g is
ç Ķ
sel ected
la use
par tition
IN TER
ĠW hen
Ġsy m
7 2
ig rations
Ġen able
ho ur
ĠE V
unk nown
cli ck
a e
p to
Ġp ublic
ma pping
ĠC T
po se
time Error
ag ent
ĊĠĠĠĠĠĠĠĠĠĠĠĠĠĠĠĠĠĠĠĠĠĠĠĠĠĠĠĠĠĠĠĠĠĠĠĠ ĠĠĠĠĠĠĠ
so le
control ler
Ro ot
/ >.
x e
æ Ī
Ġ layer
in teger
re ference
Ġ3 2
ran sport
doc s
LO G
Ġm d
Ġe qual
fa ces
RO OT
ĠQ gs
Ġinstance s
sup port
Fa iled
( %
Ġu v
ĠA l
Ġde termin
ĠO THER
AR Y
Ġbu cket
Ġwor d
Ġupdate d
] ):
f c
y cle
Ġs im
(" /
que sted
ĠM o
Ġcur sor
sk i
Ġencode d
P Y
inter val
static method
Ġeval u
Ġdown load
greg ate
] +
n ative
ue st
ate ri
ct or
ĠA pp
IN FO
host name
Ġuser s
) """
M ulti
ar row
Ġs chema
Ġg l
ĠU p
Ġsh ort
7 0
i de
w here
Ġ ĊĠĠĠĠĠĠĠĠĠĠĠ
an e
Ġp acket
Ġe q
ĠI MP
Ġpart ner
Ġter min
C l
\ .
] *
'] "}),
Ġexp r
command s
WOR D
p ipeline
st ar
ĠS T
ho me
P ri
W S
se cond
at ten
Ġre ason
ol low
Ġpar sed
dep th
assi fier
add ing
LE CT
CThostFtdc Req
ime r
exec utable
R el
v ol
ur al
Ġp lot
co mbo
cl uster
Ċĉ Ġ
Ġdi vision
red uce
12 34
Res ource
Ġchild ren
rag ment
Ġoc cur
8 2
M ake
T IME
d rop
t wo
Ġ' {
co okie
con dition
Ġde code
po six
Ġup load
ati ble
Ġus age
Ca che
8 5
I mp
c m
è ¡
re ader
ec tions
un ic
'] ))
LI ED
$ ',
g ments
Ġ ec
ĠĠĠĠĠĠĠĠ ĠĠĠĠ
ge ther
ĠT h
ĠC ourse
age ment
11 11
P assword
y aml
ue ue
un pack
is sue
ĠA bstract
ĠD AM
xx xx
w arnings
se conds
Ġt r
li de
(' --
ĠS P
ve y
Ġfe atures
compile r
L A
Y ou
Ġu til
Ġ_ ,
am ily
ĠL IMIT
CH E
Ġtoken s
Ġsy mpy
havi or
h ort
Ġse q
ĠO r
IP E
Ġmap per
Ġlink s
f ree
p ublish
Ġp op
la ck
ĠRe distribu
Lay er
EV T
[ ^
r b
ti fication
pe ed
Ġen ti
Ġal gorithm
UT H
Ġexp licit
By tes
g id
æ Ĺ
at t
mp t
Ġac cept
Ġrow s
resh ape
FORM AT
O bj
c fg
am o
ĠL og
Ġen sure
do uble
Valid ator
Th read
ĠIMP LIED
h ello
Ġme nu
mo ves
AT A
Ġout str
Ex ten
intern al
) ',
c ir
l r
s ync
v lan
ar ge
bo olean
>> >
view s
5 1
T emplate
und le
Len gth
pa yload
scri be
Ġapp end
sup er
matic ally
d raw
w is
co ls
si an
he et
Ġapp ly
ba z
b b
c ustom
e v
w ards
ter m
00 1
ag ic
Ġhost s
Ġchange s
Ġtrans form
sup ported
s ources
st ics
fi xture
Ġm at
Ġw in
ĠB UT
rap pe
event s
Ġop enerp
: \
C ho
E C
F ont
o ted
Ġto ol
con v
Ġwe re
Ġexp ect
Ġneed s
ĠLO G
S cript
x c
al pha
Ġp e
ĠP re
ff ect
est imator
Ġsub ject
ron g
aris on
. ",
b c
g ress
Ġb lank
la in
Ġro und
av ailable
su ffix
FL AGS
æī Ģ
8 1
G raph
g a
Ġm anager
pa re
Ġ0 0
Ġst ats
In strument
ĠU N
Ġcl uster
De lete
Ġcomm it
Ġexten sions
ĠLIMIT ED
l on
å į
Ġre quires
tr as
sp atch
Ġme an
Ġx range
Ġpy test
Ġspeci al
Ġcontain er
frame work
Ġexception s
( """
Ġth ose
di stance
Ġ( %
Ġis sue
log ging
cur rency
Ġback end
ighb ors
ç¼ĸ åı·
l t
Ġ[ -
Ġde v
oc ab
cor rect
pi ck
Ġtra ck
element s
brow se
M y
p ng
as y
test ing
ĠA R
Ġme mory
trans form
Des cription
cure ment
o pe
s leep
bo sity
Ġ6 0
TE XT
Element s
metri c
orig inal
W rite
f lag
Ġ //
an aly
co me
ĠS y
po sitory
Ġvi a
ĠCo mmand
Ġwri tten
Ġho ok
Ġstruct ure
Ġpk g
D ist
S A
c ing
in ja
Ġo ps
Ġin dent
Ġw rapper
Ġh igh
Ġg rid
ang le
Ed ge
me th
Ġp oly
Ġt ab
ch unk
ou gh
Di alog
ĠQt Core
d ns
di ms
AT TR
tra ce
ĊĠĠĠĠĠĠĠĠĠĠĠĠĠĠĠĠĠĠĠĠĠĠĠĠĠĠĠĠĠĠĠĠĠĠĠĠ ĠĠĠĠĠĠ
Ġig nored
) *
S ync
t ty
set default
comp at
Ġro le
sor ted
struct Dict
wh en
cen ter
> ',
i form
lin eno
Col or
ĠCT hostFtdc
6 3
7 3
G R
R ange
Ġre set
Ġs core
Ġd river
app s
reate r
DI FF
Tra ding
norm al
Ġpick le
ĠWindow s
as sign
Ġ( -
is instance
ip v
Ġ4 2
Ġprovi der
Ġmac ro
H as
t z
Ġ entries
ĠS ub
Ġmo st
ee k
ite ritems
be fore
:` ~
C R
F lag
V ID
or k
ra m
qu are
LE D
ĠEx tended
Ġcurrent ly
**************** ****************
C RE
d c
Ġg ot
Ġme ans
Ġpo ol
Ġcomp ute
exp ect
Ġtemp file
è¡ Į
R sp
c idr
d ummy
l at
ä ¸
in p
Ġf i
un its
vi de
res sed
ĠM A
ume ric
oper ator
VAL UE
Ġcollection s
ĠLI ABILITY
8 3
S ystem
de tails
Ġp id
Ġu int
ren ce
Ġstate ment
Un less
ro zen
ĠT ree
Ġcon structor
ho use
cess ary
ĠB y
Ġper mission
image s
Qu ote
Ġpackage s
è µ
Ġi mplemented
get text
Ġst ill
Pro vider
map per
fir m
P IPE
b ig
x f
ĠA c
Ġ< <
os v
te am
fi es
ad ing
Ġres ources
cur ses
Ġsup p
Ġac tiv
Pl ugin
I mport
M in
ri ve
"" ")
Con st
exp and
FI X
Ġ---- ---
ĠD jango
Ġle ast
Ġtime stamp
Ġoutput s
Ġinst alled
Fe ed
eff ect
d ash
Ċ ĊĠĠĠĠĠĠĠĠĠĠĠĠĠĠĠĠĠĠĠ
Ġ ----------------------------------------------------------------
la p
par sed
Re ference
Ġlo ck
Ġlo wer
Se lection
Ġfol der
Ġaction s
Ġrule s
dis able
1 000
i ed
Ġre lation
Ġd uring
pa cket
Ġe p
Ġde sired
Ġpro p
sc al
Ġan s
Ġle t
so ck
6 2
8 00
9 3
E mpty
I ter
} ".
ue ss
Ġv m
Ġgener ator
Ġwork s
Ġdirect ly
wis ted
. ',
9 4
H ex
P ython
ce ive
li sten
ĠI O
mb ers
Ġat tempt
om ial
String IO
Ġsk learn
ĠString IO
Ġali ases
Ġcorrespon ding
r aries
per ly
ĠD IS
Ġan sw
bo b
Ġcall s
Not Found
local host
Ġpri mary
Ġpri vate
plugin s
äº¤æĺĵ æīĢ
R ate
c ancel
f r
i an
ser ve
Ġh ref
Ġ1 3
ĠF ROM
ĠD is
Se quence
amo unt
d st
f name
r up
me dia
lo cale
it or
po w
Ġun til
comp any
Ġsh util
fer red
Ġsa fe
M AP
d uration
v ec
Ġre lease
Ġw arning
sm all
Off set
. )
/ '
M argin
N orm
u ction
ut ing
pe ar
app en
Ġtarget s
Ġcharac ter
ĠTH IS
, ),
S u
se ed
ap ter
ow er
ise ct
be gin
[: ]
S chema
re vision
AN S
DE BUG
ĊĠĠĠĠĠĠĠĠ ĊĠĠĠ
IB UT
èµ Ħ
F N
S ty
st udent
Ġm ight
') ]
Ġlo cale
Ġy et
ON T
cre en
Ġ& ',
MA X
Param s
åħ ¬
, \
S IZE
c nt
Ġ Error
al ign
ra ction
Ġas sign
Ġma v
Lo ader
Lay out
Ad min
L INE
i i
v is
al k
Ġs q
di gest
Ġb oto
Ġ1 7
la tions
ĠL IC
Pro xy
ran k
IP T
tiv es
Trans fer
Sto re
B ank
g le
i dent
y ment
() ):
Ġ1 000
ip y
Ġon ce
ĠRe g
fix ed
brow ser
k ip
Ġ ĊĠĠĠĠĠĠĠ
ĠĠĠĠĠĠĠĠ ĠĠĠĠĠ
test Type
ĠM ode
Ġversion s
ne ss
Ġmatch ing
cho ice
ĠNo tes
G E
O O
S O
Ġ' *
25 2
En able
sum mary
Ġsu ffix
Ġdel ta
medi ate
ĠExtended Context
ĠLIC ENSE
le v
Ġf ill
Ġs napshot
li ct
par ameter
Ġmo ve
ĠIn put
call s
EX T
lav or
h istory
n i
n ail
p us
Ġ" )
Ġs ig
name d
Ġtest ing
IT E
01 01
umb nail
Ġwor ld
Text Field
N S
re es
te cted
Ġs pace
assert Not
che my
reg ion
Ġreg ion
gener ator
Ġet c
iden tity
Ġagain st
Pick er
æĪ ·
g y
p ted
in c
Ġ' &
Ġan aly
Ġv pc
ĠH e
exp ression
o tes
Ġs pa
## #
rom ium
Ġde precated
File s
ĠRun timeError
YR IGHT
COMM AND
sel ection
Ġs lice
ss l
Ġfile names
Ġper form
reg istry
Ġconn ect
CO DE
Ġfil ters
Ð °
si m
Ġst at
Ġco mb
vel y
run ning
File Path
Se arch
fact or
Ġ201 2
ĠJ SON
Ġmer ge
U rl
\ '
g ame
i tes
on ce
ro y
ct ure
åı ¸
Oper ation
åħ¬ åı¸
f time
Ġp lay
Ġa st
Ġch ain
Ċĉĉ Ċĉ
ach ine
AG ES
Po licy
exten sions
Ġprovi de
c wd
g ui
i ble
v as
en u
en um
sh ift
ĠIn ter
Ġbo olean
Ġver ify
LO CK
UN D
Ġrepresent ing
DEL ETE
N AM
v c
} }
se cret
Ġpro xy
den ce
ĠIn dex
Ġ{} )
call able
task s
Ġcase s
assertAll Equal
å ®
è ´
de precated
al ler
ĠO UT
ĠG roup
Ġhe ight
trans lation
N ew
e di
g lob
k ind
Ġ ).
Ġ' #
Ġ> ',
čĊ čĊĠĠĠĠĠĠĠ
ĠQ u
Order ActionField
Ġauto matically
vari ance
gate way
ĠOption al
ĠCOP YRIGHT
a z
g ger
æ ł
at tach
Ġ" [
Ġo k
() ]
ĠT ext
app ly
ĠB u
DAT E
F loat
M IN
or ds
li p
Ġm asked
ex ternal
ĠS ource
pro d
bo ot
ĠN e
Ch annel
Type Id
Ġno te
De f
(_ ("
Ġnorm al
Ġinclu ded
Ġp acked
ul ation
__ ()
per son
Ġwor ds
_ %
p df
Ġp ol
sp ect
Ġdi sk
Ġor d
Ġne cessary
Sta ck
E mail
n c
s n
ä ¿
an ization
res ses
ip s
Ġper son
ach ed
yn am
D D
te ct
te ration
de scriptor
Ġd t
Ġe lem
Ġpre cision
row ser
ĠX ML
Ġvi rt
contain s
Le vel
: ])
s cheme
on d
co res
__ ":
Ġ2 55
ĠO ther
Ġen abled
Ġl ang
ĠIn valid
Ġmodi fied
Ġarch ive
Ġp ur
Ġst orage
pro b
Ġpro b
Ġli sten
Ġextra ct
Ġow ner
F oo
M B
O W
i er
Ġis n
Ġdi stance
Ġ2 3
ĠV ER
sign ature
Ġsign ature
= ""
ar ange
Ġre gex
ri s
ab out
=" %
date s
av ing
table s
56 7
Ġsu ite
Ġinclu ding
de rer
ti tem
Ġset attr
ĠR IGHT
su ite
XX XX
ĠWe b
Check er
æĬ ķ
ĠLE FT
çĶ ¨
a i
s hould
st age
Ġs cale
__ .__
ĠT emplate
Ġpro to
ys park
ĠW H
Ex it
Ġtime s
Ġtra ceback
fail ure
Ġwork ing
tran sport
éĩ ĳ
Sty le
I ST
m ultiple
t od
Ġst ored
ĠB E
ĠThe se
AR CH
no tify
Pro duct
IC AL
Di rectory
ast ype
3 00
D U
F ail
M achine
S up
c ity
p an
or iz
Ġw rap
il ar
RE QU
ns ure
G ER
w n
ti li
li d
Ġb elow
time r
Ġlo ss
Data Frame
State Set
Lo ad
Map per
F R
F uture
I I
t abs
č Ċĉĉ
de tail
en vironment
ĊĠĠĠĠĠĠĠĠĠĠĠĠ ĊĠĠĠĠĠĠĠĠĠĠĠ
Ġp ut
vel op
sub mit
pri ate
sy mbols
ĠGe o
' d
( ':
ro uter
Ġre st
ul ate
is dir
Ġl ate
Ġlog in
Co uld
88 59
Pre fix
HTML Equal
Ġansw er
9 1
W riter
get Logger
ĠI mage
mo x
template s
ĊĠĠĠĠĠĠĠĠĠĠĠĠĠĠĠĠĠĠĠĠĠĠĠĠĠĠĠĠĠĠĠĠĠĠĠĠĠĠĠĠĠĠĠĠ ĠĠ
Tra de
Ġview s
On ly
( ["
D ay
b reak
Ġc s
ab sent
ĠT ag
fo und
ful ly
Ġsome thing
cer t
Ġass ume
metri cs
åį ķ
F E
O p
i ke
i zer
Ġin vo
si b
and s
la imer
") ),
fa st
Ġat tach
lay ers
St andard
Ġtuple s
poly morphic
h n
w rapper
de leted
al f
Ġi denti
un ct
assert HTMLEqual
version s
comp ress
Ġk ind
Ġ6 00
Ġnumber s
Ġrepo sitory
' %
) \
f ollow
r type
å Ī
Ġ question
ĠT ensor
ĠI s
In f
pen dent
comp are
Ġconst ants
CO L
handler s
Ġact ually
liter als
+ "
R ule
e m
l st
t b
Ġ escape
re quen
ce d
co unter
'] ",
am ma
Ċĉ Ċ
lic ate
Ġk nown
201 4
200 1
OL DER
IBUT ORS
( ',
j ar
s park
Ġ Valid
at ype
Ġf d
ra c
Ġcon struct
prec ation
L ock
S V
S o
} .
Ġ edge
Ġre cur
ge o
Ġm igrations
om ment
12 8
spec ial
Ġthread ing
Ġtmp l
!!!! !!!!
Broker ID
Ġdisc laimer
inherit ance
D river
Q ueue
f b
Ġc gl
Ġf it
Ġb lah
Ġd raw
con ver
for med
SE LECT
const ants
require ments
/ ')
c ard
e ver
s f
ri l
Ġw ell
Ġbe havior
find all
du ction
. \
S K
b isect
se ss
Ġi o
et ri
ss h
ls o
ĠD ummy
ĠThe re
Ġ5 0
RO UP
auth ors
sg i
DI RECT
Ar gs
Ġ201 3
_ ():
t n
ut c
ex clude
IN CLUDING
ir d
og raph
cor ding
En abled
fore ign
Auth or
see k
Ġappro priate
E CT
c ut
y es
me ter
Ġn d
co s
ra ft
is file
par agraph
he b
list s
Ġse en
im it
Type s
CThostFtdc Rsp
Ġsi te
Ġsupport s
cry pt
ĠCONTR IBUTORS
M enu
Ġre main
si tions
Ġh ome
OR IZ
Pro file
Ġk now
Ġbo x
Ġexec ute
7 1
C re
M iddleware
for mer
ph ase
Ġpl at
By te
Ġdirect ories
Ġtake s
Ġre pe
co d
ex e
ist ration
"] :
Ġcheck s
Time out
vari ant
DEF IN
ynam ic
H ash
R en
b d
Ġ Value
ex pi
set ting
Ġde leted
ca lendar
sq rt
HO ST
) }
) **
d up
h and
s cheduler
Ġ es
Ġa void
') [
Ġd rop
ĠS pec
ĠM an
Ġfrom subclass
arch ive
spec ific
Un expected
ç» ı
* .
u ses
Ġ layout
arg o
ĊĠĠĠĠĠĠĠĠĠĠĠĠĠĠĠĠĠĠĠĠĠĠĠĠĠĠĠĠĠĠĠĠĠĠĠĠĠĠĠĠĠĠĠĠ Ġ
MO DE
Gener ator
peri od
ef ficient
~~~~ ~~~~
) (
N ext
N OT
] +)
p ub
x d
é ĵ
al gorithm
ar ab
Ġ' :
il ing
(" -
sc an
ac cept
com ments
Ġsi de
`` ,
build Attributes
ĊĠĠĠĠĠĠĠĠĠĠĠĠĠĠĠĠĠĠĠĠĠĠĠĠĠĠĠĠĠĠĠĠĠĠĠĠĠĠĠĠĠĠĠĠ ĠĠĠĠĠĠĠĠĠĠĠĠĠĠĠĠ
export Attributes
exportLiteral Attributes
exportLiteral Children
Change d
Ġitera ble
Met adata
éĵ ¶
N a
h y
ª åħ¬åı¸
in te
Ġre v
Ġre cords
ri bu
ul k
it le
ĠRe ad
Ġmax imum
Ġtra ce
rule s
Ġow n
çº ªåħ¬åı¸
Ġderi ved
ç»ı çºªåħ¬åı¸
S ee
a fi
c ate
Ġs calar
Ġcon s
Ġcon trib
ĠS ystem
.. ..
sub set
gra tion
Tra ce
CON T
mer ge
) ')
P open
T F
an sible
Ġf ix
ro s
co eff
ra dius
for ward
FI EL
gr p
div id
Cho ice
w ri
er nel
get attr
Ġex act
ĠM eta
ĠN et
Ġne gative
trans late
ati bility
Loc al
exist ing
" +
Ã ©
al th
Ġc b
Ġin p
di sk
config uration
99 9
AD D
arab ic
> ')
B X
L ib
W I
i dentifier
v ector
de ad
Ġc ap
Ġ" ",
di an
ab stract
ĠA C
par tial
Ġe dit
Ġbe st
([ (
update d
Ġsh ell
tin uous
h ref
j or
Ġc at
Ġc lear
Ġin ternal
ĠT ime
ed x
Ġh appen
la ces
Ġg ithub
Ġraise s
Ġcomp iler
pri ce
Ar gument
ili ties
(? :
Ġap pear
C ell
L EN
lin ux
he el
po kemon
Ġme dia
Ġen gine
tic ket
log y
process or
iden tical
O B
i ted
Ġ 64
er ies
Ġs l
Ġs ur
Ġs ources
Ġs ync
Ġs park
to gether
==== ==
string s
Ġlist s
ron t
pl us
En coder
page s
sis tent
ril lic
C lean
F C
lo ts
Ġd ump
is tered
Ġh ex
AR D
den tity
cp u
sl ug
e lem
Ġp ip
Re move
ĠB Y
OR Y
Ġsh ared
Ġprocess ing
cer tain
Ġwidget s
ĠQt Gui
N ING
b eta
z il
on ts
st imator
di alog
Ġex ternal
Ġde pendencies
code s
ĠN umber
trans action
Bit map
ĠIO Error
U se
f inal
s lice
è Ģ
me s
er o
ĠA lso
ation al
sub ject
act ual
Rec ord
ĠPo int
wi ki
ĠOS Error
èĢ ħ
5 00
S QL
e mbed
g ree
Ġi dentifier
ro ad
Ġp d
=' ',
ans wer
([ ])
Ġpre v
format s
yn ch
ĠX XX
pos al
HE AD
ĠRa ises
H ello
T emp
d types
Ġm ime
str uction
Ġq s
N um
S parse
U ID
ar Down
ce ed
di men
ĠS h
que t
Ġal ign
EN CE
Ġsh ift
widget s
ĠUp date
Exten sion
afi i
4 04
E B
G T
\ "
o ms
ti tions
ut ors
it u
set Up
Ġde scriptor
ĠD B
ys ql
ca ched
Ġro ute
ne ighbors
gr al
assertIs Instance
Ġstri p
J o
N e
g ent
z es
or rent
ur lo
Ġ2 4
ĠB SD
qui v
Net Device
èµĦ èĢħ
æĬķ èµĦèĢħ
g on
m ultip
p ush
ĠĠĠĠĠĠĠĠ ĠĠĠĠĠĠĠ
Ġb asic
Ġpro curement
bo unded
ref resh
Ġinter val
567 89
H ttp
m all
li er
cl one
ces ses
Ġcode cs
Ġprovi des
sw ig
under score
ĠRedistribu tions
C ancel
R ou
n umpy
ti le
Ġre ferences
ur tle
un expected
Ġlo w
config ure
Ġcre dentials
= ('
C ourse
n w
p le
r st
Ġre quested
ul ator
') ))
(' _
Ġd s
__ __
Ġh elper
Re gex
ĠRe served
Ġtime r
pl t
PE C
LI B
Fa ON
Fa NN
repo sitory
Ġgra dient
è¯ ģ
requen cy
divid ual
H elp
S G
u dio
Ġi r
en ium
Ġdef ine
Ġof p
ĠC ode
file path
pro ps
per missions
Ġv ector
RE D
ĠU P
valid ation
ING LE
auth entic
argument s
lex ible
PRE SS
buil tin
åĲ Ī
P DF
se par
st one
Ġdef inition
able s
end or
]) .
Ġro uter
Ġcal cul
ordin ates
Ġmetri c
S IGN
ate way
ch rome
Ġ{ %
str ftime
Ġch ecked
pi e
201 5
Sto ck
ĠOn ly
ĠHttp Response
ĠEV ENT
Ġsupp lied
C an
J ECT
L in
S IG
Ġ" _
Ġ# :
Ġ( )
ĠT ra
con tact
ver ification
ĠA nd
res olve
Re direct
Ġend point
rid ge
Ġim g
Su ite
. ],
S ample
l ab
m iddleware
v l
å ¿
Ġi con
Ġf mt
pro j
Ġres olve
ac quire
01 2
RE AD
ok ies
Ġexec utable
ĠPRO VID
ĠDAM AGES
ORIZ ONT
J SON
e le
i con
č ĊĠĠĠĠĠĠĠĠ
re try
re quires
de pendencies
as ync
Ġp ix
Ġin side
ĠS E
ap pa
ER P
ĠD ate
ari o
Po sitive
Ġexec ution
ntax Error
tu de
ORIZONT AL
B E
M apping
a ys
as cript
Ġin ner
li der
ra ble
Ġex clude
Ġun pack
Ġhe ad
Ver ify
cate n
O OF
p ure
s ses
Ġ qui
'] })
from Hex
Ġy ear
ET HER
Ġcol s
pri ority
To Many
ĠTest s
19 2
wh ich
Fa OOF
oper ation
æł ĩ
FaOOF a
" })
T ICAL
_ [
t ar
in clu
de lay
Ġ" ")
Ġe di
Ġlo ader
Ġy aml
place holder
av ascript
ash es
Ġconst raint
ĠIN CLUDING
fact s
Ġren dered
hook s
WI SE
b est
r u
} /
Ġre vision
ex tras
Ġu i
Ġco mple
Ġpro blem
ĠN ULL
Po ol
seri es
Ġthread s
dec imal
crement al
sur vey
Ġcop ies
, "
I VE
L C
S Y
m u
co mb
vi f
ĠD ist
ze ug
lic ked
Ġv tk
Ġma il
Ġno thing
Un able
DO C
ĠSt ate
gener ic
inst alled
a fe
k zeug
s in
w riter
Ġ tenant
re cords
Ġt m
Ġ1 9
Ġex pi
Ġdi gits
Re ader
Er r
Ġv lan
Ġset s
Ġ{} ,
ne ed
201 3
abs olute
G G
R ight
d om
g pu
t l
se cs
in ventory
Ġin v
Ġ1 8
ĠS park
Ġbe gin
pre v
St ates
av g
process ing
sen sitive
Ġph ase
App lication
Dec ode
REE K
L ast
V ICE
f amily
m icro
de serialize
Ġn or
Ġs can
Ġa ut
ver ti
Ġ1 28
vi sible
po wer
per m
ĠG REEK
ĠM odule
Ġma de
RE G
St op
Ġdo uble
Ġ10 24
subnet pool
distribu tion
Ġdest ination
ĠLI ABLE
ĠSH ALL
repe ated
Iter ator
D atabase
O ver
P K
u z
in ator
re lative
Ġs cheme
Ġb ug
Ġm aster
') ).
bu s
ĠF ield
ĠE ach
work er
Ġro t
Ġcomp onents
IS ING
Ġvi m
Ġz one
ĠUn icode
ĠAuth ors
Ġsm all
Ġglob als
ĠAR ISING
C opy
g mail
ti tude
di sc
si bility
ab ly
ĠC A
Ġal pha
File name
cre te
Ġreg istry
script s
cript or
Ġbet ter
Ġdec imal
ĠBu ild
ĠPROVID ED
# ----------------------------------------------------------------
d uc
f un
k it
p ending
li es
ĊĊ ĉĉ
Ġde cor
ĠD ATA
ĠR ights
comp o
Ġbu ff
ĠEx p
Ġallow s
diff e
dest ination
VAL ID
Ġcorrect ly
ĠAC UTE
" %
W AR
r m
me m
Ġw rong
pa ren
up grade
ĠT ORT
ma v
res sions
Ġse gment
ry pto
ST ATE
no te
base d
ĠCon n
Ġter m
ale nt
norm alize
Per mission
ĠCONTR ACT
ĠWH ETHER
/ "
4 00
6 00
C annot
P oly
S how
a cl
h igh
o ols
p ad
Ð ¾
Ġf ixed
Ġ" {
Ġt urn
ser vices
di ctions
di spatch
ĠC ho
Ġco mplex
po ch
En tity
Run ner
Ġfail s
M ar
P ipeline
g ot
å ¤
al chemy
ro ke
Ġa mount
and roid
ĠS U
Ġg it
ĠM ulti
sh are
ĠN ode
Ġurl parse
are a
std in
mi tive
Ġgo od
posix path
éĵ¶ è¡Į
ç»ıçºªåħ¬åı¸ ä»£çłģ
H andle
Ġs cheduler
po sed
tri es
Ġun known
cur r
Un it
Ġchar set
Config uration
ĠNOT E
Des criptor
Comm on
Ġdimen sion
æĹ ¥
ĠMode l
quiv alent
N T
S ame
al lation
Ġf act
Ġf rappe
ro les
un iform
us ing
ĠO ver
ac ter
Ġma chine
Ġpar sing
ĠRe move
ĠRe pository
Co lour
func s
Ġ201 5
Ġ'/ '
Ġcre ating
Ġbuil tin
k el
Ġf rozen
Ġin d
rom ote
ĠI mp
list dir
'), \
De le
tra ck
Not Set
ini tions
Ġval s
Ġoper ations
Ġar rays
Ġhandler s
tab stop
Ge ometry
Ġden se
argo yle
: -
F low
v tk
Ġa verage
ĠT rans
et ail
Ġh our
ĠS TR
ĠC YR
pro c
Ġ4 0
IL LIC
LO AD
subnet s
Vi deo
wh ite
clo sed
Ġrepresent ation
Ġcer t
Ġvari ant
modi fied
sertion Error
pick le
ĠCYR ILLIC
I t
P ASS
] '
s r
te ps
th rough
ad o
Ġ[ {'
ation Error
Ġse c
Ġle g
ph inx
Ġpo sitive
Ke ys
Ġvalid ation
oper ations
dis abled
imp l
ĠEX PRESS
ĠOther wise
B e
b um
c mp
j ax
re ason
Ġex periment
ĠC lient
ub er
Ġe mbedding
pro x
Re p
ĠP BX
sc reen
ĠO N
read line
go od
Ġenti ties
C AL
G ra
m igration
s age
ec h
fi d
ĠS imple
Ġ3 7
cal ing
0000 00
ep copy
Ġver bosity
ateg ories
Do uble
SER VER
( '),\
C all
M an
p layer
ä ½
å ¸
le cted
Ġc idr
Ġf name
ge s
Ġd om
Ġco re
Ġl on
Ġit self
pre dict
count s
Ġcl f
instance s
gra mm
tra ceback
Ġcall ing
Ġman ifest
A sc
p atterns
ĠS ta
Ġor g
ĠP ath
if f
ĠO ne
ac ute
ĠE vent
Ġ3 1
scri b
comp atible
ĠIn te
man ifest
Ġconn ections
Ġread only
Ġdocument s
bind ing
PRE FIX
ordin ate
ĠOTHER WISE
ynch ron
M ask
M sg
v hd
å ĳ
al g
ge ometry
Ġm ateri
Ġ2 5
po ols
vel oper
update s
Co mb
struct ure
ste ps
Ġblock s
Ġwri ter
Ġtrain ing
Ext ract
L imit
P lease
S ave
S UB
U I
i od
Ġf ig
Ġt s
li ces
lo or
Ġtest Type
"] ["
ong o
ven io
ESS AGE
Ġpri or
wh ile
Ġtask s
ker nel
Al gorithm
Ġgo ogle
Ġcer tificate
Back end
FIL ES
Ġauthentic ation
A V
L IN
f lex
n l
r d
r x
en g
ch an
ĠT able
ĠS INGLE
Ġun its
ms gs
Par ameters
Time r
Ġpage s
QU AL
Ġfail ure
cap t
ĠVER TICAL
+ '
- >
: "
D V
S uccess
h ass
w fs
w sgi
ç ļ
se cure
st andard
ur ses
di git
(' .')
ĠS ER
In stall
Ex ist
ĠV i
ite rable
Ra w
Ġ201 4
eval u
Ġsc ipy
ĠAuth or
Asc ii
çļ Ħ
= ["
C er
T op
s aved
on y
sel enium
ce iver
ser v
(' #
sp h
Ġe ffect
ĠF IX
po sitive
late x
Ex pected
Ġsub scription
Name s
copy right
No tify
Ġdep th
SC R
liter al
invo ice
alle l
C F
F lexible
W ork
b ut
i re
Ġf uture
li ve
lo ud
Ġb rowser
Ġst age
Ġe v
(" --
Ġde le
ĠD oc
ĠM ARK
log s
ĠCon tent
Un known
UM ENT
oriz ont
* (
E E
F S
a ther
Ġ ?
re lation
Ġst mt
xt ures
ĠM ac
Ġget text
St ub
Ġcomp ile
server s
Ġhost name
xy z
Ġtable s
assi fication
Ġqu ote
Ġnorm alize
æĬ ¥
Flexible ForeignKey
n or
w atch
ĠĠĠĠĠĠĠĠ ĠĠĠĠĠĠ
Ġ' =',
Ġn one
Ġb ot
pe t
Ġ2 7
Ġfile path
ĠM ap
ĠN E
ĠIn teger
12 7
Ġcomp are
clu sive
Ġvi f
(_ ('
assertIs None
Ġskip ped
HER E
Ġretri eve
ToMany Field
sph inx
/ (?
a head
ge om
== '
pro mpt
lic ies
Ġpar tic
comp onent
split s
ĊĠĠĠĠĠĠĠĠĠĠĠĠĠĠĠĠĠĠĠĠĠĠĠĠĠĠĠĠĠĠĠĠĠĠĠĠĠĠĠĠĠĠĠĠ ĠĠĠ
PO INT
Ġop tim
Dis posal
buil der
Stock Disposal
ĠFIX ME
Y PE
e red
g argoyle
r strip
æ ķ
er kzeug
Ġm uch
un ity
Ġif ace
Ġse ed
Ġv ol
tra cker
shape s
Ser ial
TE MPL
volume s
dep ends
================================ ================================
duce d
------------ -
Ġ' [
Ġt yp
Ġt wisted
set Value
Ġu tili
Ġco unter
Ġco efficient
ac c
Ġwe ight
ĠH ORIZONTAL
AN CE
UT F
Ġne utron
Ġformat s
order ing
ĠAn y
project s
wx EVT
Ġdimen sions
Const raint
Machine State
) ")
D etail
P cap
S R
T itle
c tive
g b
j vm
p x
w itch
de coder
Ġb its
"" ",
pa yment
mm utable
ĠE nsure
ĠW rite
ou se
const raint
Bo unded
Ġcom ments
pol l
Ġ---- -
Ġmetri cs
Ġdetermin e
å¿ Ĺ
1 01
D ES
v pc
ar rays
Ġs aved
Ġt z
def ine
li text
co ver
ra se
Ġg yp
Ġ2 8
us ted
([ ('
Ġz ope
Up load
ateg y
Bu il
Ġdir s
Le ft
assertIs Not
Ġnd array
P ost
S tep
z ation
Ġ --------------------------------
ti d
Ġ' '.
Ġp r
Ġ{} ),
unc er
return s
ne tes
ĠPar se
fin ished
ffff ffff
roll ment
rand int
assertAll Close
Norm al
æłĩ å¿Ĺ
uber netes
1 25
U ST
a ws
ur ity
Ġs amples
Ġto ols
es ser
vi g
to o
ĠF orm
ĠO ut
ĠB o
Ġwe bob
back ends
run time
Ġtrans action
Ġconver ted
Clean up
> [
S L
U tils
] ",
m as
q s
ar ded
Ġt ran
di gits
Ġm ultip
Ġu uid
ĠL esser
Re pe
Ġme t
Ġv ocab
fe de
back up
pl at
Ġstri ct
C ells
M on
P rint
f req
k s
} '
Ġ urls
Ġdef er
ver sed
Ġst ar
ĠC O
Con s
Ġle ss
no va
pi x
Ġinter pre
Ġgener ic
ĠSt art
esca ped
Ġest imator
çº ¦
repe at
Ġplat forms
B ody
C LI
G ROUP
v endor
Ð ½
st ic
th reshold
Ġm is
=' '):
ag ing
Name d
Ġtime delta
Ġcomp arison
the me
Ġax es
mi ted
OM E
allow ed
zil la
C D
M ac
T ION
a ken
g i
m ysql
Ġp ush
Ġa lert
Ġm s
si st
Con f
Ġat om
den om
Ġadd r
cer tificate
Ġorig in
plot lib
Ġstatic method
ĠDE FAULT
mag ic
Ġexplicit ly
DEFIN ED
road cast
I R
S um
W idth
] ")
y e
ro u
Ġth ings
__ ',
ĠL a
ĠD ec
AT OR
Ġcomp atibility
ĠEx ample
Ġ8 0
make dirs
Do es
ĠOpen ERP
rew all
urlo pen
uncer tain
; "
T e
b et
de cor
Ġt arg
Ġd ay
ĠT EST
": "
Ġl arge
ĠH OLDER
ID ENT
im ate
Ġcol lect
Ġcomp onent
block s
Ġcount s
Job Manager
C URE
P ackage
T uple
g u
k t
n umer
ce dence
Ġp ack
Ġfor ward
Ġd ot
Ġd ummy
(" <
out ube
Ġcl one
be at
201 2
nb sp
Ġsepar ate
leg acy
Doc ument
mar ked
unic ate
åĲĪ çº¦
' ll
( ""
b g
Ġ""" <
=" /
tic s
ST FN
ir flow
pl an
En coding
Ġmin imum
Ġnull able
tera ctive
Ġlin eno
collect or
Ġbound s
Ġhand ling
STR ING
BA SE
scal ar
REQU EST
etri eve
2 11
B atch
M issing
a de
v id
č ĊĠĠĠĠĠĠĠĠĠĠĠĠĠĠĠĠĠĠĠĠĠĠĠ
an te
Ġs olver
Ġin herit
ut ation
Ġh ard
Ġst ati
ĠS p
ĠL ine
ĠP Y
late st
write line
ĠH ow
Set up
=[ \
CO MP
rec v
Ċĉĉĉĉĉ ĉ
dec la
Pa rent
Ġpair s
ribu tion
G ithub
L S
in o
te ri
Ġth ree
Ġw arn
Ġ( [
IT EM
Ġk ernel
Ġapp lied
network s
yn omial
dep loy
ĠVer ify
Dis abled
rup t
assertIsNot None
" },
+ ?
; '
T ri
f lavor
de pendent
ar ticle
Ġc types
ex act
ab ilities
ĠA S
Ġpro perly
RE S
ĠCON F
igh ted
SS L
Ġinclude s
Ġte arDown
prog ress
Quote Field
ĠNet work
orizont al
b its
c licked
k a
o auth
x m
Ġp ower
ec ycle
co st
ĠA UTH
ĠC an
ĠI tem
ĠE L
back ground
Ġrun s
prefix len
mt ree
UP ER
Default Attributes
Window s
Ph ase
heb rew
Positive IntegerField
. "),
A pi
C B
G B
s heet
se mb
re load
en ch
Ġf ast
Ġre ader
ge titem
Ġa ble
Ġd ue
ver tical
int ain
], \
Ġ2 2
ĠP l
ĠE xt
ĠN a
pre pare
ir t
gra dient
ENT IAL
fail Unless
Sh ader
hi de
dest roy
ĠAnsible Module
quen ces
Ġbuil t
Imp l
ĠUN DEFINED
Ġpix el
" ',
= {}
A UTH
V S
e ss
t c
} "
la zy
sp litext
ĠD IG
Ġlo aded
Ġlog its
CThostFtdc Input
Ġsh ard
split lines
ĠGener ate
Ġver y
Ġwork er
ĠSt andard
Ġiter ator
ĠMe ssage
Ġbind ing
P LE
d r
f ficient
i mation
m id
Ġc c
', )
Ġm ar
() ).
ra in
(' ],\
ect ors
Ġ2 9
Re striction
ic ally
Ġpro gress
sh ard
Ġen viron
pre vious
ĠR ec
com ing
IC ES
RO L
AS K
trans fer
Item s
Ġvar s
Many ToManyField
agic Mock
ĠSpark Context
: ",
B ig
S kip
U SE
a verage
k o
m ust
m ime
» å
on s
Ġc m
Ġin f
si ted
Ġd types
ĠT e
ĠL IGHT
Ġde al
ĠD es
ly ing
with out
"> </
TY P
Ġdist utils
Ge o
PAR AM
Ġmav proxy
ĠDIG IT
B ITS
Z ip
Ġ jobs
de pendency
as c
Ġn ested
mp ath
co mplex
') (
ĠS UB
ĠA b
ĠC all
ta ched
Ġg data
Ġv s
ph p
Ġne ver
ĠQ U
Ġone s
En ter
ĠTest Case
cre dentials
Ar ch
Ġpri ority
Ġcre ation
> `
B in
F in
G rid
b lack
g f
g ain
h ist
al one
en coder
ut down
ma chine
ĠS ome
qual ified
ER S
ly r
ĠN ow
rite ri
RE SP
([ ^
ref s
Ac tive
Ġtrans lation
Ġar ound
Ġrequire ment
Ġser vices
invo ke
M ESSAGE
T ransport
b al
b undle
c atch
f tp
p ip
p yspark
w b
Ċ ĊĠĠĠĠĠĠĠĠĠ
re start
de ri
Ġc wd
Ġ" {{
Ġa wait
ch ase
Ġh idden
Ġe mbed
if ace
ns or
state ment
CThostFtdc Sync
Ġac cording
Ġrun ner
=[ ],
Ġsp rite
mac ro
SER T
Ġmon th
Ġcli ck
apt ure
" ')
B ranch
D el
c inder
g ence
Ġ eta
ri t
la ve
Ġg iv
ĠL anguage
IN PUT
ff inity
mple ments
ten v
Ġany thing
Ġsy ntax
Ġ201 0
Ġtemplate s
rec ted
Ġtemp orary
domain s
Class DefaultAttributes
ĠData Frame
Down load
D IS
E P
z ure
th ree
Ġh es
sp rite
Ġno va
check s
pi pe
Ġexp and
web site
ĠDO WN
Fail ure
Ġfrozen set
A v
M ain
c us
n dim
s peed
u a
Ġc f
ce l
Ġb l
Ġ[ {
ss ue
'] ]
ĠS ec
Ġe quivalent
ac ters
AT URE
Ġno tify
De bug
Ġrun time
AS H
ne g
build Children
ld p
export Children
tiv ity
N ull
t m
Ġt b
ol ved
ĠC H
In st
ĠD atabase
Ġhe ap
check box
Ġconfig ure
Ġper mitted
match es
ĠCo mm
Ġdis abled
MA IL
uff fe
Ġsql alchemy
Rou te
Ġpartic ular
) -
S ys
S ingle
h box
k b
k ing
z ed
se gment
en sure
Ġp ad
Ġn a
tr unc
Ġex amples
pro duce
Ġse p
ĠM ark
sh ell
Ġget s
ĠU sed
Ex ample
cur acy
request s
Ġsi mp
change s
Ġbase string
Ġreg ular
Ġread ing
Ġsy mbols
OF P
ĊĠĠ ĊĠ
Ġrepresent s
Ġxml ns
pac ked
, -
C or
F B
M D
b ulk
w it
w eek
x ff
y per
er ature
Ġ' +
ul ary
(" .
Re quired
sc en
AT ED
new exp
File Name
čĊ čĊč
service list
parent s
encode d
ĠAr gument
Ġgra d
Mo di
Ġpi pe
ä¿ Ŀ
c pp
g z
o logy
q ty
å ¼
re ceive
st ock
me mbers
ing er
di ction
ĠT ry
ver ified
Ġ2 1
In te
ag gregate
ir ror
SE QU
uti li
Ġadd ing
cs rf
meta class
seri al
seri alizer
limit s
metri cal
ĠMe thod
> ,
B ACK
s dk
Â ł
se ct
Ġth ing
Ġn c
Ġin dividual
ĠL oc
ĠF unction
Ġde lay
Ġr pc
wor ld
16 8
Vi sit
local s
Lo op
Ro le
STAT US
precation Warning
SCR IPT
V AR
` ")
e a
() [-
and alone
set ter
ĠF ind
end point
ten ce
ĠB it
Ġwh ite
Value s
Ġarg v
AP P
Ġdoc test
Ġag ent
Ġcal culate
Ġ}} "
------------ --
rot tle
Ġclo sed
Investor Position
Seri alizer
ĠMA X
ites pace
ĠHOLDER S
Github Object
T REE
b elow
å Ĭ
Ġ ul
ce e
ec tive
co okies
ort ran
pe ak
Ġcon tact
ĠC al
bu ff
Ġco lour
Ġun signed
ten tial
temp ts
no tes
Ġ5 00
org anization
Ġdoc s
Not Exist
TH ON
Ġfin ished
Ġman ual
Str uct
CONF IG
sq lite
iti alize
dash board
" /
F irst
F UN
H OME
P attern
h am
n f
x path
Ġ ^
at om
ur len
ĠC l
ĠF e
age d
ĠP lease
Ġv l
ä» ·
Ġdir name
Ġhash lib
thread s
Ġtop ic
Ġcontrol ler
ĠRes ponse
stub s
STAT IC
cons umer
Ġcontrib utors
E stimator
_ ()
f fic
h w
h alf
n curses
Ġp atterns
get value
get Current
con t
00 2
ĊĊ ĊĊ
ĠS AP
ĠS PEC
ĠF ake
Ġde pendency
ĠW hether
pre cision
ES IS
St ats
Ġstart ing
ĊĠĠĠĠĠĠĠĠĠĠĠĠĠĠĠĠĠĠĠĠĠĠĠĠĠĠĠĠĠĠĠĠĠĠĠĠĠĠĠĠĠĠĠĠ ĠĠĠĠĠĠ
En um
201 0
Ġmodi fication
Ġfind Entry
can vas
termin e
Ġwho se
/ .
F ind
L Y
R ed
S ome
V ari
b and
l n
n ested
w alk
in el
th eta
Ġf ul
Ġp ipeline
co un
ch ecked
is ol
ĠP ost
per form
ly ph
Ġun less
Ġx m
ou ter
Ġcan di
err no
Ġca use
mplement ation
Gener ate
orig in
annot ate
Ġoccur red
lev ant
urlen code
V ar
a o
t t
Ġre tain
Ġp ag
Ġin ventory
is ode
et c
ĠL ib
Ġdi ag
Ġen um
Con ver
Con dition
ali b
Ġsuper class
Attribute Value
sv c
Ġseri alized
Ġvari ous
Ġsim ilar
Ġmat plotlib
äº¤æĺĵæīĢ ä»£çłģ
Mar ket
E VER
S U
Ġi de
Ġf actor
Ġp adding
ame ra
Ġo uter
el lan
ter ms
pa gin
Ġh ist
sp i
sp ose
RE SS
ore an
Ġresult ing
og r
12 0
tra ct
Ġcheck ing
loc ked
En v
abc def
Ġfl ask
ĠEn vironment
channel s
Exchange ID
cry pted
ĠOption s
Seq Row
Obs Row
ĠAd min
PASS WORD
pix el
cee ded
I CT
W IN
_ ))
c def
g res
j avascript
s lot
s ince
Ã ¤
à ¥
or ation
st mt
de ps
Ġf s
ro l
Ġp lan
Ġs alt
Ġm igration
ra dio
qu ared
ĠS ize
Ġdi d
sc ar
ist ic
Ġper iod
av es
do ctype
exp dat
iter ator
loc ate
ĊĠĠĠĠĠĠĠĠĠĠĠĠĠĠĠĠĠĠĠĠĠĠĠĠĠĠĠĠĠĠĠĠĠĠĠĠĠĠĠĠĠĠĠĠ ĠĠĠĠĠ
ĠCon vert
ĠCON T
ĠPro cess
non zero
And Return
Ġsel ection
rep ly
++ ++
tod ay
caten ate
? ?
A F
C ESS
G TH
U tf
U SED
` :
f ds
p adding
Ġc ells
Ġc ached
Ġs cen
Ġt ar
Ġg ateway
time zone
per mission
mo us
ĠO bject
no tification
ĠIN TER
Node s
tx id
CL A
Ġfa ce
Ġrep ly
ĠAs sertionError
DU LE
nor mpath
/ $',
> %
E PS
I con
S cope
W ait
e re
Ð µ
Ġ ri
ŀ ĭ
or ing
Ġc y
(' </
Ġpro cessed
pre sen
ST IT
// //
sub scription
iv ar
gra d
man ual
frame s
Ġca lendar
Ġmake s
ĠUn it
Ġlib raries
Ġab stract
MA IN
vari ants
Ġtri m
pol ys
Ġproduct s
ĠPO ST
cir cle
(': ')
Ġlate st
Buil der
ĠOut put
ellan zb
A IN
S pa
W R
de epcopy
ex amples
si lon
con cat
Ġcon d
Ġg ran
ig rate
Ġr t
ĠD on
Ġas ync
data store
lic ity
ĠM O
create DataFrame
check point
ĠPro ject
Ġiter tools
Contain s
Qt Core
Obs Matrix
mk dir
Sy mbol
../ ../
combo Box
glob als
çĶ¨ æĪ·
CONT ENT
TEMPL ATE
1 30
E MPL
b f
t ot
or n
th umbnail
Ġf h
ue s
ex is
00 3
Ġco okie
ĠW h
ĠH AS
Ġreg ression
Ġopen gm
ĠIN C
Ġshow n
Ġ201 1
Log in
rel path
Ġsum mary
Pri ce
Rate Field
gramm ing
CThostFtdcSync ing
' <
h ar
k ana
s al
y a
y si
} ]
te ll
de li
Ġ= >
as set
ĊĠĠĠĠĠĠĠĠĠĠĠĠ ĊĠĠĠĠĠĠĠ
Ġt aken
co hort
In sert
ance d
ali ases
Ġsub st
Ġ{} ".
sy ntax
mi zer
sv n
.* ?
Ref Count
Ġseri alizer
Simple RefCount
star ted
Ġsq rt
Future Sign
LEN GTH
Does NotExist
' m
P RI
v rf
ç ±
ĵ į
re index
Ġf low
Ġre try
Ġs teps
di rection
ct l
tr al
ĠA uto
Ġe gg
Ġg m
Ġg u
Re ceived
Ġse ries
Ġadd resses
Ġapp en
top ic
Ġstd in
fl at
book s
Ġiniti alize
Ġmon itor
Ġbuil der
cum ulator
Market Data
CLA IM
N ote
R andom
e ps
w f
ti stics
Ġs uc
co in
Ġw on
un nel
from Utf
que s
ph i
ĠR O
ost on
loc ations
open Elements
Ġup per
cli p
IB ILITY
Ġte am
ĠSer vice
vis or
================================================================ ========
Visit or
' *
2 19
C omment
P H
re cur
Ġc e
Ġ" +
Ġ" (('
Ġs n
Ġs sh
ma jor
00 4
ĠF irst
time delta
ise d
mo o
Ġen c
ID D
Key Error
Ġli ter
ne gative
ĊĠĠĠĠĠĠĠĠĠĠĠĠĠĠĠĠĠĠĠĠĠĠĠĠĠĠĠĠĠĠĠĠĠĠĠĠĠĠĠĠĠĠĠĠ ĠĠĠĠ
NU M
('/ ')
Ġhand led
initi alize
Sp in
Picker Ctrl
A UT
L ong
S end
T ab
f ri
t ap
å ¯
re et
re pos
de e
Ġs in
co mple
con firm
Ġcon side
Ġg ame
Ġpre tty
start Tag
Set ting
De p
comm unicate
contain ers
Gener ic
Ġcal ler
ĠDIS CLAIM
velop ment
dimen sion
SIGN AL
ĠSPEC IAL
/ <
F etch
N C
O ther
T C
a lert
n umeric
q a
Ġre produce
ur a
Ġt p
Ġthe ta
Ġ( ?
Ġh istory
ĠI F
us ters
mo re
ĠG ET
ĠM ax
ĠW HERE
01 7
Ġge o
DE X
Un icode
char set
Ġcount ry
CL ASS
{} '.
cat alog
lav ors
initi alizer
Seri alized
NAM ES
Ġvirt ual
DOC UMENT
Ġmateri als
STIT UTE
1 99
A b
H ook
P art
V ICES
h ard
en ti
as ure
Ġ" #
Ġre ally
Ġst ub
ata kana
add Cleanup
Ġen coder
Ġra ther
'), )",
Ġle x
Ġcl assifier
Ar g
Ġover write
UN K
Ġorder ing
Ġload ing
Ġim mediate
clean up
Sp lit
ĠDi ct
åĳ ĺ
( ("
A ctor
D P
D jango
h ave
i en
st ant
le af
ti mizer
Ġ' (
Ġc atch
Ġs sl
() ])
un link
Ġ% .
ta ge
Ġde ad
==== =
ten d
Ġra dius
Ġat t
25 0
cal ler
ail ability
Ġconfig ured
char s
Ġ'% (
ĠDe lete
Ġquery set
skip ped
ĠAdd ress
sm art
Process ing
Ġevery thing
issue s
Ġenti re
Ġrelation ship
ĠTensor Flow
»å ŀĭ
ç± »åŀĭ
S M
] ',
g yp
p lain
s rf
Ġc pu
en force
Ġb ig
op f
(" !
to gg
ĠP ri
ĠP ort
Ġme m
lit tle
Ġac c
Ġcreate s
Ġcode c
Col lection
OUT PUT
Ġback wards
ĠSt op
Ġmap ped
Ġqu ot
Ġsepar ator
ĠDI RECT
ae mon
evalu ate
ĠSUB STITUTE
SEQU ENTIAL
B IT
m asked
v n
Ġ mp
st ra
Ġthe me
fi rewall
co very
ĠL e
Re set
Ġse curity
ag greg
ĠThe y
ST ART
min utes
Ġpre vent
ine ss
Ġ5 1
Data set
En vironment
ĠCON SEQUENTIAL
200 7
most Equal
sv g
dered Dict
helper s
document s
pair s
FIEL D
æĬ¥ åįķ
/ *
P U
R IGHT
l ti
æ Ł
é Ĺ
on al
an ded
et ag
ĠA SC
ĠF oo
per f
Ġr ank
sub scribe
dict s
ĠR ow
Ġstate ments
CH ANG
ĠCon text
ĠIN DIRECT
sup ports
QU E
Al mostEqual
Ġcho ice
ç» ĵ
WOR K
1111 1111
pan el
pie ce
fede ration
( .
) ?
0 33
B ind
I SED
M ultiple
] {
] ')
b ra
u ation
x F
} ;
ä ¼
in ct
Ġ' ':
Ġt y
Ġo auth
si tes
Ġreturn ing
ĠS up
ĠS phinx
Ġr ate
Ġpro c
Ġlo gs
mo ving
ĠH andle
ĠX code
Ġconn ected
Ġtrans fer
Ġ'. '
dic ate
Sh ort
Ġcre ator
Trans action
sym metrical
('< %
activ ity
listen er
unct ools
Dele ter
ĠDoc ument
O ri
U sed
j pg
Ñ ĸ
at al
ce pted
Ġb eta
co gn
ch or
un used
is m
con struct
ta ke
Ġ2 56
ĠP rint
ĠN ew
ou quet
no ti
Ġcheck er
Ġbase name
UR CE
24 1
cy cle
Bo ok
201 1
Ġback ground
Ġ200 6
sl ash
({ "
fin ite
Ġsetup tools
ĠPRO F
Sy ntaxError
au dio
è´ §
UPER USER
ench mark
2 20
B asic
D L
F ER
F unc
b order
b lah
g amma
k ill
m g
v p
å ľ
č ĊĠ
ģ ¯
Ġf ew
Ġf ragment
Ġb and
Ġw erkzeug
)) [
=' /
Ġan gle
""" \
Ġpar tial
EN AME
Ġexp ressions
IG ENCE
CO UN
Ġimp orted
Ġupdate s
su ally
Auth entic
ĠLO SS
GL IGENCE
Seq s
edi table
====== =
012 34
ĠSTR ICT
Ġlon ger
LIN K
ĠPROF ITS
I LE
M AT
] \
a ut
d p
f k
g uest
Ġi mplements
Ġre striction
Ġt ransport
', ),
co lour
Ġst udent
ĠS hould
sp f
Ġdi m
res olver
Ġen ough
Con tinuous
RE T
ĠB asic
lib raries
ET IME
Pro to
Ġarg parse
iz ard
Col lect
OP EN
real path
Ġbound ary
modi fy
ĠLo ad
ĠNE GLIGENCE
Z B
e poch
n av
r ing
Ã ¡
æ ģ¯
al ways
Ġre actor
Ġs yn
ch dir
un ion
Ġdef ines
get cwd
Ġto l
Ġ{ {
IN F
ĠG OO
Ġen ter
Ġen force
ĠB ack
AR GET
log ical
ĠR o
Pro p
Ġ{} '.
Ġshould n
Ġper m
čĊ ĠĠ
UR I
Ġbo ok
select or
Action s
io dic
Ġdep loy
Format ter
Ġplace holder
pac ity
bound ary
ĠMo ved
æĹ ¶
sib ly
F lags
F ROM
R P
d h
s uc
s chedule
y outube
ti er
Ġc sv
Ġf allback
Ġp ie
pe er
(' {
con tinue
Ġcon version
ĠC or
Ġg ive
Ġde scrib
Ġdi gest
IN ST
IN SERT
Field s
ĠW ith
inter faces
Ġcomp atible
Par tition
obj s
Tag s
Ġmap s
window s
éĩ ı
="" ,
cod on
Temp orary
: '
S lider
b idden
j ected
m q
| \
Ġc ycle
Ġ# @
Ġ1 23
der s
sc a
RE W
Ġmodule store
LE FT
Ġge om
query set
sign als
sta ff
my date
ĠCo unt
tific ates
ĠEN D
Ġreplace ment
Oper ator
Ġbyte array
XML Schema
Investor ID
xxxx xxxx
æĬķèµĦèĢħ ä»£çłģ
irt ual
TYP ES
A gent
G reater
a ma
b tn
c u
c gl
e mbedding
z a
Ġ ################################
in line
st roke
de cl
ro utes
Ġs an
ame tri
ad ditional
il li
Ġst uff
Ġimport s
Ġg ain
ĠW AY
Ġlog ic
St orage
Ġpy game
pri se
Ra dio
Ġj s
rid den
CO OK
Ġreg istered
Me mber
has attr
tensor s
LO CAL
Ġar r
Ġexten ded
cer ts
Option al
Ġqu otes
train ing
cry pto
Label s
WN ER
ĠEV EN
ga ther
ĠIndex Error
( ')
) ._
B L
N on
O pt
c as
m and
s mi
Ġs lim
Ġw ild
00 5
ĠS pa
ĠA RE
fo od
fo cus
us sion
EN ABLE
Ġsub classes
Un certain
Ġup grade
trans lations
Ġtra iling
ä» ĵ
Ġab ort
her ited
MO DULE
Ġfil tered
assertNot Equal
Ġremain ing
ĠINC IDENT
IDD LE
F actor
M igration
R ect
[ (
a res
g ml
i denti
l u
l ar
n x
re tries
Ġc lause
Ġp or
co ords
Ġm k
') ):
ad ow
ĠT ask
ĠA DV
ĠC AR
ĠC loud
Ġdi alog
ĠG E
ĠB LOCK
OR M
ĠR ule
ume d
ume ri
DE D
Ġk appa
Ġla unch
Ġj inja
Ġinter faces
Config ured
FF FF
OP T
Reg ister
ighb or
ĠPO SS
Ġlisten er
Decode r
ä½ ľ
æķ °
Uncertain StateSet
ĠINCIDENT AL
. '''
: ],
> =
C ustom
I LED
M ark
W h
g uid
t w
x is
} \
Ñ Ģ
æ ĵį
th at
Ġth umbnail
Ġp red
Ġn ative
Ġin spect
pa g
ass oci
vi des
Ġde coder
Ġfile system
Ġ* =
Ġkey words
lib s
title s
ĊĠĠĠĠĠĠĠĠĠĠĠĠĠĠĠĠĠĠĠĠĠĠĠĠĠĠĠĠĠĠĠĠĠĠĠĠĠĠĠĠĠĠĠĠ ĠĠĠĠĠĠĠ
000 5
ĠCh romium
Text Attr
Ġ9 0
Ġinst anti
tific ations
Ġfl at
ĠPO INTER
Ġcop ied
ĠDAM AGE
ĠSER VICES
Ġstar ted
CLI ENT
CURE MENT
('</ %
Ġconside red
ĠDISCLAIM ED
éĹ ´
ĠADV ISED
ĠPOSS IBILITY
æĵį ä½ľ
R UP
Z ero
b all
k orean
r v
r mtree
s d
u lo
re name
te ction
si ans
Ġd uration
set Text
pro blem
Ġ2 6
Ġor m
Ġse ver
sc ape
ip ient
os pace
ĠR el
cal cul
Ġlevel s
32 6
Ġcol ors
pri tes
Ġdistribu tions
Ġvalid ator
level s
gener al
EX AM
dis connect
Do main
Ġseri al
ĠData Type
Ġreplace d
Exec OrderField
require ment
Cl assifier
foreign key
Ġexact ly
ĠAnd roid
verti ces
WAR NING
kel y
inger print
' ve
/ {
D est
G S
N ULL
Q gs
T L
` )
c lause
d ll
æ Ģ
de gree
self ref
ti vely
an o
Ġb py
ch art
vi sions
Ġch art
bo u
01 6
fe rer
work ing
ph rase
ĠH ost
Name Str
Ġpo kemon
Ġhas Content
IL D
equal s
AB STFN
Ġport s
ĠIN D
TE GER
Ġmin utes
200 6
ĠSt ream
vision er
tmp dir
rag ma
Cur sor
Client Error
As sign
ĠĠĠĠĠĠĠĠĠĠĠĠĠĠĠĠĠĠĠĠĠĠĠĠĠĠĠĠĠĠĠĠ ĠĠĠĠĠĠĠĠĠĠĠĠĠĠĠĠĠĠĠĠĠĠĠĠĠĠĠĠĠĠĠĠ
ĠEX EMPL
è¯ ¢
ĠPRO CUREMENT
pac ing
Ġtermin al
ĠSU CH
ĠINTER RUP
ĠASC II
ĠGOO DS
æĹ¶ éĹ´
ĠEXEMPL ARY
, %
D K
D iff
L ANG
S pace
T A
c ards
f rappe
l p
s lide
x A
z A
Ċ ĊĠĠĠĠĠĠĠĠĠĠĠĠĠĠĠĠĠĠĠĠĠĠĠ
in fer
Ġc ir
at oms
ro ken
ro perly
Ġp ow
Ġp lease
Ġp romote
ex er
ch mod
get Attribute
(' >\
op le
all close
file system
sp on
Ġe le
list store
Ġvalue Of
IN ESS
ĠB lock
ĠB US
ask bot
ĠH EB
LE X
Ġcomp uted
pl ural
RO SK
ĊĠĠĠĠĠĠĠĠĠĠĠĠĠĠĠĠ ĊĠĠĠĠĠĠĠĠĠĠĠĠĠĠĠ
ĠCh ange
_=' '):
AD ATA
Ġbuild Attributes
Ġbuild Children
Ġag ree
ĠTHE ORY
('/ >\
Ġerr no
Ġexport Attributes
Ġexport Children
dat atype
Ġbit map
Helper For
Host s
Ġitera tions
ĠexportLiteral Attributes
ĠexportLiteral Children
Ġprob ably
ĠCA USED
compo site
diffe rence
Big AutoField
ĠINTERRUP TION
ĠBUS INESS
ĠHEB REW
ROSK A
G o
I teration
M ul
P os
] "
f ragment
i tial
k inter
s olver
v box
re store
Ġ' "
Ġ' {{
Ġc rypto
Ġf onts
ro g
Ġre view
Ġp layer
Ġt t
Ġa m
Ġm agic
et ing
ap sed
ĠC ur
ĠC ustom
Ġdi spatch
ĠO per
ĠM S
Ġun used
([ ],
Ġpo six
Ġreg ard
UP PORT
Ġ200 4
Ġtensor s
From String
bot tom
ateri al
ĠCommand line
ĠInter face
ĠMan agement
ĠConn ection
/ (
E QUAL
M AN
P R
e mit
i or
p ull
æ Ŀ
č ĊĠĠĠĠ
Ġ ed
re a
al ity
Ġs leep
ra ps
ĠS ince
ĠC OM
Ġdi rection
tic ast
ĠB ad
col ors
ĠH OW
Ġnew line
Key Field
of p
section s
Create d
assi stant
conver ter
Na N
Bounded BigAutoField
decla red
ĠHOW EVER
: ].
C lear
M IS
S ite
S calar
T OP
g tk
h b
l g
v ocab
æ Ķ
æ ĸ
č ĊĠĠĠĠĠĠĠĠĠĠĠĠ
st on
Ġi teration
Ġs ile
Ġs creen
lo ok
ut ter
Ġb i
Ġd x
assert AlmostEqual
ĠS ession
ĠS kip
ĠA T
Re pository
Ġse cure
Ġan not
read only
ST O
ĠU SA
foo bar
open stack
En gine
match ed
exec ution
Tra der
ĠSt atus
bit rary
Ġfl ush
ACK ET
bl ue
proto buf
ĠSer ver
Ġwho le
ograph ic
ĠCONT ROL
exis tent
ORM AL
+ ',
B D
G IN
I p
P ay
P ACE
T I
i ro
m time
o res
p od
Ċ ĊĊĠĠĠĠĠĠĠ
Ġ tes
in crement
on en
st rap
ar ing
Ġc ross
Ġd ash
Ġ""" )
op tim
Ġco hort
add Widget
Ġv is
pre view
RE PO
ph an
ph one
ĠH as
10 24
Pro visioner
TER N
ach ing
=[ ]
raw ler
Ġparent s
Ġ201 6
Ġsign als
ĠIP ython
={ "
Sec urity
IE W
ĠOver ride
Ġcoefficient s
ä¼ ļ
roperly Configured
) ['
A ER
D ummy
G m
d ynamic
g if
u k
Ġ ~
Ġ" ;"
lo bs
ch romium
ma y
ap pro
** *
") ]
ĠE C
ĠE lement
ĠB ook
net loc
ĠU TF
ress or
Pro perties
Ġno qa
Ġk lass
we et
Ġformat ted
18 0
Ġ7 0
ĠJ ava
Ġdep ends
Ġscript s
Ġfl atten
TEST S
Ġ%} {%
rep orter
Ġretri es
ĠPer mission
Ġindic ates
ĠSe lect
MET A
ĠLib rary
/ ",
2 000
> ",
U sage
V M
_ '
b ile
m ix
} :
} ',
Ñ Ĥ
in ing
in et
an cer
Ġ' {%
Ġ" (
mp o
ser ted
(' ',
---- --
ol ds
arg types
'] ):
ĊĊ ĠĠ
Ġcon v
ĠL in
path name
In str
ĠO p
code cs
Ġ3 4
Ġ3 6
25 4
og ram
Co okie
uc ket
Ġar ticle
Ġsuccess fully
PL ES
ĠDefault s
ĠDI AER
ced ure
enti ties
æŁ ¥
ĠDIAER ESIS
D ag
S ensor
T ARGET
b ridge
d ldp
l m
o om
q t
s rid
} ),
re main
al tern
al bum
er ry
Ġi dentity
Ġc enter
Ġ" </
Ġs cores
Ġdef initions
it able
pro t
Ġdi dn
po res
Ġse cret
Ġse quences
Con vert
module store
__( *
ĠR FC
comp arison
Ġso ck
Ġac ross
ax es
Option Instr
Fe atures
Dis play
Ġweb page
Ċĉĉĉĉĉ ĉĉ
Ġsuccess ful
bound s
Seri alize
ĠRedistribu tion
lap se
sess ment
æĹ¥ æľŁ
1 0000
A li
E Y
H H
P DD
Y Y
Ġ er
re ceived
or dered
de t
ti p
Ġc t
Ġth reshold
Ġm icro
__ _
Ġg reater
sc r
ĠW SG
Ġpo inter
Ġapp s
ĠEx pected
"> <
DAT ETIME
Ġqu eries
skip Unless
Le ss
Ġsc ra
button s
edit or
Ġtri gger
activ ate
SO URCE
!!!!!!!! !!!!!!!!
Lib rary
Ġimmediate ly
PDD M
' [
I RC
M is
P F
] =
d ating
h r
u v
u om
re ferences
te t
Ġs chedule
ri ces
ri tical
00 8
Ġcon sole
ĠS Y
cl f
-------- ---
Ġco ordinates
tri m
Pro duc
De pendency
conn ected
Ġspeci fication
UR N
Ġver tex
Ġtrans late
OF F
Ġfollow ed
Ġoper ators
Ġab sent
EX P
Valid ationError
web context
Query AccountField
As sert
Ġrequire ments
CA CHE
ĠQu ery
ARCH AR
separ ator
A fter
M agicMock
N IST
P i
[ ::
] (
b z
g oto
s ma
u do
z on
re actor
de mo
Ġre cent
ul let
urn al
00 7
la unch
Ġe asy
pro tected
Ġpar titions
ĠN on
ĠB oston
valid ators
map s
Ġ\ \
Ra tio
Col umns
Ġmin imal
patch er
Ġlanguage s
tmp file
Ġlook ahead
Ġ:: =
æľŁ è´§
TIME OUT
Ġpol ynomial
HEAD ER
ony mous
rou ped
ĠQU OT
Ġful ly
01234 56789
: ,
: ',
D C
I gnore
N ORMAL
P lay
R UN
W ord
a lect
f h
or se
er ge
Ġc ancel
Ġth row
Ġt ap
Ġin verse
ul ated
---- -
et y
00 9
ĊĊ ĊĠ
)) ]
ĠC re
ĠC ity
sp ector
(" #
Ġdi rec
ow en
Ġme ter
Ġme mbers
ĠG ra
ĠE mpty
vel ope
([ -
Ex ternal
cal c
ard own
ĠIn st
Get Output
Ġcomp ress
Ġline ar
ED I
22 1
tin y
cy rillic
ĠK EY
200 8
Default Deleter
An aly
driver s
Ġweb site
Sta tic
ĠDE BUG
sym links
sid ual
Http Request
riteri on
$ {
C al
] }
d raft
g ri
n m
x ia
Ð ¸
å ¹
Ġ quality
Ġ' ?
Ġs caling
el f
ec ho
di ag
ex periment
ra d
ra tio
(' __
(' ''
ver bosity
arg er
Ġcon fir
sp ection
Ġe ar
ĠP ay
Ġr p
Ġpro mpt
ang ing
ip her
ĠR en
no op
Ġpre pare
Ġro ut
St at
Ġcomp at
Ġcomp any
Ser ies
Me mory
33 33
DO MAIN
oo se
seri alized
sw ap
can di
sen der
An y
real m
ĠOpen Stack
Ġlook ing
00000000 0000
Sign ature
Loc ation
morphic StateSet
rest ype
Ġderi v
Ġevalu ate
CR IPT
Ġsq lite
Sparse Tensor
Stub Out
Repe al
ĠWSG I
: ')
B R
C alled
L anguage
M ON
R F
c v
f ecycle
s cores
re view
al len
Ġs peed
Ġin coming
li mited
Ġm m
ch a
qu ent
qu oted
Ġcon ven
str uc
he ap
Ġor dered
Ġco ver
Ġr ng
AL F
Ġare a
ler ance
join ed
Ġno se
do es
man agement
AB C
tk inter
quire ment
account s
Ġsubnet s
With Mock
Ġarch iv
ĠEX CH
NE CTION
Ġspecify ing
ĠDIS P
Ġspa ces
Inf inity
abstract method
ĠEL ST
Vari ant
StubOut WithMock
@ @
F l
F act
S mall
T T
T ax
T AG
g ba
i fies
w t
Ġ ################
an el
Ġc rt
ur ther
ri tes
si der
Ġd ays
ĠT arget
Ġh aving
ĠS tr
ĠS olution
ĠA P
par ametri
ĠC a
ĠC lass
ĠC omment
Ġco me
red dit
Ġ4 00
CThostFtdc Notify
Ġadd s
sent inel
22 4
Ġmatch ed
ĠCon tain
Ġread y
Ġag gregate
Ġ200 9
æľ º
Code c
EV ENT
uff le
rp m
Ġappro x
MET ADATA
Ph oto
CHE CK
Ġgran ted
ysi cal
' ;
C UR
F ree
T otal
V IEW
b ank
c name
d x
g reen
s quare
w ls
å º
se udo
Ġ' '),
Ġs rf
Ġt gt
Ġo bs
Ġb us
() ;
Ġh ass
Ġex tras
ac cent
ĠM igration
url parse
Ġal tern
dd t
ble ms
CThostFtdc Transfer
Ġresponse s
exp licit
Ġspeci fies
Se lected
match ing
are st
Ġver ification
termin al
Trans form
Ġsw ap
Query Set
Ġmer ged
ĠImp roperlyConfigured
Ġliter al
DOCUMENT ATION
Ġele ms
W A
c ases
i lo
r nn
s lices
Ġ à¤
se g
de vices
me mo
er min
Ġp hi
Ġt w
di ere
Ġw atch
Ġ( @
ul a
and as
(' ')
Ġd ns
Ġ[ ("
set Equal
Ġst ride
ĠA CTION
ĠL ink
Re play
In ternal
tri gger
ac le
Ġy es
mm ar
ĠW ork
Pro gramming
Ġcur r
RO ID
Ġend orse
IP S
Ġ'\ \
LO W
Ġcho ose
imat ors
IB LE
Ġwindow s
Simple TestCase
Ġretri e
cum flex
Instrument ID
Dist ribution
lat in
inc ip
è¯ģ éĩĳ
Ġdecor ator
ĠVi ew
ä¿Ŀ è¯ģéĩĳ
ĠCAR ON
æŁ¥ è¯¢
C sma
d m
e k
h f
i pt
m x
Ñ ģ
Ġ ####
Ġf oreign
Ġin strument
Ġ( <
un e
ul ls
and box
qu ad
Ġu gettext
file obj
-------- --
ĠG iven
ĠM IT
fig ure
Ġpa yment
os sible
Ġ} ),
Ġ4 8
IC K
Ġindex es
Ġvi sible
cre ation
000 6
expected results
201 6
Ġcor pus
Ġopt parse
CE PT
Ġgo ing
Ġdown loaded
Ġzip file
ĠComp ute
ĠGe ometry
Back ground
rot ate
)+ '
MET HO
Ġhook s
attach ment
itu de
Ġfig ure
Ġ-------------------------------- ----------------
COOK IE
$ ')
F ull
M ARK
X Y
] })
_ {
n zb
x B
y y
æ Į
Ġs lot
di f
Ġb g
Ġ[ %
pa red
op enerp
00 6
he alth
end Tag
fo x
len v
Equal Sign
Ġse g
IN DEX
lic a
assertEqual And
line ar
pre dictions
ns up
EN SION
og c
Ġtime zone
CThostFtdc Broker
ware house
Ġbo ot
List Ctrl
User ID
Ġop code
Ġover ridden
Run ning
Tree Ctrl
Ġrelative delta
collection s
Ġnamed tuple
icro soft
Ġconf lict
Ġinte gration
9999 9999
Ġbutton s
Ġtr unc
vide os
Ġlet ter
åĲĪçº¦ ä»£çłģ
ĠQUOT ATION
assertEqualAnd EqualSign
K ind
L a
S im
T ube
c la
s alt
Ġ ls
re at
Ġ' ').
en dian
Ġre levant
ur ations
li z
li ck
Ġb al
Ġb undle
co ped
ĠC IRC
int f
Ġ2 24
Ġun expected
ĠE mail
no ise
Ġro bot
SE CRE
conn ections
Ġserver s
ä» ¶
til de
Al low
Inter val
Sh ape
sis ten
Ġlin prog
ĠConfig uration
sur face
Tool Bar
ĠHe ader
Ġperform ance
Ġwrap ped
Ġrepe at
Bin ary
Ġsimp ly
wit ter
Ġtes ted
SECRE T
C opyright
E MAIL
Q Object
R NA
R etrieve
V AC
c ategories
e of
g ge
h int
n r
x E
x p
y rillic
ç ®
é Ķ
le ad
me ters
an cy
as ket
ur chase
ut s
Ġw s
ot u
op ro
)) ),
ĠS to
ta x
Ġg uess
Ġg amma
Ġde tect
pro bs
-------- -
tri p
Ġl st
ĠN orm
jo int
ST Y
che mas
Ġdefault dict
form set
'' ')
tro ls
index es
Ġli ght
Ġbase s
Bo ol
Ġinter net
Po si
Char acters
DO WN
Object s
Open Day
Interface Address
document ation
Process or
CRE ATE
Ġperson s
åĪ Ĩ
FIEL DS
chan ism
Cer tificate
Ġstati stics
ua lenv
EXAM PLES
: ")
; &
I dentity
M C
P r
[ %
j c
j unction
r n
t urtle
¢ æĪ·
ç §
se en
Ġp ull
Ġp ragma
ge os
Ġn zb
Ġt ries
def er
Ġa ren
si vely
ta ck
Ġg uest
** (
Ġco verage
In it
ER Y
ance s
Ġpro duction
sh utdown
). """
Ġl at
Ġ` ``
ĠĠĠĠĠĠĠĠĠĠĠĠĠĠĠĠ Ġ
ĠR ed
config s
arch y
Ġsh a
we ighted
process ors
spec s
assertRaises Regex
Ġgener al
Ġ201 7
Ġexec uted
Ġar bitrary
{} /
Inter rupt
Ġref resh
Ġsend ing
rep lication
Ġiniti alizer
BB BB
uest ion
ĠSy mbol
Ġhigh er
å® ¢æĪ·
Ġembed ded
umeri cal
! "
5 12
A IL
C AP
F ake
I V
se gments
Ġin correct
fi xtures
Ġ( %(
Ġis o
Ġto gether
es h
Ġu sually
int ro
Ġres olved
Ġun certain
pre p
Test Suite
Ġcl assi
De ferred
Get ClassDefaultAttributes
mis s
CO M
PO S
Ġ| =
script ors
of c
CL U
Ġdiff s
io xia
eg in
Ġdup licate
sym link
Control ler
hour s
Ġaccept s
Ġround ing
ä¿ ¡
numer ator
ĠHow ever
ĠNa N
rol led
COUN T
onen tial
Replay All
incip al
> ")
D one
F LEX
N eg
U ri
a ux
c n
r sa
s lots
Ã ³
an tity
Ġp t
Ġp lain
Ġo l
Ġb el
Ġis ol
set Current
assert Access
ĠA LL
um an
str ong
In variants
app ings
data sets
ĠO NE
Ġx b
field name
Ġ4 04
spa wn
arn ess
CThostFtdc Err
parse Error
pri mitive
Di rect
Ġdoc string
=[ ])
Ac cept
exten ds
stream s
Ver ification
wh at
Event s
Ġren derer
HTTP ClientError
multi part
UM FLEX
Output Stream
è¯ ·
DEF INE
ctype s
PAR ATOR
Root Edge
combo box
Ġidenti fy
So ftware
utc now
Arch ive
Ġappen ded
Collect or
ĠCIRC UMFLEX
: ]:
D NA
P lace
_ ('
f m
g rees
n ex
o bs
s lave
u ght
x si
y ield
z z
on ds
Ġf unctools
Ġp yspark
Ġs prites
Ġt ail
di ctionary
un i
ab ort
Ġex clu
Ġe as
Ġe ps
ĠL abel
Re port
oc ial
Ġma intain
Ġle ading
Ġso uth
11 1
Ġcontain ed
Ġformat ter
ĠDe f
mon itor
su ch
Ġ200 8
Create s
FA ILED
Lo okup
Attribute Checker
Ġinteger s
Ġplugin s
times ince
Ġmark up
ĠSH A
branch es
LOG GER
ev olve
ĠHe re
Ð° Ð
Ġassume d
Extract or
ĠExt ract
Ġsile nt
Repeal Field
OpenDay light
B AD
C ategory
G O
R U
R ound
W in
i ri
w heel
x D
in ted
re moved
te in
Ġ" &
Ġ" ":
Ġb order
Ġm iddleware
si zes
set Disabled
assert Contains
Ġand roid
ĠA ss
ĠA WS
to String
") [
") ],
ic i
Ġr hs
ĠD EV
app le
IN IT
tri ple
ang er
sh ards
ms vc
ca iro
Ġpath name
ĠIn fo
Ġ5 9
man ent
AS C
ĊĠĠĠĠĠĠĠĠĠĠĠĠĠĠĠĠ ĊĠĠĠĠĠĠĠ
content types
root s
vo tes
CO UR
trans actions
DO M
xx x
Group s
her its
rec ent
Ġloc ations
Al ter
Default Size
Comp ute
annot ations
Ġet ree
board Interrupt
ĠRes ource
provider s
sig ma
Ġclean up
Ġactiv ity
Ġgradient s
digit al
denom inator
Shader Node
ĠAb out
deri v
PRI V
Ġgu ar
! =
! ")
, _
= \
L n
N W
b an
Ġ= ========================================================================
ti cks
Ġc ast
en c
as array
as sessment
Ġp ub
Ġin tro
co urses
is ual
qu otes
Ġst andalone
ĠA B
Ġe mit
Ġimport ant
ĠF oreignKey
Re present
=' %
In cremental
Ġx module
Ġ3 8
Ġwh itespace
ome r
ĠĠĠĠĠĠĠĠĠĠĠĠĠĠĠĠ ĠĠ
iv ot
Ġcheck point
ite rations
doc test
AB EL
Ġstart s
Se par
spec ified
ĠGener ic
15 0
50 9
CON ST
rf c
AND ROID
fin ish
wi re
Trading AccountField
******************************** ********************************
Ġmime type
ynchron ize
åĳĺ ä»£çłģ
Ġcrt wls
gge red
L P
O IN
S olver
a jax
i di
k atakana
m igrations
ç Ľ
Ġ= =======
Ġf un
Ġ" |
Ġp laces
Ġt abs
lo pe
co ve
() }
id le
Ġd ynamic
con c
ĠC er
Ġg ui
ĠF ilter
Ġde tected
str p
Ġas signed
oc ked
code d
Ġal location
Ġ3 5
temp dir
Ġmo ment
Ġ[' -
return code
Ġchar s
UN IT
IO Error
FA IL
Ġfunc s
Ġfin ish
tmp l
style sheet
let te
Comp iler
Ġcer tain
Ġgover ned
bl k
Ġ/> ')
Ġcomplete ly
ĠReg ression
assertNot In
uz z
å¸ Ĳ
Ġutili ty
ĠPl ugin
Ġhes sian
IDDLE WARE
) })
, (
. '))
2 12
A SE
C XX
F older
S l
] _
a el
g uess
j usted
s yn
t cp
u de
Ġ ----------------
in ations
in strument
re aded
al arm
Ġi te
Ġth ough
Ġre duce
Ġt urtle
def s
Ġb lack
Ġb roadcast
co ol
con catenate
'] },
he mer
Ġco ordinate
ig i
Ġpro blems
Ġl arger
log o
ĠR andom
Ġ4 4
Ġcol li
ĠV ariable
Ġ## #
29 49
seri f
Ġq webcontext
dic ted
ĠEn able
Exec ution
EM ENT
Ġmon key
Ġindic ating
ĠCOP Y
publish ed
Ġpe er
ĠAc count
å¯ Ĩ
sisten cy
Ġxb mc
OutputStream Wrapper
hemer al
/ \
= +
A X
B LOCK
F i
F ixed
G Len
m ing
t orrent
v g
æ µ
é ¢
or ld
Ġc ity
Ġf urther
Ġo mitted
Ġin tern
li fy
ec on
co ordinates
Ġd d
Ġd aemon
__ ))
il s
ver ts
vi e
Ġde vices
pro gram
Re verse
us sian
ow ski
]) ]
Ġch r
Con sole
ĠB ar
Test ing
ĠR PC
comp iled
ume ration
nd array
Co mbo
with in
De sign
Ġso ft
check sum
pi der
ĠEx ec
Ġmarker s
Ġup loaded
are house
Vi sible
Ġmodi fiers
ud p
ĠZ IP
--- +
([[ [
OK EN
Ġdisplay ed
ĊĠĠĠĠĠĠĠĠĠĠĠĠĠĠĠĠĠĠĠĠĠĠĠĠĠĠĠĠĠĠĠĠĠĠĠĠĠĠĠĠĠĠĠĠĠĠĠĠĠĠĠĠ Ġ
clean ed
=_ ("
Ġprevious ly
Ġpoly morphic
ĠNe ither
COL OR
ĠValid ate
Ġrecur sive
Te X
InvestorPosition Field
033 8
Hosts File
STY LE
GLen um
2 30
I FI
K ioxia
S witch
V ARCHAR
Z Z
] /
b re
g am
l strip
Ġ 99
Ġ lyr
in y
Ġ' {}
Ġc en
at ural
Ġth ird
Ġp s
ame s
ing o
ra ses
is nan
il ation
ĠT R
assert Serialized
Ġh it
Ġ1 99
par ty
Ġde cl
key words
per ms
len ium
Ġse nsor
"] ),
Ġdata sets
ir th
ĠU sing
work flow
ph ases
Ġsh are
20 4
conf lict
Ġmeta var
ĠUser Factory
ĠEn force
imp licit
App end
Header s
ĠRE G
byte array
Qt Gui
loy ee
hex digest
leg al
Ġdat atype
unic ation
Author ization
builtin s
Gra dient
vig ation
spi der
WIN DO
ĠCOPY ING
N ONE
g lish
k f
k ube
q dn
r ating
t arg
de scribe
Ġi ris
Ġf ore
Ġre ceive
Ġa ux
ri ft
di rected
pe dia
ab e
ma tions
ĠS tep
ĠI nt
Ġde tail
Ġco urses
Ġr rp
Ġpro d
ĠO K
Ġy dl
code name
Ġ(' /
Ġdata Size
ĠN ull
col on
gs m
ca ch
ĠH ellanzb
Ġcheck sum
Ġper iodic
Ġunder lying
sta tistics
To Type
IS O
Ġchar ge
Ġ'/ ')
OL D
Ġdup lic
TO DO
Ġindic ate
Ġdecode d
ĠCThostFtdc Qry
Transfer Field
ĠGeo IP
.... ....
____ ____
Ġbot tom
ĠArgument s
bou quet
Kioxia Provisioner
! '
) ==
) '),
2 10
C G
M ULT
S creen
V C
a h
a w
d rive
e b
f lavors
m ate
m aterial
p list
w ant
Ġ escaped
Ġre start
Ġin venio
Ġm ut
Ġto do
assert Query
vi a
ult in
Ġe mp
Ġname spaces
Ġco mes
Ġl r
ĠW ill
01 0
ĠU RI
Co mple
Ġpass ing
gra ve
ute x
run s
Ġsh all
bs ocket
mis c
cre dit
000 3
trans former
Ar row
Ġbuild ing
Node Container
ĠJ o
dev a
Ġdep ending
cul ar
cho ol
let ter
Ġjoin cond
ĠRes ult
Ext ra
super user
expand tab
shift width
unct uation
cod ings
Ren derer
wri tten
colour s
CLU DE
ä¿¡ æģ¯
Ġite ritems
assertQuery setEqual
; \
A K
B ouquet
B ucket
C md
D rive
F ragment
T cl
T wo
c ross
n op
ã ģ
Ġf requency
Ġp print
Ġn umeric
Ġs s
def inition
co verage
get ter
vi le
ĠS ave
ĠS parse
ment Error
ĠA M
ĠA ction
ĠC LA
ĠP ackage
ĠM et
Ġget opt
Ġpar a
temp erature
comp ressed
Ġ4 5
Ġfunction ality
cor pus
check out
20 48
Ġli kely
Ġexp onent
ne utron
TR ANS
mon ospace
connect or
ĠSet up
can not
du ces
hash es
He ight
graph y
Ġman ually
Ġnorm alized
ĠKey word
Ġdiffe ren
Ġiniti alization
Ġclo ud
Ġchannel s
ĠSe arch
PY THON
Ġoccur s
Ġassign ment
Ġsig ma
Ġcomple ted
RES ULT
Ġmar ked
Ġcandi date
Ġpie ces
å¹ ³
struc ted
ç® Ĺ
) |
> """)
A WS
C ar
C OR
G it
S afe
b ed
d ue
w ild
Ġ ĊĊĠĠĠ
Ġc inder
en s
Ġf our
Ġre store
Ġp n
Ġin line
ec ome
Ġw heel
op ener
Ġ1 0000
tr unk
ĠS um
ĠS ign
to k
ĠL ay
ĠF rame
Ġco st
In clude
Ġme mo
Ġpro x
ĠM in
Ġun ion
Ġun changed
py c
ĠB e
jo urnal
Ġwe ak
min us
pen ame
Ġmo ved
lit ch
Ġla zy
RO W
20 22
22 6
reg istered
ĠQ ueue
=[ ('
Ġformat ting
Ġinter section
LO B
Item Id
ĠURL s
67 29
BU ILD
Reg istry
CC ESS
include s
Ġsm aller
Seq Matrix
Pl atform
bi as
soft tabstop
Ġissue s
Ġhome assistant
Lin ked
Ascii Trace
("" )
perform ance
æĢ ģ
nsup ported
Alter Field
strp time
ĠEnforce mentError
1 10
= """
? \
[ \
c lock
p ot
p laces
v an
y ml
ģ æ
ti s
ar ily
Ġc ar
Ġp as
ge tenv
Ġo gr
ate ver
ĠT ake
ĠT imer
Ġh old
file names
to c
ĠF A
reate d
ry pt
ĠG tk
Con v
Ġra tio
EN V
Ġsub s
cal culate
Ġapp lies
22 7
ite cture
To One
16 0
Se lenium
comm unity
Ver tex
ĠIS O
Ġret val
cen tage
Frame s
Ġte ll
TEST FN
Ġreal m
Ġseri alize
Exec OrderActionField
tran spose
Ġsm art
ĠAs sert
'+ ',
bi an
Ġdat as
CHE MA
Ġattach ment
bd ry
Ġcat alog
multip ly
StockDisposal ActionField
smart indent
allen ge
parametri ze
' #
2 32
E val
J son
M ASK
R ST
S ITE
T OKEN
_ ]
d y
e fs
v v
re quested
Ġ= ========
Ġc are
en e
Ġre ct
ame nt
Ġm ocked
un ce
ad apter
one y
et ry
ĠS SL
ĠC opy
file no
ĠP lace
fo ot
len d
Ġpro duce
ag tail
"] [
Ġos v
.. .")
sub s
den tical
Ġpre serve
Set s
gra ms
ron tend
check er
CH AR
Ġj ava
Add r
Ġhttp lib
ĠCh ar
Ġop ener
ĠFor mat
web driver
Ġcr ash
Cur rency
æľ Ģ
Ġdebug ging
Open AccountField
Ġlook s
BO OK
ĠRa dio
redirect s
Ġsym link
ĠAl low
come s
Ġinvo ked
ceed s
Cancel AccountField
PK G
Serial Field
ĠAUTH ORS
RESP ON
ĠCal culate
' (
* '
= ",
P e
P ag
R pc
b ee
c ule
c rc
h es
h orizontal
t body
u ent
Ġ layers
th row
le nt
as n
as sets
Ġin ference
lo sses
Ġb r
it al
pa per
'] "})
Ġg ather
Ġde li
lin space
ĠP L
po ses
ig s
ĠO WNER
ĠM AT
Ġma king
Ġpar allel
ener gy
ali te
Ch art
Ġtry ing
ĠIn stall
ne ighbor
Ġstart Tag
Ġz info
PO INTER
prefix es
Ar ticle
By Name
Ġoper and
Ġexec utor
sa mp
Ġ200 7
('/ ',
Default Position
Ġhandle s
non ce
ĠCreate s
diff s
Ġman age
Conn ect
Ġsplit s
Ġinclu sion
bind ings
some thing
ĠQgs Vector
ĠOr deredDict
ĠBy tes
Ġ---------------------------------------------------------------- -------------
ĠCho ice
Ġleg acy
ĠSta tic
LANG U
erry py
2949 6729
* ',
- ',
; ')
> ).
A VE
I dentifier
N I
P ublic
P ush
U UID
d temp
f ront
f requency
i map
m ixed
s ans
s olve
æ ±
al ready
Ġc p
Ġc ss
Ġf lavor
Ġre use
Ġp cs
Ġs quare
Ġt xt
Ġthe mes
Ġm u
con fir
op o
(" _
(" {
Ġdi sp
ag ers
est imators
Ġget ting
pre tty
ms vs
log its
Ch rome
Ex pr
no bs
Ġlog ged
Co unter
Ġno tification
parse DOM
ĠV ector
Ġcode s
Ġpl us
AC Y
ĠDe le
Ġag greg
Ġpri mitive
gener ated
--- \
fl atten
cap tion
hi er
Ġdec la
ä¸ ļ
Lock Field
Ġqui et
inclu ded
eng ali
**************************************************************** ********
B OT
D R
S ection
S CHEMA
g zip
g gregate
h ic
å Ĩ
Ġ zeros
al so
er iv
Ġc nt
Ġc ard
at ory
Ġf aster
Ġp ending
Ġs ol
Ġs olution
li fecycle
ke h
ĠS im
cl usters
], [
lin alg
Ġdi git
per cent
IN VALID
ĠM ay
ĠM anager
ĠN UM
Con ditional
CT RL
om aly
EN TER
Ġpre cedence
CThostFtdc Instrument
Ġper formed
Ġli sted
Ġ`` '
Ġgener ation
over write
Ġfollow s
Info Field
")) .
Ġexten d
FA KE
oper ators
Ġdiffe rence
gest ion
æľ ¬
Ġobtain ing
Ġkeep dims
ĊĠĠĠĠĠĠĠĠĠĠĠĠĠĠĠĠĠĠĠĠĠĠĠĠĠĠĠĠĠĠĠĠĠĠĠĠĠĠĠĠĠĠĠĠĠĠĠĠĠĠĠĠ ĠĠ
AA AA
Exp ression
1234 56789
ĠOr der
expand user
FR AME
Ġsl ug
čĊĠĠĠĠĠĠĠĠ čĊĠĠĠĠĠĠĠ
Ġcm ds
togg le
RET URN
ĠCur rent
ĠLin ux
ASC II
! ')
' ')
> """
B IN
G PL
M AC
[ [
l ator
n os
o spf
v or
w ar
° ´
or al
ti ally
Ġre load
Ġre versed
Ġp b
Ġin tended
Ġin dependent
Ġ( `
si mul
ul ari
ĠT oken
Ġh ad
la titude
Ġcon ditional
ĠC ED
res olution
ĠP AT
Ġpro per
app lic
ip d
ĠN ON
Ġle af
ĠĠĠĠĠĠĠĠĠĠĠĠĠĠĠĠ ĠĠĠĠ
sub type
ou ch
ust omer
Ġ4 3
size of
cal Info
config ured
inter pol
Ġcomp iled
map ped
IL LA
struct ures
Ġindex ing
ak er
ak ing
vo ice
Ġtext wrap
IP Address
Content Type
go ing
Ġframe work
rag ments
Sh ell
NO WN
Per form
edge s
MO DEL
Ġsection s
Ġposition al
iver sity
ĠLE G
analy zer
Feed back
Ġplay list
Ġinvo ke
cut s
dup licate
ele ms
mav proxy
Ġgiv es
Ġsever al
æµ ģæ
ĠCED ILLA
æµģæ °´
$ ",
M arker
d ry
d td
g re
h l
i et
i ris
j ection
x s
} ))
se titem
de le
le ast
al location
Ġc apture
Ġ" ''
Ġp ys
Ġin serted
co variance
Ġm ag
ex tent
Ġ( ('
() .__
ad just
Ġd r
Ġh yper
ub y
Ġe g
pro be
pro curement
ig nored
Ġas set
ff e
AT OM
01 3
RE Q
info s
valid ator
cur ve
fic ial
Ġdo ing
CThostFtdc MarketData
Ġsi zes
ĠV M
22 2
Ġdict s
To ols
ĠTest ing
Time stamp
cre ator
fact ories
ĠDe precationWarning
Ġimp orter
27 241
range s
number Of
Ġlimit s
Ġlimit ation
ati s
Ġnetwork s
ĠKey boardInterrupt
Ġlin ux
Int ToType
Ġfoo ter
SET T
tool bar
lim iter
Bad ValueError
ANS IBLE
Ġast roid
Ne utron
Ġbuiltin s
Fin ished
pagin ation
presen ted
METHO D
å¸Ĳ åı·
% }
. ])
/ ")
2 14
3 15
; ,
B ound
D AG
G IS
I ds
L AN
N ET
P ix
S td
b t
f am
q tile
s ho
s chemas
v r
v anced
y ou
Ġ ke
Ġc flags
Ġc ategories
at o
as is
Ġ" *
Ġ" ".
mp a
Ġa ws
ser tions
si lent
up pet
set attr
", \
00 11
ĠS witch
ve st
ĠA p
ĠC L
Ġe a
pro v
Re quires
ĠP a
ĠP e
ĠE nd
01 4
Ġ3 00
jo hn
own ed
com ma
UT C
inter section
Ġtra cker
MP TY
ĠCON NECTION
seri alization
email s
Ġsu itable
Fa ce
Ġhere by
ale s
Ġcho sen
fl ash
HTTP Request
gorith ms
Ġgra mmar
ĠPy Qt
MS Build
USER NAME
ĠLo okup
ĠTh at
ĠSy ntaxError
tod o
velop ers
Redirect s
ĠSE LECT
ĠLa TeX
Av ailable
idi ty
, **
2 15
; ;
A tom
C V
G CC
P ack
S c
] ["
e th
g d
h it
j ump
j inja
m ongo
p d
q os
r split
s ug
v ectors
w ind
x C
x o
Ã §
ç ½
Ġ little
de veloper
le cule
al loc
ĊĠĠĠĠĠĠĠĠĠĠĠĠ ĊĠĠĠ
Ġre name
Ġs r
Ġb ecome
and o
(' //
it ute
con ditions
con sole
Ġcon crete
sp ike
ĠI ssue
ĠF l
Ġco eff
po sitions
po licies
ĠD own
ty p
ĠO PT
ĠM AC
Ġun iform
ĠE asy
Ġ3 3
dd y
ĠB oo
og gle
20 2
sk b
Ġtoken ize
Ġreg istration
Ġpl ural
char acter
ALL OW
Ġimp licit
Tag ged
Ġback up
77 77
parser s
abc d
Service Reference
And Verify
ĠID s
.* )
moved In
Update s
year s
Ġsen der
Ġchunk s
Access or
Rel ated
Write Ln
Ġfi xture
Ġdistance s
ograph y
expi red
hy per
ĠMoved Attribute
calcul ator
ĠContain er
ilo meter
B its
C lause
C FLAGS
F G
L exer
T ran
b oto
g inal
g cd
i j
k ubernetes
m ad
m argin
t ml
u tive
č Ċĉĉĉ
on ical
al let
Ġc as
Ġc red
Ġre presented
Ġn x
Ġin cre
pe ers
Ġd c
is ten
con crete
Ġh alf
ĠS u
ĠS end
cl assi
Ġ_ (
(" [
pro cesses
str ategy
he at
Re al
Re mote
In formation
add Test
code c
ten tion
IT ION
Ġget Url
Ġat tached
Ġle ad
Ch ecked
Ex ists
Ġsub mit
Ġpo sitions
Ġcontext lib
av ailability
22 8
response s
men ian
Base Reg
14 0
make One
Tag Name
Ġauth ors
top ology
Al chemy
Ġman agement
EL L
play list
gl ance
Change AccountField
Ġstack level
Edit or
Sec ure
Ġkw arg
Ġedge s
Ð¾ Ð
Ġhour s
Conf lict
NAMES PACE
HelperFor Ipv
Small IntegerField
ĠAbout Info
ĠQgsVector Layer
æµģæ°´ åı·
) ``
2 34
2 17
C ard
D ST
F EX
H AS
M ath
R UL
T CP
U ES
] )))
k ub
m v
o site
p n
s ink
me sh
ar ti
Ġre fer
Ġs low
un ked
Ġd ce
one d
et ree
end ant
ĠP h
sc ra
sc ipy
add resses
ĠM apping
sh ake
pre fs
Ġal arm
os ync
// %
Ġnew ly
AN Y
Ġ4 29496729
uti ful
context manager
ĠIn itial
Ke ep
Ġ\ "
Ġper mit
Di vision
ĠCon struct
NU MB
200 4
df s
rag ana
clo sing
ĠMe dia
ĊĠĠĠĠĠĠĠĠĠĠĠĠĠĠĠĠĠĠĠĠĠĠĠĠĠĠĠĠĠĠĠĠĠĠĠĠĠĠĠĠĠĠĠĠĠĠĠĠĠĠĠĠ ĠĠĠĠ
ĊĠĠĠĠĠĠĠĠĠĠĠĠĠĠĠĠĠĠĠĠĠĠĠĠĠĠĠĠĠĠĠĠĠĠĠĠĠĠĠĠĠĠĠĠĠĠĠĠĠĠĠĠ ĠĠĠ
CThostFtdcQry Exchange
Ġgr d
Enable Ascii
è´ ¹
Ġvocab ulary
ĠLoc al
Ġide a
ĠCor p
Ġposix path
é¢ Ŀ
1 32
1 34
A mount
C lo
C ENT
E nsure
F it
G INE
T IM
W ITH
b am
f allback
f rac
g st
h Slider
l li
m igrate
w p
Ġ ERROR
or a
Ġp ul
el come
def late
co ord
Ġ( {
() `
Ġd n
Ġd raft
pa use
con da
Ġh ack
)) ))
ĠF in
ĠF rom
qual name
mo zilla
ĠM on
.. .,
ali ve
ĠH elper
sor ship
ING EMENT
Ġvi sited
ep isode
Ġdistribu te
AC CESS
Ġextra cted
down loaded
Ġnorm ally
hi ragana
author ized
seq s
let ters
SER VICE
BO ARD
Ġiniti alized
Ġmember ship
iver sal
ĠAd ditional
'" },
Ġevalu ation
Cl uster
Has Field
ĠTree ItemId
Ġanaly sis
FR INGEMENT
So up
dimen sions
Limit Posi
gradient s
WA IT
ĠDEV ICE
ultin omial
Tcl Error
' ")
C ube
D N
G lobal
I RED
L IMIT
M esh
R S
T S
c art
g anization
i el
i fier
l ms
st and
sel ine
al gs
Ġi dent
Ġi ps
Ġf ly
ro py
Ġ" :
Ġre ceiv
Ġp q
Ġs co
co pg
Ġm c
Ġw i
'] }
end ants
Ġme ters
ance stor
Ġpro v
Ġpro cesses
mo s
=" \
Ġun defined
ten ants
import s
dir ty
ĠB R
Ġwh y
qui ck
ca y
Name space
back ward
da e
ime n
pi cture
Par tial
client s
Ġli ve
List Item
Ġread s
200 9
ESS ION
HTTP Error
... '
################################################################ ################################
NO W
Comp onent
Lay ers
GL int
PRO JECT
ĠDE AL
Ġclo sing
ĠTo ol
wrap ped
Ġsen se
Ġdetermin ed
FORMAT S
chunk s
Ġpur poses
Ġlate x
coeff s
Ġcalcul ated
Man ifest
DES CRIPT
Ġdefer red
>` _
ĠFe ed
MIS S
Photo Verification
Place holder
Ġ========================================================================= =====
- \
: &
M T
R Y
S UPPORT
V R
^ ^
b n
d pid
f an
g rate
k g
k in
m ut
p db
w all
Å Ĥ
è ®
Ġ Ð
Ġc la
at tempt
en rollment
Ġf ault
Ġth us
Ġre ceiver
Ġp db
Ġo tu
fi dence
Ġw f
Ġto day
__ ),
is c
00 04
Ġex clusive
cl assification
Ġe ff
po inter
ĠE stimator
Ġout side
read lines
RE ES
net mask
ST RE
pp ings
new s
ĠIn itialize
Ġ5 6
Par ked
20 3
ref und
content type
open ssl
ĠCon tact
000 8
mt u
Ġprocess or
FF ER
Ġload s
auto escape
imp orter
Ġtri ple
Ad just
SH A
language s
Ġsort ing
Function s
Ġoverride s
Ġpi cture
anti ze
Web Driver
ĠTh read
You Tube
vec s
named tuple
NAM atrix
MB OL
Sup ported
Byte Size
Ġes pec
Jo in
LIB R
authentic ated
vid ing
Ġgiv ing
Ġdiag no
OPT IONS
å¯Ĩ çłģ
LOB AL
RESPON SE
& #
( %(
. +?
3 16
: <
S ur
_ ("
c xx
c rawler
i ties
i mplementation
k nobs
l arge
m gr
p romote
s ound
v acy
w pt
¶ æĢģ
ç Ĭ
Ġ ĊĠĠĠĠĠĠĠĠĠĠĠĠĠĠĠ
in structor
al ist
Ġc ut
Ġf req
Ġre d
Ġs dk
ri cs
() '
() ``
un quote
pa gate
ed u
la cing
Ġcon sider
ĠC lear
ction aries
ĠP assword
Error s
In itialize
IN FRINGEMENT
ĠO ri
Ġl d
fa vor
Ġat ol
ther net
Ġpre dictions
inter vals
Ra ised
pos sible
Ġad just
exec utor
Ġnet loc
Tag List
ud nn
ĠZ ip
web page
dist inct
An sible
ĠAt tributes
full name
Invalid Operation
dat um
byte code
Parse Error
Met rics
############################################################################## #
Ġactiv ation
Import ance
Ġcomb ined
Ren der
Ġyear s
ĠInte gral
decor ator
Ġpag ure
Ġplan e
moo th
QUE UE
cogn ized
ĠSpa tial
Ġpor tions
spon der
memo ized
Ġguar ante
targ obj
iet f
ĠBoo lean
çĬ ¶æĢģ
C ATION
D T
G uess
N G
R ON
S hould
b old
b ib
m f
m ass
m utable
r unc
v in
w as
{ "
Ġ ################################################################
se quent
re use
re verification
or ient
de sk
al o
Ġi ra
Ġ' @
Ġ' </
Ġf id
Ġf all
Ġf ront
Ġre spec
Ġs atis
Ġin teractive
Ġb ra
Ġ( ))
Ġd ry
Ġto po
set Enabled
con sistent
ma ppings
Ġh ier
Ġst ock
ĠF loat
Ġdi alect
he st
ĠD ump
Ġas k
Ġas sertion
app engine
ĠG raph
ĠM ust
ON LY
Ġos lo
log out
cur dir
Ġpo licies
Ġcol width
20 7
22 3
fil led
Res p
Ġ. /
my prop
Ġad dition
Ġform set
sw f
Ġsee k
Ġlib cloud
Ġexten ds
ĠSet s
Ġqu oted
setup tools
Sh ift
tuple s
imp lied
cry ption
TO OL
Comm it
NE W
ĠMy Obj
FIL TER
Ġmat rices
Ġactiv ate
align ment
Poly gon
ATURE S
ĠCH AR
Conver ter
æ± Ĥ
ĠLEG ACY
ç½ ®
A W
B egin
C W
I ssue
L ost
M od
O G
R M
h h
i ally
l and
t lement
v ac
z h
æ ŀ
on ec
Ġf amily
ce di
Ġp p
Ġt cp
Ġm irror
Ġ( \
pe Graph
ke s
sp ot
ĠF ont
key word
out ing
ĠD if
ĠD EL
mat mul
IN Y
ip pet
Ġma jor
uth ook
Test Base
no tifications
ĠH ALF
format ter
ĠIn venio
ject or
Ġcomp ression
base s
Ġper f
Ġid set
ich ael
reg istration
ite ration
fil tered
000 2
Case Importance
30 5
ci b
Ġ8 7
For ward
order s
Ġ-- >
Ġback ends
Tra its
OL ON
Run timeError
čĊč ĊĠĠĠĠĠ
vate Key
Ġmulti output
Ġimplement ations
Start Tag
End Tag
ĠDo main
IF Y
Ġdat um
ĠGeo QuerySet
Ġrepe ated
ĠMan age
Ġhappen s
Ġrot ation
å¤ ´
ino tify
([^ "]
coun ters
dh cp
Temporary File
ĠGE OS
PRIV ATE
;, &
Secure PhotoVerification
' ``
* \
/ >
3 11
: #
A E
B inder
C om
E OF
H IT
S cale
S lope
c gi
g iven
k appa
o ve
o tify
r ant
s an
| '
Ã ¶
ç İ
in spect
de cision
Ġ" ^
Ġs id
Ġt c
Ġt tk
Ġo me
ra vel
(' [
(' ^
ĠT ABLE
Ġcon firm
[' _
am s
am ble
Ġde pendent
Ġde grees
que e
ĠP EP
Ġlo sses
Ġch errypy
Ġl u
CT YPE
Ġraise it
log file
Ġpre diction
com men
max db
run k
cor ded
DE VICE
Ġ\ '
pl oration
we bsocket
To String
30 2
ci o
By TagName
Ġroot s
Event Binder
]] ],
Ġ'- '
Ġinst allation
ĠNOT ICE
NO DE
Row s
BU FFER
Ġselect or
Py EventBinder
Ġreference d
Ġconver gence
Point s
Ġwho m
FIL ENAME
Elements ByTagName
cnt rl
jar ati
ĠDummy JobManager
FaON FaON
FaON FaNN
FaNN FaNN
FaOOFa ON
FaOOFa OO
disc ussion
ĠCho re
å¸ ģ
Ġinherit ance
PARAM S
Branch ID
ĠStop Iteration
aggreg ates
Mul ticast
éĶ Ļ
è¯· æ±Ĥ
ulari zation
Ġ"'' ",
D rop
D AY
L ABEL
P END
S RC
T MP
W error
c sel
f ort
f ac
k lass
r find
s quared
x html
â Ģ
re size
re versed
te e
th ai
Ġi tr
Ġc um
Ġre sidual
Ġp andas
ge sted
un til
ab i
ĠT uple
Ġ0 5
et ched
Ġ1 27
ĠS ingle
ap er
par allel
ĠC ritical
am i
ĠL et
ĠF raction
key stone
ĠP IL
ig hest
Ġ: ]
Ġme sh
mode s
ist Ex
ĠU sage
EN C
comp ose
:// %
Ġ[' <
ĠV PC
04 1
=[ (
ĠCon trol
DI O
Path s
Tra it
Ġsign ed
Ġfloat ing
book mark
Ġsel l
Message Box
Tree Node
Ġph oto
Ġwait ing
Ġfetch es
car on
Match es
leg end
Ġden om
Exten sions
oted ge
scal ing
Ġpol l
Ġlisten ers
XXXX XXXX
ĠSpec ify
EPS G
çĶ¨æĪ· ä»£çłģ
åľ °
Ġregard ing
Tax on
diere sis
ĠCLA IM
RUL istEx
STRE AM
B reak
B rowser
C MP
D en
H ome
P op
S tri
T ON
W O
b ill
b lob
j e
n arrow
n ulls
r ust
w ers
w agtail
z ap
Ñ ı
Ċ ĊĠĠĠĠĠĠ
Ġ ;
Ġ Ċ
re lay
or ical
ti ck
an tial
en roll
Ġp od
Ġa udio
Ġa ffinity
Ġm ix
Ġm appings
"" ,
Ġ( .
un g
un defined
ot s
__ '
qu eries
assert Redirects
Ġh b
Ġh s
Ġh int
Ġcon sist
par m
Ġg test
Ġco s
fo ur
ff ected
ĠG ROUP
ĠE OF
Ġx code
ĠRe port
EN GINE
Set Input
Set tlement
De precationWarning
Ġ/ =
man aged
ach es
open ed
match Field
04 8
Ġvi sibility
ld ap
dit or
Text Ctrl
exten ded
TR A
Ar n
17 4
ĠUn der
13 8
Model Form
direct ories
Ġab c
Content s
QU ERY
86 01
til t
URL CONF
ĠPro file
norm alization
Ġcom ma
Result s
BO SE
ific ant
ĠSQL ite
Multi Dict
cm ds
Ġhigh light
Has Traits
Ġfi xtures
mapper s
Min imum
Ġ'* '
Ġanaly zer
(', ')
~~~~~~~~ ~~~~~~~~
inclu sion
capt ure
Ġtyp ically
article s
Zip File
cel ls
æķ° éĩı
ĠStr uct
Ġtw ice
ĠNON INFRINGEMENT
NUMB ER
ĠDEAL INGS
" )))
2 16
: .
= (-
J S
L M
L T
L et
M so
R GB
b at
e very
p ci
p assed
s ol
t wisted
y our
Ġ ĉ
Ġ ticket
Ġ qualified
in ated
re ceiver
th ro
Ġ' !
Ġc ron
Ġre ports
Ġs olve
co pi
Ġm i
ch i
id ad
ma ker
Ġh ar
vi ded
Ġ{ \
Ġg c
Ġdi v
end ly
Re vision
Ġco mbo
Ġbe havi
ĠD AG
mo bile
01 1
ID s
Ġ4 1
LE V
inter p
Ġconfig s
RO P
AM PLE
Ġopen ed
trans forms
Ġinter pol
Ġver tical
Ġtrans lations
ĠDe vice
sup p
21 10
Frame work
Ġresp on
dist utils
Ġiter ate
PAT TERN
Mock Value
è¯ ¯
à¤ ¾
Read y
Ġrec ipient
[^ \
Import Error
rank lin
0101 0101
Sup port
Ġcontrib utor
serv ation
ĠContent Type
atom ic
Ġsubst antial
Produc er
anger ous
COUR SE
Ġmonkey Script
dae mon
éĶĻ è¯¯
Mso Normal
) ")),
/ #
; </
= %(
C he
G iven
H ASH
H tml
J ava
R G
T ex
b box
f raction
f onts
h ot
i pa
i mplemented
l ance
p in
q web
w rong
å °
in ge
on or
st ored
de coding
al a
Ġi i
Ġf ar
ame teri
Ġb z
Ġm time
urn ished
ad der
pa ces
ĠT iny
par sing
ta iled
Ġg st
ĠF ail
Ġdi ctionaries
ĠP open
ĠG ui
ĠM issing
Ġv ec
AT FORM
Ġx y
Ġat tempts
.. ."
EN S
ph oto
ca de
ĠR etrieve
no unce
state ments
Pro gress
gra ce
Get Item
11 9
Ġ6 5
Ġmay be
Ġ] ),
Ġread line
For bidden
200 5
queue s
Config Parser
Out Field
ĠAr ray
Lo gs
Dis k
ĠCol lection
thread ing
With out
aa a
Ġhow ever
Pick le
Ġmacro op
NotFound Error
heb ang
ADD RESS
Ġleg end
ĠSp lit
Struct ure
ĠSAP Message
Ġhist o
FutureSign OutField
Ġstub s
Ori gin
identi fiers
remain ing
econ fig
assertSerialized Equal
cedi l
LEV EL
+ '.
2 25
B UT
D uration
F ore
F ront
H D
H Box
J OB
N EL
P ARE
Q Q
S F
a irflow
a ffinity
d jang
e ast
g w
g test
g hi
i ence
n eeded
u di
w ater
x l
æ Ń
ï ¼
Ġ ur
se nsor
in verse
de dent
al formed
ar ound
Ġre lay
ce il
Ġt v
Ġa a
Ġa mi
Ġm id
Ġm ul
get ElementsByTagName
(' '.
Ġis subclass
pa que
up ic
ĠT hen
od bc
Ġ1 92
'] ).
vi sibility
ĠS ET
ap ters
to ur
Ġtest vol
Ġco variance
In iti
]) [
Ġch anging
ĠO O
ĠG it
ĠM IDDLEWARE
Ċĉĉ ĠĠĠ
Ġl n
Ġthis own
pre ferences
py plot
Ġ` [
RE VIEW
ĠB ut
jo m
Test Runner
ĠRe ference
Ġcl assification
Ġmode s
Ġsub license
Ġpo tential
Ġ[' _
IG NO
Ġbo ard
be am
Ġz lib
19 8
post s
ĠUn ix
Ġ', '.
Ġq gis
Ġfloat s
su er
number s
Ġav g
Sh ared
... )
Ġsystem s
mac ros
dar win
Ġ$ {
æī ĭ
Ġcli p
ĠSQL Alchemy
team s
Ġep silon
ĠNe ed
SK IP
Ġsl ash
swig register
mu k
#---------------------------------------------------------------- -----------
prox ies
Comb ActionField
Cons umer
scen ario
å¼ Ģ
ĠSAP Param
SU CCESS
Ġdash board
ĠCa che
opro ject
************************************************************************ ***
3 14
6 55
; ',
I AS
R PC
S lice
] ==
b dist
d on
h param
p as
r ink
ä ¹
Ġ' ^
at tempts
Ġf ee
ro uting
Ġre visions
ur muk
Ġt orrent
Ġin c
Ġa ffect
fi re
co v
Ġd rive
__ ('
it ation
ol l
la m
ĠS ection
sp y
xt ante
Ġde sign
=' .
Ġse mi
Ġse gments
add on
Ġon error
Ġl hs
Ġal ph
ĠB in
ĠĠĠĠĠĠĠĠĠĠĠĠĠĠĠĠ ĠĠĠ
work space
Ġro utes
12 4
pl ug
ĠV olume
ĠEx ten
22 9
iter values
doc id
Mode ls
IM AGE
Ġsp an
ĠCh annel
Not Implemented
cr m
aliz es
56 78
13 01
Ġback ward
Tra in
Al t
play book
ĠEn gine
Des c
dat as
collect ors
mk dtemp
CP P
Ġauthentic ated
ĠSe quence
Ġauthor ized
èµĦ éĩĳ
Sup er
Cre ation
Next Token
forward ing
ĠAUTH OR
åĬ ¡
Ġscen ario
Dep th
associ ated
ĠCer tificate
Ġdecl ar
çİ ĩ
djang oproject
urmuk hi
' ',
A ST
D Y
H i
K nown
P layer
P AGE
S PEC
S pacing
T here
b link
h op
i mmutable
Å Ħ
å Ľ
é Ģ
st ick
en crypted
Ġ" $
Ġp wd
Ġs rid
li fe
Ġ( ),
pa y
con cept
od on
Ġ1 20
ĠS EC
ĠS UPERUSER
ĠS DK
ĠC SR
Ġe m
ĠF L
Re lease
=' ')
Ġse xtante
Ġch dir
ac curacy
ĠG UI
:: /
ĠE ntry
AT ES
Ġstr ategy
ĠW ait
Ġat n
ĠB ecause
ir c
ir q
qui et
ĠRe striction
EN ER
den y
10 4
Ġmo ves
new line
De v
Ġk ill
Ġcur ve
Ġcur rency
20 8
av or
AS eq
Di rection
Ġend for
sk y
24 0
pos sibly
ĠCon sole
-------------------------------- ----------------
[: ],
33 7
ĠAn aly
mark down
mon ic
Object Name
Ġpri ce
now ait
ĠSet tings
Ġ200 5
Attribute Error
Th reshold
head ing
={ })
Ġmulti processing
Ġ'$ (
FORM S
Ġplace d
math ml
Mo ve
ĠDi ctionary
Max imum
æĪ Ĳ
att ues
distance s
Sync KeyField
ĠTree Estimator
Ġpur pose
Ġattach ments
Inf Param
Ġsur vey
ĠDate Time
Ġedi table
Poly Data
capt cha
Ġinterpre ted
ĠTe am
ĠRO OT
Ġlex er
resolver s
sca ler
IPS IS
assertRaisesRegex p
Ġol der
Pag inated
Paginated List
5 000
F LO
F ACE
G LE
H igh
H idden
O b
O ID
R outing
V B
b w
g reater
i co
m irror
s un
å ī
å ķ
st ors
ar p
ar s
Ġ' '))
Ġf urnished
ur sel
Ġo id
Ġa i
Ġa zure
ex clusive
Ġw alk
Ġw ire
si c
ad m
(' \\
Ġd y
ĠT YPE
assert Valid
Ġst ores
ĠS O
ĠS afe
ap s
um able
sp rites
Ġ+ ----------------
to uch
Ġel apsed
ĠP RE
ĠP UT
Ġr and
Ġr gba
Ġas cii
ff t
Ġres olution
ĠO G
ac rule
ten ces
01 5
Ġ* ',
Ġ3 02
AL Y
ĠĠĠĠĠĠĠĠĠĠĠĠĠĠĠĠ ĠĠĠĠĠĠĠ
load ing
ĠH E
ĠH VAC
comp ression
Ġpre p
Ġpre ference
Ġsub domain
ĠIn sert
Ġac curacy
Ġint s
pl ane
RO UND
ĠV irtual
cs r
pri me
Ġ6 3
ak s
Ġup dating
ĉĉ ĉ
Text Input
mark up
pop up
Index Error
ĠPro tocol
ĠVer ification
cen tered
Reg ion
Reg ressor
Ġph Key
Ġmulti part
We ights
Ġcer tificates
roll back
PRO PER
Ġvari ance
Ġconver ter
ber t
ret ch
Ġinte gral
activ ated
ACT ER
second ary
ĠSP RL
Quote ActionField
big end
rup ted
Ġcons umed
Ġqui ck
FaOOFa NN
Ġbegin ning
UST OM
ĠLine ar
recur sive
ĠĠĠĠĠĠĠĠĠĠĠĠĠĠĠĠĠĠĠĠĠĠĠĠĠĠĠĠĠĠĠĠĠĠĠĠĠĠĠĠĠĠĠĠĠĠĠĠĠĠĠĠĠĠĠĠĠĠĠĠĠĠĠĠ ĠĠĠĠĠĠĠĠ
optim ize
Mis match
gri ty
ĠBytes IO
hic le
utiful Soup
ĠBR ACKET
Ġespec ially
åķ Ĩ
/ ?
2 13
O ffer
S IM
S UPERUSER
[ ]
b one
f loor
g let
l b
m aries
o v
r q
w an
x n
in spector
te en
le ave
ti alite
an onymous
Ġc api
Ġf o
Ġre stri
Ġs ug
Ġt reated
Ġin crement
Ġthe ano
Ġb a
Ġb roken
Ġw ish
Ġw arehouse
ch apter
id f
Ġto lerance
pa st
ype s
con ditional
ĠC LI
** -
ance stors
art z
ĠM atch
ĠM atrix
Ġv ectors
Ġset ter
Ġen crypted
bo o
AR M
che m
min ute
Ġ@ @
Ġpre c
ich r
ach able
IP V
15 9
Ac tivity
aliz ing
ĠDe termine
ĠUn iversity
XX X
Ġwri tes
du ctions
round ing
44 8
graph ics
49 7
cap ing
real ms
Reg ression
annot ation
enter prise
tool chain
çĶ ³
Ġsym links
Ġowner ship
ĠSystem Exit
embed ded
comb ine
ĠDist ribution
Ġeffect s
Te am
æĿ ĥ
ä¸ļ åĬ¡
$ '
B us
C LO
D raw
F OLDER
L isten
M EM
P lot
U X
b roadcast
g win
s nap
u ist
x fail
Ä ±
Ġ que
te lo
or ator
or acle
st s
th ost
le y
me ans
as ing
Ġn an
Ġo dl
Ġin car
ate Field
di vide
set point
Ġ0 2110
ma ch
Ġcon structed
ĠS ite
um ing
Ġg zip
ĠL INE
ĠF ranklin
ĠM IN
Ġon to
Con structor
RE AK
AL IGN
ĠU I
ĠU TC
wa ve
ans wers
sub sets
ĠRe set
ĠRe place
Ġpre dicate
Ġro ll
start up
Ġtime span
Set Item
Ġ5 12
django apps
ĠV isual
cs ma
Ġne ighbors
uto ff
Res olver
feren tial
List s
my bucket
comm its
ĠGener ated
ci tes
raw transaction
User s
User name
ven tion
Ġfail ures
mer ce
ĠAdd ing
ank s
PRE C
fetch es
mbo lic
Change s
question s
FO UND
Ġet ag
PRO TO
Host Key
mk temp
activ ation
('. ',
Web Socket
database s
cir c
Ġtrack ing
Ġhook env
gui de
Ġappear s
Ġsur face
Ġstrip ped
Jo hn
Ġdele ting
Ġhes sians
ĠMark up
utili zation
AUT O
Processing Parameter
STO RE
appro ved
Ġretrie ved
liz ard
Ġrobot telo
Sl ug
ĠCorp oration
ursel ike
% %
) [-
B Y
C enter
D A
G D
G u
H ist
O VER
T ermin
Y ES
b rid
b rew
b enchmark
c udnn
g ds
k r
s rs
t rees
Ã £
Ð º
Ġ licenses
Ġ Validator
in ference
in herits
te sian
or ker
st uff
de termine
Ġc ent
Ġc aching
as m
as se
Ġn l
Ġs v
ame l
ut ations
Ġb asis
un signed
ad os
ĠT EXT
qu x
qu ares
et o
con sistency
assert Form
op ping
ap prox
par titions
ĠF ortran
Ġde ps
Ġde limiter
Re quirement
Ġpro cedure
Ġan ti
add ons
Ġ* ,
Ġle arning
col spec
ir cle
tribu tion
ĠRe movedIn
temp orary
Ġpre dict
Ġsub dir
Pro vides
Ġno tes
CThostFtdc Investor
CThostFtdc OptionInstr
sys vals
exp orter
24 2
List Box
Add s
Ġobj s
PO LIC
Ġopen stack
Ġinter mediate
Ġ8 6
HE AT
flow s
TE MP
pop ulate
Ġdep end
Al ready
sl t
skip If
Ġlocal s
Dis able
Ġhash es
Sub ject
Ġfull name
Ġsta ff
ĠName Error
GL uint
Loc ator
na cl
anti ate
Method s
lr u
Ġmean ing
analy tic
ĠAc cess
ĠDis k
sim ilar
Ġcs ma
sib ling
follow up
Ren ame
Argument Parser
authentic ate
authentic ation
Ġconstraint s
Del ta
coun tered
Spin Box
BIT MAP
MAT ROSKA
Ġgain s
čĊĠĠĠĠ čĊĠĠĠ
LANGU AGE
Ġsco red
onec all
idad ao
BUT TON
! \
+ \
1 64
4 326
= ')
B Z
B SD
D b
F inal
G en
G ot
H I
T REES
V K
b p
c w
f ingerprint
g pl
h orted
o ul
s ched
x link
z ie
| |
Ñ ĥ
re dis
de compress
an alog
Ġi dentical
Ġ' >
Ġre ported
ce ipt
Ġa irflow
Ġm atter
ra cle
ot or
ad a
ad s
get pid
__ '):
ĠT ri
ver tex
Ġcon sistent
Ġcon trols
ĠA A
um l
to s
ĠL en
str path
Ġtest dir
=' \
In line
Ġme eting
ĠD NS
sc roll
Ġch rome
lic as
=" {
ĠM any
ĠN ZB
dir path
Con version
ĠRe ferences
min imum
Ġsub mission
Ġpo scar
spa m
Ġno ise
Ġ{} ).
IC S
ĠV B
Ġper ms
rc v
do cker
foo ter
loc ator
sta ur
Ġend s
"> '
=[ [
Ġ] ))
pr m
ĠCh rome
Ġsee ms
ĠSt orage
Ġsa mp
Ġtmp file
AND ARD
Ġaccount s
Ġfake s
Ġrender ing
Exec ute
00000000 00000000
medi an
FL AG
ĠSer i
=- =-
Ġsepar ated
private key
ev olution
Ġexpect s
analy tics
Ġlet ters
SO CK
REQU IRED
Trade Field
ADD R
OB JECT
Lin ux
StockDisposal Field
beat le
semb le
//// ////
ques ter
Ġty pename
ĠSto re
wild cards
ĠCHAR ACTER
ĠChore o
+ -
8 58
> '],
B ullet
H AL
P A
P AY
U til
V IS
V irtual
Y our
_ :
c amera
e os
e ven
e ye
g lyph
l hs
r sh
s ynchronize
t ling
t unnel
w id
§ è¡Į
å ĵ
Ġ Ã
ģ ä»ĵ
re tri
th rottle
Ġf rog
Ġ" {%
Ġre li
Ġre base
Ġre moving
Ġp in
Ġp list
Ġt up
Ġb ulk
Ġm x
ex v
un limited
and y
ab ling
ab ric
il de
set ObjectName
ĠT wo
Ġ0 1
Ġ""" ,
arg max
Ġcon struction
ĠS how
Ġe fficient
Ġde ci
key val
ĠP age
Ġme chanism
ĠD WORD
IN TEGER
ag ger
ĠO B
IT ER
Ġal t
Con tact
Ġ3 9
Ġ3 30
late r
ĠRe al
Ġ4 7
Ġro les
ĠIn cremental
Ġac cepted
ĠV SD
ĠX C
IS H
Ġcurrent Node
000 9
ĠIN T
Ġshow s
Ġtrans formation
DO UT
Ġclient s
Ġbuild s
Tra cker
description s
23 1
EX EC
ĠSoftware SecurePhotoVerification
36 8
Ġframe s
{} ".
View Middleware
Message s
Column Element
SP ACE
è¯ Ŀ
Start ing
ĠData set
PRO CESS
ĠOption Parser
Ġ12 34
ĠConfig Parser
æī §è¡Į
Ġmark down
ĠPer son
ĠPer form
ĠHttp Request
arm ing
Ġauthentic ate
Packet Metadata
Imp orter
Trading Day
expect ations
ä¸ Ń
Empty String
Ġproto buf
éĩĳ é¢Ŀ
FE ATURES
DEFIN ES
Ġ': '
wiki pedia
NetDevice Container
swig init
ĠCode c
BE GIN
high light
serv ations
ire fox
decor ators
Ġstati stic
Ġpixel s
srf ViewMiddleware
Ġdescrib ed
pag ation
æĮ ģä»ĵ
ç§ į
Neg ative
Fi xture
ouch er
AndVerify View
Division Error
Ġira st
commen ded
POLIC Y
åĵ ģ
+ =
. '),
3 86
4 01
B REAK
C apture
C lick
F ill
M ay
N ZB
T ABLE
W eek
Y es
c x
e u
g c
h its
l se
n ick
u ary
re ame
th umb
me asure
ti g
ti vi
an der
Ġ' ..
Ġc apt
Ġc rypt
Ġf c
Ġs ched
fi df
di g
Ġb c
Ġw all
ot a
(' (
ct c
set nc
ol a
vi al
vi ation
vi sited
Ġand ro
ĠC Make
file size
sp in
am ing
ĠF loor
pro files
pro ba
######## ##
ĠP oly
ĠD ial
Ġan chor
oc us
Ġy cm
sh aker
ren dered
ren derer
OR DER
Test Result
ca pacity
ĠH ash
Ġpre process
Ġsub set
Ġsub sequent
32 0
De serialize
12 9
inter cept
DE V
Ġ5 7
AP oly
we ak
doc string
loc ated
Ġj c
Ġj ump
Un ion
ĠIN TEGER
Ġread able
ĠGet ClassDefaultAttributes
Ġmodi fier
VER BOSE
QU ARE
_( ['
ĠPar ser
termin ate
He ad
Dis patcher
Count ry
fin es
Ġ"- //
ç» Ħ
Interface Container
ĠAuth entic
Ġ$ (
ULL ET
CP U
feed s
inf inity
ane ous
packet s
sn mp
Ġinvo ice
Trace Source
Ġcap tion
Argument Error
micro soft
ĠConn ect
Ġoptim ize
Pcap File
plat forms
bet ween
ĠBit map
ien cy
ĠAT TR
ToOne Field
eriv ed
mpa ign
æŀ Ħ
Ġbehavi our
ĠGui de
IGNO RE
Slug Field
setnc attr
APoly morphicStateSet
. /
2 99
4 03
; ",
? ")
A xis
B al
C M
G lance
H S
R etry
S pider
T V
T ry
U nsupported
W AY
a ussian
b q
b ag
c red
c map
c ked
e ach
f rozen
i k
i sion
i min
k l
k m
n ans
p w
y u
re conc
de sh
th ird
sel ves
Ġp at
Ġs ale
Ġs rs
li sted
ser vo
Ġb row
ex tern
ot os
get opt
ab ove
qu it
ma le
od b
Ġh arness
vi con
ĠS IG
ĠS SH
ĠC md
Ġe qu
ĠI ter
Ġco okies
ĠP K
=' <
Ġr ans
ĠD OT
Ġpro ps
add Action
=" #
ĠE SC
ON G
Ġdata store
ĠW orld
Ġle arn
CT x
Ġkey stone
OR AGE
Ch ain
'} ]
gn oring
ume n
new axis
Ġversion changed
Ġ[' --
Ġother s
ĠV AL
20 5
0000 1
04 4
be havior
cre ts
Ġad apter
num s
15 4
ĠK ubernetes
ĠDe velopment
Ġ201 8
oo zie
ĠJ ust
VER S
URL Field
Sh are
An not
Ġman ip
win reg
Ġte ardown
ĠHTTP S
score r
Ġph rases
dag s
BO X
ĠSer ies
ĠMy SQL
Select or
Ġtermin ated
double SpinBox
Dist ance
Be fore
Detail Field
Ġpr inted
ĠDes c
ĠDes cription
trunc ated
getCurrent Selection
ç»ĵ ç®Ĺ
TOP IC
[:: -
Ġderiv ative
Ġprox ies
ĠFA KE
Frames Info
opping cart
Ġrans ac
! ',
" ?
( ",
* )
+ ----------------
: </
? ',
B undle
C alib
D rag
E st
E scape
I so
I FT
L D
M Q
M IT
M erge
P M
P ACK
R ot
W E
W rap
W hen
] |
c ub
c riterion
h at
h old
i ma
q lite
s x
Ċ ĊĠĠĠĠĠĠĠĠĠĠĠĠĠĠĠĠĊĠĠĠĠĠĠĠĠĠĠĠĠĠĠĠ
in teractive
re late
er al
Ġ" ."
Ġre duced
Ġp sy
Ġp seudo
Ġn m
Ġs ay
Ġm argin
Ġm ouse
Ġw raps
ch r
un able
id set
is ing
con version
ĠC E
(" '
ĠF ILE
from String
pro f
ĠP R
ĠG H
port al
Ġen countered
AT CH
Ġ(' %
ĠN AME
pre serve
Ġpa y
read able
AL IAS
ument a
25 1
Co st
Ġac cessed
AS CA
org an
msg id
uc lide
ĠCon verts
Ġup on
15 5
15 8
Ġgener ating
Ġchange sets
raw data
ĠDe ferred
Ġfe at
Ġsee also
UP LOAD
Valid ation
Ġlocal host
Ġsubnet pool
Module s
Ġfl ash
Ġsw ift
MO D
Ġarch itecture
SP ARK
fetch all
Ġfil led
simple filter
Ġsql parse
Ġapplic ations
COMM ENT
Variable s
Exp and
dense basic
Match er
Ġ(_ ("
ĠST ATE
cir cumflex
Ġtool chain
assign ment
need s
sr v
Ġstage s
Sum mary
Note book
dimension al
may be
Ġrout ine
Fact Collector
ici ous
Ġmoment um
ÅĦ ski
ĠCSR F
ASCA DE
uclide an
2 33
C ALL
F inder
G LOBAL
M EDI
M icrosoft
P atch
P ane
R X
T oggle
] -
d w
d os
o sc
p urchase
t as
} -
è £
in herited
de tect
th an
le ading
er ce
an imation
at ar
en cy
Ġf atal
Ġs phinx
Ġt aking
mp ed
', ))
Ġin herited
Ġa mp
di x
di sp
co uld
Ġ( ):
Ġ[ _
ab lish
up stream
Ġh uman
Ġex e
ĠS chema
== "
== =
ĠA fter
ĠC SS
Ġ{ :
Ġe poch
Ġimport lib
Ġg lyph
Ġ2 000
Re start
Ġco ords
if th
po sit
Error Conditional
Ġpro viding
IN K
ty pec
Ġstr ftime
Ġx path
ĠW ord
Ġat temp
ĠB ea
CT OR
AL LED
ĠH elp
ID S
Ġpre ferences
Ġpre pared
Ġ4 09
Ġmo unt
Ġlog ical
max size
Ġcomp ared
AP H
AP PS
sign um
ED IT
exp lo
Ġ6 55
Ġ`` (
04 0
cri tical
ĠOR DER
Ġopen ing
18 3
frame set
TR AN
201 7
17 2
No tification
dic ates
Default s
cen tile
={ },
Matrix SeqRow
Matrix ObsRow
############ #
ĠPo sitive
Ġrep lacing
Ġpatch es
agent s
Ġevalu ated
ĠST ART
Rel ative
Ġ'{ "
ĠReg istry
boot strap
Ġprob ability
ĠValid ationError
ĠSpec ial
Ġedit or
OB J
ĠDB API
separ ated
Ġutili ties
Ġcollect or
VAR I
subscription s
Ġrelationship s
Authentic ation
ĠCount ry
Dest ination
Ali gn
ĠPay AndVerifyView
cove red
hes sians
ĠMAT ROSKA
ĠDown load
PROPER TY
Ã£ o
ErrorConditional OrderField
> `.
A U
A ri
B am
C fg
H ub
L ES
O w
P P
Q uestion
R ational
[ _
_ ="
d yn
e asy
i mplement
s low
x ab
y um
y label
ç ī
é Ļ
Ġ lic
re ports
re quester
or tion
or ge
st ime
me ch
me tic
ti ces
Ġc make
Ġf ine
Ġ" ('
Ġp c
Ġp anel
Ġs quared
Ġin complete
el low
di rec
Ġb s
Ġw sgi
Ġd u
Ġd ct
Ġreturn code
__ ')
#### ##
is abs
Ġ""" \
00 10
Ġ1 80
Ġst roke
ĠS ame
ĠA L
ĠC PU
sp end
ĠI g
ĠL oose
ĠF E
ĠF a
que ts
Ġco ord
Ġpro duc
Ġy m
ĠM ain
Ġv rf
Ġpa ren
db test
CT ED
ST ORAGE
ĠU UID
fe ss
ant um
Test Data
ses sions
Ġmo x
Ġmo jom
create Variable
fic ations
CThostFtdc ErrorConditionalOrderField
Ġla g
Ġper cent
IL DE
Ġexp anded
build ing
Ġstart up
Se gment
En code
En rollment
PO OL
ĠIN F
Ġsp ot
Char Set
sy mpy
For QuoteField
ĠUn known
Ġ', '
US R
wh itespace
]] ),
Date Field
ker as
MA KE
top ics
termin ated
################################################################ ################
Ġ'_ '
callback s
Ġpatch ed
Ġinte rest
Sec ond
Ġser ve
ONE K
Ġevalu ator
ĠApp lication
Ġmapper s
Ġhosts File
å® ī
Rule s
Cre dentials
ĠSpec ifies
Ġmime types
ĠSE PARATOR
kit py
white list
ĠSta ck
Mon th
211 1
FUN C
isol ate
++++ ++++
Ġagree ments
Ġcrypto graphy
Ratio By
æľº æŀĦ
Pr inter
WINDO W
ALLOW ED
RG BA
ĠOG ONEK
staur ant
# :
' -
4 56
= /
= <
= \"
A rea
B ER
C b
D up
O DE
P AD
S I
S lot
_ "
_ ')
b asket
e thernet
j p
n th
o i
p open
} ')
re served
re boot
re cording
on gs
te arDown
st able
al go
Ġ' ;'
Ġf k
Ġth rottle
Ġre fs
Ġn t
Ġn ice
Ġm igrate
si zer
un parse
un ix
ra cks
is sion
ĠT CP
qu antity
Ġcon t
ĠS QUARE
ĠA UT
ap ted
ĠC alled
ĠL ab
key FramesInfo
len der
Ġfile obj
IN S
ag ain
Ġch an
Ġv cs
Ġx s
tic ip
ĠW idget
Ġat oms
RE F
ener ated
ĠĠĠĠĠĠĠĠĠĠĠĠĠĠĠĠ ĠĠĠĠĠĠ
ĠRe f
Ġprint ing
10 3
10 9
AN NEL
Ġ4 6
ject ory
http lib
inter pre
Ġk er
20 6
reg ularization
ps d
Data Source
Ġ10 2
ĠCon tinuous
CO bject
iz ations
Ġ7 5
Ġtrans parent
Ġop codes
Tag Token
200 2
Ġlib qtile
Ġmap reduce
mi um
23 7
su fficient
Ġar ange
patch es
mod al
ĠCheck s
Ġfin der
Ġsearch ed
60 8
HTTP S
cap s
grid Gm
Ġman aged
Ġ[[ [
Str ings
GL size
Line ar
initi alized
ĠDi rectory
Ġsen ds
æľŁ åķĨ
Const ant
effect s
Ġep isode
Ġrelease d
EXT ENSION
prod uc
expi res
)} ),
ĠHttpResponse Redirect
Ġexpi ration
Cer t
ony m
Detail s
ĠComm on
Modi fied
Ġpipe s
orn ado
ama zon
ĠOper ation
æĶ ¯
ELL IPSIS
HIT TEST
quee ze
è£ ħ
# @
' ').
. :
2 18
C lock
C loud
F il
F amily
H istory
I denti
M ail
N AL
O UR
T X
W ER
c ube
f w
f bs
n se
o le
p m
x ca
Ð »
te ad
st ash
le ton
me try
al ter
er m
Ġi mmutable
Ġn est
Ġt ot
Ġo dd
el b
li s
co efs
Ġw ants
ct q
ĠT emp
ĠT ILDE
assert Greater
Ġh dr
op timizer
ĠA zure
ap se
Ġg id
ĠF ifth
ĠP lot
") ):
ER T
Ġme n
Ġme ch
ag ue
lic ated
ac cumulator
ĠM RUListEx
ang ular
mb ig
Ġen velope
Ġra dio
ĠĠĠĠĠĠĠĠĠĠĠĠĠĠĠĠ ĠĠĠĠĠĠĠĠĠ
ok ing
// ",
Ġwe ek
write ln
ĠH ome
ĠH Store
Ġnew lines
AN ALY
Ġro uting
im ated
im ize
Ġ[] ):
ĠIn stance
ĠIn ternal
Ġcol lapse
Ġhe alth
CThostFtdc OrderField
Ġadd on
Ġac cum
AP E
20 9
reg ression
Ġany way
Data Rate
24 3
24 9
04 2
vo te
19 1
TR ACK
201 8
current Index
ĠJ OIN
mi tives
Ġcomm its
Ġ'. '.
sa le
Ġ200 3
Ġloc ate
wait ing
57 4
cap abilities
Module Store
lex er
({ })
Ġgo es
Ġtri ggered
Rec ur
quen tial
Ġvolume s
cd h
Ġcli mate
Ġfn match
ĠDo es
ĠSIGN AL
Pa ir
hd r
Cl asses
Ġreason s
ĠCourse Factory
Password Hash
ĠSP ACE
inte gration
ĠTime out
multip licity
Ġcalcul ation
Can vas
Ġexpi red
Right Field
Ġfact s
ĠSER VICE
Ġoptim ization
ĠAS F
Ġbl ue
half width
ĠDocument ation
Ġear lier
candi dates
Ġarchiv o
Fl ask
XY Z
ĠDef ine
CXX FLAGS
Reverse Match
irth day
ĠLookup Error
ĠContainer Service
MISS ING
ghi j
ASeq Matrix
ĠHE AD
ĠDial og
fbs ql
) "),
1 252
< =
C ap
E ffect
F ollow
P ass
S CH
T INY
W ild
c url
c mb
d og
f qdn
g rouped
i os
i ters
r hs
s am
t us
u sion
x FF
Ċ ĊĠĠĠĠĊĠĠĠ
Ń è´¹
re fid
ar menian
Ġ' ='
Ġc le
ro otedge
Ġn f
Ġs d
Ġs itu
Ġo paque
el apsed
ate ly
Ġb az
Ġb tn
co ordinate
Ġm ixin
ad or
get list
get Name
Ġd a
Ġto uch
__ :
assert Less
ck y
la ps
tr um
cl assifier
ĠA ST
ĠA pi
ĠA xis
int o
Ġe ServiceReference
bu ddy
Ġde scribe
ic ket
ĠM PI
ĠM agicMock
ĠE ither
Ġl ru
Ġat ten
RE NT
Ġle ave
ĠU ses
ĠĠĠĠĠĠĠĠĠĠĠĠĠĠĠĠ ĠĠĠĠĠ
no thing
SE L
SE CON
spa tial
iv y
12 2
Ġcomp ressed
Ġcomp ilation
Ġsh utdown
cor ner
64 7
64 8
Ġpy dev
AM P
yn cio
Di gest
sk in
open gis
04 3
ĠCon trib
Un ique
char map
bin aries
pr inter
fail ures
19 6
19 7
DI ST
18 4
Ġvalid ators
Ġimp l
13 7
tree view
77 5
Ġdest roy
br and
Per son
Ġlin ked
Ad ditional
SH ORT
DS paces
ç» Ńè´¹
Ġvisit or
wi de
Ġclose st
iti ze
ANG E
Ġredirect s
month s
CS R
atten dee
publish er
inp uthook
ĠDis play
Ġspa wn
Ġcomb ination
Float Field
oriz on
hand shake
pie ces
Ġexpi res
diffe rent
ĠOne Drive
Ġmateri al
constraint s
trunc ate
Cor pus
å¼ ķ
Ġscen e
Ġtrim med
WR ITE
moo thing
stra ils
CHANG ED
noti fier
Proto s
lar ation
vocab ulary
Background Colour
æīĭ ç»Ńè´¹
NotImplemented Error
tivi ties
ĠLoose Version
å®ī è£ħ
GLsize i
" |
' (?
5 01
= .
A ss
D ump
H older
L ike
M gr
M ixed
S teps
T M
W atch
a file
e ager
f v
g cc
g uts
j ac
l f
p mag
s andbox
s chool
t or
w arded
x module
» ç»ĵ
Ċ ĊĠĠĠĠĠĠĠĠĠĠ
Ġ utter
in place
re ferer
st ones
al ic
Ġc mp
as df
Ġp ot
Ġp ure
Ġn b
Ġs lave
Ġin fer
ut xo
ex clu
() ')
ra ce
') ",
(' {{
Ġd m
#### #
is link
is digit
ĠT T
la ys
ect s
ĠS tri
ĠS ample
ĠS IP
cl asse
ĠA CC
file list
ĠI ns
bu gs
ent ropy
for k
que ma
po scar
us able
IN ET
ĠG rid
ĠG RA
ĠM ultiple
ang les
Ġv ary
port unity
Ġout come
Ġ(' -
"] })
read s
ST EM
ST ANDARD
den sity
Ex port
pen ded
og ra
spa cing
12 1
Par agraph
man age
Ġend Tag
16 3
token izer
pos ure
Ġ7 7
Ġ& &
Ġtrans former
17 6
17 9
13 5
13 9
29 8
Ġsign ificant
Request s
By SerialField
No va
ĠSt udent
Ġar cname
UP DATE
EX IT
Check Box
dev null
top level
oto pe
sl ashes
Ġinst aller
View Set
Ġfilter ing
Ġemail s
Ġ[[ (
vari ate
IB UTE
Trans former
virt ualenv
fin alize
Result BySerialField
ĠEn ter
Query Trade
Ġ"/ "
PL AY
chain Gm
Mo unt
ana conda
Sy m
Ġsen tence
Ġcorrespon ds
Bad Request
alle st
alle li
Ġgl ance
Ġpop ulation
åį ĸ
ATTR S
lap sed
äº¤æĺĵæīĢ äº¤æĺĵ
locale s
ĠError s
Cre ating
multip lier
Ġscan ner
compo sition
Install ID
Top ic
Ġdele tion
ĠParse Error
GROUP S
ĠLa unch
plan ation
ĠSp rite
semb ly
scen e
ĠMax imum
CHANG E
cu it
hb acrule
Trader Offer
Ġcohort s
ä¼ļ è¯Ŀ
ĠJava Script
Ġdirec tive
Ġintern ally
åĨ »ç»ĵ
ĠContact s
Ġdenom inator
ä¹ °
å®īè£ħ ç¼ĸåı·
QueryTrade ResultBySerialField
TraderOffer Field
? "
H ou
H ard
H yper
P ID
P ART
S en
S ort
S can
W XYZ
b py
b log
c rop
d ont
o e
o mp
p th
p itch
s la
t type
č ĊĠĠĠĠĠĠĠĠĠĠĠĠĠĠĠĠ
in ters
Ġ' |
Ġ' ),
Ġc xx
en queue
ce ph
ur ge
Ġs aving
Ġin finite
def initions
Ġa ge
ri er
li min
ser ving
Ġm X
Ġ( __
ot us
get Bit
(' !
(' "
ke leton
it ro
ol ding
Ġh older
00 12
'] (
ĠC FG
ho od
Ġde scriptors
Ġco v
ĠP i
Ġr x
Ġas c
IN C
sc p
add Sample
=" '
ĠM sg
Ġun ichr
mb stone
AT IC
Ġx si
Ġl no
bo th
Con struct
db c
ST DOUT
ir ing
stri de
Ġcl c
Ex tended
ĠR NA
Ġpre dicted
Ġ4 9
'} }
St ar
config name
32 1
new lines
Ġclass method
Ġsi tes
Get Feature
tra cing
Ġ5 4
ner gy
reg ress
ump tion
Ġend block
open source
Ġdoc utils
24 7
Ser vices
ĠCon st
Ġ] :
14 7
19 5
Ġ7 2
cr ate
cr ash
Ġmin or
13 1
13 6
present ation
Ġprefix es
Ġexec uting
EX TRA
26 5
ĠPar ameter
\\ \
Ġ'< <
Conn ector
ha z
+) ',
Ġph ysical
Ġ'_ ')
rev s
OS Error
ĠMe mory
Server Error
Sign al
quot a
rp n
Ġdisc ussion
åħ ¥
cons ume
)+ '.
Spec ific
INTER NAL
ĠMo ve
att name
Template SyntaxError
listen ers
MAP P
Ġspa tial
sn ake
DIRECT ORY
nw chem
Ġhelper s
Ġ{% -
ele ry
SY NT
Over ride
collector Context
ĠPl atform
riteri a
ĠSec ond
FUN CTION
presen ce
deli tem
Dep loy
CLASS ES
Ġdeploy ment
INST ANCE
look ahead
Ġdirec tives
åĪĨ æĶ¯
Ġexclu ded
Design ateField
BIN ARY
EnableAscii Ipv
Partial Run
LIBR ARY
ĠOri ginal
Ġrespec tively
å¸ģ ç§į
thro ats
ticip ant
classe es
åĪĨæĶ¯ æľºæŀĦ
3 50
8 40
> &
? ://
A in
A sk
A ggregate
B est
C y
D WORD
G A
K it
L ines
M ultip
R N
V Box
[ @
] },
c rt
d al
k y
n y
r ft
s ures
t tk
u u
u ate
x code
x label
} {
Ã Ń
Ċ ĊĠĠĠĠ
Ġ utc
in car
de g
me sg
ti fied
ar b
ar gest
Ġ' "'
at in
Ġf an
ro ps
Ġ" //
Ġp df
Ġs heet
ri an
Ġw r
Ġd l
Ġ[ ['
ab et
Ġ1 01
tr ust
'] ])
Ġex is
ĠC allback
[' %
Ġe ver
am big
Ġde gree
pro cedure
Ġ2 54
In Field
Ġme asure
ĠD NA
]) ),
Ġpro duced
""" ],
oc ation
Ġun i
Ġen codings
Ġx c
kw arg
ĠĠĠĠĠĠĠĠĠĠĠĠĠĠĠĠ ĠĠĠĠĠĠĠĠ
log ic
ĠRe quired
Ġcl usters
Ġ} ;
10 8
Ġsub path
format ted
Ġ[] ),
Ġcontext s
Ġcomp utation
Par ticipant
Ġpy glet
do o
exp ressions
AS F
ne ver
Ġconn ector
Ġpl ug
exec uted
15 2
ci pe
block size
post gres
Text Colour
DI F
For ce
xml If
Ġca used
Tag Iterator
Object Factory
Tra ck
Ġval ign
tx n
255 19
Ġyield s
Group Name
Ġpos sibly
dic ated
36 0
Ġloc ated
Ġdir ty
stop ped
57 6
auto commit
Ġhash ables
Ġte x
fin der
Widget s
ular ity
As sertionError
fetch one
Ġ}} ')
Ġdatabase s
Number Of
Ġjoin s
Session ID
regex p
Ġig w
Met ric
ĠReg ister
attach ments
Email Settings
Product Group
pan ed
è¯ģ ä»¶
vl ans
rm dir
Raw Id
ffffffff ffff
Ġinterpre ter
CD ROM
decla re
Ġcolour s
FutureSign InField
Ġquot a
Ġwild card
ĠMS Build
Pay load
altern ative
External Encoding
Comple ter
ĠMAC RON
ĠExten sion
grity Error
Ġpsy copg
ĠFa iled
" ^
+ %
/ _
: /
; ")
A AM
C Y
C AT
C ED
F D
H op
I mplementation
J ar
L if
M ust
N ested
O k
P ow
S w
W kt
W izard
] ;
c make
c ipher
d angerous
g ray
i ms
i mag
p wd
s ax
s lider
v ni
³ »
ç ³»
č Ċĉĉĉĉ
Ġ Keys
re play
te ardown
or th
de termin
er gy
an other
Ġre ached
Ġre commended
Ġp gt
Ġt reat
Ġb und
Ġw ater
Ġw lst
Ġw sf
si ent
pe g
pe p
ct ree
il ton
up er
ĠT ex
ĠT IME
Ġh olds
ĠS Cons
ĠC srfViewMiddleware
to y
pro Ain
for mations
Ġel imin
ĠP AR
our ier
Ġch grp
tri bs
ĠG dk
ĠM ET
ĠM UST
ĠM erge
sh adow
sh oppingcart
Ġl w
user site
([ \
ĠRe gex
ĠRe quires
no res
comp uted
St mt
max imum
De posit
Get TypeId
IC OLON
11 3
11 6
ĠV R
av en
(( (
CH O
CH ANNEL
Ġindex ed
Data Base
24 5
cre ating
CO VER
char acters
ĠIN ST
ĠOF PF
iz ing
14 4
Ġoff sets
Ġimp ro
cmd line
Request Context
ĠSt reet
23 5
23 9
ĠSM I
Ġnon ce
44 0
URL Y
Response Error
Default Validator
Ġsa f
side bar
('- ',
tera ble
Command s
Ġtx n
Ġtx id
Ġconver ts
Link s
Ġinte gr
ĠLo op
One ToOneField
ĠLog ger
Ġpe ople
analy sis
Ġfi re
Ġep hemeral
Def inition
ĠWeb Socket
conver ters
Ġremain der
ĊĠĠĠĠĠĠĠĠĠĠĠĠĠĠĠĠĠĠĠĠĠĠĠĠĠĠĠĠĠĠĠĠĠĠĠĠĠĠĠĠĠĠĠĠĠĠĠĠĠĠĠĠĠĠĠĠĠĠĠĠ Ġ
Rou ter
best path
WAR N
deploy ment
intain er
ĠCl uster
alib ration
Random State
togg led
aggreg ation
RP M
Serialize ToString
setCurrent Index
ĠAB STFN
Ġblack list
ĠSu ite
åī į
PREC ATED
ĠLen gth
Ġsamp ling
ĠESC APE
umen ted
SYNT AX
Ġwsf exv
ĠOFPF W
# *
& '
' (\
, *
> /
? )
F M
G I
H AVE
K ernel
L eg
P lain
S B
S napshot
T B
U sing
U FF
[ """\
] .__
_ %(
d v
g data
o od
p tic
t ls
v ms
w ell
x er
z ing
§ åĵģ
Ċ ĊĠĠĠĠĠĠĠĠĠĠĠĠĠĠĠĠĠĠĠĠĠĠĠĠĠĠĠ
se ven
in ite
re m
de tach
de cay
th ur
Ġf ri
ro pe
ur able
Ġn r
Ġn umerical
Ġs ynchron
ue sses
Ġin structor
Ġa cl
Ġb link
Ġb old
ex pose
Ġw ind
ch at
() ['
it ution
pa lette
con struction
ver ted
", ),
ass oc
Ġh ello
Ġcon catenate
ĠC SV
(" .")
to list
Ġimport ing
Ġg rouped
ĠL R
Ġname dtype
text area
Re actor
ic ard
Ġr val
ance led
=" %(
ĠG rant
url patterns
Ġun packed
ĠE DI
ĠN N
pre ference
Con firm
ĠB L
################ ########
sub dir
sub mitted
10 5
25 7
25 8
25 9
Ġnew er
Pro gram
ime ter
11 5
place ment
At tach
Ġne ither
Di ctionary
To o
Ġ6 9
build s
Ġtoken izer
Bo ard
IP v
pr incipal
][ -
the ses
19 4
Ġop timizer
Ġsy mbolic
ĠCo lour
Ġca ught
Or ganization
ick ness
Ġoper ands
The me
Ġsu do
distribu tions
Address Value
sa tis
cp us
Check s
ater n
\\ \\
sen ce
äº §åĵģ
Format ting
DB Feature
medi um
ĠAs sign
Tool Base
ĠMo di
]+ ',
Ġpe ers
Ġissue d
Rsp Field
Ġlocale s
Ġvirt ualenv
Ġpur ge
CThostFtdcRsp RepealField
Ġcons umer
Local ID
dead line
Ġcomple tion
Poly morphicStateSet
gramm ar
ANCE L
bg p
ĠPY THON
ĠSec urity
utili ties
ĠWh at
11111111 11111111
Ñĸ Ñı
ĠRo ot
Ġbi as
Trader ID
Ġconfir mation
ĠRen der
Combo Box
Ġduplic ates
applic ations
hyper visor
Calib ri
å¼ķ çĶ¨
ĠACC ENT
äº¤æĺĵæīĢäº¤æĺĵ åĳĺä»£çłģ
Participant ID
ilton ian
. '.
= ("
D IM
D LI
G P
R ID
S CO
S caling
S elf
S ESSION
T ASK
Y E
Z ER
_ *
c up
c am
c ron
l v
l legal
m X
m utation
o ad
u it
u ator
u jarati
w ho
w raps
{ \
å ĩ
æ ı
Ġ der
re ject
de mand
de scriptors
self cites
Ġc rc
Ġc elery
ro bot
Ġre call
Ġp asses
): ]
Ġs lices
Ġin place
ec yrillic
ch oose
Ġ( ``
si mp
pe m
pe ople
Ġto wer
il ler
up loader
ĠT kinter
test file
Ġof ten
ĠS cript
cl ang
ĠA G
ĠA BO
ĠC ore
ĠC LC
ĠI CMP
ase d
Ġde serialize
Ġde epcopy
Re served
time Warning
In ference
Ġpro posed
oc tet
ĠM SV
url resolvers
Ġun safe
ten ance
Ġget context
RE EN
ĠU tils
10 2
Ġcan vas
SE CURE
Co mplete
CThostFtdc Trading
De fn
Ġk m
Ġconfig urations
ĠEx periment
Ġne o
ne monic
Ġcopy ing
struct ured
16 5
open flow
Ġgroup ing
Un der
IM UM
Ġdate s
ci dent
the ad
Ġ7 6
make Suite
33 3
Ar r
Ġca uses
03 9
Request ID
Ġwas n
ĠJ inja
Ver tical
req s
CON NE
TH AN
Ġdir path
Ġcr m
Ġref ers
Ġauto matic
Ġcre dit
Ġstream s
Per missions
display ed
Des cri
Len Feature
Ġmod ulo
long itude
rand n
Ġconver ting
rot ation
IF IC
Ġtermin ate
rb prm
GR AM
GR APH
stage s
ĠValue s
urlo bject
comb ined
uz zer
ĠImp ossible
Rep ly
ĠCO IN
ĠRec ord
asc time
130 7
MarketData Field
(. +?
Ġwild cards
Mark up
Wh ite
Ali as
ĠAM I
ĠMet adata
æľ¬ åľ°
Ġreceiv ing
Ġhier archy
ĠIns tead
ĠGRA VE
åĪĨæĶ¯æľºæŀĦ ä»£çłģ
UFF LED
ĠABO VE
) "]
, [
. </
> )
A lice
B AR
C ycle
F rozen
H AND
P ants
P ower
R NN
T U
] `
b lobs
f ortran
p f
q q
w ill
x es
ã Ĥ
se crets
re corded
te ctor
al ph
ar ator
Ġi prot
Ġ' ;
Ġc aches
Ġf ds
Ġf ld
Ġf avor
Ġo prot
li sa
Ġm utable
Ġm iddle
Ġw ave
Ġ( ("
is ation
Ġ0 2111
ol ation
assert Select
Ġh ide
Ġcon caten
ap is
ĠC ategory
am b
Ġg litch
Ġde cision
pro posed
Ġbe h
time span
Ġr s
us b
Ġ: =
Ġme th
ty Pants
tri al
ĠO LS
ac cum
Ġen dif
Ġen sures
Ġen ergy
"] ):
Ġl xml
Con cat
py pi
Ġby test
ir cumflex
sub titles
min or
Ġ} ]
Ġsub str
Ġsub reddit
Ġro i
Ġoption ally
Set Window
Ġfield name
ĠIn iti
arch ical
CThostFtdc Parked
12 6
Ġ> ,
Ġ! !!
Ġ5 3
we bob
Ġcheck out
Ġli mited
Ġexp lo
ne ar
uc ation
To Order
Ġ6 2
Ġend ing
24 4
24 8
Base TestCase
Ġgener ally
err ing
the re
18 5
Ġtrans actions
17 0
LO CATION
Or deredDict
Tag Buffer
Ġcor ner
23 8
VER IFY
go v
ati vely
fn m
Index es
40 9
Ġbin s
ob er
Ġsearch er
And roid
Le arn
Ġte le
sv s
Ġsc roll
Ġlin alg
Build Phase
download s
Oper and
Ġmod al
medi ator
SD K
folder s
Ġscope s
åĲ İ
au dit
Ġindic ator
CA SE
Ġgr ant
snapshot s
CThostFtdcReq RepealField
LA AC
lon gest
GR ID
Ġmacro s
å® ļ
Email Field
Ġpur chase
Ġdump s
Ne ed
AV G
Batch OrderActionField
ĠExt ra
ĠTe mple
deri ved
Inte gration
-------------- +
Red uction
à¥ į
ĠWh ile
æĸ ¹
ä¼ļ åĳĺä»£çłģ
Ġear ly
ToolBar Base
GO Protos
IFI ED
'# ',
Ġdecla red
ij er
kub econfig
Adjust Field
Depth MarketDataField
ĠFL AGS
Routing Protocol
Hist ogram
ision Tree
éĻ Ĳ
assertSelect Options
ToOrder Map
+ ')
0 66
4 37
? '
A re
B S
C at
E v
F ULL
G ENER
L ite
M OT
M ouse
N ix
O Auth
P in
R aster
S ources
T CC
W EB
W orker
X ml
Y ear
f ld
f rog
k ml
l ash
m utex
o ked
q n
w kt
w kb
Ġ ._
Ġ ent
in a
in file
re raise
or i
ar ser
ar ith
er c
er p
Ġc d
Ġ" {}
Ġre ject
Ġre moves
Ġp name
Ġp ress
Ġn ex
-- ==
Ġs hebang
Ġt d
Ġt runk
mp loyee
Ġa f
Ġa mo
Ġm t
ra ck
ct r
ct ransport
__ [
it ored
is lice
ĠT LS
qu o
Ġh op
rom ise
la x
Ġnot ation
ub ble
Ġg db
ĠF ix
Ġde precation
path sep
ĠP DF
In c
Ġlo t
IN CLUDE
ag no
ĠM icrosoft
ĠE MPTY
ten tially
Ġassert Valid
IT est
Ġl df
Ġpar agraph
Ġpa st
Ġpa lette
ren ch
Ġby groups
AR GS
ome tries
sub plot
OR ITY
work s
og onal
Ġcomp uting
Ġsh ader
64 6
RO UT
')) ),
man n
rans ac
Ġup stream
30 8
trans parent
15 6
Ġgener ates
Ġchange set
Up loaded
flow Error
14 5
Ac tiv
Ġ7 4
Ġ7 8
ĠCo mplex
Object Base
LI KE
55 5
Ġsee m
queue d
80 9
FI RST
Ġlink er
Input Set
TH READ
Ġdis covery
ARE D
Dis position
Ġgra ce
tera ction
Gener al
Ġ%} {{
VAL UES
Ad apter
Ġmod name
Rec ords
release s
ĠRes umable
Ġreport lab
ĠRa w
Ġdisc ard
bi us
Ġclean ed
Ġpacket s
\. \
1234 5
Ġdriver s
Enable Pcap
Ð° Ð½
Ġcomb inations
Ġchain er
Ġdrop out
ribu ted
zil li
čĊĠĠĠĠĠĠĠĠ čĊĠĠĠ
Ġrot ate
Video Feed
åĳ Ĭ
Comb ine
Ġtz info
Ġmultip ly
Del ay
Ġpag ination
Ab ort
UNK NOWN
bra cket
åľ ¨
INST ALL
Ġam ong
Dag Input
Dag Output
Ġscra ped
Dependency Info
defer red
Ġbel ong
ban ner
ĠSparse Tensor
ĠPAT H
DAG Pipeline
bib rank
wagtail admin
ĠBin ary
FLO AT
CLO SE
implement ations
xmlIf Ext
Nix Vector
" %(
B id
B ridge
C N
C op
L arge
M at
O ld
P IL
P lan
Q Application
R SA
S ES
S peed
T AB
h u
l ls
o h
s lim
s ocial
t un
u tions
u alization
x FFFF
y m
Ġ ve
Ġ rid
Ġ Keep
ĊĠĠĠĠ ĊĠĠĠĠĊĠĠĠ
in dic
st raction
le ts
ar c
an chor
Ġc pp
at tached
Ġre ferer
Ġp cap
Ġn stime
Ġs pl
Ġs avg
Ġs pacing
Ġo tus
Ġin otify
ri ven
di d
Ġm g
Ġm ysql
un supported
Ġdef ining
id om
ct ures
il led
set Level
Ġst y
Ġu ow
ĠS orted
ĠS cheduler
ile s
ĠC ar
ĠC annot
Ġ% %
age sh
he art
res olved
per centile
Ġr d
Ġse m
Ġlo st
sc atter
Ġan g
tri ght
ĠM asked
Ġen crypt
Ġl argest
Ġpar ty
ĠN T
pre cedence
Ġal bum
Ġwh atever
.. .')
ĠU DP
und o
om bu
work ers
Val s
ĠRe quirement
temp file
ph ysical
Ex pi
Ġpre ce
Ġsub mitted
SE E
Set Picker
CThostFtdc InvestorPosition
De tect
Ġsi b
tra iling
11 8
Ġconfig name
so ftware
`` )
Ġ6 8
Ġz f
vo ke
30 7
char ge
Ġinter cept
Ġver ified
fail If
the sis
18 2
TestCase s
User Dict
over flow
ĠDe precated
80 7
Ġ9 7
Ġreq s
Ġshape s
86 9
eg gs
Log ging
ĠPro xy
penden ce
br ute
