#version: 0.2
Ġ t
Ġ a
h e
i n
r e
Ġt he
o n
Ġ s
e r
Ġ w
a t
Ġ o
Ġ c
n d
o u
i t
i s
Ġ b
in g
e s
e n
Ġ f
o r
Ġ p
Ġ m
a n
Ġt o
e d
a l
Ġ d
a r
Ġo f
Ġt h
Ġ in
Ġ h
Ġa nd
l e
i c
a s
o m
i on
Ġ l
Ġ n
l l
Ġ e
Ġ I
v e
l y
Ġ g
s t
Ġ y
Ġb e
Ġ re
o t
Ġ Ġ
en t
Ġ is
u t
o w
Ġy ou
â Ģ
c t
Ġth at
e t
s e
i d
Ġ T
r o
Ġ on
a y
i m
Ġ it
Ġ u
a d
Ġf or
i g
v er
c e
l d
Ġ he
a m
Ġs t
Ġ S
u r
Â ł
Ġ A
c h
Ġw h
it h
i r
Ġa n
Ġw ith
Ġa s
k e
Ġw e
at ion
Ġh a
i f
r a
i l
Ġ C
o l
Ċ Ċ
Ġa re
t er
i ll
he r
Ġ M
o d
Ġw as
c k
âĢ Ļ
Ġo r
Ġc on
u l
Ġ B
g e
Ġs e
o p
o re
er s
ĠT he
Ġd e
Ġn ot
' s
at e
h t
Ġc om
es s
Ġ W
r i
Ġa t
u s
Ġha ve
Ġp ro
ou ld
p e
Ġ H
Ġ P
Ġ (
Ġ r
Ġe x
u m
es t
Ġn e
Ġd o
t h
an t
a b
is t
r om
Ġth is
e m
Ġ 1
Ġc an
p p
u n
q u
u st
Ġ D
al ly
ĠĠ ĠĠ
Ġ v
Ġs h
a in
u re
ig ht
o s
Ġa l
i ve
om e
n t
Ġa b
m ent
Ġyou r
Ġ âĢ
ou t
Ġc h
Ġ k
Ġf rom
a nd
e l
ar t
Ġ R
Ġthe y
Ġ le
it y
Ġg o
Ġ 2
Ġb y
Ġb ut
Ġ F
Ġs u
Ġ j
Ġl i
or t
Ġs o
Ġm e
Ġw or
i es
Ġw he
o st
i e
al l
Ġ N
re s
Ġa ll
Ġ L
Ġ G
Ġ E
ou g
a k
ar d
. .
o o
on e
e re
p t
Ġp l
' t
Ġw ill
Ġ "
a ck
Ġin t
Ġo ut
as t
ou r
a g
id e
i v
Ġu s
Ġ O
Ġm y
e ct
a re
t her
in d
Ġh is
Ġu p
T he
c i
Ġthe ir
a ke
ver y
u d
in e
Ġt r
ic h
Ġm ore
Ġab out
p l
ou nd
am e
ou s
Ġon e
on g
Ġli ke
0 0
p er
Ġh as
f f
Ġ J
im e
a ge
oug h
a u
a ct
Ġwh o
ĠĠ Ġ
oo k
ion s
o g
Ġs ome
a c
ĠT h
Ġ en
Ġa r
Ġw ould
Ġwh at
Ġt e
Ġ im
Ġ if
ic e
an s
Ġf e
Ġthe re
Ġthe m
Ġk n
Ġg et
Ġa d
Ġp e
s o
Ġc l
Ġhe r
Ġcom p
i z
i re
Âł Âł
Ġo ther
at ed
in k
Ġm an
a p
e p
v en
Ġh ad
Ġwhe n
Ġan y
Ġj ust
op le
u e
ĠI t
Ġwh ich
ab le
Ġ Y
ay s
e ar
Ġbe c
Ġ qu
Ġ U
Ġcon t
Ġs a
it e
ow n
âĢ Ŀ
b le
c c
Ġu n
Ġt ime
r y
b er
Ġwe re
Ġpe ople
Ġ -
o se
i p
i le
or m
a ce
ul t
as s
ic al
an ce
au se
Ġwor k
Ġa g
Ġre s
a ch
Ġd is
re at
Ġh ow
Ġn o
Ġth an
ing s
en ce
ic k
o c
as e
ĠI n
Ċ Ġ
Ġint o
Ġ K
i a
Ġs he
res s
h ing
Ġkn ow
Ġbe en
ar y
Ġp re
Ġo ver
ĠâĢ ľ
Ġs p
ig n
ation s
in t
Ġof f
Ġp er
a v
Ġal so
d u
Ġin c
r u
o ve
e nd
Ġp art
ĠĠĠĠ ĠĠĠĠ
u b
Ġg r
ou nt
on d
Ġa ct
Ġne ed
re e
Ġp r
an g
en s
Ġs pe
ve l
Ġb l
Ġ 3
Ġo ur
o od
if f
or d
or y
Ġy ear
a il
Ġc ould
it t
Ġon ly
Ġp o
Ġa m
ĠS t
Ġim p
Ġs c
Ġw ant
Ġh im
nd er
i al
Ġd on
h at
Ġth ink
se l
ar k
Ġbe t
Ġbec ause
e ll
o v
Ġ ro
Ġthe n
i ld
it ion
Ġt w
ĊĊ ĠĠĠ
ct ion
Ġb ack
Ġm ake
f ter
or s
Ġa pp
0 1
Ġne w
ent s
ĠâĢ ¢
ir st
Ġe very
u ch
Ġc o
Ġd id
f orm
Ġse e
Ġd iff
ĠH e
o b
re d
Ġ V
ĠC h
Ġm ost
Ġl ook
Ġw ay
Ġe ven
ad e
Ġm ay
Ġth r
Ġdo es
at er
i ous
Ġsa id
is h
Ġre c
.. .
on s
c es
n e
m er
om et
p le
Ġsh ould
ic t
o y
Ġu se
u al
ĠTh is
w n
ur n
Ġf l
Ġthe se
) .
ot her
Ġm uch
Ġu nder
w e
he d
Ġ very
u ll
Ġit s
f ore
Ġgo od
Ġwhe re
Ġd es
f t
i an
Ġf irst
u ally
Ġs er
h y
Ġs y
Ġa cc
Ġcon s
ĠY ou
he n
Ġw r
at es
Ġcom m
Ġtw o
ver s
l es
x t
Ġto o
at ing
is e
Ġat t
Ġb u
if e
Ġhe l
ig h
t ing
Ġn ow
Ġbe ing
k s
Ġb r
Ġs m
Ġman y
os s
Ġre l
Ġthr ough
Ġ 4
n ing
Ġt ra
Ġd own
Ġr ight
v ing
i ly
Ġ ra
Ġdiff ere
. "
Ġ ke
Ġin d
ĠA nd
Ġe m
Ġhel p
Ġs omet
Ġwe ll
Ġa fter
ak ing
i b
Ġp ers
ĠI f
f ul
ĊĊ Ġ
Ġ 5
Ġre m
e w
sel f
Ġre ally
a w
Ġs ay
if ic
o ck
Ġl ong
ow er
at h
Ġde c
ter n
Ġag ain
ci al
Ġf o
e c
g r
Ġad d
l ic
t e
an ge
ĠW e
i ble
j ect
Ġpl ay
Ġg u
c ess
is s
t y
Ġst art
l i
Ġth ose
ot h
ĠB ut
er m
Ġgo ing
Ġo wn
ment s
er t
Ġg en
le ct
Ċ ĠĠĠ
pe ct
c ed
Ġsu ch
re n
v es
Ġin v
Ġyear s
Ġe v
al k
ar s
Ġ1 9
g et
Ġs im
Ġ2 01
Ġt ake
ie w
Ġc all
Ġbe fore
Ġs ame
Ġre p
ul ar
ic s
Ġpo int
Ġbe l
Ġst ill
p h
Ġc r
ere d
Ġe nd
Ġo b
Ġre ad
Ġf ind
T h
a ve
Ġsu pp
st em
Ġa w
' m
it s
v ed
oug ht
ĠThe y
ÂłÂł ÂłÂł
ol og
Ġse c
Ġpers on
' re
Ġfe el
Ġin st
o ld
Ġth ings
he s
d ay
Ġre al
Ġpro du
Ġus ed
Ġde f
on t
Ġe ff
Ġsomet hing
Ġhe re
al s
Ġha nd
Ġha pp
u p
Ġre g
Ġa c
e ver
at ive
l ud
id ent
Ġ ent
im es
Ġ '
ow s
Ġs et
il ity
Ġdiffere nt
od y
ak es
I n
ri b
Ġp h
Ġwor ld
at her
Ġc he
Ġl ife
) ,
Ġs l
it ies
Ġc ol
Ġm ade
Ġp ol
Ġd ay
e f
Ġar ound
re ad
th ing
ce pt
Ġl ot
as ed
Ġin s
Ġwh ile
Ġsu b
i ed
Ġs ur
ĠA s
ra ct
ĠS o
y ing
w ard
ĠA n
c y
a x
Ġg reat
g g
Ġsy stem
we en
in ce
Ġc ar
m s
Ġst r
ow ing
t he
Ġch ar
Ġex per
ur ing
itt le
at ure
Ġas s
Ġn um
Ġf act
Ġqu est
Ġm in
n ess
Ġbet ween
Ġ $
Ġh igh
an y
a h
ic ally
ot e
Ġe ach
l ed
w ays
Ġm od
Ġst ud
Ġ 6
Ġm ight
Ġin ter
a ir
Ġ2 00
an k
Ġf in
at ch
as on
Ġp res
Ġc ount
Ġm on
Ġne ver
i x
u es
in s
Ġo p
Ġm et
Ġex p
Ġc re
ĠR e
ĠH ow
Ġf il
it ed
Ġl ittle
Ġfe w
Ġse em
Ġinc lud
ut ion
al th
n g
Ġpro v
I t
Ġtr ans
Ġre f
' ve
Ġdis c
ĠThe re
Ġwh y
Ġr un
g an
Ġpro ble
iz e
b e
t en
Ġex t
Ġg ot
s s
in ess
ar ch
Ġa p
Ġm ed
in es
Ġgen er
ri end
e e
Ġe ar
Ġfo ll
l ess
Ġbet ter
o ol
Ġex am
ĠU n
n ce
n er
p s
Ġch ild
is m
Ġar t
or k
Ġle t
Ġb oth
Ġt y
Ġc ur
en se
vel op
d er
Ġl ast
Ġc or
h ip
Ġp ut
Ġf am
u nd
Ġm ov
Ġth ing
mer ic
Ġf un
Ġd et
ic es
Ġc le
al e
one y
Ġke ep
Ġb est
Ġan other
Ġus ing
Ġh ard
Ġre qu
Ġal ways
Ġfor m
ere st
Ġg iv
Ġre t
at a
Ġin f
ist s
ĠA l
ag es
ou se
ĠTh at
- -
Ġp oss
Ġs k
Ġ ide
s w
u ck
Ġf ound
Ġs ign
a z
Ġb us
st and
ation al
g er
Ġbel ie
Ġas k
ab ly
Ġv al
i o
, "
Ġwith out
Ġg l
Ġe as
Ġcom e
ut e
p r
Ġcon f
Ġh um
Ġimp ort
Ġ [
ĠF or
he re
Ġcomp le
Ġc our
Ġhe ad
ub lic
at ter
ar m
Ġt urn
Ġb ig
ent ion
as h
y s
Ġex pl
Ġ 7
ĠW hat
Ġm ark
ver n
Ġ1 0
Ġe l
ĠĠĠĠĠĠĠĠ ĠĠĠĠĠĠĠĠ
Ġf r
e ad
Ġw om
Ġp ost
ĠA meric
ut h
ĠS he
t s
Ġle ad
it ing
Ġb o
Ġl ess
Ġh ome
Th is
Ġp ower
ĠâĢ ĵ
Ġ i
Ġpl ace
Ġin form
Ġl ar
r ic
Ġo ld
iz ed
. âĢĿ
Ġde velop
Ġ 8
Ġm em
ĠS h
Ġth ought
Ġpro cess
c om
Ġwor d
Ġc are
Ġeff ect
et s
Ġme an
Ġsm all
Ġdid n
Ġint erest
us s
u g
c on
Ġa v
ch n
Ġwe e
Ġs ure
Ġte ll
e x
ert ain
ure s
Ġm oney
g y
Ġact ually
Y ou
i ent
Ġc a
l ine
Ġb ook
Ġd ist
am p
Âł Ċ
W hat
ar n
er n
i ence
Ġs ays
Ġst ate
Ġres ult
Ġsh ow
Ġm ust
Ġp ass
Ġen ough
Ġf riend
Ġdoes n
ate ly
Ġad v
' ll
Ġpl an
am es
Ġp ay
Ġt ri
ch ool
m an
in ed
Ġ 9
Ġd ire
Ġg ame
Ġspe c
are d
Ġaw ay
Ġres p
âĢ ¦
Ġ 0
Ġw ater
Ġs ince
Ġunder stand
i er
ĠW h
Ġis s
id er
Ġs ol
od e
ĠC om
Ġl oc
Ġk ind
Ġ ed
Ġl ist
l ing
b s
ĠI s
o h
Ġt alk
Ġm ain
Ġv ar
v iew
Ġcon c
Ġbe h
Ġre st
Ġst and
Ġnum ber
Ġd i
Ġagain st
Ġth ree
Ġl ove
ire d
ro ss
Ġcont ro
Ġm us
pt ion
Ġab le
u c
Ġle vel
Ġimport ant
Ġg ive
t o
pe nd
Ġgr ou
Ġop en
b r
Ġne xt
Ġb ody
Ġgo vern
Ġan sw
Ġc ou
ant s
Ġpart ic
Ġv is
ter s
Ġg ra
Ġu nt
Ġd ata
Ġof ten
Ġl aw
Ġth ough
Ġbus iness
Ġd uring
Ġhapp en
os ed
Ġc ase
Ġinform ation
re nt
Ġto p
Ġexam ple
au g
ĠA r
Ġp at
ro p
olog y
Ġp ur
Ġsec ond
Ġd ri
Ġsome one
re t
Ġhe alth
I f
a j
Ġinc re
Ġsupp ort
Ġb re
m e
or n
Ġb it
et y
gr am
ĠW hen
Ġd r
ru ct
Ġcl ass
Ġquest ion
Ġb ra
Ġt est
Ġ |
âĢ Ķ
Ġcont in
as es
l and
ĠN ew
Ġdo ing
ur al
it her
Ġs it
Ġch ange
er r
Ġs w
Ġ =
Ġte chn
ĠĠĠĠ Ġ
ĊĊ Ċ
o k
00 0
1 0
Ġf ull
Ġf ree
ie ld
Ġle ft
W e
Ġp op
Ġf ar
Ġe y
um p
i k
Ġha ving
al ity
d d
Ġp os
Ġprodu ct
are nt
Ġcall ed
Ġn ame
Ġ2 0
Ġser v
Ġpr ot
em ber
at s
Ġcomm un
Ġchar act
Ġo pp
Ġap pe
at t
Ġbu ild
Ġl ight
ĠB r
Ġpro b
Ġb as
Ġm aking
Ġproble m
in al
Ġs chool
Ġpro f
Ġre ason
id es
Ġm ind
ĠD e
b ers
Ġst ory
Ġm akes
Ġte am
Ġme ans
Ġmon th
Ġle g
it al
Ġunt il
Ġch ang
Ġe ver
Ġf ood
re am
Ġd one
v ious
Ġc ent
H ow
n ect
âĢ ľ
Ġm ove
Ġt imes
Ġde m
re en
Ġ es
n ot
Ġt erm
s h
Ġj ob
Ġ Q
Ġs ide
read y
ent ly
Ġc ertain
Ġle ast
ĠU S
u ff
Ġe qu
Ġdire ct
ar ing
Ġor der
Ġc ost
id s
an n
Ġany thing
Ġst op
Ġget ting
ĠP ro
' d
m ed
Ġp ri
Ġpro gram
iv id
er ing
ir d
Ġb ad
c ing
ust om
Ġfam ily
o ad
Ġdes ign
Ġgovern ment
ot t
le ase
Ġa ir
Ġal ready
Ġd ays
er v
Ġhum an
is hed
i en
ain s
ap s
Ġm en
c l
op e
Ġcour se
Ġmark et
ic le
Ġ- -
ort s
Ġs ound
2 0
Ġother s
Ġs ing
Ġtr y
m ost
Ġa ff
Ġlar ge
in ing
at or
Ġ Z
Ġbec ome
pl oy
ard s
b y
s c
ĠB e
ĠC l
g in
r ist
Ġcon st
Ġposs ible
Ġp ublic
is ion
Ġm om
Ġon ce
is ed
_ _
Ġ .
ĠT o
g ed
ĠB l
ĠT r
1 9
Ġh our
on y
ir l
S o
Ġb en
ion al
us ed
Ġcur rent
Ġ ve
Ġprob ably
Ġpre t
Ġchild ren
Ġh ist
Ġcontro l
Ġn ight
Ġide a
hy s
iv es
ĠD o
or ies
ĠâĢ ĺ
Ġpol it
A n
w ork
ra p
ĠA t
Ġk ill
Ġl ine
Ġcomp any
A nd
Ġper form
Ġinv est
Ġo cc
S t
A s
cc ess
id ed
Ġtr ying
Ġw ar
el s
b o
Ġm ar
Ġp ast
Ġle arn
Ġbelie ve
Ġor gan
ĊĊ ĊĊ
i qu
o f
Ġc ame
Ġp a
t ed
t on
it ive
r on
Ġcle ar
Ġapp ro
Ġexper ience
ot s
Ġp ar
Ġe t
w ay
Ġe le
Ġen g
en g
Ġel se
a pp
Ġis n
ill ion
an e
Ġcount ry
a im
Ġp ain
Ġv iew
id d
Ġwith in
Ġd ra
aj or
Ġlook ing
Ġe lect
Ġh ouse
it er
Ġc reat
con om
s ide
Ġde p
ent ial
Ġw ent
Ġm atter
ĠM y
The re
Ġ /
Ġwom en
Ġcomple te
ĠA ll
ĠS p
o ice
Ġgrou p
1 1
Ġde v
Ġpro per
ĠO r
at ic
Ġ1 2
us h
Ġc ap
Ġr is
Ġansw er
B ut
i ke
ĠL e
Ġwho le
get her
Ġto gether
Ġp ot
Ġc ustom
Ġsh ort
Ġ Âł
i or
l f
Ġe ither
Ġwork ing
Ġto day
Ġnot hing
Ġret urn
sel ves
ort un
iz ation
i um
Ġf ore
ri es
as ter
al f
i ans
in a
ci ally
if ied
p ly
Ġty p
ou th
ut es
il ar
Ġf ace
Ġm il
Ġex pect
ir on
Ġall ow
Ġche ck
Ġcom es
Ġre se
ĠN o
H e
Ġevery thing
c o
Ġgiv en
ĠHow ever
Ġse en
Ġr ather
Ġro om
v ent
Ġl ater
c hed
um ent
Ġcomm on
Ġ &
Ġy et
Ġne ar
1 2
ivid ual
ĠS e
Ġse ver
Ġp rom
Ġm iss
Ġcon d
p ro
Ġw on
Ġh old
c le
Ġseem s
Ġde al
Ġl im
Ġm ajor
Ġs ci
Ġqu ick
u ro
Ġl ive
in ation
Ġw a
ur y
ĠO n
Ġp ract
ul ation
Ġ1 8
Ġwee k
Ġl ow
Ġ1 5
Ġtoo k
Ġpret ty
ĠE x
Ġt em
? "
Ġn on
r al
Ġspec ific
f or
Ġse x
i vers
er y
Ġb ased
o int
o ll
le t
Ġstart ed
Ġ est
Ġpartic ular
ĠP l
it ions
Ġdes c
h od
an ces
Ġcon nect
Ġsever al
Ġrec ord
Ġyou ng
ain ed
ure d
Ġkn own
Ġso cial
Ġam ount
er gy
Ġe conom
Ġacc ount
Ġind ividual
Ġv ide
Ġf re
Ġneed s
Ġal ong
Ġword s
ĠG od
Ġ <
Ġbu y
Ġcons ider
Ġto ld
f e
Ġw in
ĠI nd
Ġag o
Ġinv ol
ab ility
Ġal most
Ġo per
r ation
Ġor ig
Ġsu ccess
Ġin tern
Ġfoll owing
our ce
Ġc ell
ĠF r
Ġf our
ak en
Ġ X
Ġa ut
ĠR ep
Ġt re
o id
if y
uth or
Ġlike ly
ar r
Ġs al
Ġpro ject
! !
Ġb ro
Ġm ess
Ġqu ite
Ġc al
el t
Ġtr ue
oh n
Ġevery one
Ġ z
Ġs ense
Ġinclud ing
w h
Ġt ax
on es
Ġfoll ow
w are
Ġty pe
Ġhe art
ĠN ot
ĠAmeric an
Ġpres ent
ull y
Ġstr ong
Ġmus ic
Ġp ress
Ġp hys
Ġph ot
Ġre ce
Ġ vers
en cy
Ġcre ate
gg est
Ġf all
Ġcl ose
u se
g le
Ġact iv
Ġm ult
ĠC on
am a
Ġwhe ther
Ġf oc
.. ..
ĠCh rist
Ġg irl
Ġst ep
Ġre du
Ġc ult
Ġatt ack
a pe
ward s
pp ed
ĠC an
c ent
Ġav ail
Ġt reat
om m
Ġben ef
ang u
Ġcharact er
Ġw atch
Ġval ue
Ġw alk
ill s
Ġh ig
id ence
Ġl and
ut ure
pe cially
ne y
m in
Ġprot ect
ÂłÂłÂłÂł ÂłÂłÂłÂł
ĠO ne
Ġfriend s
is on
Ġent ire
5 0
Ġimp ro
c er
c hes
Ġsim ply
, âĢĿ
Ġf ail
ic ult
o le
p or
ac es
ou n
Ġev ent
Ġar g
W hen
th ough
Ġen ergy
Ġm or
Ġ ident
l ish
Ġ :
ĠM ar
o ver
Ġbre ak
Ġsu ggest
Ġtr ad
ĠM ay
Ġan t
Ġab ove
Ġse lf
Ġare a
f ect
Ġh y
Ġc ut
p ort
le ep
a ut
l er
Ġme et
g s
Ġwant ed
Ġre pl
E R
w here
Ġo pt
p ar
Ġan al
m b
Ġsit u
Ġt aking
ĠW ith
ore d
s y
Ġw ond
is ing
Ġwr ong
Ġke y
Ġcl aim
Ġfil m
Ġcomp ut
Ġprov ide
Ġs n
an ks
en e
Ġet c
ĠA d
Ġrep ort
Ġeas y
Ġp ict
Ġsing le
Ġrel ations
Ġab s
Ġbl ack
Ġbl ood
re ct
Ġus ually
Ġem ploy
Ġacc ess
ĠThe se
Ġde b
Ġgr ow
ition al
Ġex ist
Ġc ra
Ġey es
ur ther
Ġsp ace
Ġmet hod
F or
er al
ĠS c
ur s
Ġcom ment
ĠP r
Ġ #
Ġask ed
Ġde ath
C h
Ġd ue
. )
p ut
Ġvar i
j oy
Ġh alf
Ġw ind
Ġbe gin
Ġsim ilar
ct or
Ġavail able
Ġ1 1
Ġob ject
Ġyour self
Ġ *
Ġinst ead
v iron
Ġfun ction
Ġany one
Ġs ent
Ġbeh ind
ress ion
Ġf uture
Ġm ag
ur ity
Ġn et
Ġl a
Ġdiff icult
Ġoff ic
Ġd am
Ġn at
ir c
ĠE ng
m y
Ġp ie
ou d
o ot
ord ing
Ġac ross
Ġex act
re w
Ġm ot
2 01
oo se
Ġwork s
Ġso ft
Ġp arent
Ġsim ple
Ġloc al
Ġf ight
Ġhist ory
Ġquest ions
ĠS ome
ac y
Ġsu per
o on
Ġst ay
Ġdisc uss
Ġinf l
Ġiss ue
Ġn orm
Ġcom b
Ġc ause
ri ed
Ġan im
ent al
Ġp ick
Ġear ly
le y
Ġthem selves
Ġproble ms
Ġnew s
un ch
Ġw ays
ĊĊ ĠĠĠĠĠ
Ġhour s
or th
i ally
Ġa ge
Ġl ink
it es
en n
Ġcan not
or r
b ody
Ġf av
i od
ĠP h
li ke
Ġto t
Ġwas n
Ġpoint s
Ġget s
Ġc red
ive ly
o x
W h
i ents
Ġen c
Ġf ig
ĠT e
Ġ1 3
Ġbr ing
b ook
Ġapp lic
g ing
Ġl angu
f er
Ġspe cial
pl es
o ke
ĠĠĠĠ ĠĠĠ
i res
Ġne cess
um e
ĠY our
ain ing
is ter
Ġt akes
âĢ ĵ
Ġperson al
Ġmom ent
em pt
so ci
Ġes pecially
un e
Ġc ity
y le
Ġf und
Ġon line
Ġart icle
as k
Ġspe nd
Ġen joy
Ġgo es
Ġvide o
Ġit self
Ġsay ing
Ġfe ature
g es
Ġfr ont
ri pt
Ġ3 0
1 3
og n
aug h
Ġme as
d e
Ġmonth s
i ol
Ġan n
Ġhow ever
Ġfil es
Ġsa w
and s
Ġte xt
Ġrelations hip
iqu e
end ed
Ġwom an
Ġserv ice
iv ed
Ġst ra
ater ial
ver age
Ġ ess
it ch
Ġl o
Ġac cept
Ġf ield
Ġdet ail
viron ment
Ġrese arch
Ġneed ed
u ed
Ġdef in
Ġm ass
ir t
Ġd ou
im ate
Ġ1 6
Ġcomp an
ul es
s on
Ġris k
Ġse ll
y n
ver se
Ġc ode
ĠâĢ Ķ
Ġs um
ro du
ĠJ ohn
" .
Ġb ar
our ces
Ġde pend
l ight
Ġl og
Ġmin utes
h aps
Ġind ust
ist ic
Ġlong er
ip s
re me
Ġmov ie
ĠN e
itt ing
us es
Ġst uff
b ack
it or
ĠN ow
as ing
un g
Ġd est
Ġl ab
res ent
Ġcol le
a i
ol ution
Ġa uthor
Ġr ad
ĠA m
Ġc op
Ġcom ing
um b
ib ility
Ġs ong
Ġre le
Ġper fect
Ġpro p
Ġout side
ate g
Ġrem ember
led ge
Ġre d
Ġiss ues
il t
Ġmed ia
ĠW hy
ud e
Ġt aken
Ġwh ite
Ġresp ons
Ġ1 4
Ġhig her
ĠM an
c he
uro pe
Ġgener al
Ġcont ent
le ment
. ,
Ġstud ents
ĠA fter
ĠUn ited
Ġins ide
or ld
Ġinclud e
A l
om es
Ġf ire
1 5
Ġf elt
a ult
Ġrequ ire
os p
Ġst e
ĠJ ust
if t
Ġhim self
st er
Ġpri v
Ġh ope
Ġbl og
Ġv ol
Ġwor th
Ġs leep
Ġne g
ic ation
u ly
I N
Ġper iod
Ġpolit ical
Ġpos ition
Ġc amp
Ġprof ess
Ġcom pl
Ġdesc rib
Ġ19 9
Ġm illion
3 0
itt en
Ġthink ing
ĠG r
ec ause
ver t
ĠThe n
Ġrun ning
ac ed
u ge
Ġpol ic
Ġhe ard
Ġsign ific
Ġadd ress
av ing
Ġwe bs
Ġp ull
T hat
Ġso on
et h
ĠI m
Ġex c
id ing
ere nce
Ġdet erm
Ġk ids
g o
os ing
Ġlook ed
Ġli ving
er c
1 8
Ġmay be
Ġle ave
Ġgr ound
Ġp ack
ff ic
Ġto ol
v al
Ġc irc
f ace
N o
Ġpr ice
Ġwr ite
he ad
Ġim m
Ġhand s
Ġch all
Ġ +
Ġf ive
u le
Ġs ort
Ġ ,
Ġm aterial
st r
Ġresult s
1 4
Ġre view
= =
Ġf urther
Ġo il
ant ly
oo gle
Ġam ong
Ġkn ew
ict ion
Ġaff ect
Ġm other
Ġ1 7
ov ed
ens ive
A T
Ġf ile
Ġmy self
ĠO b
ĠH is
ar get
Ġwr iting
Ġcompan ies
Ġhe ar
Ġg ames
pl ay
Ġa ud
Ġtalk ing
m a
ag ed
Ġb oy
l t
n a
g ress
Ġp age
Ġse arch
Ġchang es
Ġon es
Ġtra ck
1 6
Ġen vironment
R e
ĠP e
Ġsh are
Ġdo c
ĠS u
Ġm ention
Ġmem bers
Ġst ore
Ġl ost
o or
m iss
idd le
b l
Ġd ru
Ġcomp et
Ġed uc
ub l
Ġph one
Ġcr it
Ġse nd
Ġp ort
ab les
Ġh ot
Ġsomet imes
T o
Ġpart y
Ġde ep
S h
f ully
Ġspe ak
her s
M y
Ġ1 00
Ġinterest ing
i et
Ġrel ig
Ġvar ious
Ġcou ple
ĠC ol
Ġwe ight
at ors
g en
m ber
Ġstud y
ĠE urope
om s
act ion
ĠM e
ĠSt ates
Ġup on
Ġsl ow
Ġread ing
Ġs ens
ĠC ar
oc r
z e
err or
Ġs ite
b all
med i
ch ie
Ġr ate
Ġsitu ation
Ġquick ly
er a
Ġbl ock
f l
Ġfoc us
Ġman age
Ġdevelop ment
m ing
ĠR es
Ġe at
Ġatt empt
Ġbeh av
ĠS y
ĠQ u
ĠF l
Ġh it
Ġser ious
Ġser ies
Ġs at
Ġl ay
il i
Ġcor rect
Ġcomplete ly
Ġd ig
ĠA pp
Ġfo ot
Ġc y
ivers ity
ate ver
Ġact ion
ra ph
Ġexact ly
Ġdiffere nce
Ġlangu age
Ġe p
Ġnat ural
Ġst ruct
Ġcle an
A N
Ġ ill
a ff
Ġso ci
Ġim ag
Ġst at
en ing
Ġsk in
ic ro
1 7
Ġd ark
Ġc ard
re et
ĠAmeric a
Ġde ad
l oad
Ġt able
Ġsub ject
z y
Ġmod el
p ed
Ġbra in
ang er
o es
olog ical
Ġcon v
Ġhappen ed
Ġob s
" ,
ove red
Ġconc ern
Ġs ize
Ġm ach
Ġcommun ity
am ed
il ities
Ġbuild ing
Ġv iol
Ġtechn ology
ĠF e
it ary
Ġtri ed
Ġlook s
2 00
Ġcons um
m on
Ġl ower
Ġc ases
Ġpot ential
Ġro le
Ġdo or
Ġincre ase
as ons
Ġturn ed
Ġterm s
a f
Ġpre vious
o e
is es
Ġpict ure
Ġli ves
Ġn ice
iz ing
Ġte nd
W hy
Ġd om
on se
Ġsh ows
em s
ĠG u
Ġf air
Ġbe aut
Ġsur pr
Ġoff er
f ort
Ġ x
Ġgu y
Ġproduct s
Ġind e
Ġf ather
A R
Ġtra vel
Ġf ast
Ġopp ortun
ĠE n
Ġcomput er
ac hed
Ġres pect
Ġpa per
Ġbec ame
Ġbel ow
Ġen s
Ġt arget
le x
Ġcre ated
n y
un k
Ġfav or
Ġpur p
Ġdr ink
ĠD on
Ġvers ion
Ġper cent
pp ing
Ġb all
2 5
Ġb ott
Ġbe gan
Ġexper ien
Ġqu ality
our n
he l
Ġfeel ing
Ġab ility
ĠB y
av es
re l
es e
Ġs qu
Ġimp act
O N
Ġparent s
Ġm is
Ġpre d
ĠP er
Ġcons id
Ġc am
Ġwould n
Ġb ed
Ġpr im
a pt
e xt
Ġare n
ad es
Ġf ill
ab y
Ġh on
g est
r ight
! "
Ġem ot
Ġpop ular
c ome
Ġb al
Ġsystem s
us ion
Ġha ir
Ġcontin ue
Ġappro ach
ĠW ar
Ġrec omm
Ġy es
Ġwond er
Ġorig inal
itt ed
Ġp ath
Ġrep resent
ut ions
Ġrec ogn
Ġspe ed
Ġappe ar
Ġimpro ve
Ġas soci
b it
Ġto wards
Ġob vious
Ġcou n
Ġsec urity
Ġs ource
Ġsa fe
an a
Ġplay ing
Ġs we
S T
o ber
ĠM r
t ime
Ġgu ess
Ġl oss
Ġknow ledge
Ġs un
Ġa chie
Ġd iv
Ġcred it
r ay
Ġin it
em ent
ci ous
or ing
Ġ2 5
Ġav oid
op s
Ġfin an
Ġcount ries
ĠM c
Ġext ra
Ġev idence
Ġim age
ĠA b
Ġatt ention
s p
Ġem ail
Ġdis e
Ġl ack
ĠIn st
ĠP res
ĠĠĠĠĠĠĠĠĠĠĠĠĠĠĠĠ ĠĠĠĠĠĠĠĠĠĠĠĠĠĠĠĠ
ific ation
Ġpol ice
Ã ©
ib ly
O n
The y
Ġex cept
ir th
ĠW ell
Ġus er
o ff
Ġserv ices
en ces
Ġreg ard
Ġeng ine
ad d
re g
he t
Ġbo x
Ġeas ily
Ġcould n
Ġle ar
Ġh uge
Ġfor ward
ĠT w
< /
Ġb i
Ġwant s
aug ht
Ġco ver
ĠA f
m it
ers on
u el
Ġwebs ite
Ġco ol
w ise
Ġfor ce
Ġphys ical
gr ound
Ġf ix
ur ch
Ġ ri
Ġv ot
Ġst ri
Ġco ll
ĠWh ile
du ct
Ġch ance
Ġhapp y
un t
Ġnorm al
il le
Ġt ou
m p
h a
ast ic
ress ed
Ġc ook
s et
Ġj ud
sy ch
Ġmean ing
c ul
Ġro ad
att le
Ġg ave
ur t
Ġse par
Ġb ank
Ġinfl u
Ġindust ry
ĠE ven
Ġconsid ered
R E
Ġf ac
I s
b ed
Ġ5 0
Ġcol or
m ore
Ġs us
Ġcon cept
Ġw all
Ġrequ ired
Ġ Â
Ġext reme
Ġlevel s
Ġwr itten
Ġcomple x
ĠW orld
Ġmult ip
Ġl ate
O ne
Ġs il
ly ing
2 2
Ġpre vent
Ġt it
n ow
Ġdec ided
Ġ ut
Ġeffect s
ar ily
he m
Ġwee ks
Ġim medi
j ust
r ing
ar th
ct ions
ĠE d
ĠW ill
us ing
Ġre ach
t t
Ġm at
Ġperform ance
ĠC ont
an ced
Ġinvol ved
Ġd a
et er
Ġj o
Ġpart s
Ġg un
Ġhapp ens
Ġth ird
n ed
ĠH ere
ĠG o
a ur
p ite
Ġsu ff
Ġh op
Ġcont act
Ġreg ular
Ġresp onse
Ġsoft ware
Ġde li
er ve
Ġth reat
Ġey e
4 0
ĠS ec
ur ance
Ġn ature
Ġgiv es
Ġhe av
Ġbook s
L e
r am
Ġcol lect
is c
Ġpo or
Ġr ange
Ġch oose
Ġse ason
Ġcom ments
ĠM ed
Ġf ine
Ġwh atever
ĠP art
Ġcon vers
Ġso ld
Ġpre p
Ġdri ve
Ġpur ch
Ġtyp es
e ah
ll ing
Ġf at
ic ated
ĠD em
Ġc at
ĠK e
Ġwork ed
re st
ar i
Ġplay ers
ol ute
Ġo ption
Ġro ck
ch an
t ain
Ġcharact ers
art ment
ĠG erm
Ġlear ning
Ġsc reen
p ing
Ġpie ce
e es
Ġnecess ary
Ġag ree
Ġal one
iv al
en ed
ou l
Ġd ream
ll ed
Ġsci ent
Ġsp ir
Ġare as
Ġoff ice
ĠO f
Ġnet work
w w
__ __
Ġmor ning
ĠBr it
Ġfe ed
it ter
ob al
in ary
Ġnum bers
Ġc e
Ġwe b
) :
Ġd ro
ag er
n ers
Ġch oice
r an
ĠJ an
Ġ @
Ġs on
m m
Ġv oice
k ing
ir m
res h
Ġc and
Ġst ru
ĠEng lish
ys is
Ġtr uth
Ġ2 4
Ġgrou ps
Ġv ict
Ġst ates
Ġfin ally
k y
Ġtot al
Ġtem per
ĠY ork
in o
Ġtr ust
Ġ ign
Ġmod ern
/ /
Ġmov ing
8 0
ĠC al
Ġb ur
is hing
iv il
ĠM ost
h ood
Ġre asons
Ġmed ical
et ic
? âĢĿ
ite ly
ĠU s
Ġstand ard
Ġev ents
y ond
al ing
ce ed
ie f
n ces
Ġm ix
Ġcour t
ud d
al es
ens ion
ĠG e
Ġgiv ing
Ġf em
N ow
Ġde g
Ġocc ur
Ġadd ed
Ġcont rib
Ġcertain ly
Ġre v
Ġpract ice
iv ity
ri ption
Ġb reat
Ġsa ve
ĠE very
Ġl iter
Ġpr in
Ġinst all
Ġtra ining
Ġp an
6 0
ĠH er
I D
ro om
Ġdra w
Ġdec ision
Ġaut om
in c
op h
Ġus es
Ġb ase
im um
2 3
ren g
Ġa verage
Ġcell s
ound s
Ġide as
Ġte ac
Ġh ost
Ġmultip le
ic les
ag ing
ou ra
Ġleg al
Ġsci ence
O T
Ġread y
Ġmil itary
Ġto wn
Ġsol ution
at ory
Ġrec ent
l im
Ġl if
r ict
om b
am m
Ġpress ure
Ġs ix
Ġmess age
Ġw ide
it ution
Ġco ld
Ġop in
ĠAl so
id ay
Ġcult ure
ol ic
Ġf it
-- --
Ġint rodu
Ġper haps
Ġex ec
Ġdo ll
Ġpos itive
Ġm iddle
Ġfre qu
Ġacc ording
Ġsur v
Ġc ross
Ġreal ity
g ar
Ġg one
Ġright s
Ġsoci ety
ad a
A S
Ġhe ld
os es
se qu
Ġgu ys
Ġup d
Ġ ir
Ġp en
if ul
Ġst ock
Ġr ules
Ġact ual
Ġfig ure
w ord
Ġpres ident
Ġ \
ĊĊ ĊĠ
Ġu r
S he
Ġin n
Ġsh ot
Ġset t
Ġd en
Ġfin al
ĠD r
Ġp ubl
ĠG en
Ġknow s
ĠT V
in y
Ġag re
Ġh or
ĠPres ident
am s
c ies
Ġfe ar
Ġ ver
f act
Ġgrow th
Ġunderstand ing
Ġg as
ĠRep ublic
ru ction
u x
ĠH ar
Ġallow ed
Ġplay er
E x
Ġde l
Ġpolic y
Ġdo g
Ġrec ently
e gr
li er
b ut
ĠL et
ag n
ĠR uss
ĠA re
im in
Ġaw are
Ġrel ated
ĠÂł ĠÂł
Ġchang ed
Ġp le
Ġopt ions
ap an
Ġ201 2
Ġre ve
Ġar ri
Ġfinan cial
ĠC ent
Ġdoc ument
um ents
ĠY es
Ġor d
Ġtreat ment
Ġadd ition
s u
A L
Ġes c
Ġest ab
r it
Ġc ry
Ġb and
ic ed
ĠOb ama
Ġus ers
Ġgener ally
ony m
) ;
Ġem b
Ġ {
Ġm ist
ous ly
Ġbra nd
al y
= "
a ign
Ġse lect
Ġall ows
Ġvis it
Ġprodu ction
Ġv ote
Ġdou b
ĠI nt
ĠIn tern
Ġbu ilt
Ġphot o
2 4
ĠCom m
om ing
P h
Ġwa it
Ġbr ought
min ist
as c
Ġn ational
Ġex erc
ĠS m
Ġfe et
as hing
Ġ ...
2 1
Ġplay ed
Ġstra ight
Ġdirect ly
Ġhelp s
Ġsignific ant
Ġd ate
Ġfe ll
Ġf a
al d
ĠA ct
in ally
il es
Ġst yle
Ġdam age
Ġsl ight
Ġth ous
Ġw arm
Ġcond itions
Ġp lease
ic ate
Ġl oad
se c
Ġlead ers
Ġ2 1
Ġcustom ers
Ġr out
Ġeas ier
Ġal though
Ġwe ap
augh ter
h ow
k en
Ġb irth
Ċ ĠĠĠĠĠ
p ir
Ġnot e
A ll
Ġst reng
z z
Ġw ife
ut ed
ar ies
ĠB ecause
Ġpa id
ĠM us
ent y
ed eral
Ġb urn
Ġbenef its
am ent
B e
er o
eng th
Ġgo al
Ġtemper ature
Ġbas ic
ĠD es
O C
Ġeconom ic
a ul
u k
Ġeffect ive
Ġcar ry
Ġfl ow
ĠC o
Ġun ique
ĠG oogle
Ġst ories
ru pt
Ġcost s
Ġl ose
ĠM in
Ġoffic ial
ourn al
Ġabs olute
ci ent
O R
Ġha ven
Ġhe at
Ġre pe
Ġpl aces
Ġt en
B y
Ġte ach
A t
Ġpurp ose
at ives
Ġd anger
Ġimp lement
est s
og rap
Ġapplic ation
id ge
Ġcustom er
Ġwr ote
w hat
ĊĊ ĠĠĠĠĠĠĠĠ
rop ri
ĠS w
Ġca pt
Ġe mer
le ar
Ġinvest ig
b or
ess ion
Ġp sych
it ude
Ġbr other
ce ll
Ġbec omes
im ent
Ġcont ract
Ġcl os
Ġpriv ate
und red
Ġexpl ain
air s
Ġc it
ĠAn y
Ġrecomm end
ÂłÂł Âł
Ġsp ent
pp er
y ear
Ġb aby
n es
Ġst ick
Ġche m
ke y
Ġm atch
Ġl ines
W ith
Ġdise ase
ĠS ch
ell ig
Ġu nd
Ġpat tern
Ġal tern
Ġg reen
. [
E N
ĠUn iversity
Ġsound s
Ġpop ulation
Ġseem ed
Ġin j
Ġsur face
at form
Ġbe yond
ar a
Ġme ant
om p
ord er
Ġme chan
ĠA ug
Ġsub st
ace book
Ġeff ic
Ġl ed
e ch
Ġun f
ĠA ust
Ġcom fort
ĠCh ina
ĠK ing
Ġn ut
H ere
ent ially
iv ing
Ġfor mer
Ġtou ch
ĠF rom
Ġfeature s
Ġcons ist
Ġpartic ip
Ġu lt
Ġeduc ation
am b
ĠE arth
C on
ĠA g
ĠPe ople
ĠB ar
âĢĿ .
ra nd
Ġrel ative
os ition
Ġ4 0
Ġsupp osed
ight s
h an
Ġ2 3
Ġparticular ly
Ġproper ty
im ately
Ġpri or
miss ion
Ġst ress
Ġcamp aign
Ġuse ful
Ġm ur
Ġear th
Ġadv ant
: //
wh ich
is ions
Ġf ra
az ing
Ġbehav ior
re ly
v ant
ren ch
ĠS outh
Ġstart ing
Ġtr ou
d om
N ot
ag s
7 0
Ġsk ills
Ġsh op
Ġsee ing
Ġst ar
C l
ĠJ ew
an cy
Ġbegin ning
b and
Ġhealth y
E S
Ġval ues
ar c
ĠC he
Ġli k
Ġpower ful
u ary
Ġ2 2
Ġpro gress
Ġindividual s
ĠSt e
Ġsh oot
Ġens ure
ac hes
Ġmeas ure
Ġt ast
Ġmov ed
Ġmem ory
i ant
Ġsp read
ĠE l
ĠG l
Ġresp ond
E D
Ġm outh
Ġte le
ĠCh ar
Ġimmedi ately
il ed
p re
Ġeff ort
ĠM ore
Ġdesign ed
I S
or ry
m pt
Ġke pt
Ġdem on
Ġcurrent ly
Ġv ia
Ġmach ine
Ġgo ld
Ġdem and
al t
Ġv ac
Ġw at
Ġins urance
Ġbo ard
ub e
ra el
ĠA pr
ĠS im
th at
Ġcond ition
Ġsc ene
ĠAf ric
Ġar m
Ġ201 1
Ġch o
ol es
ĠF irst
I T
e v
U n
r is
ĠJ apan
Ġopportun ity
Ġspir it
Ġh arm
ak er
Ġf ing
Ġm ob
Ġf uck
Ġcont ain
Ġh undred
ic ations
9 9
h old
Ġres ources
Ġmem ber
Ġsc en
Y our
Ġl at
Ġkill ed
Ġcreat ing
Ġ201 0
Ġdefin itely
Ġp ow
Ġd ie
Ġstru gg
ĠM ark
h ib
Ġmove ment
ĠA dd
ag ue
ic a
Ġthrough out
ĠL ike
ĠD av
Ġprodu ce
Ġthought s
Ġon to
2 6
Ġ201 3
ortun ately
Ġw ish
r ast
ĠN orth
Ġdetail s
Ġmanage ment
* *
A M
ro y
Ġn ames
Ġne igh
og raph
k ay
a el
Ġinter view
Ġt al
Ġk id
Ġm id
Ġprin ci
ĠH ouse
Ġhigh ly
Ġpl ant
Ġeconom y
Ġm ount
Ġwho se
Ġthe ory
A fter
Ġlearn ed
Ġanal ysis
ĠE m
A C
dd en
? ?
Ġactiv ity
Ġwatch ing
Ġbeaut iful
ou p
Ġre lease
ĠT ra
Ġinterest ed
Ġsh all
re ci
ĠAr t
Ġdev ice
bo ard
b ased
it ation
ĠO ct
Ġit ems
Ġgr ad
Ġcomm and
b um
Ġclear ly
ĠM on
r ound
le ction
Ġsh own
ate gy
Ġcan cer
Ġbl ue
Ġevent ually
Ġanim als
Ġpr int
Ġ200 8
Ġincre asing
Ġcap ital
onym ous
om en
Ġen em
Ġpl atform
Ġb ill
ĠTr ump
d own
D o
Ġgl obal
Ġsu dden
l a
Ġc ivil
Ġstruct ure
r s
y ou
Ġca used
Ġve h
Ġent er
ri ef
Ġas pect
Ġtr uly
her n
Ġexpect ed
Ġneg ative
Ġad ult
ĠS pe
S ome
Ġass um
Ġant i
Ġmost ly
Ġdru g
ĠSt ate
an i
n own
Ġint egr
Ġnear ly
Ġprov ides
al ed
Ġc ast
Ġra ce
ore s
Ġgra nd
a e
iv en
Ġwor se
u fact
Ġli ber
ĊĊ ĠĠĠĠĠĠĠ
ro l
Ġb atter
Ġnot ice
Ġear lier
Ġsec ret
Ġass ist
Ġsal es
Ġachie ve
ĠM any
m ark
Ġstud ent
Ġcl ot
le br
il s
2 7
Ġdist rib
Ġredu ce
g n
ĠD is
Ġm ax
w ith
Ġpr ote
Ġsa f
Ġgreat er
4 5
ĠP ol
Ġbro ad
Ġep is
Ġprov ided
Ġmention ed
Ġlim ited
a per
o ly
ĠDem ocr
Ġcand id
Ġcop y
et t
Ġr ule
Ġlar ger
Ġan g
g al
Ġinc ome
Ġdevelop ed
en ge
Ġenc oura
Ġsuccess ful
ĠCom p
an c
Ġim pl
Ġth us
Ġthere fore
at ur
Ġcolle ge
ĠR om
il ing
ĠR ed
Ġfl oor
Ġfavor ite
ed om
Ġfull y
Ġprofess ional
Ġr ound
ĠP ar
Ġwill ing
P ro
Ġl ock
Ġn amed
Ġb orn
Ġd at
Ġbelie f
Ġg od
e k
Ġn ation
2 8
Ġtool s
Y es
ĠP re
Ġcit iz
ra ft
or ks
Ġm er
Ġlot s
ĠO ther
Ġst age
Ġpre fer
Ġstep s
ect ion
Ġar ch
Ġrequ ires
Ġt our
Ġinde pend
W ell
i ation
Ġchar ge
Ġs am
Ġse ction
Ġintern et
Ġextreme ly
Ġgr owing
c ast
ĠO ur
Ø §
Ġmajor ity
Ġassoci ated
Ġda ily
2 9
Ġdis play
Ġp us
ud get
Ġadd itional
Ġmarket ing
ĠJ es
Ġopin ion
ĠO nce
Ġcent er
ĠU K
Ġdo ctor
N A
ul ate
Ġad minist
k a
os is
Ġh us
Ġpass ed
Ġold er
iz es
m en
l am
im al
Ġbenef it
ab or
es tern
ĠIs rael
ĠC or
Ġdi et
Ġw ood
Ġdire ction
3 5
Ġtit le
Ġcomp on
r ow
Ġask ing
i ber
er ved
Ġe ating
Ġlaw s
ĠT H
Ġcare er
Ġn arr
ĠP ost
Ġchall eng
b on
Ġh osp
Ġlim it
ir ing
Ġl ength
ĠC ons
Ġ19 8
Ġt ask
Ġtr ade
Ġmeet ing
Ġr id
Ġrece ived
Ġl uck
Ġstate ment
od es
Ġacc ur
Ġ200 9
Ġstreng th
Ġapp ropri
Ġrele ased
ĠChrist ian
oc ol
Ġp ark
Ġhist or
ĠMay be
S c
ch ange
Ġback ground
Ġhon est
Ġincre ased
Ġbott om
Ġcent ury
ri age
it able
Ġcl ick
I C
Ġp un
L L
Ġatt ract
Ġele ments
Ġinst ance
Ġjob s
Ġd ied
Ġj ump
cc ording
Ġsm art
Ġtell s
Ġno vel
Ġfl u
Ġcomp ared
Ġgirl s
Ġro b
Ġm ill
ru it
ro ll
Ġstart s
ĠC ity
Ġbe g
ain t
Ġfact ors
Ġarg ument
ĠO h
Ġun less
i am
Ġrece ive
ĠS er
O S
Ġrem ind
Ġres ist
Ġappe ars
ĠBrit ish
u gg
Ġsex ual
A r
ĠS ince
Ġcont ext
Ġg e
Ġfollow ed
Ġcoun ter
ĠWh o
i j
um n
ĠI I
Ġstr ategy
Ġal bum
Ġgl ass
Ġb le
ck s
Ġpat ient
Ġpat ients
Ġser ver
Ġt er
Ġcal cul
Ġrelig ious
i ver
Ġre act
Ġrem ain
Ġinclud es
y l
Ġdis p
Ġact ions
Ġtrad itional
n o
ĠFe b
Ġd ry
> <
if ying
ust r
Ġlist en
orr ow
ad y
ĠG ood
pect ive
Ġpre c
Ġdeb t
Ġdec ide
or ge
at ically
Ġc ru
Ġfore ign
Ġf ol
ap ter
Ġfeel s
Ġco ff
ĠAmeric ans
Ġv ir
is f
Ġman ufact
ĠN ational
in ct
Ġsp ot
ĠBl ack
qu e
Ġm ental
Ġf resh
Ġdec l
Ġwa iting
Ġsaf ety
Ġpe ace
Ġvict im
Ġst aff
Ġapp reci
Ġtrans l
Ġrequ est
Ġaud ience
Ġ ice
Ġto ward
Ġv irt
Ġle aving
Ġsmall er
t r
ĠM ich
Ġelect ric
Ġmethod s
D on
Ġslight ly
pt ember
Ġc up
Ġfor get
Ġint ellig
3 3
ear ch
Ġw ild
Ġcall s
Ġtra in
ines e
Ġset ting
Ġb attle
Ġref lect
Ġloc ation
as ion
Ġqu al
l s
Ġheav y
Ġanal y
f riend
Ġe gg
b ing
a res
Ġcam era
ĠR ec
Ġca uses
w ood
od ay
m itted
Ġhum ans
Ġprogram s
Ġlet ter
Ġun c
Ġsy mpt
Ġam azing
Ġa head
Ġce lebr
i ers
Wh ile
Ġreal ize
ĠC ong
Ġbal ance
Ġdes pite
ar ian
ĠW ind
Ġ2 6
an ch
ist ics
ce mber
Ġfor ces
er ation
as y
ul ated
Ġf an
Ġfr ame
Ġref er
Ġm icro
Ġher self
Ġc atch
Ġover all
O U
Ġlead ing
Ġactiv ities
am in
ĠN et
Ġdef end
Ġr ich
Ġd rop
am ing
ili ar
for ce
Ġwor ry
Ġapp arent
Ġc ars
ove mber
p art
ĠJ ack
Ġ2 8
Ġ201 4
Ġsum mer
Ġt ree
Ġv s
Ġcor por
Ġbas ically
Ġse qu
== ==
ov ing
Ġk ick
Ġhy p
i verse
ond ay
Ġreport ed
Ġpred ict
ĠD ay
l in
Ġn uc
Ġimag ine
Ġc ash
ĠM arch
Ġspec ies
ĠC our
t ies
ĠJan uary
Ġb ul
Ġdoub t
ad em
act er
Ġs pl
Ġstud ies
Ġapp ly
Ġorgan ization
c oh
B l
Ġcl osed
Ġwind ow
g ers
r ig
ĠF rench
Ġother wise
Ġhe ll
a ven
oss ible
Ġ6 0
Ġrespons ible
nd s
ve y
Ġtell ing
ron ic
O h
Ġwe ak
Ġg ain
Ġv ill
form ation
ak ed
ter m
p es
Ġ >
Ġr ates
Ġdeterm ine
Ġintern ational
à ¤
omet imes
e ff
ĠApr il
Ġh ate
Ġsh ut
ĠV al
Ġbas is
Ġsh ip
v ision
Ġcontin ued
ĠWh ite
Ġ ing
ra b
tern al
p en
Ġbe at
ri e
Ġconnect ion
g u
Ġconvers ation
Ġadvant age
und ay
F rom
Ġany way
Ġfor g
ĠW est
ad ing
Ġplan et
L et
Ġim ages
Ġinter act
Ġexerc ise
ed s
ĠG et
Ġsc he
Ġhand le
w ell
Ġpubl ished
ĊĊ ĊĠĠĠ
Ġprim ary
A P
Ġinclud ed
up id
v est
ro s
od ies
ĠG reat
Ġs ad
3 9
Ġt error
0 9
Ġdest roy
Ġp et
Ġess ential
er g
ul f
b an
Ġe th
Ġexp ress
Ġadv ice
ĠAust ral
Ġput ting
or g
Ġr at
in ner
Ġkeep ing
ĠU p
Ġsc ript
Ġ id
Ġb udget
Ġ2 7
Ġs itting
l ict
ang ing
Ġ201 5
Ġvari ety
se e
ra in
Ġch ann
O M
ul ations
Ġreg ion
ĠJes us
Ġdeg ree
Ġc ateg
Ġturn s
Ġhe ro
Ġdist ance
Ġrepl ace
C an
Ġexp ensive
Ġac qu
Ġl oved
ĠJ une
Ġpr ices
C om
Ġdri ving
Ġhus band
Ġcoff ee
ra w
ri ble
u ild
Ġfa ith
Ġmov ies
Ġra nd
Q u
Ġcon duct
Ġfem ale
ill ed
ra q
Ġf aster
Ġn or
Ġfind ing
Ġd er
Ġh ous
Ġb illion
ĠB o
ĠAug ust
ci ence
Ġabsolute ly
1 00
Ġact ive
ĠS l
Ġfor ms
Ġcontin u
Ġdev ices
E T
Ġqu ant
Ġdig ital
it c
Ġm ale
Ġgra ph
] .
li ed
Ġoff ers
Ġswe et
Ġspe ech
v is
ar ter
ĠS am
ĠP aul
al se
um an
B C
Ġpr ison
3 8
Ġrem ove
Ġ error
Ġslow ly
Ġh ar
Ġstop ped
Ġf ederal
Ġbec oming
bo x
Ġc ards
ĠTh anks
Ġanim al
end er
Ġdou ble
Ġhelp ed
y a
ow d
Ġpl ans
h am
ur g
D e
ĠNew s
i us
Ġst reet
Ġdescrib ed
ograp hy
w r
Ġg ar
p ret
4 4
Ġli br
il ies
if orn
Ġt im
Ġche ap
he st
ĠC r
ĠJ uly
cept ion
Ġar ms
Ġrand om
f ra
a id
Ġt ick
Ċ ĠĠĠĠĠĠĠĠ
Ġinc red
x y
Ġtri p
Ġtop ic
Ġposs ibly
Ġbig gest
ct ors
3 6
Ġro ll
Ġsit es
Ġsur round
Ġf arm
Ġwe ar
ĠP at
m as
Ġtot ally
Ġp ush
ĠD ep
al u
Ġs ources
il os
ĠD OC
Ġsepar ate
Ġ Ã
Ġd aughter
Ġre b
ĠR em
Ġfor ced
ÂłÂłÂłÂłÂłÂłÂłÂł ÂłÂłÂłÂłÂłÂłÂłÂł
Ġa im
c an
Ġfre edom
Ġchall enge
p oint
Ġdiscuss ion
Ġtyp ically
Ġchem ical
T w
Ġcom mer
ĠD ef
ĠS en
Ġsu gar
Ġstat us
y r
Ġequ ip
Ġinflu ence
g ment
ĠN ovember
Ġknow ing
âĢĿ ,
Ġsh ape
d o
Ġchang ing
Ġcomp ar
it ness
A D
Ġlead er
How ever
ĠSe ptember
Ġs oul
ĠCh inese
c les
ail s
k nown
P S
The se
ĠRe g
ues day
Ġsympt oms
Ġad just
Ġpay ing
Ġad op
Ġspend ing
P l
i pe
Ġwork ers
Ġsy mb
Ġappropri ate
Ġc ore
ĠI raq
Ġconf lict
I m
U S
Ġe ight
ĠInd ia
idd en
Ġ200 7
Ġpre m
Ġtr ick
Ġmin or
ĠDav id
pl ace
ond on
Ġcirc um
ĠEurope an
ĠDe cember
Ġprom ot
Ġhappen ing
Ġr an
3 7
Ġcr ime
Ġse a
s pe
Ġm ap
Ġprodu ced
Le ave
r ough
Ġo dd
ĠL aw
Ġpurch ase
ord s
Ġemploy ees
coh ol
ĠP al
Ġm aster
in ated
Ġd ed
Ġtrou ble
Ġstr ateg
Ġlat est
Ġ er
Ġdoll ars
Ġc aught
N ew
Ġdru gs
Ġad vert
Ġthous ands
ĠP C
Ġh tt
Ġexam ples
Ġmiss ing
Ġmain tain
pro ve
ĠI S
our ney
0 5
ĠM et
ov es
ĠDo es
Ġcon sequ
Ġ ?
ne w
Ġal le
ul a
Ġteam s
Ġgo als
Ġst ream
Ġhold ing
Ġl ic
iforn ia
Ġthan k
Ġcrit ical
Ġdat ab
Ġch urch
ĠL og
Ġdet ect
ant ed
r ad
Ġfact or
ĠA nt
U s
Ġsh ock
ot ic
Ġpo ll
ĠB ill
Ġy ell
Ġsh owing
Ġf ish
Ġh om
and er
Ġdemon str
Ġentire ly
Ġh urt
ol ar
Ġansw ers
ĠF acebook
Ġ201 6
Ġre ached
Ġpie ces
Ġpre gn
Ġf ans
Ġar r
Ġle aves
ĠA M
Ġele ment
c ont
Ġt err
res p
ĠP M
Ġb rief
rap y
Ġbro ken
c il
Ġr ise
Ġrem ains
Ġf uel
ri al
Ġmet al
Ġsat isf
yn am
k in
Ġconc ent
ant ic
Ġcons erv
0 8
id ents
Ġshow ed
ĠS un
Ġapplic ations
is l
Ġb ought
ĠM ac
i able
Ġclaim s
iz ations
ashing ton
Ġra p
g a
Ġthan ks
ed nes
un ction
Ġm ut
5 5
ĠS an
Ġli ved
st e
i os
urs day
cell ent
Ġmag n
y pe
Ġto m
ve re
Ġrest aur
Ġsupp ly
Ġb ow
ic it
ĠThe ir
Ġown ers
ĠIn c
Ġdec isions
Ġp ages
ĠSt ud
Ġout put
Ġb an
ri an
re f
Ġstand ing
Ġtest ing
ĠD ec
er ry
z a
Ġsc ale
Ġmin ute
O L
Ġb ag
ot o
Ġrelig ion
ednes day
A b
Ġsw itch
Ġcommun ication
Ġre ci
Ġt ight
Ġestab l
3 4
Ġbu ying
Ġpl ants
Ġpro ced
J ust
ĠM od
Ġsecond s
Ġt on
Ġn one
re y
Ġst upid
l ig
h ouse
Ġs ick
Ġcr owd
Ġwalk ing
Ġequip ment
Ġ2 9
Ġbig ger
Ġmar riage
Ġ â
Ġpl aced
Ġc as
ĠAl though
Ġf irm
Ġfam iliar
ĠA v
Ġfam ilies
k i
ru ary
ĠS ee
Ġass ign
Ġdanger ous
Ġele ction
Ġweap ons
Ġsol id
Ġnot iced
Ġschool s
M e
m ar
Ġobvious ly
ĠW here
Ġsong s
Ġhosp ital
0 7
Ġfight ing
ens es
Ġcitiz ens
' ,
ic o
Ġatt end
Ġcr is
Ġf ant
im inal
Ġb ound
ĠO ver
f ield
Ġexperien ces
Ġbut ton
Ġ19 7
ur ation
Ġcl oud
Ġap art
ĠA c
Ġwas te
Ġval id
P ost
ay er
Ġadd ing
ĠOct ober
Ġ200 6
0 4
ed ia
Ġpost s
Ġcl ient
i pp
ĠâĢ ¦
um s
e ed
Ġc overed
Ġth read
Ġser ve
ĠCong ress
os ure
ĠL a
Ġlead s
ĠTr ans
ĠCour t
Ġev il
Ġrad io
Ġb ird
0 2
Ġexp ression
i ance
ar ant
Ġrem oved
av a
ĠRep ly
Ġdo gs
ig r
ĠO ff
Ġend ed
ut s
Ġimp ossible
Ġepis ode
Ġgu ide
IN G
Ġm o
ĠK ore
Ġaff ord
Ġexist ing
Ġpro s
Ġproper ly
ĠApp le
Ġequ al
Ġun it
Ġman aged
ac ing
Ġpict ures
Ġcl ub
ib r
id a
Ġa st
ĠR ob
Ġrun s
Ġsus pect
u nder
so ft
ck et
Ġqu iet
ere nces
Ġan x
Ġcont ains
ĠE v
Ġinvest ment
ac he
ol f
w orks
o oth
os h
Ġfill ed
Ġpres ence
Ġm ort
Ġnum er
ĠH el
Ġinit ial
ĠInst ead
ĠM or
iqu es
b re
hen s
Ġour selves
Ġp ure
Ġconf ig
e qu
Ġin put
Ġvis ion
as ure
os ite
Ġref erence
Ġsudden ly
our s
Ġass ess
re es
S S
M ore
ra g
Ġrep orts
4 8
ĠC ount
ĠIntern et
it ute
ĠCal ifornia
Ġspe aking
l ook
O P
Ġtast e
Ġeffic ient
ed y
Ġacc ident
3 2
Ġcl im
Ġcent ral
Ġm ir
Ġaltern ative
ok ing
ĠSu per
Ġdef ault
Ġfail ed
ap pe
Ġclos er
Ġpull ed
ld er
Ġhelp ful
an cing
Ġident ify
Ġwe alth
Ġm ine
Ġopen ing
Ġattack s
ĠW ashington
Ġinst ruct
Ġp al
Ġr ot
Ġprote in
The n
Ġind ic
o very
Ġfun ctions
ch ar
c raft
T r
Ġmod e
ĠB ro
in n
E C
Ġre ven
in ter
ĠL ondon
i xt
4 7
ed d
Ġproject s
ĠM icro
ĠJ ames
Ġst ars
Ġpart ies
Ġthr ow
ĠIs lam
0 6
Ġtest s
Ġad apt
d ro
Ġdec re
Ġopen ed
Ġwor st
a it
Ġsome where
Ġbr ight
ien cy
Ġfail ure
Ġjo in
en cies
Ġtr ig
as ks
z en
ĠGerm an
Ġvis ual
Ġrecord s
het ic
oun ced
Ġmass ive
Ġviol ence
Ġnuc lear
v ention
Ġwh om
ĠG ree
Ġj ourney
Ġexper t
! âĢĿ
T S
Ġst ation
Ġem pt
ĠS erv
Ġdown load
Ġhe aring
Ġmult i
Ġ ille
Ġh ur
Ġfood s
Ġme at
Ġemot ional
Ġro ot
Ġpers pective
ur ies
4 9
Ġshould n
Ġinde ed
Ġs and
ac ity
Ġsh ared
Ġdisc overed
Ġstr ange
Ġwe ather
Ġexperien ced
Ġb are
Ġb ond
Ġmod els
Ġgener ation
Ġcall ing
ber g
Ġfam ous
in i
Ġnot es
Ġf alse
Ġbatter y
Ġ ^
Ġfl at
Ġtrans port
Ġpart ner
Ġsc ore
ffic ient
ist ry
all ed
Ġdef ense
rib e
atur day
Ġrelationship s
G et
Ġdes ire
C ont
Ġend s
Ġfeel ings
ĠM art
Ġj ournal
on na
Ġar rest
Ġbusiness es
ak ers
Ġ201 7
Ġtra ffic
Ġed ge
oy al
Ġscient ific
ash ion
Ġmaterial s
Ġra ised
Ġprov iding
Ġmiss ion
M L
Ġ Ð
Ġse ven
Ġcra zy
Ċ ĠĠĠĠĠĠĠ
Ġmob ile
ire ct
Ġjud ge
Ġpl enty
y m
Ġplan ning
i pped
Ġ9 0
ent ed
Ġb odies
Ġmot iv
Ġr ub
Ġobject s
ĠE ast
ĠSt ar
Ġsell ing
or age
ĠM ake
ĠU se
G oogle
ĠH igh
Ġal cohol
ĠO ut
Ġcomm it
it z
S e
Ġconcern ed
Ġte eth
ĠB en
Ġli qu
Ġdefin ition
l ies
ri a
Ġsm ile
ĠWe b
oc al
ĠA P
ic ians
Ġfair ly
c are
sh are
l or
ing ly
ĠL ook
ir ty
ĠB ig
ĠB ra
Ġs ac
Ġ8 0
ĠWh ich
al le
Ġre action
Ġsk y
Ġdi agn
M ost
est ion
m ail
Ġwalk ed
Ġtrans fer
Ġun like
Ġconnect ed
Ġve get
Ġ: )
ĠB el
ĠWind ows
od d
ĠMus lim
Ġoff ered
S p
Ġev alu
O r
ist an
Ġs en
Ġeng age
Ġp u
Ġn av
Ġexp and
ĊĊ Âł
wh ile
Ġinter pret
4 6
. '
Ġdescrib e
Ġrelative ly
Ġch ick
ĠI ran
Ġh ol
ĠT ime
Ġtri al
um ber
ic on
Ġh un
Ġbreat h
Ġcl imate
re m
Ġmil es
Ġ201 8
Ġreal ized
Ġdef ined
Ġcommer cial
Ġfun ny
it ors
Ġfin ished
n ight
Ġacc om
Ġdiffere nces
Ġeff orts
Ġlab or
i i
Ġcor ner
Ġd ial
Ġm ent
ĠAn sw
Ġear n
F r
Ġexpl an
A d
Ġdri ver
âĢ ¢
Ġreturn ed
E O
Ġdepend ing
Ġs ides
Ġwe aring
Ġex cellent
Ġd u
ĠE ach
Ġform at
Ġtax es
Ġcrit ic
Ġpl ot
f ortunately
Ġr ough
Ġteac her
Ġ %
Ġmed ic
ro id
Ĥ ¬
ĠCan ada
or ter
Ġpro ve
Ġhelp ing
ĠFeb ruary
ke nd
Ġset s
Ġs ust
Ġth ick
Ġintern al
i as
s he
ph one
ens ity
Ġph ilos
Ġal t
Ġmil k
Ġam b
Ġprotect ion
Ġun iverse
Ġd ress
ĠP ark
c ol
Ġmar ried
Ġwat ched
Ġpl ays
th is
Ġfl av
O ur
ĠHe alth
Ġqu e
Ġem p
Ġc art
c ription
ĠMich ael
ap ers
Ġpolit ics
Ġmon itor
olog ies
Ġbel ong
Ġdatab ase
Ġconst ant
Ġrele vant
Ġsim pl
Ġt ur
l ock
ic ing
g or
Ġveh icle
0 3
Ġca using
Ġrel ax
at ar
Ġass ume
Ġaccom pl
Ġspecific ally
Ġcol umn
Ġk ing
Ġ )
ter day
A dd
Ġs orry
im prove
E L
Ġp air
e y
Ġregard ing
Ġany more
is hes
Ġmain t
Ġst ret
az on
I I
Ġcomfort able
es ome
Ġdeli ver
Ġtre es
ra cy
Ġdeb ate
es h
Ġf ly
Ġleg s
Ġis land
as p
Ġse m
Ġall owing
Ġclass es
Ġcy cle
f ord
t op
Ġit em
g l
Ġprocess es
Ġmag ic
ĠM ag
Ġm el
Ġdevelop ing
Ġbelie ved
I M
og en
ĠP lease
ĠTh ose
Ġra in
ce an
Ġest im
Ġmur der
Ġsymb ol
ri v
Ġconst antly
ĠRuss ia
Ġsign al
ĠTh ank
ĠIt s
Ġgra b
Ġt un
ill ing
Ġcomb ination
i pping
le e
Ġlar gest
E very
i ety
Ġbeg ins
Ġfol ks
Ġexpl ained
Ġconc l
Ù Ħ
Ġinc or
A A
v in
3 1
Ġindepend ent
O f
Ġc ities
ĠM al
Ġstr ing
5 9
os en
R ead
Ġra ise
Ġb unch
Ġcl ients
Ġli e
ĠAs s
Ġleg isl
ĠL ord
ĠH ave
Ġapp lied
Ġwe ird
ĠR ober
re ate
5 6
h and
Ġkill ing
Ġqu ot
o om
Ġfact s
Ġcons cious
ĠM iss
Ġr ul
Ġan cient
' .
Ġs ister
Ġst ood
Ġsp orts
Ġspe ct
( )
r im
h ost
Ġown er
ĠAn ge
u y
us ive
Ġpre f
Ġsy n
Ġra re
Ġvol ume
ar io
ĠW r
Ġman ner
Ġsee k
Ġre nt
Ġkind s
ard en
Ġent ertain
Ġlaw y
U T
Ġmot ion
ĠN OT
ul s
S ee
Ġsm ell
ig ure
Ġsome what
ĠA lex
Ġdepend s
Ġd im
Ġmin imum
F irst
Ġtr uck
Ġrequire ments
ill y
Ġserious ly
Ġcircum st
nd ing
ag on
Ġpl us
Ġcr iminal
ur rent
Ġhard er
ĠS ub
Ġbr ows
Ġany where
Ġde le
p age
P lease
f ree
Ġd ance
ger y
ĠA N
Ġut il
Ġinn ov
Ġv it
Ġfix ed
Ġcons ult
Ġdec ades
ĠUS A
An y
" >
ĠB ack
ious ly
Ġpar am
it ect
Ġwe l
Ġsurpr ised
Ġatt rib
ĠT om
ĠB ook
Ġsent ence
Ġf ruit
Ġsign s
Ġd ynam
ar p
Ġboy s
Ġclot hes
Ġturn ing
Ġsol utions
Ġsn ow
Ġen h
Ġcontin ues
u it
ĠGo vern
Ġthink s
Ġsome how
Ġloc ated
ut or
Ġcreat ive
Ġtw ice
ĠSy stem
Ġprep ared
Ġmill ions
ĠB re
P e
st ood
E d
Ġus ual
Ġfoot ball
ad s
Ġl osing
Ġre ject
ĠB et
Ġlo an
Ġw itness
Ġwr iter
Ġappe ared
Ġg ro
ĠRe view
ĠL u
ĠIn ter
Ġdisc over
k es
ĠB ush
Ġfl ight
ut y
Ġaccept ed
ĠR ich
m osp
Ġ200 5
Ġwonder ful
in ate
ad o
ĠPart y
Ġ19 6
Ġrest rict
ĠGerm any
r ont
us iness
Ġt iny
Ġliter ally
Ġb ull
r or
Ġbehav i
5 7
Ġing red
Ġnecess arily
out s
4 2
d en
ĠR el
Ġopp osite
Ġwere n
ĠC O
ĠB oth
Ġneigh bor
âĢ ĺ
Ġfin ish
Ġmus cle
Ġhig hest
Ġchalleng es
Ġapparent ly
Ġh all
ol ved
Ġopt im
at o
as hed
ĠA ir
ĠG old
ab et
ra ce
ww w
Ġal ive
Ġent ry
b al
Ġsh it
Ġsa v
ĠOn ly
ĠG reen
Ġex change
Ġr ing
og ue
ĠGe orge
! )
se mb
Ġsitu ations
Ġh orr
Ġtre ated
Ġev olution
it ar
Ġinst r
Ġlink s
Ġimport ance
u h
ic ip
Ġne ck
ĠM ex
Ġrap id
Ġtechn iques
ast y
Ġval u
Ġenem y
and a
ak s
Ġview s
igh ter
Ġcult ural
ĠInd ian
Ġintellig ence
g ency
s m
it ory
Ġte en
Ċ ĠĠĠĠĠĠĠĠĠĠĠĠĠĠĠĠ
ap ed
Ġtrans form
Ġb oss
t a
Ġphot os
Ġ iron
Ġempt y
ĠSt reet
Ġproper ties
ĠJ ul
Ġpo ly
Ġlab el
Ġcolle ction
Ġide al
Ġeffect ively
Ġfoc used
Ġex cess
Ġt ro
i est
Ġk iss
ĠFr ance
Ġgu arant
or a
Ġcho ices
e per
r um
Ġcris is
Ġo kay
Ġtyp ical
Ġestabl ished
: :
ĠR et
Ġst uck
Ġst re
ag o
Ġcl in
ren cy
c ons
an ish
Ġt ough
Ġkeep s
Ġm al
ĠP ort
Ġun s
ĠCon st
ĠR ight
f rom
Ġ ÂłĊ
ĠM at
Ġst im
ul ous
A re
ĠH ome
ou nce
ĠChrist mas
Ġconst ruct
ĠSt ep
Ġsk ill
Wh o
ĠEng land
M ay
ole c
Ġident ity
it a
W here
Ġbr ings
Ġexper iment
Ġfil ms
9 0
por ary
R L
ĠSt r
Ġpolic ies
Ġint ended
.... ....
ĊĊĠĠĠĠĠĠĠĠ Ġ
Ġann oy
fra id
ĠS ing
Ġmom ents
ÂłÂłÂłÂł Âł
I P
y th
ind ing
Ġac id
itc hen
Ġex cl
Ġvide os
ad ow
Ġlibr ary
er ate
ĠS a
Ġteach ing
ĠA p
l ist
ĠAfric a
Ġfl o
m et
ĠT ake
Ġel imin
Ġb ath
Ġas ks
Ġexist ence
Ġperfect ly
Ġs ch
is ms
ur ally
ĠTw o
Ġpl astic
oll y
Ġa fraid
Ġfoll ows
ut ive
id el
5 8
Ġp hen
Ġman ager
E n
I V
y e
p et
ĠD id
Ġdis s
Ġesc ape
Ġmot or
Ġstand ards
w ide
Ġgra v
O W
gor ith
ĠA I
Ġli es
Ġv ast
Ġsal t
up s
Ġcar bon
ĠL ife
i ot
ĠAn other
i ate
Ġadminist ration
Ġse at
ĠW ork
Ġinterest s
k er
Ġph r
Ġl augh
Ġhtt p
ĠComm un
ĠU nder
Ġdirect or
ĠPro f
Ġlist ening
Ġb anks
d r
Ġ7 0
Ġprofess ion
Ġj u
ĠAt t
Ġmess ages
Ġocc up
ĊĊĊĊ ĊĊĊĊ
ĠH am
Ġsh aring
Ġst orage
Ġz ero
Ġhundred s
Ġconsider ing
Ġsec ure
Ġmov es
Ġr ide
Ġad m
Ġoper ations
ĠW he
Ġat mosp
app ing
Ġto w
Ġincre ases
Ġm ail
Ġfor t
Ġsurpr ise
Ġrespons ibility
Ġcompet ition
Ġun ivers
Ġind ex
am ental
Ġopportun ities
Ġlik ed
Ġtechn ical
An other
Ġmatter s
Ġadv anced
M ed
Ġ20 20
Ġabs or
Ġhas n
Ġcap acity
ĠCh urch
Ġplan e
ig ration
ĠS ur
Ġsm ooth
Ġpost ed
Ġs in
ol ve
Ġdeterm ined
on a
Ġab use
Ġd inner
Ġsc ream
Ġst ated
oc racy
Ġr om
Ġg onna
Ġt aught
Ġcra ck
go ing
5 00
Ġn orth
op y
Ġaspect s
P r
Ġwee kend
Ġteac hers
ri er
L E
Ġpro of
Ġfrequ ently
ed ing
t es
Ġprevious ly
Ġille gal
an o
Ġart icles
Ġinf ect
s hip
Ġl oud
Ġgu ard
Ġsol ve
n el
Ġfund s
ĠJapan ese
Ġins p
resp ond
ay ing
R el
v ille
Ġposs ibility
ĠS ometimes
Ġf ashion
ik i
Ġdef e
ĠC am
Ġdesc ription
h ab
ok es
Ġwin ter
Ġcompon ents
Ġg rew
Ġsuggest s
---- ----
Ġredu ced
Ġadv ance
l ines
ĠM o
Ġagre ement
Ġcre ation
Ġt iss
ĠY eah
Ġno ise
ad ed
ĠH y
Ġpo ol
Ġpass ion
t ra
ĠS chool
Ġdis appe
Ġche st
Ġaccount s
Ġadv ent
ĠTw itter
Ġch art
ph as
Ġobs erv
ĠT ex
ars h
ĠC D
ĠRepublic an
Ġun able
Ġpain t
Ġh omes
Ġscient ists
ĠS T
Ġnorm ally
Ph one
ce l
ort ion
ĠFr iday
Ġwr it
stand ing
p ic
Ġv an
Ġaffect ed
Ġb es
Ġbus y
Al so
ĠSo cial
rom e
du le
om y
ĠM il
ĠT ur
re ens
Ġs ight
Ġf lex
ĠD el
Ġser ved
ĠThere fore
Ġtalk ed
Ġb read
ĠH ist
Ġt ips
S A
Ġprof it
Ġm ath
Ġcap able
id ers
ĠS unday
an ing
ang ed
Ġdrink ing
Ġhor se
Ġcont rast
Ġw ave
is ation
Ġoper ating
ag ers
Ġlay er
ĠD a
ĠD uring
e al
ĠTh om
Ġdes k
Ġbr own
ĠM ary
he red
et te
Ġne ither
Ġgreat est
Ġcandid ate
D es
ĠS al
ĠA ccording
ill a
Ġr ank
Ġautom atically
est ic
Ġread ers
i h
Ġac adem
Ġrese arc
Ġaccur ate
p ass
et ers
ap h
ĠI P
Ġmanufact ure
Ġst om
Ġupd ate
C H
Ġf ault
i at
Ġg ay
ict ed
Ġnumer ous
Ġcre am
Ġintrodu ced
Ġmax imum
ch ing
com ing
st ream
Ġpay ment
Ġc ert
Ġult imately
er ves
Ġ3 1
Ġ200 0
ruct ure
en a
ĠAustral ia
ag ram
Ġpass word
w ing
ĠM ad
ĠC oun
ĠA ut
Ġeven ing
Ġsignific antly
ĠGen eral
b el
ust er
u ing
4 1
Ġcol ors
Ġoper ation
o ch
ab ilities
itt ee
4 3
Ġsqu are
ocol ate
ĠMicro soft
omet hing
ef ully
Ġforg ot
re al
Ġch air
O nce
Ġw ine
Ġrem ark
Ġfore st
Ġhead s
Ġ ;
Ġorgan izations
Ġappear ance
Ġex ists
Ġestab lish
Ġact ing
Ġch ain
end ing
il er
Ġag ent
Ġmark ets
ast s
Ġgl ad
E ven
ition ally
s es
ach ing
Ġbl ind
Ġtele vision
Ġe c
ĠCent er
Ġevery body
ing u
E M
Ġrepe ated
Ġcon ver
ĠO pen
iven ess
Ġpow ers
oll ow
o in
Ġbo ost
Ġconcern s
Ġf ro
Ġappro x
rel ated
Ġpart ners
l ife
Ġs outh
at in
the y
d ef
r ical
Ġfor th
Ġcircumst ances
Ġrem ote
Ġreason able
Ġfield s
ĠS il
m l
S u
Ġpro ceed
Ġsome body
Ġbe ar
Ġco ck
Ġla unch
Ġpattern s
Ġ err
at ural
ig ation
Ð ¾
Ġth in
ĠTe chn
ra ge
Ġsp r
ĠD et
Ġrecogn ize
ã ģ
Ġdis app
Ġ Ø
Ġocc asion
Ġpack age
Ġess entially
Ġw al
Ġas ide
st ate
Ġsuggest ed
Ġart ist
____ ____
ur d
Ġinvol ve
ĠJew ish
Ġunder stood
ĊĊ ĊĊĊ
Ġf if
Ġauthor ity
Ġliqu id
ĠMc C
ĠY et
ord ers
Ġdeal ing
Ġkn ock
ĠRuss ian
Ġarri ved
!! !
Ġfing ers
ĠP ower
Ġj oy
Ġg ather
ink ing
Ġvac c
ĠC ath
A meric
ĠT imes
Ġt asks
Ġcar ried
hem at
b ra
r d
n et
Ġpick ed
ĠAm azon
Ġhistor ical
Ġto x
Ġt ired
ĠD NA
yth on
Ġappreci ate
Ġanx iety
Ġal gorith
out hern
Ġsp in
Ġpresent ed
Ġdro pped
Ġgener ate
Ġamount s
Ġyes terday
Ġofficial s
M any
Ġhigh light
Ġexplan ation
Ġh ole
Ġcon ven
Ġchann el
ĠA rab
on ic
h i
Ġlik es
ĠM ax
Ġst orm
Ġperson ally
Ġv ul
ĠL ove
Ġyoung er
ĠS cience
6 6
ĠJ ud
Ġpract ices
ĠW estern
Ġr u
Ġsy nt
Ġoffic er
ck now
Ġ5 00
Ġgot ten
ens ions
Ġ200 4
Ġw arn
Ġbeaut y
l og
Ġencoura ge
Ġweap on
Ġb acter
Ġspirit ual
in ating
R ec
is co
Ġegg s
Ð °
Ġprec ise
p m
Ġh idden
Ġconv in
Ġmist ake
Ġme rely
ĠAg ain
Ġaw esome
Ġleaders hip
ĠJ im
Ġb omb
Ġk itchen
l o
Ġd ating
Ġh ide
Ġun its
Ġsub t
Ġlight s
ĠSec ond
Ġs ale
An onymous
Ġprof ile
Ġwin ning
M an
op hy
Ċ Âł
Ġfind s
Ġsupport ed
Ġcreat es
ic ian
ĠT oday
Ġsam ple
Ġrestaur ant
ĠTh us
ĠQ ue
Ġconf idence
ĠDep artment
Ġmor al
Ġ3 5
Ġdeg rees
Ġmeas ures
Ġarch itect
ĠM a
Ġsur gery
ear s
uth ors
Ġre form
ĠF in
Ġgrad u
Ġv ary
Ġw ire
Ġc ab
ĠI D
Ġemot ions
Ġh ook
ĠPer haps
I A
op er
Ġperform ed
Ġsu c
Ġwall s
R A
Ġfeed back
w ar
Ġapp oint
ĠH T
ort hern
Ġexpl ore
Ġinj ury
Ġnot ed
Ġapp s
Ġrout ine
c ar
Ġsh ift
Ġd ad
f ast
Ġ Î
Ġstore s
Ġang ry
Ġhe ight
Ġsp ort
Ġcre w
Ġmed ium
ic ial
Ġlet ters
Ġsp oke
Ġt one
int on
R es
Â Ń
Ġbro ke
ol a
Ġrem aining
J ohn
le vel
? )
Ġ201 9
Ġp ump
Ġform ed
Ġadult s
ĠB as
Ġexpl ains
Ġcomb ined
ĠSu pp
at hy
u z
ĠAn n
ell ing
A pp
Ġpr oud
Ġreturn s
ĠTex as
w in
ĠD i
Ġposs ess
I nd
Ġgood s
Ġb order
B ecause
Ġbl ame
Ġw id
Ġreview s
Ġshoot ing
Ġm oon
7 7
Ġinvol ves
Ġarg ue
Ġp in
Ġconsequ ences
Ġl aug
ĠF ree
Ġh ang
Ġreg ist
Ġj oint
Ġsc r
D A
al ian
Ġtrad ing
Ġstand s
Ġneigh b
en ced
Ġfore ver
n ame
ra ction
Ã ¡
Ġa id
ĠPl an
Ġfing er
Ġdist inct
ĠKe ep
om a
Ġm ad
Ġcor respond
ĠAfric an
Ġter rible
ill er
c her
ĠF re
Ġdra g
ib ilities
ĠJ oe
Ġu pper
Ġoff ering
Ġcomp re
G o
Ġnat urally
Ġexc ited
iss ion
Ġvalu able
Ġdis ci
Ġf asc
Ġequ ival
Ġse es
Ġcorpor ate
Ġg ent
ĠT re
Ġs an
Ġdep th
t hen
Ġclass ic
Ġcl ock
ad ian
Ġfall ing
O ut
g han
Ġno body
Ġdr am
c ers
and on
Ġcare fully
Ġagre ed
int s
ĠI N
Ġint ention
om in
Ġsurpr ising
ĠT op
app y
w ater
Ġsp ring
Ġh at
Ġv ent
Ġhard ware
Ġevery where
Ġbring ing
ĠRepublic ans
Ġt ag
Ġbe ll
Ġinv ent
Ġs ession
Ġmiss ed
ĠAr ch
Ġsurv ive
S ince
y an
Ġcol on
p ress
Ġsu fficient
p ost
Ġimp ress
Ġenvironment al
ĠL ast
Ġha bit
Ġqu arter
P M
z ing
Ġme al
ce ived
Ġocc urs
Ġex ternal
Ġvot es
Ġa cknow
Ġresist ance
ĠF ore
Ġar my
Ġpass ing
Ġenc oun
Ġdec ent
8 6
re te
Ġy eah
ĠDemocr ats
c ript
p al
Ġopp on
Ð µ
ĠE r
et ing
ĠRe ad
ĠT est
ĠFr ank
ĠT or
Ġhad n
Ġwond ering
ĠS pr
Ġprocess ing
Ġ Ù
app ed
Ġgr own
P er
el lect
Ġlarge ly
se y
t ion
V iew
te xt
ĠB ob
orm al
Ġsm oke
Ġdistrib ution
] ,
T e
Ġmus cles
Ġthem e
Ġcompl icated
Ġp il
7 5
Ġstrugg le
Ġdetail ed
Ġdoc uments
Ġsuc ceed
ĠB est
ber t
Ġfund amental
Ġsold iers
le ts
ĠL ou
Ġtechn ique
Ġneg ot
om an
C C
Ġread er
Ġper man
Ġcoll abor
ĠP eter
Ġse vere
ĠF ire
ĠL in
Ġfo ol
Ġinn oc
Ġad mit
Ġthous and
Ġsu ck
Ġsu it
G en
Ġc ro
a us
all s
Ġpl ug
Ġspl it
az ine
Ġcommon ly
ĠFl or
Ġm olec
ic ide
ĠC ap
Ġfell ow
Ġw et
Ġext ent
ĠTH E
b ar
Ġob t
ĠÂ £
Ġact s
ĠCon f
um ps
Ġem phas
b i
Ġbut ter
cl ass
ir cle
Ġst one
Ġdo ctors
Ġc ig
Ġtri es
Ġg ift
Ġt all
ĠT y
os m
Ġsust ain
ic an
ĠUn ion
Ġat h
Ġreve aled
w hel
un ning
Ġresult ing
Ġstom ach
st on
Ġlink ed
Ġpurp oses
n ic
S P
is her
Ġsee king
Ġpoint ed
Ġrefer red
ro g
land s
ĠSm ith
Ġchar ges
Ġre ward
k et
ut ing
ĠS ar
ere nt
ĠĠĠĠ ĠĠ
Ġun com
Ġdisapp oint
Ġmach ines
5 2
ing er
Ġconst ruction
R I
ĠH ill
Ġb on
ĠI T
L ast
Ġpl ate
Ġdep artment
wh o
Ġcra ft
ĠI d
8 8
Ġ3 2
Ġwind ows
Ġenem ies
ĠR ock
v an
ĠE U
Ġb ab
Ġleg it
Ġpot entially
Ġt ank
Ġwhe el
Ġlog ic
he nt
Ġident ified
Ġra c
Ġs ke
ink s
b its
Ġinc ident
Ġde lic
ĠPh il
Ġoffic ers
Ġsche dule
S pe
Ġthe rapy
r ate
Ġexper im
Ġmain ly
Ġimm une
ĠIntern ational
ig er
Ġjust ice
Ġis ol
hip s
Ġyell ow
Ġbelief s
Ã ¢
Ġm ood
Th anks
ce ler
am ily
Ġcommun ities
Ġess ay
Ġst ro
itution al
Ġbre aking
Ġp ed
Ġconf ident
Ġpos itions
Ġcompar ison
ĠB ur
Ġen force
Ġstrong er
Ġcl ar
I ON
ĠJew s
Ġd ust
Ġrepl aced
Ġemploy ee
Ġlangu ages
ĠR E
Ġchar ged
ab led
Ġmedic ine
Ġingred ients
Ġch osen
Ġord ers
ĠPr ot
Ġorig in
5 4
os al
Ġsub sc
Ġt ables
Ġsh oes
Ġdis ag
Ġexp osed
Ġsol ar
ĠRom an
ĠM onday
m ary
O D
is ters
Ġp m
ap es
az e
Ġatmosp here
ĠBe fore
Ġsuff ering
S ub
as m
ang es
Ġed itor
Ġc ere
A m
ot a
Ġsh if
Ġinst it
Ġconsum er
ĠAnsw er
Â °
Ġprogram ming
B ack
Ġw ake
oc ation
lud e
Ġcare ful
Ġwh is
Ġn ose
Ġdef ine
Ġsend ing
od ing
hes is
Ġm ac
ĠAs soci
Ġjo ined
Ġpus hed
Ġh ung
ploy ment
us hed
Ġint ent
Ġmount ain
u ous
ĠBl og
ro ad
Ġse lection
Ġch amp
Ġch apter
ide o
edd ing
Ġrecomm ended
ick s
Ġcook ing
b les
ar l
ul ating
Ġ/ >
Ġbe er
il ty
ĠH ell
Ġte a
Ġdes per
5 3
Ġg ender
Ġpract ical
ani el
co in
Ġemot ion
ĠÂłĠÂł ĠÂłĠÂł
ĠĠĠĠĠĠĠĠĠĠĠĠĠĠĠĠĠĠĠĠĠĠĠĠĠĠĠĠĠĠĠĠ ĠĠĠĠĠĠĠĠĠĠĠĠĠĠĠĠĠĠĠĠĠĠĠĠĠĠĠĠĠĠĠĠ
ur a
Ġhop ing
as er
ĠS and
Ġregard less
Ġstrateg ies
ĠRober t
Ġphen omen
I nt
ĠIn s
Ġput s
Ġhold s
Ġf le
ĠP ress
Ġtom orrow
b orn
ro at
ĠW ould
Ġemer gency
xy gen
or ney
Ġman ip
Ġoccur red
5 1
ð Ł
ĠO ld
Ġsa ved
Ġchick en
Ġob lig
ĠSec urity
ĠT im
ge nd
Ġspe ll
ok en
Ġarg uments
are n
Ġun iversity
Ġdream s
Ġconv ention
Ġsign ed
the re
Ġdom ain
Ġrev olution
ĠJ eff
ĠPl ay
ĠV ir
gy pt
Ġ `
Ġcut ting
Ġris ks
Ġvir us
gr ade
L ike
lud ing
Ġexper ts
Ġconsist ent
abet es
ĠN ov
Ġha ck
y c
el f
Ġann ounced
ost er
Ġne ut
Ġdep ression
Ġvari able
Ġill ness
ri p
Ġdis h
ob e
t w
Ġph ase
el ine
Ġcomm itted
ist ed
ĠJ un
Ġn om
Ġregular ly
g age
ĠAb out
Ġfl ag
Ġco verage
Ġfac ing
ĠS k
Ġsw im
b urg
Th ank
Ġvirt ual
Ġf lying
Ġri ver
Ġt ail
Ġopp osed
Ġt or
ĠUn fortunately
Ġb one
Ġl atter
ren ce
U p
Ġperson ality
Ġhy dro
Ġend ing
Ġgu itar
Ġincred ibly
Ġn ic
ell y
Ġmix ed
Ġrid ic
W r
ĠSc ott
ĠS up
Ġtw e
Ġenjoy ed
M S
Ġart ists
ĠS ol
Ġgun s
ĠRe v
Âł ĊĊ
Con nect
Ġ3 6
Ġfr ustr
Ġcontro lled
Ġvictim s
Ġhous es
B I
Ġf ab
Ġwhen ever
Ġorig inally
Ġshop ping
Ġvul ner
ĠC P
Ġt act
ĠH all
Ġ200 3
Ġreven ue
B S
ĠM em
Ġexp osure
Ġadv oc
Ġcompon ent
or ters
Ġcomp are
d iv
ed it
ĠH en
ĠV ol
O ther
ann ed
Ġbare ly
l ong
Ġrep ly
Ġi Phone
Ġg iant
Ġcont em
Ġinf o
Ġclaim ed
ht t
ĠW il
Ġwor ried
Ġun known
Ġn erv
Ġconsum ers
Ġconcl usion
if ies
ĠM en
ĠU N
aw s
res ents
ĠFlor ida
Ġag ency
ste in
m od
ce nd
ĠW all
O b
7 8
ign ed
Ġfl ash
Ġscen es
M onday
Ġa x
Ġre in
F L
Ġvill age
l ar
Ġresearc hers
as ant
ĠSt ill
re p
Ġn ations
Ġag ents
Ġover whel
Ġlist ed
Ġ era
Pe ople
a wn
ann a
Ġv o
ten ance
u ine
Ġf aces
Ġgr ass
Ġl unch
Ġfuck ing
Ġsuff er
x ual
Ġcomple ted
Ġpercent age
Ġin ner
Ġph arm
Ġcandid ates
ĠC at
Ġshould er
Ġproced ure
le ments
est yle
Ġdec ade
enn y
Ġab andon
ific ations
ack s
ĠJ ava
Ġnews p
Ab out
or al
Ġd ivid
Ġconsum ption
if orm
Ġqu ote
Ġco ord
r ant
Ġw ra
ĠO K
â Ĥ¬
Ġp ill
st ers
Ġch ose
ac c
ĠS um
Ġun us
E E
Ġadd s
Ġsequ ence
A ccording
R ep
Ġdiscuss ed
Ġexcept ion
Ġst ored
Ġso le
Ġcomput ers
ĠL ist
Ġconf ir
Ġhy per
Ġla pt
ĠS S
ĠN ever
Ġun w
Ġres ource
Ġsett ings
m es
ĠP et
Ġinter f
Ġret ire
Ġbelie ves
Ġign ore
ĠL ong
Ġequival ent
Ġde eper
Ġsac r
ĠD ata
ort ed
Ġmy th
Ġdist rict
Ġdeli very
9 5
Ġch ocolate
ult ure
Ġrout e
Ġte ch
Ġra rely
Ġb at
Ġent ered
Ġch at
Ġprep are
Ġconserv ative
ĠD ist
pect ed
ru ption
Ġstre ets
" )
ĠM er
Ġtre nd
Ġvers ions
ri x
ind er
Ġmy st
Ġinvestig ation
ĠA C
ĠRes earch
Ġatt itude
Ġyou th
ĠCl inton
Ġwel come
Ġh its
ot al
Ġ4 5
L ook
ĠS ure
Ġche ese
Ġa uthors
ow ed
ĠA T
ain e
a a
ĠI r
ĠC y
Ġse ctor
Ġass ets
Ġsubst ant
ĠV er
Ġprom ise
Ġfig ures
ĠSh ould
Ġto ler
em b
ĠCl ass
Ġcal m
Ġz one
Ġprinci ple
ĠT ry
ĠDe v
Ġlim its
Ġl oose
Ġaud io
Ġbl ow
ann y
rast ructure
Q L
Ġcomb at
Ġvis ible
pro f
Ġprop osed
Ġport ion
Ġwrit ers
M ar
W ednesday
p erson
Ġconf used
Ġsupp ose
Ġatt ached
Ġco ast
I G
Ġwr ites
am ple
Ġneighbor hood
Ġrecord ed
err ing
ri ve
Ġext ract
Ġfall s
Ġcateg ory
ang ers
Ġansw ered
in em
ish ment
Ġprom ote
ĠV e
ĠT uesday
T H
ĠH uman
ĠL ear
Ġprom pt
ĠChe ck
et her
im p
Ġf ulf
ĠGree k
Ġpl ain
Al though
k ins
ic ago
el ess
Ġclose ly
v a
Ġo cean
Ġrep resents
d es
g ent
ĠE lect
Ġprim arily
Ġ ×
ha ust
ĠTh ough
Ġsens itive
Ġobs erved
Ġincor por
O ver
u ct
Ġt ip
se ct
6 4
it ate
Ġinter face
ĠW ater
iz z
Ġbott le
Ġli ps
ild ren
Ġsupport ing
Ġch ances
ĠS aturday
Ġc ow
Ġdestroy ed
Ġr ig
ĠN or
Ġins pir
ĠUs ing
Ġmind s
u a
ĠB ank
ĠBr own
ĠServ ice
pl ate
ĠL ight
ĠG ra
ĠCh ange
Ġrep ut
Ġint ellect
h h
G ood
or ough
Ġh orm
Ġnet works
Ġbo at
bl og
Ġele v
Ġbr idge
Ġill ustr
ĠE s
Ġimpro ved
Ġs au
Ġgr ade
olog ist
Ġluck y
act ive
iz er
ĠDe velop
Ġrepl ied
Ġlo ans
ĠGovern ment
est ed
ĠG ame
gg ed
alle l
Ġsh arp
Ġj ack
Ġdoll ar
Ä ģ
Ġch ief
ob ile
Ġl it
r ary
ĠV is
Ġcorrect ly
ĠH ol
Ġplan ned
ĠR ad
ly n
Ġmem ories
F acebook
Ġgen etic
Ġfil ter
c ific
Ġob tain
==== ====
here nt
Ġdep art
ĠFr anc
Ġbut t
Ġelectric ity
or ation
Ġt ort
er ies
Ġn asty
ur b
m al
Ġliber al
Ġint ense
c r
Ġh ref
Ġattempt s
in ations
Ġl ady
ry pt
Ġbl ank
Ġbuild ings
ĠB ay
Ġincreasing ly
Ġan ger
ĠE gypt
ĠF ound
Ġgen e
use um
Ġstate ments
St ep
ĠG rand
Ġmat hemat
om ic
Ġnear by
ans ion
Ġexpl os
D F
ĠKore a
u ke
Ġdel ay
Ġb other
le ge
Ġret ail
n oon
Ġwide ly
Ġy ield
un te
Ġn ative
ĠP erson
ĠE nd
Ġtw enty
Ġgu ilty
D P
ĠRe al
Ġl ying
ĠCath olic
âĢ¦ .
ĠSt art
ant a
Ġveh icles
Ġbl ess
Ġenh ance
Ġgen uine
Ġhouse hold
ĠHar ry
Ġrep air
ac le
less ly
Ġl un
ĠG al
y es
... "
Ġcur rency
Ġla un
Ġwant ing
7 6
Ġdra ft
Ġstri ke
Ġdri vers
Ġwar ning
ograph ic
ĠS at
ĠM el
Ġsleep ing
T ake
D r
Ġg arden
ĠM ass
ĠJ on
ĠJ e
Ġhot el
Ġrat io
Ġgener ated
Ġt ong
Ġo xygen
ĠJ er
Ġp ig
age ment
Ġlet ting
ĠSp anish
F e
Ġpus hing
Ġtrans ition
Ġfav our
Ġind icate
ĠB ible
Ġext ended
Ġann ual
Ġfriend ly
Ġinit i
ÂłÂłÂłÂł ÂłÂł
Ġconf erence
Ġheav ily
Ġsm oking
G B
Ġ ì
Ġsc hed
Ġgen es
ixt ure
ĠB er
Ġcompl ain
Ġwebs ites
Ġar ray
ĠM ike
Ġso il
Ġlic ense
Ġra w
Ġo h
Ġinstit utions
ph a
vious ly
Ġaut o
Ġt rib
Ġl ad
ĠA cc
Ġout come
Ġscen ario
ĠMart in
Ġt ab
p o
Ġdo ors
Ġpolit icians
ive red
Ġwith d
ĠD en
e ven
Ġlet s
ug ht
) )
st ract
ri or
Ġmist akes
Ġ 01
ĠM P
Ġdise ases
Ġex hib
ĠCh ris
Ġrel ief
Ġtra ined
Ġhyp ot
Fr iday
ĠJ ournal
Ġdep os
w as
Ġg all
Ġpay ments
ĠW as
Th ursday
Ġmen u
Ġadvert ising
ĠW ord
Ġinstruct ions
Ġfrequ ency
Ġfra ud
Ġstr ict
d is
d ate
es sel
ĠH aw
ĠR ef
Ġinstall ed
9 8
âĢĻ .
ff ect
Ġdi vers
s l
Ġm ask
ĠM ember
du c
Ġair craft
ol it
Ġro of
Ġdeep ly
ĠWill iam
in os
ĠM iddle
ĠB oy
ĠP ot
Ġres olution
Ġburn ing
Ġtal ks
Ġprinci ples
ĠCoun cil
Âł ĊĠ
es ter
k ed
Ġsh ots
Ġbrows er
Ġdon t
Ġdri ven
p arent
Ġsc rew
ĠIt alian
lud ed
in ity
ĠM ount
Ġexc iting
Ġl oves
ĠT em
âĢ ī
C ol
Ġst y
Ġfo ld
Ġcru cial
Ġc oc
Ġf iction
Ġbreak s
ĠDemocr atic
Ġbird s
Ġgent le
Ġtest ed
n am
nd a
Ġvot ers
Ġord ered
Ġelect ronic
9 6
ic y
Ġfund ing
Ġupd ated
Ġarr ange
B A
R em
S im
Ġm and
ik ip
Ġinf ection
Ġbreat hing
ĠThom as
P A
ac hel
Ġaw ard
Ġb att
ĠCom ment
T uesday
Ġn ine
Ġdevelop ers
Ġfe e
Ġcarry ing
ial s
ĠB usiness
ĠG ar
Ġtiss ue
Ġnerv ous
Ġp it
et ry
ĠCent ral
% .
R C
z ed
Ġshe ll
Ġsupport s
Ġcontrol s
Ġex haust
Ġsub s
ĠHist ory
Ġbr ill
Ġw is
ĠNe xt
b oy
Ġt um
Ġg ang
og y
Ġevery day
Ġfour th
e en
et ime
Ġrem ained
m o
Ġw ound
Ġor g
Ġinc l
Ġhard ly
ut ch
pr ise
ll er
Tw itter
> >
g reg
Ġp ipe
ĠG M
r id
c alled
Ġphr ase
Ġstruct ures
d a
ĠF ind
Ġsur vey
r as
Ġext end
Ġappe al
Ġinvest ors
ĠW ay
r ich
Ġr hy
Ġsh ares
ific ial
Ġob st
Ġf ur
ate ll
Ġbre ast
I L
Ġcomp ens
Ġdom in
ĠP age
201 3
ĠAt l
ĠC EO
Ġres c
ĠF ood
ĠN av
ĠL ee
Ġliter ature
Ġw aves
ĠD V
ĠF urther
Ġac celer
um es
ĠL is
Ġded icated
T ube
ĠI ll
Ġinf rastructure
Ġexpect ations
Ġsurround ing
Ġlawy er
ĠE mp
Ġselect ed
Ġbacter ia
it is
Ġp ra
Ġdi am
Ġas semb
Ġ3 00
az z
Ġviol ent
ikip edia
ĠP ut
ĠN ote
H ave
Ġblock s
Ġdra wn
ĠCount y
Ġan gle
Ġtechn ologies
ĠD ark
Ġopp osition
ĠF orm
ĠN ame
Ġform ula
pend ing
uild ing
Ġpregn ant
h us
ĠD C
Ġsub sequ
C he
gress ive
v y
Ġw est
ĠM S
Ġcompre hens
Ġexp ressed
Ġequ ally
Y eah
Ġg ear
Ġmechan ism
ĠD own
Ġredu cing
ĠN Y
Ġun ion
ĠV ict
Ġup set
ĠS et
ĠF il
Ġun ex
Ġinsp ired
Ġcapt ure
ĠArt icle
Ġimmedi ate
Sh are
Ġtrig ger
in er
Ġd uty
00 00
Ġmain tenance
Ġsil ver
Rel ated
T oday
ĠL iber
Ġl oyal
Ġengine ering
Ġpro sec
ap se
ĠS n
Ġshe l
Ġman if
Ġafter noon
ĠSte ve
Ġst ack
ick ing
fl ow
Ġcontrib ute
Ġeffic iency
P C
ĠCol or
ĠMex ico
ĠTh ursday
Ġacc omp
ath an
Ġexpl o
â Ħ
ĠK n
Ġcommun icate
Ġreci pe
Ġst able
ĠS qu
p an
ĠTh ink
Ġen able
Ġap artment
ep ing
ĠCh icago
m un
or ce
ĠM aster
Ġaware ness
ĠC apt
Ġb ub
Ġj oke
f unction
Ġg am
Ġpan el
Ġ200 1
Ġchalleng ing
Ġpregn ancy
ĠIt aly
ĠIn f
ft en
us hing
ĠP R
Ġmus ical
Ġyour s
Ġbr anch
Ġsur f
op p
ĠBrit ain
Ġerr ors
' '
Ġr ow
ĠF ederal
Ġthe r
it ual
D oes
isc uss
Ġlif estyle
ĠB i
Ġad s
ĠB udd
ĊĊĠĠĠĠĠĠĠĠ ĠĠĠ
ĠH as
ag an
ĠAf ghan
x x
ĠE xt
P art
ll a
Ġrec overy
Ġest ate
Ġton ight
Ġ icon
Ġs od
pe l
Ġvict ory
I F
ag ues
ĠWith out
Ġbe ings
Ġsa ving
ĠPro ject
Ġj ail
ĠSec ret
in et
ĊĊ ĠĠĠĠĠĠĠĠĠĠĠĠĠĠĠĠ
Ġmove ments
Ġocc as
Ġfe es
Ġst ead
Ġim per
Ġmur d
r un
as hes
Ġre ly
Ġpro ven
Ġdam n
Ġless on
Ġcut s
Wh ich
ot ed
ub Med
H is
Ġsuccess fully
Ġtro ops
f ire
Ġapprox imately
p at
Ġsen ior
Ġinstr ument
Ġdifficult y
Ġcont aining
Ġco ach
ple te
ĠBe ing
Ã Ń
Ġacadem ic
Ġin ject
Ġfew er
Ġachie ved
olly wood
an es
Ġreg ions
N e
Ġpriv acy
ic ity
Ġw edding
or se
Ġcheck ing
ĠPl us
or able
Ġph ones
Ġb ike
ag raph
Ġ$ \
Ġris ing
Ġindust rial
ĠSup reme
Ġc ircle
so le
arr ass
Ġrepe at
Ġro les
Ġincred ible
Ġdiv ide
ap ing
Ġple asure
em ic
ĠJ o
ang le
Ġco vers
n s
act ions
Ġtop ics
Ġtrack s
i ro
ĠP ak
Ġrecogn ized
Ġtal ent
Ġauthor ities
Ġaut hent
? !
Ġe ars
we ight
ĠC amp
Ġpr ay
ĠL ab
ĠO N
S ec
og ether
Ġv essel
y stem
In st
ĠW ood
ok ed
ĠSp ace
Ġconcept s
Ġhous ing
ĠAr my
ĠEx per
Ġconf irm
Ġdraw ing
Ġopin ions
Ġorgan ic
Ġhe aven
Ġla id
Ġw ise
pt ions
Ġste el
c est
Ġp ounds
al i
ĠEx pl
ar ry
ĠJ ose
Ġrec all
sc ape
âĦ ¢
im a
Ġconnect ions
D id
in ent
ĠC are
ĠD iv
Ġinter action
red it
Ġoper ate
at oes
Ġth orough
ĠA D
Ù Ĩ
Ġp itch
ĠH aving
Ġus age
ob by
Ġdifferent ly
Ġcig are
U N
Ġhealth care
Ġcharacter istics
f all
Ġclot hing
f ol
Ġle an
ĠAs ia
Ġcomp rom
Ġdem ocracy
Ġnut ri
end ment
ĠIn formation
Ġphilos ophy
ĠP ay
ĠO S
Ġman ual
Ġser ving
idel ines
Ġdi abetes
W ill
Ġcur ious
s ome
ĠM ic
li ament
Ġclean ing
ĠS uch
com es
ĠR iver
Ġany body
ĠY OU
ĠU RL
Ġbehavi our
l aw
Ġp ace
Ġd ict
ĠSh ow
Ġbas ket
Ġimplement ation
er as
ud es
Ġsign als
Ġvari ables
Ġdisci pl
Ġf ake
Ġsc an
al a
b et
Ġr um
He y
u an
Ġprotect ed
Ġcontro vers
Ġg ate
Ġlo op
Ġp ub
as ters
as tern
ĠK ir
ut ter
ĠF inally
ĠIs land
s ub
ol t
ĠSen ate
Ġf urn
Ġch a
ob s
Ġhuman ity
Ġstrong ly
Ġvol unte
Ġbu ff
Ġd ying
A Y
Ġpro port
Ġ ~
ĠM ur
P G
Ġrec over
Ġfl ood
ur se
Ġrad ical
ĠCar ol
Ġgrav ity
w orld
Ġact or
Ġtrad ition
Ġbirth day
ĠW al
Ġnarr ow
Ġass ault
c a
Ù Ĭ
ist ent
w hen
b a
Ġbe ach
Ġform al
ou red
N ote
Ġreg ister
Ġwhere as
ĠSw ed
ĠC ast
Ġrec on
b ow
Ġin ev
ott ed
Ġrece iving
ĠEvery one
ĠP ublic
Ġb ills
ĠRem ember
Ġrespons es
um a
te en
Ġact ors
Ġloc ations
Ġg ig
ud i
Ġalle ged
Ġhor iz
re qu
ĠP an
Ġcr imes
an while
ot es
Ġrep rodu
Ġref ers
Ġdel ivered
Ġpr on
Ġelect ed
Ġcheck ed
Ġsh irt
Ġobject ive
ĠM ot
Ġprodu cing
Ġprot est
Ġv ital
Ġco al
Ġcol our
Ġencoun ter
Ġhorr or
Ġdom estic
Ġs le
Ġo k
Ġtong ue
Ġg al
ĠW omen
Ġinform ed
Ġmo ist
Ġf aced
Ġs orts
Ġarrest ed
Ġhapp iness
Ġadv is
Ġemploy ment
Be fore
Ġrough ly
Ġdynam ic
Ġcry pt
ĠB it
ĠPro gram
ĠL and
Ġte ars
Ġcr ash
ert s
Americ an
ĠN az
ĠE p
ĠMin ister
O V
ĠC ub
Ġath let
er ving
Ġc ats
Ġthr own
Ġreg ul
Ð ¸
ig an
Ġto oth
ĠM ont
A v
ĠYou Tube
Ġpar allel
Ġsearch ing
Ġr ational
Ġinnoc ent
r ated
Ġab ilities
Ġ( "
ner gy
Ġbow l
Ġown ed
Ġrecord ing
Ġunlike ly
m ond
ĠF ed
c rib
Ġh anging
Ġgovern ments
ĠChrist ians
Ġsh out
Im age
Ġt ill
Ġveget ables
ter y
ess or
ĠOff ice
Ġunus ual
Ġh ire
Ġdis order
p g
Ġst ir
ĠW ednesday
og a
Ġshe et
ick ed
Ġ _
Ġphys ically
Ġth roat
ess ions
ĠSt and
ĠSo ci
Re g
Ġsp aces
Ġinit ially
Ġlapt op
Ġr ice
ĠE conom
Ġsp ark
p ower
Ġne ur
ĠF ar
Ġcompet itive
Ġf ru
Ġ200 2
con f
Ġdest ruction
z er
ĠH ard
Ġsm iled
Ġrapid ly
ge on
ative ly
9 7
Ġ }
ĠCol lege
EN T
Ar t
Ġun iform
Ġt ack
Ġinst ant
Ġign or
Ġflu id
Ġfant astic
P re
ch o
Ġdr unk
en ger
ĠLou is
Ġobt ained
Ġb its
Ġbo ot
Ġstud io
Ġm ixture
ĠEn ter
Ġe ast
ĠC N
it ure
am i
il st
Ġs ne
im ize
Ġhe aling
Ġp od
erm an
Ġgreat ly
Ġreve al
su it
ge l
ocr atic
Ġchann els
Ġrel iable
Ġir rit
Ġflav or
H A
g ly
i ac
m g
Ġn urs
ĠD an
Ġdescrib es
Ġult imate
ĠĠĠĠĠĠĠĠ ĠĠĠĠ
Ġadminist r
itt y
ĠA R
ĠB id
Ġinc hes
Ġunder lying
Ġpriv ile
Ġsurv ival
I R
Ġn a
Ġchild hood
Ġrecogn ition
ĠHen ry
Ġdivid ed
Ċ ĠĠ
ĠC a
yr ics
Ġperform ing
S C
Ġg ap
Ġpu zz
Ġin du
Ġimp ression
word s
Ġref used
ĠBl ue
ust ration
ond er
Ġent it
ĠGr oup
Ġsu icide
Ġnarr ative
Ġsh ame
ĠRich ard
ĠS ign
Ġdes ired
ĠChar les
Ġpre v
Ġform ation
Ġro se
Ġp orn
Ġassist ance
. âĢĻ
Ġh am
.. ...
Ġpo ison
Ġsuper ior
Ġimm igr
ĠB ad
Ġ3 3
Ġsure ly
Ġpull ing
ĠDes ign
Ġcho osing
Ġsau ce
d ed
Ġf et
ĠSch olar
6 8
j a
Ġsu itable
Ġdisc ount
re ction
Ġp apers
ĠInst itute
ĠS ep
Ã ¤
Ġw estern
iff erent
ĠOr gan
ĠOn line
Ġt ape
Ġc able
ĠC all
Ġal ien
re ts
Ġins ight
Ġrad iation
Ġur ban
Ġemb arrass
ĠD ig
Ġelect ions
Ġnut r
ag ine
aw ay
Ġmeas ured
ĠMed ia
M A
at us
en ess
Ġg re
ĠD ar
Ġpur s
ĠW in
pr int
Ġsil ence
st one
Ġelect rical
Ġfig ured
Ġs ed
ĠCan adian
Ġs li
Ġf ired
Ġinj uries
htt p
M P
Ġmir ror
ly mp
Ġsh ips
Ġperiod s
Ġb ot
Ġsche me
um er
Ġfl our
Ġpar agraph
Ġframe work
ĠL ead
a fter
d on
ĠT urn
Ġli ver
Ġst ab
Ġ 00
ĠR on
S unday
us ions
ag ger
ar ly
ĠM os
Ġreach ing
Ġconvin ced
Ġprot ocol
Ġcomment ing
p ack
Ġd ies
ens us
Ġdecre ase
N ext
Ã ¶
Ġv en
ĠPar is
ĠHe ad
Ġparam eters
b ably
Ġcal ories
Ġmort gage
Ġprofession als
ent h
ĠLe ague
Ġroom s
ĠDes pite
at i
ep s
Ġal arm
Ġag encies
we et
Connect ing
Ġpr ime
Ġredu ction
Ġc ake
ĠP ython
Ġparticip ants
ĠN ight
Ġexec utive
ĠM oon
Ġbu g
L Y
Ġdist ract
T op
Ã ³
m aking
Ġreput ation
ian o
et ary
ÂłÂł Ċ
Ġext ension
Ø§ Ø
Ġvot ing
rag on
ul ed
ĠComp any
L A
Ġc ogn
ot he
est ions
ty pe
Ġ199 0
ĠChar l
ci a
Ġhead ed
ĠL ink
K e
m ath
Ġsw ord
Ġd irty
Ġestim ated
Ġsav ings
Ġche aper
Ġreport ing
ĠPost s
Ġpresent ation
g ood
ĠY ear
atch ing
ĠL i
Ġelse where
F l
T C
ast e
Ġent r
Ġqu it
Ġdeath s
Ġadvent ure
ĠK now
ĠCont rol
Ġde als
um in
Ġconfig uration
Ġdirect ed
Ġm ic
Ġconscious ness
ï ¬
ĠP hys
Ġexp enses
Ġperman ent
Ġcan n
Ġexpl icit
ĠHel p
Ġl ift
ĠH a
Ġtick et
ĠC ra
ia h
Ġser vers
Ġimprove ment
B ook
b b
Ġgener ic
ĠDe ath
Ġstop s
Ġstay ing
Ġal ter
Ġper ception
Ġaffect s
Ġattract ive
Ġ3 8
Ġke ys
Ġdri ves
ĠSe a
Ġinvol ving
Ġord inary
ĠAP I
el ing
Ġparticip ate
Ġf est
Tw o
Ġcry st
Ġf ert
Ġhon or
Ġg if
ĠC le
Ø§ ÙĦ
G u
Ġra il
S m
Ġun cle
Ġless ons
Ġstru ck
z il
Ġupd ates
ik es
Ġbox es
o op
or ia
im m
io x
ĠHT ML
Ġlegisl ation
al ty
Ġcon vert
Ġvers us
Ġplatform s
Ġhol iday
ĠAn onymous
or ous
Ġappro aches
ĠR a
Ġdem ands
Ġstay ed
!! !!
201 2
u ana
Ġcoun sel
C ons
à ¸
Ġpsych ological
Ġstrugg ling
T P
il a
Ġ4 8
C omp
Ġf ed
ĠM om
Ġdis miss
Ð ½
ult ane
Ġorgan ized
Ġre new
ĠB ern
Ġfound ation
v i
em ents
D uring
iz za
Ġreg ulations
Ġvis ited
ĠL ittle
ĠC ould
Ġd ensity
ĠT it
ĠT al
ĠJ ones
Ġpros pect
R ef
ut o
et ies
Ġconfir med
V ER
Ġ vert
C E
ĠS ex
Ġse ed
Ġant icip
ĠR ay
Ġalgorith m
Ġmy ster
Ġent hus
ĠV ery
l ers
Ġe ase
ĠD am
Ġbrother s
ĠConst itution
Ġridic ulous
c al
Ù ħ
Ġtemperature s
Ġenforce ment
Ċ ÂłÂłÂłÂłÂł
Ġaccompl ish
ĠA uthor
ov al
Ġpain ful
Ġwas h
str ong
k o
ol ars
ĠR and
Ñ Ĥ
Ġpo cket
Ġbath room
Ġha bits
ĠTh ree
Ġbreak fast
er ver
Ġb inary
ĠA ri
Ġb ars
Ġsy mp
Ġconcent ration
r ick
Ġf ought
Ġm it
ĠK en
Ġconf ront
Ġcam eras
Ġcor rel
Ġcreat ures
6 5
d s
ak a
Ġcr iter
ĠWhe ther
Ch rist
ut en
ow ered
Ġr ating
Ġset up
ĠS P
ĠPr ime
Ġsubject s
Ġhonest ly
iss ions
Ġconc rete
ĠMed ic
om ed
ĠLin ux
Ġtre m
ĠJust ice
ĠV iew
Ġcons ists
Ġmeet ings
Ġcas ual
Ġt ied
Ġpain ting
ere n
ear ing
Ġun em
Ġsc ared
be ing
Ġ/ /
Ġwis dom
R S
al ysis
Ġhor rible
ĠMus ic
Ġmed ication
Ġsh r
Ġarri ve
Ġlay ers
ĠH and
Ġsh ower
att ered
Ġres idents
Ġor ient
Ġro ots
ĠH i
Ġunc ertain
Ġintellect ual
Ġb ones
ar on
th rough
ĠG irl
ian a
Ġatt orney
Ġphys ics
ĠC ode
C omm
Ġcom pe
Ġhand ling
av ed
Ġdes erve
Ġmet ab
ĠM ess
Ġar med
Ġbur st
Ġoccasion ally
ĠVir gin
Ġl ists
Ġ19 80
Ġdist ingu
Ġd umb
Ġg ained
Ġen orm
O O
Ċ ĠĠĠĠ
ĠF our
Ġhe s
sel ess
ert ed
ĠNot hing
ĠSy ria
. </
ose xual
ĠAssoci ation
m ay
Ġlock ed
ĠAN D
Ġn odd
ri ers
if ier
ost on
Ġdec line
a ire
ĠP op
ors es
Ġthr owing
alk ing
Ġsing ing
u ation
Ġad mitted
Ġacc used
Ġconduct ed
Ġy e
Ġre cept
Ġstud ied
Ġbrill iant
ĠS ov
Ġse ats
Ġexc use
Ġt ension
Ġo ven
our se
Ġsc ar
Ġdial ogue
d ated
} ,
Ġprof its
Ġrepresent ed
Ġan cest
ot y
ĠK h
Ġsil ent
8 9
ĠM att
Ġaccomp an
H T
s uch
re c
Ġve ter
Ġut ter
Ġign ored
Ġvit amin
Ġwithd raw
es ides
arch y
Ġsw ing
Ġequ ation
ou ch
ĠQue en
Ġinc ent
Ġconven ient
Ġair port
Ġlaun ched
it ches
Ġfem in
ug s
Ġattack ed
Ġde light
ĠH ollywood
Ġeng aged
ĠAd am
on ly
ĠP oint
ĠR o
Ġra ising
Ġassess ment
Ġbab ies
A ct
Ġ !
6 7
Ġmonth ly
ir a
ore t
Ġcateg ories
Ġde ploy
Ġed it
Ġmag azine
Ñ Ģ
Ġt ub
Ġb om
Ġon going
ĠJohn son
Ġpass age
f ather
l ive
Ġc ute
ĠD ead
Ġexp ansion
Ġmark ed
Ġguarant ee
Ġto ss
p ie
Ġc rap
Ġsh adow
ĠK im
Ġover come
Ġreplace ment
ĠAs h
or gan
Ġcl osing
Ġannoy ing
Ġcon ce
ĠP S
i el
Ġm ild
ber ry
Ġappro ved
Ã ¼
Ġinterpret ation
uck y
Ġtarget s
l an
Ġs ake
Ġnot ion
ĠO F
Ġg host
ĠC ard
pl ed
Ġ7 5
ĠTe am
E ng
Ġj ew
ĠEng ine
Ġsubst ance
ĠTh rough
Ġpers ons
Ġj e
Ġser ves
C D
w orth
y our
Ġo ught
Ġch ronic
ĠS ky
Ġiss ued
ĠPol ice
Ġ Ï
Ġre n
ie ve
Ġben e
Ġeth nic
ĠF ox
olog ists
g un
l ink
Ġed ition
d oor
Ġre verse
the less
Ġann ounce
Ġdro ps
Ġcomm ission
Ġreg ime
Ġaccept able
g ot
p ot
ĠC reat
F inally
Ġb ags
or ic
Ġg aming
ĠP en
Ġent ering
Ġtrans action
May be
ĠA h
âĢĻ ,
Ġper mission
Ġclin ical
Ġdisag ree
Ġstat istics
ire ctor
ass ion
Ġunex pected
Ġimplement ed
b ell
m ade
ĠO lymp
Ġsc reens
Ġmat ches
ĠW ars
Ġdis aster
am ps
Ġimpro ving
Ġex ceed
Ġsuff ered
Ġimpress ive
emb ered
S ource
m ates
Ġst ages
Ġcirc uit
ĠCons ider
Ġweak ness
Ġmaint aining
Ġstret ch
Ġl oving
F igure
Ġag ric
angu age
ĠDon ald
Ġsus pic
T V
Ġsh ield
Ġsp ons
ĠEvery thing
us al
Ġrel ation
Ġprefer red
Ġstud ying
b ecause
ĠS her
ro oms
Ġdeli ber
ĠL atin
Ġacc um
Ġpost ing
Ġcapt ured
M r
ord an
ne cess
ib l
Ġcheck s
w ill
Ġmark s
Ġfunction al
Ġprodu ces
H er
pre ne
Ġdecl ared
Ġto ile
Ġpro hib
Ġlog ical
fort able
Ã Ĥ
Ġw ing
Ġprop ag
ig en
Ġ3 7
ĠRep ort
Ġprior ity
ĠH ot
th ur
ig ate
ĠE ss
ĠL os
Ġtend s
Ġarchitect ure
T ime
or ph
ĠSar ah
" :
p ers
Ġne uro
Ġref erences
st yle
Ġatt ach
Ġw ins
nd rome
le g
ĠCapt ain
Ġsim ultane
the w
Ġadvant ages
Ġentertain ment
P ress
Ġh ip
Ġg ym
Ġme als
ĠE duc
Ġgr anted
Ġad equ
Ġop ens
Ġcommit ment
G r
j o
Ñ ģ
ult ural
ĠIn vest
Ġhop es
el come
Ġav atar
Ġinfl ation
in st
Ġm g
Ġj er
Ġsecond ary
Ġw ars
Ġb oring
if er
Ġbene ath
se x
ĠC ost
Ġmin imal
Ġvol t
Ġvulner able
ĠEmp ire
g as
Ġh oney
Ġsupp lement
ĠIslam ic
ĠP ac
Ġdef ic
Ġtem pt
ĠLe g
Ġfant asy
% ,
Ġd ates
min ute
Ġroad s
w est
ĠFor ce
re prene
at al
ĠS ir
Ġfac il
Ġh oles
Ġintrodu ction
qu ot
Ġshould ers
Ġwond ered
Ġir re
pp y
br id
Ġmonitor ing
- >
D S
c ase
Ġ ðŁ
ion e
ĠC reate
Ġapp lies
Ġphot ograph
6 9
ĠSoci ety
Ġfail s
Ġpick ing
Ġassign ed
Ġfab ric
Ġmin i
ay lor
Ġ1 000
Ġprofess or
Ġgold en
ĠAfghan istan
inc luding
, '
Ġd ancing
ĠH op
ĠJ ac
Ġspeak er
à ¥
ĠP sych
ĠF ather
co ver
ĠU lt
Ġag es
Ġli p
Ġcult ures
8 7
if ice
act s
Ġball s
char ge
Ġnewsp aper
Ġf ir
ĠC oll
ure au
Ġpass es
âĢĵ ]
ĠMan agement
ĠPol it
n i
orr is
Ġdefe at
pt ic
Ġmyst ery
Ġc osm
ru g
Ġconsider ation
L C
Ġfocus ing
Ġintellig ent
. ]
es c
ĠE ve
Ġgen re
Ġchemical s
G E
ĠH it
ap or
Ġve nd
Ġepis odes
Ġse eds
Ġj un
ĠTh ings
Ġdisc l
Ġprote ins
Ġadop ted
Ġju ice
m ers
Ġp ul
Ġme re
Ġwarm ing
Ġs illy
ee k
Ġforgot ten
at hered
ĠS on
od ed
Ġqu ery
Ġcreat ure
Ġs oph
Ġh itting
Ġterr itory
h ave
ĠT ony
ol ving
Ġl ens
Ġindic ates
ĠYou ng
li x
Ġemail s
Ġretire ment
Ġthe at
ect ive
ĠSt ory
Ġcollect ed
Ph oto
Ġsign ature
iction ary
Ġb ands
ĠN E
ind s
Ġsp ots
Ġl yrics
ĠH un
Ġdr ama
ĠC ook
ĠR oad
Ġ3 4
Ġfall en
ij uana
Ġpre par
Ġdisc overy
Ġl az
Ġun p
ĠPro v
Ġeng ines
Ġdark ness
3 00
Ġt ube
Ġseem ingly
Ġcour ts
Ġaccess ible
Ġassum ed
Ġaw ful
ol en
Ġcom ic
Ġprov ider
Ġvis iting
in ction
Ġtra il
Ġconvers ations
s is
T ra
Ġth rew
Ġin sect
Ġhead ing
ck ets
op t
Ġpow der
Ġle ague
ĠCar l
Ġpurch ased
ĠE ll
Ġprop osal
Ġpresident ial
ĠNet work
Ġout comes
M ark
Ġg est
Ġhe nce
Ġgirl friend
S aturday
Ġconst it
Ġabs ence
Ġflow ers
Ġcomprehens ive
d f
ĠR un
Ġconf usion
o cc
ĠW H
Ġdis g
Ġcent uries
atell ite
ĠM ult
ab out
Ġdec ides
Ġcor n
Ġproced ures
Ġre nder
Ġcent re
Ġd ump
Ġro y
Ġo x
Ġfor um
Ġpro ved
ĠR am
Ġout s
ĠWill i
Ġprecise ly
Ġap olog
Ġthe ories
ĠM ain
un a
Ġv ibr
Ġmon ster
ĠA S
Ġst ere
Ġinfl amm
n atural
ĠSp ir
u ate
Ġl ux
Ġk il
Ġvisit ors
Ġrhy th
C A
Ġb orrow
Ġcomp at
ĠAnd roid
Ġcur ve
Ġimm igration
Ġdiv ision
D ef
Ġl es
ĠM ars
um ing
Ġmain stream
Ġconv ince
h ot
Ġodd s
c ore
he art
ock s
Ġsuggest ions
Ġp our
Ġimportant ly
Ġbase ball
ab eth
sc reen
Ġprem ium
P R
ĠF riend
ĠAs ian
ĠPr in
Ġtrack ing
Ġunivers al
Ġd il
ra v
ĠO p
ac les
Ġcont ained
arent ly
omm od
Ġbenef icial
j i
Ġgu est
Ġlove ly
Ġcontain er
ĠB ell
ĠN on
Ġben ch
S te
ar ters
Ġapp lying
Ġbad ly
Ġrequire ment
Ġpo ver
Ġrem embered
Ġdocument ation
Ġnegot i
Ġeduc ational
Ġfac ilities
is k
Ġh ill
Ġrequ ests
Ġdepend ent
f r
g ain
Ġth y
Ġg ut
ult s
Ġra pe
Ġart ificial
Ġpartic les
Ġas leep
Ġse ar
op her
Ġinj ured
Ġexperim ents
Ġvirt ually
ĠKore an
Ġpover ty
g ments
Ġt ap
ĠB at
ĠR ub
Ġmeaning ful
u zz
b age
Ġle gend
Ġworld wide
] [
ir ts
Ġreg ional
u ction
Â ©
ad er
a o
ĠC ustom
T A
k ward
Ø ±
ĠN ic
Ġ19 70
ĠMuslim s
ĠW ikipedia
ck ing
Ġhop efully
Ġh al
U R
Ġs izes
Ġin qu
Ġpe ak
ol i
Ġse gment
Ġear ned
pend ent
ĠAustral ian
ĠW ild
Ġcriter ia
it arian
Ġsam ples
Ġp ink
Ġdrink s
Ġstim ul
er ior
ow nt
ĠD aniel
Ġal ign
Ġlif etime
Ġwal ks
S k
ĠA ge
ĠSp ain
Ġar c
Ġoff ensive
ĠAnge les
m akers
an th
Ġ ë
om atic
ne ys
ow ers
am ber
7 9
Ġsur ve
ac her
Ġt ie
ĠN ob
olic y
Ġexec ution
Ġbatter ies
Ġnodd ed
ĠCom mission
Ġmer ch
Ġp ound
Ġsupp lies
ĠCom put
ĠRes p
Ġsem i
Ġjud gment
ĠJack son
f ile
Ġd ys
Ġelimin ate
r ics
Ġf ate
Ġpar ad
Ġvo ices
Ġw age
Ġgu idelines
ĠAs k
Ġass et
Ġant ib
Ġcover ing
Ġfarm ers
c ode
ã Ģ
ĠI re
Ġage nda
Ġcopy right
Ġreact ions
om er
Ġro lling
Ġemploy er
f oot
ol ves
Ġcritic ism
Ġaddress es
ĠGu ard
Ġor ange
ry ing
ph ones
Ġfind ings
Ġoppon ent
ci p
Ġext ensive
ĠGu ide
Ġfill ing
Ġassoci ation
. ;
J oin
Ġdam aged
Ġtem porary
Ġm ile
Ġste pped
Ġtravel ing
Ġbi ological
ĠI M
Ġv oc
ĠBr other
Ġimm un
ĠFranc isco
ĠC H
Ġse ctions
Ġreturn ing
Ġattempt ed
Ġexerc ises
ĠD ave
Ġ/ ><
n ormal
nt il
Ġarg ued
Ġper pet
Ġnav igation
ĠR ome
ĠK at
Ġtrans actions
Ġinf in
Ġdi verse
Ġvot ed
Ġuncom fortable
ob b
Ġcap abilities
Ġcolle agues
Ġstock s
Ġrom antic
c ut
i y
Ġst ations
us er
Ġsp oken
Ġpark ing
aw are
ĠAd v
ir us
ĠN AS
Ġdesign s
ĠI V
Ġenjoy ing
N ame
pe red
ĠL ake
og s
ĠMr s
F C
Ġcor rupt
Ġspec ified
ĠPro duct
Ġdest ination
Ġdiv orce
B r
m ind
t ered
Ġsc ope
Ġfin ance
Ġest imate
Ġn erve
Ġdo zen
Ġme ets
Ġdirect ory
ĠCon nect
Ġin her
ĠC ur
ail ed
ĠAnd rew
Ġinst ances
Ġsum mary
Ġag gressive
Ġconvention al
m at
Ġkn ife
ĠH D
Ġab stract
Ġb in
Ġ4 00
Ġdec or
Ġgener ations
enn is
ä ¸
Ġm ouse
ble m
Ġswe at
id ance
ĠB oston
Ġelect ron
Ġden ied
ĠT ype
ĠB C
Ġint r
Ġcons pir
Ġattempt ing
ã Ĥ
Ġdelic ious
ĠC A
Ġdis k
ĠNe ed
Ġab ortion
Ġhe al
ist ing
Ġcitiz en
h as
av id
g ression
se ll
ĠC up
ĠN O
Ġh o
Ġinteract ions
Ġoverwhel ming
Ù Ī
Ġinter rupt
Ġwin ner
ĠSov iet
Ġacc ommod
ĠEx p
ĠR ights
Ġref use
Ġsubt le
H i
V ID
Ġro lled
se m
Ġr iding
Ġrock s
opy right
8 5
Ġinnov ation
hy dr
Ġfrequ ent
Ġtransl ation
Ġpil ot
Ġmanif est
ad or
ĠC ivil
ne ver
Ġview ed
Ġneut ral
ĠE qu
Ġs outhern
Ġman aging
Ġfac ility
Ġcollect ive
h ist
Ġprov iders
Ġmanufact uring
M on
art s
ĠE nergy
ĠV iet
ĠL o
Ġcontinu ing
Ġlegit imate
ĠP o
ĠO per
Ġsp o
Ġinst antly
Ġregist ered
m other
Ġth umb
Ġst ake
Ġpoint ing
Ġdiagn osis
it udes
Ġbroad cast
Ġbrand s
s en
ĠAc adem
is p
ĠD O
and al
ĠL y
ĠE mer
ĠO k
ell o
An sw
ĠPal est
Ġphenomen on
et he
Ġcomm ittee
Ġref erring
Ġrepresent ation
Ġgraph ics
B est
ĠR os
Ġf its
Ġn orthern
ĠInt erest
Ġvac ation
ĠPak istan
O kay
Ġfru its
Ġe lder
ĠC ross
ever al
ax y
Ġexperien cing
Ġdo se
ict ions
Ġmod ified
Ġ0 7
Ġloss es
re ated
er ning
H ome
ĠT O
ond s
Ġbr ut
Ġav o
l if
Ġall erg
Ġmin ister
oc ument
Ġtre nds
ĠDV D
Ã ĥ
Ċ ÂłÂłÂł
Ġsp ray
Ġsty les
ĠF red
Ġdis pl
Ġcry ing
ĠS O
Ġposs ibilities
ĠCh apter
Ġ15 0
Ġgrad ually
ĠE ffect
Ġi P
Ġb udd
Ġgr ant
Ġbl ast
Ġthreat s
t te
Ġlow est
Ġsett led
ĠJose ph
B M
ĠE ric
gr oup
ĠII I
Ġenorm ous
ĠP ass
aw a
Cl ick
R ed
Ġde ck
Ġun necess
ĠKing dom
Ġup load
Ġpres cription
Ġexpl aining
ĠKe y
Ġrestaur ants
+ +
Ġh iding
b ec
Ġin hib
Ġch ips
Ġman agers
ĠV an
Ġassum ing
Ġ0 9
ĠPh ot
Ġb ass
ĠG ames
Ġder ived
Us er
Ġt ons
ĠM uch
Ġgra ce
oll owing
Ġmount ains
ĠBra zil
Ġs ought
is y
oc y
Ġpo em
Ġn aked
com p
ct ure
Ġres ident
Ġsc ores
Ġconsist ently
j pg
Ġent ity
Ġmod ule
Ġpres ents
ĠGe org
C ar
ro ph
int erest
Ġport ray
S E
Ġrem oving
Ġd irt
Ġcou rage
Ġde ar
ĠF amily
Ġpre ced
Ġdi pl
Ġaw kward
Ġprom ised
Ġtarget ed
Ġintrodu ce
d ri
he nd
arm a
Ġ9 9
ĠE vent
Ġdis orders
ĠV en
Ġ199 9
Ġlaug hed
C O
ĠCl ick
Sc ript
Ġdirect ions
ĠÂ »
st ra
ĠM ach
Ġj ury
Ġspeak s
ï »
ĠL ib
Ġact ively
Ġbr an
Ġdemonstr ate
ĠStep hen
Ġd un
201 0
Ġwor ship
old s
Ġfit ness
Ġengage ment
Ġf ib
ke l
ov ie
Ġnew ly
Ġstrateg ic
w ed
ĠR og
end ar
j ud
ĠS omething
Ġc ous
ĠI ce
ul in
ah a
Ġtick ets
l ow
ĠSo ft
ĠE astern
Ġexpect ing
Ġaddress ed
Ġterror ist
Ġnow here
back s
f s
Ġexp ense
Ġentit led
b led
v as
ou ble
ĠT ri
ÂłÂłÂłÂł ÂłÂłÂł
Ġnutri ents
F A
Ġre ar
ĠM other
Ġdiscuss ing
Ġprison ers
Â ®
ing e
Ġcommun ications
ay a
Ġcont rad
Ġfl esh
ĠWe ek
Ġreal istic
Ġfact ory
Ġsc ary
Ġcor ruption
Ġrepeated ly
Ġvolt age
P ubMed
ĠI ron
ann el
Ġconst ra
Ġland scape
Ġpr ide
gg ing
w an
ï ¼
cl aim
Ġgod s
C P
ĠP rop
Ġ0 2
Ġimag ination
Ġunf ortunately
a ud
ĠO l
ĠA L
ĠG iven
Ġreg ulation
Ġhun ting
Ġsch olars
Ġg ently
Ġcont est
Ġcount y
Ġr ush
iz abeth
Ġpres um
Ġsurround ed
Ġ vel
ĠB ow
Ġmag ical
all ing
Ġcook ies
Ġu gly
Ġtreat ments
Â ·
ens ed
ĠR od
Ġ6 4
hold ers
Ġbon us
Ġb ite
Ġp and
tr ans
Ġdram atic
L og
is er
E G
Ġd ressed
Ġh orses
ĠH im
Ġtox ic
Ġp unch
Ġr itual
Ġprob ability
J an
ap ore
ool s
Ġex it
ĠR ose
Ġgr in
arr ing
9 3
Ġ( #
Ġsh ipping
os er
Ġy ard
ol id
ĠH um
Ġob sc
Ġref uge
ĠSc ot
Ġacknow led
it o
Ġ- >
man n
Ġheart s
Ġemploy ed
ï» ¿
E l
gr ad
Ġsw all
ĠTechn ology
Ġinspir ation
S ometimes
Ġc inem
ĠR est
igh ters
c ery
r ine
r ons
ĠT reat
ĠBl ood
Ġin herent
C o
Ġaccur acy
ĠT erm
Ġresult ed
Ġtit les
L ist
ot ype
Ġdist ur
ĠSpe cial
Ġpers u
sh ot
viron ments
Ġdistrib uted
b ul
Ġc ure
ĠRe ally
Ġdevelop er
Ġeng aging
Ġsubstant ial
ĠPr ince
ut ors
Ġste al
ĠWilli ams
Ġgr ate
Ġfollow ers
ĠComm ittee
Ð¾ Ð
ĠT oo
Ġcour ses
Ġwar rant
Ġdisplay ed
M ake
S ign
ik a
add y
it als
Ġwork er
Ġstr ings
rie ved
L ear
Ġdro ve
- )
Ġlight ing
ĠE nt
for ward
Ġamong st
Ġs essions
Ġsh orter
Ġstop ping
ĊĊĊĊ ĊĊ
in ch
it ivity
Ġident ical
Ġspect rum
Ġlawy ers
Ġstro ke
Ġco at
Ġ4 2
Th ose
ĠAdd itionally
Ġintegr ation
Com ments
Ġquot es
Ġt ang
Ġa er
ĠD un
Ġres olve
Ġread s
Ġsafe ly
ĠN umber
Ġbal anced
Ġper ceived
Ġfl aw
Ġhand ed
Ġcle ver
Ġstreng then
Ġsubsequ ent
W he
Ġt utor
ic ious
Ġcont ents
ĠIre land
ru ce
Ġcoll apse
Ġrespond ed
Ġpun ishment
ĠCom mon
g ame
Ġfir ms
Ġp ills
ĠB al
Ġout er
Ġpan ic
Ġgrab bed
ĠR yan
h o
p a
Ġreve als
) ?
M od
Ġp ants
Ġwh ilst
ĠO il
Ġmet aph
Ġmanufacture rs
ge bra
Ġrel ate
Ġtra ve
Ġt rop
Ġg ri
Ġst ability
ubl ished
ĠS us
ex p
Ġminor ity
G od
ĠL ive
ĠG P
Ġ0 8
ĠGen er
Ġcorpor ations
Ġbond s
h is
t ics
Ġm igr
ic ating
Ġgu idance
ĠAd minist
Ġsepar ated
Ġhero es
Ġst olen
Ġr if
f ront
Ġs ir
ess ed
Ġcr imin
che ck
Ġ ]
ĠB rand
el ve
Ġgu ests
Ġm ature
ce ive
ĠE st
Ġbi as
h ire
ĠD ie
ĠR en
Ġcop ies
Ġload ed
k ind
id th
ĠL im
Ġtou ched
Ġw and
umb led
Ġhung ry
U nder
f ound
h al
Ġcons ume
ĠOr der
ĠGl obal
se ction
am med
Ġnight s
Ġmar g
crib ed
Ġh arsh
ĠR ather
sp an
ers ion
ag en
Post ed
Ġinter vention
Ġproduct ive
Ġpopular ity
ĠF ull
Ġhum or
uz zy
v als
Ġthe rap
Ġat e
ak i
ĠCh ief
Ġbel t
uck s
eng ers
F ree
ĠW W
Ġ3 9
Ġsupp orters
Ġexist ed
Ġcogn itive
Ġent reprene
Ġquant um
Ġabandon ed
am ine
Ġclaim ing
Ġbed room
l as
r at
ĠW atch
ĠG ive
Ġoff ense
Ġquant ity
Ġback up
Ġco op
Ġtoile t
( "
Ġc ul
Ġinst inct
ĠAr thur
Ġmotiv ation
8 2
st ar
ĠA li
ĠF A
Ġfe ars
Ġart s
Ġen zy
Ġsing er
ĠIr ish
ĠI de
Ġremind ed
Ġdivers ity
Ġre vers
Ġst atic
Ġup coming
Ġalong side
Ġcomb ine
ĠAct ually
Ġburn ed
Ġcert ific
Ġlaug hing
Ġtrem end
Ġch op
own ed
Ġtransport ation
rim ination
M B
Ġj ur
Ġint u
ĠHe y
Ġmar ijuana
Ġess ence
Ġnut s
ig s
ĠCl ub
Ġboy friend
" ?
ich ael
Ġass ert
p ay
Ġc odes
ht ml
uss y
Ġbur den
il ation
Ġcom edy
201 4
Ġcontract s
Ġwat ers
F ind
Ġm as
ent er
ĠM ir
ĠR oyal
Ġra b
Ġappro val
Ġbank rupt
ĠT ell
Ġfasc inating
U se
Ġre aches
Ġint im
en cing
ĠDo ctor
Ġbur ied
Ġmaint ained
R et
o z
Ġf ract
ĠÃ Ĺ
Ġg athered
Ġconc erning
urrent ly
Ġentr ance
Ġu seless
ĠV ideo
Ġsuggest ing
Ġcontinu ous
8 3
Ġe ager
Ġproduct ivity
Ġland ing
miss ions
Ġharm ful
Ġl ately
Ġn ons
Ġem bed
Ġfunction ality
[ âĢĵ]
m ate
Ġ5 5
Ġn ode
ĠM id
Ġv ice
Ġcon j
Ġat he
Ġinvest ing
Ġsatisf ied
un ny
ress ing
ac on
Ġrespect ively
Ġsqu ee
Ġinstr uments
7 3
Ġprotect ing
ĠP ers
Ġmed ications
Ġcomplex ity
c or
Ġsh ook
Ġflex ible
h ome
ĠM oney
Ġtem por
Ġcontrib ution
Ġmechan ical
ĠServ ices
bre ak
% )
book s
Ġpen is
Ġcontem porary
v ia
lect ed
St art
on est
Ġp iss
G l
Ġr ural
Ġrul ing
Ġfro zen
he alth
it ative
ĠH ay
air y
Ġble nd
Ġtim ing
Ġowners hip
ard ed
Ġapp le
ps on
7 1
ou b
Ġspeak ers
Ġsacr ifice
E m
F F
it ched
Ġd ent
Ġin ch
Ġconf using
Ġdesc ript
is ible
Ġkill er
Ġsend s
Ġresc ue
m ony
Ġam pl
Ġinst ruction
Ġmagn etic
Ġto ys
8 4
Ġkn ee
Ġra ces
Ġbasket ball
Ġen vironments
Ġlimit ations
Ġexpert ise
Ġins ane
Ġredu ces
Ġsuggest ion
Ġ rib
ar ms
ugg ed
Ġacknow ledge
h uman
Ġjust ify
Ġphot ograp
Ġbound aries
Ġexcess ive
ĠBit coin
Ġt ale
er d
ĠD ream
ĠCh amp
ÂłÂłÂłÂłÂłÂłÂłÂłÂłÂłÂłÂłÂłÂłÂłÂł ÂłÂłÂłÂłÂłÂłÂłÂłÂłÂłÂłÂłÂłÂłÂłÂł
G e
Ġm aps
ĠH arr
ens ional
Ġ' '
ĠAr m
I E
Ġab und
Ġind icated
Ġcompet e
C al
Ġs ink
pr ot
ĠVal ley
Ġdemonstr ated
Ġrac ist
ĠB on
Ġfound ed
ĠBr ad
Ġmechan isms
ĠT aylor
-- -
Ġ0 4
Ġclos est
ĠFound ation
h ard
Ġa in
ol n
ins on
Ġconvers ion
9 4
Ġp p
Ġar bit
ĠSpr ing
6 1
c s
d em
Ġlog o
ibr ary
Ġast ron
Tr ans
ĠB rian
Ġend less
Ġed iting
Ġrestrict ions
ĠH oly
ĠJ ordan
ĠO ffic
ind u
Ġte ar
ĠY u
I LL
ul um
Ġfail ing
ĠUs er
Ġshock ed
D own
ur able
Ġsimultane ously
iv a
Ġbes ide
Ġfavour ite
Ġ Ø§ÙĦ
Ġkey board
tt es
w a
Ġev ident
Ġre nd
Ġfor cing
ĠP enn
Ġkind a
ĠJ ason
Ġmet ers
az ed
ĠTr ue
Ġwa ited
Ġbul let
Ġattrib utes
A V
N S
ĠE th
ĠInd eed
Ġsent ences
ĠFurther more
erv ice
Ġprep aring
Des pite
ĠT able
ĠT ax
ĠL ow
Ġ19 60
Ġpow ered
Ġcalcul ated
c at
Ġpublic ly
Ġbank ing
ari os
a fe
Ġsn ap
cons cious
Ġp ays
Ġp izza
Ġinstall ation
Ġden y
Ġrob ot
Ġc aps
Ġb old
Ġd ownt
ĠC R
ĠCol umb
Ġinflu enced
Ġcond em
Î ±
ĠL ater
Ġ4 4
Ġpret end
Ġbes ides
6 3
ĠS outhern
ĠF und
Ġdis rupt
l on
ic ular
ĠE sc
Ġcomp r
Ġcomm ands
Ġprint ed
Ġal ert
Ġpop ulations
ĠDis ney
Ġto y
Ġh ired
Ġhe m
el le
Ġreject ed
c hers
ĠL ine
Ġindust ries
o vers
ad ows
Ġas h
ĠAn g
Ġcreat ivity
Ġdisappe ar
Ġautom atic
Ġglass es
ĠWr ite
Ġdesper ate
Ġpurs ue
od ge
Ġsl ave
spe cific
Ġb ored
ot ion
ĠA ff
ĠH ope
ĠSt an
Ġjo ining
Ġqual ified
Qu estion
ĠC B
ĠC as
ĠF BI
Ġpen et
h op
im er
ĠP ri
Ġtest im
ĠRev olution
Ġdest ro
id al
Ġpen alty
Ġsoph istic
b ro
or ious
ab s
Ġch ip
Ġfe at
Ġcomp ound
Ġco inc
Ġem issions
201 1
ĠEduc ation
Ġc ant
Ġv ague
Ġfr ight
Ġpro st
Ġdiscuss ions
Ġstra in
Ġfeed ing
Ġl ake
Ġrec ru
ĠN ar
Ġencoura ged
h ole
Ġdes p
Ġexam ine
ĠR ab
ect ed
pl ing
Ġadd iction
ĠChristian ity
Ġwra pped
ĠO R
ple x
ĠQu estions
Ġintegr ated
Ġsubs id
h igh
ĠM A
Ġsub mit
ĠVirgin ia
ĠBo ard
Ġvacc ine
Ġsustain able
Ġkn ees
Ġcomp osition
cy cl
mark et
Ġstead y
9 1
D avid
Ġst airs
ĠK enn
ĠCh ildren
Ġgu ards
Ġinvestig ate
Ġb aking
Ġint ensity
n ie
Ġb oo
ĠS earch
Ġgr id
ĠSa udi
av or
Ġhand ful
u ce
Ġinv ited
ĠRom ney
Ġpol ar
Ġcra w
it age
ĠDevelop ment
T F
ĠM ind
op en
ĠL ew
Ġfr anch
Ġprom inent
Ġ< /
Ġk m
ĠQu estion
ĠMed ical
Ġcelebr ate
Ġpre cious
Ġg ains
Ġprogress ive
Ġassist ant
and y
Ġsal ary
Ġcampaign s
Ġ> >
Ġimmigr ants
ven ue
ail able
Ġev olved
Ġinvest ments
amb ling
C R
op les
Ġsett le
Ġadop t
Ġhtt ps
H P
Ġc um
Ġ( $
ans as
Ġsl ide
ier ce
look ing
v o
Ġup grade
Ġ6 5
Ġimpl ications
Ġfol k
Ġwealth y
Ġt une
Ġcon sole
ust ed
Ġbu gs
Ġpack ages
Ġinterview s
Ġassum ption
H E
ig hed
Ġr ou
erv ation
Ġline ar
Ġc ave
Ġp ix
Ġbe ef
ir able
ile y
li hood
Ġbeg un
6 2
form ance
ask a
ĠWil son
Ġw ings
al o
um ble
os ph
l ast
Ġf oss
Ġg ross
ail ing
Ġreg ards
f it
ll y
Ġac ids
u i
ĠF ord
AR T
ĠA LL
ĠF all
ark s
Ġjump ed
t i
w ind
Ġins ights
ĠCom ments
Ġthreat ened
b d
are st
Ġbran ches
qu est
Ġcoun cil
f o
Ġt ent
Ġint rig
Ġun re
y er
Ġf iber
Ġle af
Ġbr ush
Ġtrans mission
ĠOr ig
Ġc ub
Ġh iring
Ġdis hes
Ġ0 3
Ġtext ure
Ġblog gers
Ġemb race
Ġunem ployment
Ġthe oret
Ġ2 50
ort ing
ĠM u
Ġret ain
Ġpack ed
Ġcalcul ate
w alk
ro b
per or
ell a
ater n
Ġtrans f
7 4
f lix
ã ĥ
ĠF igure
are r
form ed
Ġrec yc
Ġmar gin
Ġrecommend ations
Ġbe ans
ĠN FL
Ġclass room
ĠSome one
H z
ĠN ick
Ġdr um
Ġsignific ance
ĠCarol ina
D is
de v
Ġfl ip
Ġfra ction
Ġcru el
Rem ember
st s
Ġlaz y
f ish
ĠB attle
un ting
ĠDa ily
g ic
ĠT en
Ġut ility
Ġinter ior
Ġdesign er
Ġflo ating
Ġmyster ious
M et
N et
Ġp atch
ĠD ra
Ġgr ows
Us ing
Ġsy ndrome
7 2
Ġp ile
ĠW alk
pro duct
it i
it ement
ĠSh are
Ġdig est
Ġneighb ors
b urn
ed ge
ar re
ĠU k
Ġtra its
Ġel ite
Ġunnecess ary
M us
Ġfl ower
B oth
Ġw ider
Ġm art
ĠS ay
Ġne at
Ġreg ret
Ġground s
Ġrhyth m
Ġg rey
ist ically
E ach
al so
Ġvari ation
Ġobserv ation
9 2
r c
Ġex ch
ĠD oug
ĠN a
ĠU t
ĠPro cess
pe ople
Ġdev ast
Ġbar rel
Ġobs erve
Ġmathemat ics
Ġb id
Ġqual ities
i ary
ro gen
d am
Ù ĩ
Ġin hab
Ġevalu ate
Ġcorrespond ing
Ġm erc
Ġ20 21
Ġmolec ules
Ġm os
Ġn it
ĠS ource
ra ine
em an
ĠU r
Ġtrans formation
Ġ0 5
Ġtreat ing
Che ck
A ss
w he
Ġw ishes
ro lled
Ġprocess ed
ĠKe vin
Ġcloud s
Per haps
le te
Ġoffic ially
ĠIsrael i
Ġh ier
ra pe
Ġsl ower
Ġe rect
ĠO kay
201 9
Ġincor rect
e z
st op
un s
ag a
Ġstra w
Ġcup s
v ar
w all
Ġh int
Ġl one
Ġen ables
Ġswim ming
Ġc her
Ġcomput ing
ĠO s
Ġres on
Ġfil ed
ĠGold en
Ġb inding
Ġth irty
du ction
Ġcha os
Ġcou p
Ġleg ally
ĠZ e
Ġce iling
ĠPac ific
ge red
Ġpo etry
Ġfif th
ĠDist rict
Ġn urse
ĠH ad
Ġrepresent ative
ĊĠĠĠĠĠĠĠĠ ĠĠĠ
in ue
ut ies
Ġ199 8
Ġpoor ly
m n
Ġha z
ĠHe at
Ġrem oval
Ġext rem
Ġdra in
Ġste am
Ġfa cial
Ġinfect ions
Ġt ens
ur ches
ĠA k
Ġexcl usive
Ġstri kes
Ġp ale
Ġd imin
ĠM s
Ġdo s
Ġmin ing
ok er
Ġdem ocratic
Ġmat rix
Ġprinci pal
Ġdele te
ix ed
uff y
ĠCont ent
st ruct
os ystem
Ġcomp osed
Ġp iano
Ġh ub
Ġmeasure ment
ĠSim ilar
Ġwood en
ac co
Ġgu ilt
ĠInd ust
Ġexec uted
ĠMore over
y o
ing ing
ĠC ell
ĠN orthern
ĠL ess
ĠG OP
Ġfo lder
Ġposs ession
Ġdescrib ing
gen er
Ġcook ed
a ver
Ċ ÂłÂł
Ġst iff
Ġunf air
ĠN one
201 8
........ ........
ĠSing apore
Ġdisappoint ed
Ġcont rary
Ġsens or
ĠSer ies
ĠBet ter
Ġproport ion
F ile
H el
Ġc ott
Ġm ock
iz ard
AT E
Ġwid th
Ġoppon ents
Ġgif ts
Ġgrate ful
th ink
Ġblock ed
Ġun lock
Ġpat ent
Ġgar lic
Ġbatt les
or i
Ġy ards
Ġsh ops
Ġso ap
ĠL at
ien ces
Ġmembers hip
ĠOther s
Ġsatisf action
b id
u um
it ated
ĠG all
Ġgr ay
ĠLe ft
Ġcult iv
Ġver b
pl us
ĠSt one
ĠInst agram
Ġcontrib utions
Ġwarn ed
Ġindepend ence
Ġalle g
Ġfurn iture
Ġt ourn
cc er
mer ce
Ġtra p
Ġed ges
St ud
Ġt ags
Ġc ried
Ġch rom
Ġdes cend
Ġbehavi ors
p ace
Ġm ales
Ġr ic
hy l
Ġold est
ĠAm endment
Ġanaly ze
Ġdu pl
G reat
b ian
v able
Ġrul ed
Ġbub ble
z ona
Ġs atellite
br idge
Ġtend ency
inc oln
Ġobserv ations
F O
Ġd ual
im age
Ġâ Ĥ¬
ĠMat thew
Ġinvent ory
Ġd read
Ġbe ating
am ous
ĠP ract
ist ical
ĠD utch
oc us
Ġworld s
Ġcount s
Ġ0 6
Ġmil it
Ġgro cery
Ġsched uled
Ġt u
Ġcons ent
Ġbrief ly
ĠC ru
Ġcon vey
ĠB ull
Ġinst itution
Ġscient ist
i ar
Ġw ore
Ġm old
Ġint ake
ĠSt op
Ġchamp ions
Ġmetab ol
Ġcur s
ĠZ eal
Ġtact ics
Ġdist ant
ane ous
T ext
ĠC redit
Ġple asant
A uthor
Ġins ult
ili pp
Ġcross ed
Ġclim b
H S
Ġgra in
Ġwe lf
Ġsh ake
Ġra cial
Ġfeature d
ĠS cient
Ġwas hing
ĠPl ace
ĠIm ages
Ġengine er
Ġmechan ics
ĠM useum
Ġcre ep
Ġpoll ution
ĠF a
ĠN ature
Ġtrans p
Ġreason ing
ĠUS B
Ġelect ro
Ġcy ber
Ġthorough ly
Ġv i
Ġacqu ired
Ġpromot ing
o ir
ment ed
Ġall ies
Ġcl uster
Ġtra ce
Ġrest ore
Ġparam eter
p y
ĠL uc
ĠK ar
Ġpr ayer
Ġcent ers
200 8
Ġextra ord
Ġsand w
v ard
Ġ ..
Ġp ets
ĠA st
ĠP riv
Ġover t
Ġlad ies
Ġwelf are
ĠB an
per t
ass es
Ġref lection
Ġkill s
iscuss ion
es y
Ġf ancy
Ġh unt
ig ue
ĠA z
omet ry
Ġbra ins
Ġpress ed
Ġhom osexual
Ġwork out
ell ow
vers ion
Ġeconom ics
Ġinev itable
b en
Ġprevent ing
Ġid i
Ġquiet ly
ĠS orry
ĠA ud
th od
ĠL A
au nd
4 00
E A
Ġf er
Ġe cho
Ġprof ound
Ġpract ically
Ġdead ly
b ound
r ot
¿ ½
Ġexpl oring
Ġvert ical
Answ er
y ard
ĠS U
ĠD ate
Ġdomin ant
r imin
Ġrese mb
E X
Ġwor n
ĠN iger
Ġdef ensive
Ġspec ify
asc ular
Ġscream ing
O K
Ġl aser
Ġ= >
ĠM ah
ĠD irector
Ġabs urd
Ġcoll aps
Ġdocument ary
ĠProf essor
c m
e very
o ons
is ode
Ġb io
ol s
ĠB uy
Ġres id
Ġperson nel
ĠEl izabeth
Ġcompens ation
ĠB aby
ond e
Ġafford able
} }
Ġemploy ers
ĠD ragon
Ġcomp assion
ĠUn like
Ġmatch ing
ĠMark et
ì Ŀ
Ġd ub
ag ra
Ġmod erate
Ġland s
ĠI ss
Ġdiff er
ern el
Ġconst itution
Ġhar vest
Ġinfect ed
ï ¿½
Ġw ip
ct ic
ĠP ur
ect s
ru b
idd ing
Ġisol ated
un es
Ġhand led
ĠGree ce
ĠHit ler
o en
Ġy a
Ġst em
Ġgo og
Ġmar ry
Ġblog s
Ġaim ed
R ight
Ġclass ical
Un fortunately
Ġadequ ate
b ling
ĠC ase
L ife
h r
em ed
ĠR achel
Ġ9 5
Ġappro ached
Ġcompe lling
ĠB ox
Ġcl ip
Ġover se
Ġca res
Ġdesk top
Ġalgorith ms
Ġn od
cy cle
Ġed ited
Ġ199 7
Ġassemb ly
es is
ĠO ften
ne ath
Ġfree ly
200 9
Ġpurch asing
ĠSte ven
w idth
Ġw re
Ġre ct
ch a
Ġimprove ments
ĠE ver
Ġimpl ies
o a
Ġg reet
Ġthere by
ĠHe art
Ġ4 1
Ġf ont
ĠS elf
Ġover l
Ġdes ert
Ġra cing
Ġhydro gen
Ġprepar ation
om al
Ġv ag
Ġsold ier
W S
Ġp or
Ġview ing
am ins
ĠB ang
Ù İ
pp ers
Ġint end
Ġtrust ed
su pp
ĠCO VID
Ġs its
ad vant
ĠC ome
oc ity
con nect
ĠSm all
Ġjump ing
ĊĠĠĠĠĠĠĠĠ ĠĠ
Ġconspir acy
ĠAcadem y
Ġp ir
ĠS av
Ġsh apes
el a
ĠK ind
âĢ¦ âĢ¦
Ġeat en
v ation
is an
Ġh orn
ĠS C
Ġatt ended
Ġshort ly
s im
t ic
ĠG i
ĠIm age
Ġport fol
ĠId ent
b in
Ġw ides
an z
Ġl ol
Ġdro pping
Ġsett lement
ĠMich igan
is ons
Ġtr ash
Ġche er
Ġweek ly
oles ter
Ġmotiv ated
ĠS ab
ĠS af
Ġse vent
Ġri val
Ġadvert is
Ġevalu ation
Ġmanufacture r
Ġt orn
am an
Ġlab els
Ġavoid ing
ch ain
Ġel ig
Ġaff ili
Ġsoon er
z ens
Ġse asons
Ġattack ing
Sec ond
Ġh ated
Ġsh aped
ĠN orm
Ġun h
Ġimp ressed
Ġsol ving
Ġdiv ine
Ġengine ers
ethe less
st ep
Ġhe ating
Ġab road
Ġsl a
Ġcount ing
Ġtort ure
ĠSecret ary
p read
or ical
ĠS QL
os itory
Ġhome less
Ġtem ple
Ġgradu ate
Ġsurprising ly
Ġsole ly
ĠEs pecially
Ġavo ided
H aving
ĠB a
Ġass ass
Ġprom ises
Ġ199 6
Ġpsych ology
ĠCP U
A pr
F orm
ĠP A
Ġv ocal
Ġthem es
iz ers
Ġbelie ving
Ġdi agram
let ter
D R
ĠH IV
ĠJ ane
ĠRe ading
Ġtouch ing
Ġgather ing
Ġvessel s
f a
h our
Ġstri p
Ġbreat he
ĠC old
Ġtw ist
Ġmed itation
** **
Ġnutr ition
C reate
g it
Ġinc omp
Ġgen et
B N
Ġm ant
an cial
ĠL ar
Ġpart ly
Ġdiscipl ine
V al
ĠM ove
Ġle ather
ĠJ am
Ġcou ples
Ġworth y
ĠOb viously
ĠCor por
Ed it
ĠC it
igh s
Ġconnect ing
s ur
st art
ĠP olicy
Ġback ed
Ġchar ging
Ġdisappe ared
c ount
id ays
ĠB BC
Ġj unk
ph ant
Ġel abor
?? ?
C T
f are
Ġ q
ĠB h
ĠR oll
ĠL ady
oc a
Ġcirc les
Ġsl ip
Ġbit ter
Ġexc itement
ĠAcc ount
ĠNAS A
f irst
ust ing
Ġper m
Ġinv asion
Ġprodu cer
ĠMod el
Ġaccompl ished
ĠHill ary
E P
ous es
ĠĠĠĠĠĠĠĠ Ġ
Ġsound ed
Ġhar ass
d i
ig ious
Ġpe pper
In ter
vent ions
E ST
t est
v it
Ġb anned
Ġcal endar
P erson
he ast
Ġbul k
ĠGeorg ia
ar ia
Ġdifficult ies
201 7
Ġappoint ment
li est
Ġ à¤
ĠR ick
On ly
Ġemphas is
P D
T ype
es pecially
Ġremind s
ĠB urn
Ġcount less
le vant
ĠF ort
ont al
U I
ĠS ci
ĠG reg
Ġbra ve
St ill
Ġrele ases
D ear
P at
ant e
ĠLe vel
Ġfriends hip
Ġconsum ed
ĠE ither
Ġser ial
be at
-------- --------
8 1
b u
Ġconc luded
Ġcontro lling
Ġpri est
Ġarri val
ĠOther wise
Ã §
Ġfunction ing
Ġthe ater
Ġs our
Ġf ut
Ġ4 3
Ġsol o
D ec
b rew
p op
ad ium
ĠA ccess
olog ically
alth ough
Ġz omb
Ġment ally
Ġathlet es
D ata
d ep
z es
Ġt ire
Ġst aring
sc ale
ĠAny way
Ġscen arios
Ġkick ed
Ġterror ists
Ġenthus i
Ġb iz
ĠB all
Ġ4 7
Ġcap ability
O ct
s ized
on ut
Ġh oly
ĠM orris
ant ing
ere r
Ġsp okes
Ġgl uc
Ġlif ted
Ġbl ur
ĠMark eting
is ition
Ġv ib
ĠK ate
Ġsp are
Ġrequ iring
Ġpass engers
Ġattract ed
Ġrub ber
Ġcrimin als
N T
ĠT er
est y
Ġres erved
Ġimp r
sc ribe
Ġassign ment
Ġcollabor ation
W ork
Ġd rew
av y
Ġhy brid
Ġfight s
D I
z one
Ġp ip
ad ays
Ġpr icing
Ġrep et
Ġprint ing
Ġenter prise
b ur
Ġw rap
Ġdeal t
Ġple ased
Ġsla very
u is
Ġv ig
int end
Ġplan es
Ġbeh alf
Ġchem istry
Ġshel ter
Ġleg acy
Ġhop ed
Ġp airs
Ġhome work
Ġrepl ies
r in
Ġbl ade
Ġcar ries
1 50
F P
e or
ĠB esides
ĠTe xt
Ġflex ibility
ĠPalest in
b ad
k m
Ġ ÂłÂł
ĠH an
ĠP rom
Ġinnov ative
{ \
Ġm ast
ĠM iller
Ġfr ank
i pt
Ġcl ue
Ġfem ales
ĠB u
Ġarm or
B en
á ¹
ĠK elly
ater al
Ġtem plate
itz er
ĠZeal and
e ks
f il
Ġte nder
Ġconsider able
Ġbott les
on ed
ck er
Ġfr ustration
Ġsymbol s
iat ric
Ġf ishing
ĠAl ice
Ġscr atch
Ġloyal ty
Ġinflamm ation
Ġdys function
he ro
Ġin equ
Ġup gr
Ġdim ension
ĠG ab
Ġrec ruit
ugg ing
ic ient
ĠD ick
Ġsl aves
Ġsurv ived
Ġappreci ated
Ġhypot hesis
ĠJ ay
ĠJ osh
Ġover night
Ġam er
Ġform ing
Ġsk ip
bl ock
Bl ack
ĠAnsw ers
Ġsophistic ated
Ġview ers
Ġfrustr ated
Ġclub s
Ġlux ury
Ġdisc rimination
Ġble eding
ĠDig ital
w hy
Ġs ons
Ġen abled
Ġinv ented
er able
Ġy oga
ci um
Ġsec rets
Ġmem or
Ġtri als
Ġsurv iv
Ġaccur ately
olester ol
M c
or ient
com mun
Ġblood y
Ġmother s
ĠEd ward
Ġunc ons
C or
ĠF act
Ġgr amm
sc ar
Ġpeace ful
Ġfulf ill
ru p
Ġ4 9
Ġeduc ated
Ġinvolve ment
Ġcontrovers ial
ot ing
ĠS H
ĠB ased
Ġanim ation
Ġdemand ing
Ġdrag on
A ug
ĠM ill
Ġapp et
Ġinv isible
Ġpath s
Ġmeasure ments
Su pp
D ay
W ould
W orld
ard ing
wh ite
Ġconsequ ence
. :
ak y
Ġpe oples
ik ing
Ġs lee
ĠO x
bs p
Ġfoc uses
rodu ction
Ġintegr ity
Ġpros per
P N
ĠT own
Ġcamp us
Ġdiagn osed
Ġtremend ous
f old
Ġor al
ĠSt at
Ġremark able
Ġconver ted
er on
ont o
Ġtext s
B et
p se
ĠF ield
ĠL abor
Ġbuy er
Ġsepar ation
Ġestim ates
Ġemotion ally
d ata
g ate
g ence
i ens
m aker
Ġs lic
Ġpart ially
200 6
Ġpod cast
B el
ĠD ad
ard less
ĠOh io
f in
Ġre wards
ĠC hem
ĠP DF
Ġmed i
Ġcal c
Ġoil s
resh old
Ġcorrel ation
Ġgr at
Ġtra pped
Ġexpand ed
Ġoccas ional
Ġst ays
Ġv oid
Ġpl acing
Ġequ ity
Ġimpact s
ĠAri zona
ĠP ack
Ġle nd
pl ess
ĠAn th
Ġbre ed
le ft
Ġinf ant
Ġcontro ller
Ġemer ged
ĠLear ning
M ichael
ess ional
ap ters
Ġunder t
cept ions
ĠMe anwhile
ĠUs ually
AL L
Ġtele phone
friend ly
ĠJe an
Ġorg ans
Ġt ies
ĠB ird
Ġunder ground
Ġsex y
ĠNet flix
ĠB ody
Ġbo ards
Ġrot ation
b est
b ie
Ġd uration
Ġhe y
Ġst er
ĠS ad
ĠK ent
Ġafter wards
U L
Ġm a
ad el
Ġtra uma
Ġprodu cers
atter y
Ġgar bage
> </
ĠTr ust
ĠPr ice
off s
ĠColor ado
Sk ip
ch ron
ĠD u
Ġmoment um
cycl op
Ġwides pread
Ġ4 6
Ġvis its
Ġconst itutional
Ġrelax ed
Ġpref erence
ĠSwed en
Eng lish
b ird
ĠT alk
ĠL ED
l ined
on om
Ġ199 5
Ġec osystem
1 01
id ity
ig e
Ġshe ep
Ġaccept ing
wr iting
ĠMex ican
" ;
F ollow
ree k
rib ly
ellig ence
Ġpure ly
F ig
Ġpubl ishing
ĠViet nam
Ġw ages
it le
Ġprot ests
Ch ar
Ġfrustr ating
Ġmathemat ical
or us
ios ity
Ġo d
Ġg rip
ad en
p res
Ġp y
ed a
ĠC irc
get s
Ġmem br
Ġdist inction
Ġthreat ening
Ġparticip ation
pie ce
Ġal gebra
ff e
ĠJ r
Ġcor on
Ġret rie
Ġland ed
Ġdetect ed
tw o
en ly
ĠS M
ps y
port ant
G A
er als
en ged
Ġco in
Ġpress ing
Ġsus pend
Ø ª
Ġre ass
il ton
ĠSh ort
Ġsol ved
Ġacqu ire
F i
Ġb orders
Ġgovern or
Ġbuy ers
Ġarg uing
Ġstri king
Ġexperim ental
F ull
S earch
t le
u ity
ou st
Ġm arch
Ġd ough
ol ine
Ġ1 20
Ġwhere ver
ĠDe an
=" ">
Ġsupposed ly
h u
Ġt ar
az a
Ġpain ted
Ġexpress ions
er k
Ġr het
ĠO P
Ġbu zz
Ġtechn ically
ĠBe h
app ropri
Ġfoot age
Ġens uring
Ġdefend ant
C S
Ġreal m
Ġb ump
Ġf ires
ic he
Ġas pir
ist a
Ġtra ged
Ġlist ened
Ġtow er
ĠMcC ain
Î ¿
im s
ĠA bs
ab is
on ia
ĠC lear
Ġwork place
Ġpolit ically
Ġgraph ic
Ġcere mony
n on
Ġv ine
Ġassum ptions
Ġthread s
Ġexplos ion
Ġlun gs
Ġcigare ttes
. <
8 00
Ġsl ot
Ġlibr aries
st airs
ĠH ence
qu ality
ĠD irect
Ġsp ouse
Ġcar ing
Ġpat ri
ÂłÂłÂłÂłÂłÂłÂłÂł ÂłÂłÂł
Ġep ic
Ġequ ations
Ġaltern atives
Ġregard ed
Ġrock et
Ke ep
Ġg um
ĠS anta
ĠJ enn
Ġclass ified
ĠCo ast
Ġdim ensions
H ello
Ġf iring
ir y
Ġsp an
Ġconc ert
lim ited
ĠTur key
ver ted
ĠM ajor
ĠH old
oo f
Ġexplicit ly
d ec
Ġd ash
et ch
Ġunder neath
pro of
Ġpub lish
P res
ĠB ul
ĠAny one
ĠSystem s
Ġb ent
ict ure
Ġansw ering
ret t
Ġmix ing
Ġload ing
Ġb ail
ost ic
oc ated
Ġshe d
Ġcr own
Ġpot atoes
Ġrepl acing
ĠIm agine
Ġjud ges
ĠAv atar
ĠAdminist ration
r ange
Ġun ions
ĠAll en
vis or
( '
im ents
ast ed
lic ation
ĠWh atever
Ġvari ations
ĠSil ver
Ġbell y
ab ling
Ġreason ably
Ġinvest ed
Ġnuc le
UT C
Inst ead
Ġgr asp
Ġsupp lements
Ġcollect ing
ĠCN N
J ump
ord on
âĢ¦ âĢĿ
Ġavail ability
Ġexec ute
ĠMet hod
Ġguarant eed
Ġcro ps
ĠNav y
Ġdec iding
Ġpres erve
Ġcontrib uted
Ġattrib ute
P aul
Y et
ĠW orks
ĠD iet
Ġbet ray
Ġins ert
Re view
M in
Ġst ones
ĠC IA
Ġsu its
ĠDef ense
Ġstream ing
van ia
Ġpand emic
Ġj okes
Ġaff airs
Ġfore x
Ġlack ing
ount ered
Ġdri ed
bo hydr
Ġemer ging
Ġrequest ed
Ġfranch ise
ĠT R
ab l
ĠG DP
end ers
Ġmut ual
Ġrac ism
ĠAtl antic
S ure
ig ma
Ġent ities
Ġenc ountered
P op
ĠS ound
ĠC ore
Ġj ar
Ġdet ection
Ġver ify
er ator
Ġr ounds
ĠO cean
Ġins ist
Cont act
D ate
ĠR us
Ġrel atives
Ġexec ut
Ġbutt ons
Ġn odes
Ġwhe els
Ġeas iest
Ġgra ve
Ġopt imal
Ġcy cles
Ġcas ino
g h
Ġp ussy
Ġbe ast
Ġdisc on
Ġbill ions
Ġreci pes
Ġtwe et
hes s
Ġ199 4
mon th
ĠMo ore
D C
ĠD om
Ġk it
Ġread ily
A nt
Ġf art
Ġpl ates
Ġcomp aring
Ġload s
Ġmeas uring
Ġrespect ive
Ġcryst al
se ud
am ples
ĠN ations
ĠL ocal
Ġwork sh
ĠAl ways
Ġbar rier
Ġtrou bles
a ft
ĠN atural
Ġback wards
Ġefficient ly
Ġelder ly
Ġan ch
Ġr ings
ĠR oy
Ġcomp ounds
âĤ¬ âĦ¢
m aster
ĠR oss
ature s
Ø ¯
Ġar ise
Ġhand y
Ġstraight forward
Ġcomprom ise
Ġexp ort
Ġfound er
ym ph
Ġuncons cious
B ig
S orry
ou ston
ĠS ant
ĠM oh
us ively
Ġcl oth
Ġemb ra
Ġdram atically
N C
O rig
a uthor
re ation
Ġd ick
ĠA be
Ġcomm od
M O
ĠH osp
ĠMod ern
Ġt el
Ġp ose
ĠS now
ĠB ry
Ġaccount ing
Ġaltern ate
New s
Ġmoist ure
Ġdispl ays
Ġcertific ate
F T
is a
ĠF uture
Ġ19 50
Ġnovel s
Ġentertain ing
lar ge
e fficient
ful ness
Ġmod ify
ĠL incoln
Ġeffect iveness
uk i
ĠCharl ie
ĠSpir it
A h
Ġad j
Ġopen ly
ĠAm ong
isc al
ĠHaw ai
Ġins ulin
Ġestablish ment
B re
c ard
ĠN ik
Ġint e
Ġsus p
alt ies
Ġnons ense
Ġc ust
Ġd ental
ĠS ong
ĠA ction
ĠB M
ud ge
sy l
ĠJust in
Ġreflect ed
ĠSoft ware
m are
Ġw rest
Ġd ull
Ġl oses
Ġfund ament
ĠApp arently
T om
Ġm useum
Ġr amp
Ġtra iler
Ġchar ity
Ġinfin ite
st orm
im b
Ġv amp
St ar
ĠÂ ©
ino is
ĠSm art
Ġcolumn s
l ation
Ġa est
ĠE uro
ac ular
Ġliter ary
ĠTur k
Ġj et
Ġoff ices
Ġsm iling
Ġrece ives
Ġencoura ging
Ġhorm one
g ie
ov a
Ġrel uct
omm y
val ue
Ġs isters
Ġ1 01
Ġpe er
Ġfl ows
Ġabsor b
b ase
g irl
oc ur
Ġpart ial
Ġent ries
Ġtrans parent
Ġtri ps
Ġterm in
Ġcompet itors
Don ald
Ġwire less
v ol
Ġcon qu
ri k
ĠU ntil
Ġrep orter
Ġalt ogether
i per
ĠC S
th an
Ġman ages
Ġbeh ave
Ġconstruct ed
Ġoccas ions
t an
is d
Ġf ence
le an
ĠW olf
Ġcan ce
pl ant
Ġmusic ians
ER E
Ġrespons ibilities
Ġconcent r
ĠCommun ity
Ġtestim ony
Ġg ly
ur u
iff s
Ġra ge
Ġgl ory
Ġpur su
Ġtown s
prof it
Ġo live
ol is
ĠF at
Ġspeed s
Ġpredict ed
Ġb ureau
Ġdo zens
Ġcool ing
ĠEm ail
Ġsurf aces
Ġjew el
ĠR at
ĠF ive
Ġve ctor
ĠMar c
ra h
Ġexcept ions
ĠNaz i
Ġcou ch
Ġl ighter
Ġn ull
Ġres ume
Ġdes ires
Ġadop tion
ĠInc re
Ġchamp ion
ors hip
Ġacc ord
Ġra ises
ĠLu ke
Ġunivers ities
ĠRad io
S et
s k
Ġg aining
Th ough
Ġdefe ated
Ġcon gress
Ġprov ision
Ġaccept ance
Ġutil ize
eal ous
ĠSupp ort
at ers
ĠH R
Ġsc al
iss a
Ġmon sters
Ġprocess or
Bl og
bel ie
Ġr ows
Ġch urches
Ġcons ensus
Any way
Ġpassion ate
Ġax is
ĠO wn
ĠIm p
Ġcompet ing
Ġconv icted
Ñ ĥ
Ġan th
Ġal ike
Ġle mon
Ġsk illed
Ġprivile ge
ĠM it
Ġcrit ics
Ġlay out
ĠJud ge
Ġhorm ones
ĠMount ain
S QL
ĠA w
ĠH ug
ĠE X
ĠTe ch
? '
S H
al og
ict s
Ġaw ake
pr ing
Ġpri ze
Ġfore cast
Ġdepos it
Ġm ice
Ġfe ver
Ġpar liament
Ġdefin itions
Ġtrick s
m ir
Ġs oup
ip h
Ġsp ite
Ġpur ple
Ġmind set
ĠQ ual
ï¬ ģ
on ing
Ġag ing
Ġag ed
ick en
ĠCh ild
Ġtechn ological
ĠIm per
wr iter
ĠH P
Ġhistor ic
Ġtransfer red
M s
P ar
s ize
ĠSt ock
Ġdes erves
sh it
ĠLe on
Ġinflu ences
Ġspread ing
ĠC T
augh ters
Ġaccompan ied
Î ½
ĠO pt
Ġper t
Ġterm inal
ĠTe le
Ġdeterm ining
Ġdeterm ination
ĠT ob
ur i
ĠG h
ĠTh ird
Ġmake up
Ġinv ite
Ġcop s
fl u
Ġphilos oph
Ġdynam ics
D B
Ġch amber
Ġobject ives
Ġconsum ing
Ġrepresent ing
Ġrat ings
ĠKir k
it amin
ĠT ree
ĠL ibrary
Ġsp at
Ġfl ights
Ġfl ags
Ġmin im
Ġret ired
ĠSe lect
umb ling
Ġbi ology
Ġtw elve
com m
Ġbuild s
Ġcred its
Ġrad i
Ġeth ical
b at
p ng
Ġ5 2
ĠBar ack
N ever
at hetic
Ġd are
ol as
ex pl
Ġele g
ĠAll ah
Ġcompl aint
Ġking dom
ĠC ut
ĠM L
Ġpro c
Ġsh y
Ġspecial ized
ĠMor gan
ĠMic hel
Ġm elt
Ġre vel
ĠB ruce
ĠR ain
ac ent
Ġover look
Ġmus h
ĠDav is
ĠJava Script
Ġpropag anda
L a
t ail
w ould
Ġsun light
Ġrom ance
H igh
st ick
Ġeas tern
thod ox
in th
ĠT ai
ro it
ĠS D
ri um
ick et
Ġcalcul ator
ĠTra vel
Ġcigare tte
Ġl ap
Ġv iable
Ġcam ps
Ġemp ire
Ġtun nel
Ġdele ted
Ġor bit
Ġr am
ĠN C
Ġout door
Ġins pect
Ġbit ch
che ster
tra ck
ĠS E
ĠL anguage
Ġdev il
he ld
ĠC C
ul pt
ĠL ie
Ġoper ator
Ġident ification
Ġpra ise
J ack
× ķ
Ġso ccer
Ġpick s
ĠPh ilipp
Ġrob ust
Ġattend ing
k n
l u
Ġan ime
Ġdis abled
Ġresp ir
Ġep id
c ribe
ĠT es
ers hip
ateg ory
Ġnice ly
Ġliber ty
Ġmurd ered
, ,
b our
h ad
Ġc ort
Ġc av
en er
âĢ ĭ
ĠK ong
ĠDe ep
A B
b ig
ĠB ond
ĠL yn
Ġte ens
Ġtrad itions
ĠLook ing
! ).
Ð »
Ġc m
Ġn est
os pel
Ġneed ing
Ġsens ation
T able
im mer
ĠUn less
Ġident ifying
ĠAlex ander
Ġregist ration
Ġportfol io
Ġm amm
ĠA y
Ġdef icit
Ġimag ined
d im
ĠF air
omet er
Ġgen ius
Ġgot ta
Ġcand y
Ġwood s
Ġexpand ing
Ġpref erences
c ow
ĠM D
all as
ĠUn iverse
Ġpuzz le
f ly
r ous
es ity
Ġse al
Ġhapp ily
Ġappe aling
Ġgrand mother
M en
ĠC ow
In c
Ġexam ination
Ġrelig ions
Ġaccident ally
ig g
Âł ĊĊĠ
ĠC e
Ġdo ct
Ġcop per
Ġ199 2
ĠH em
ound ing
Ġdis advant
Ġterror ism
Ġincorpor ate
======== ========
Ġw oke
ĠAn aly
ĠPro bably
EC T
syl vania
Ġb ay
ĠB uild
Ġshe ets
Ġact ress
Ġ8 5
Ġblock ing
Ġpurch ases
ĠPar liament
Ġjournal ists
6 00
Ġ verse
ri ving
Ġpe ers
Ġtal ented
F S
Ġst ared
Ġwhe at
ĠBe ach
Ġfat al
Ġign oring
Ġprev ents
at ile
Ġp ist
Ġper mit
Ġvac uum
it ating
Ġb er
op es
ĊĠĠĠĠĠĠĠĠĠĠĠĠĠĠĠĠ ĠĠĠĠĠĠĠĠĠĠĠĠ
Ġcous in
Ġt ires
Ġd ense
ĠF ast
ĠN ation
ag le
for ced
K ey
W ind
× Ļ
Ġf lee
Ġsh adows
Ġfre ed
Ġsens itivity
ĠGu y
ĠRet rieved
Ġfest ival
ĠAn alysis
ret ty
ĠTr uth
Ġprotect ive
ĠSy rian
Ġrestrict ed
A c
F urther
P s
u its
w en
Ġde ce
Ġmass es
Ġassoci ate
Ġroy al
t able
Ġt a
Ġch olesterol
Ġref rig
Ġless er
Ġur ge
Cl ass
Ġconven ience
g iving
h ou
z o
Ġpost er
Ġmiss ions
Wr ite
Ġinsect s
Ġp el
um my
Ġen cl
Ġaffect ing
Ġconflict s
Ġsacr ific
ra cle
ĠD isc
Ġsign ing
ER S
Ġcomplain ts
Ġfoss il
Ġf ond
Ġp add
an ne
ol ph
Ġrel i
Ġdistingu ish
os a
Ġsa fer
Ġmon etary
ortun ate
B as
Ġp ic
ĠCl oud
Ġpast e
Ġphot ography
Ġsum mar
Sh ow
Ġsoci eties
Ġcapt ain
ĠLew is
c ap
un ks
Ġun st
ĠCh all
uc lear
B O
Ġ Ċ
Ġto b
ĠH al
ab ul
Ġle ak
ĠY an
Ġfat igue
Ġgar age
Ġprem ise
Ġignor ance
Ġc ough
Ġb ol
Ġre hab
Ġch ains
ĠJ ess
ĠCh oose
the ir
Ġphys ician
oun cing
ĠRet urn
Ġstrugg les
Ġclar ity
Ġembed ded
Ġextraord inary
Ġd uties
et c
ĠH or
ĠS ix
ĊĊ ĊĊĠ
ĠL ind
Ġag greg
Ġrel ie
Ġsur re
amp ed
Ġspir its
I d
O pen
Ġa qu
an as
Ġ( âĢľ
un ted
ĠSt orm
Ġgl ance
ĠB and
ab el
Ġmet er
Ġperform ances
Com ment
Ġaim s
p ically
ill ance
Ġsc andal
Ġsub mitted
Ġplan ets
Ġremind er
Ġearn ings
ĠJer sey
Ġs ore
al g
Ġpublic ation
Ġp ant
ĠD og
ian ces
ĠDemocr at
W ord
Ġ âĢĻ
on omic
Ġn ap
Ġg orge
ĠC ertain
ter ior
ĠP ubl
ĠL es
Ġover head
ren cies
Ġequ ipped
Ġapproach ing
ĠCons erv
Ġreflect s
Down load
em on
au c
Ġlight ly
Ġbas ics
m us
w ear
an cer
Ġpo le
Ġsubst ances
Ġch uck
ĠCan cer
Ġmis under
Ġsequ ences
Ġsatisf y
ĠStud ies
Ġhighlight s
2 50
d ays
in ates
Ġg aze
op ath
ĠH o
Ġide ology
Ġtre asure
Ġconserv atives
Ġtiss ues
m ap
es ters
ĠM ap
D E
Ġc ord
Ġre ck
ĠAl tern
Ġoccur ring
Ġhat red
ĠEvent ually
Ġman ually
Ġshe lf
ruct ive
Ġwind s
Ġthe sis
ing le
Ġst ating
ĠE C
Ġlog in
Ġpull s
n ia
ĠG ulf
Ġorgan isation
str ing
ĠLear n
m i
Ġthe ft
ry ption
Ġ6 00
ĠEn vironment
Ġhosp itals
ĠSer ver
ĠD S
ĠF oot
Ġfl owing
Th ink
Ġchall enged
A lex
e pendent
ro d
Ġse ve
wr ite
Ġsu cks
Ġ5 1
Ġ8 00
ĠEx ec
AN D
ĠComput er
â Ī
Ġl ung
ĠS leep
ir k
ĠO cc
Ġco ins
Ġequ ality
ĠSen ator
Ġanx ious
agon ist
Ġgluc ose
A gain
Ġg olf
op ic
em bers
red ict
Ġreal ise
ĠBook s
Ġt anks
Ġj aw
Ġunder m
wr itten
ĠRob in
f i
it utes
Ġe go
ack ing
Ġbet a
part y
W eek
ĠM ust
ĠB arn
ĠQu ick
point s
ra ham
reat ing
li ent
Ġent ers
Ġgl obe
Ġanal og
ĠA mb
ĠC ab
Ġres et
Ġro pe
Ġnew er
We b
ĠPre m
ĠMal ays
Ġsod a
p orts
Â »
de velop
ĠOb ject
T y
ic op
ust ers
ĠE M
Ġpass ive
Ġenjoy able
Ġbu nd
Ġjournal ist
Ġstab il
M ax
g on
Ġp up
Ġm un
ĠP a
ist ant
ĠK B
bo ards
Ġviol ation
Ġregul atory
Ġrif le
ul ing
act ic
ĠV ill
Ġdesper ately
Ġf u
Ġan onymous
ĠM O
Ġart ic
Ġgrand father
Ġdestro ying
i ology
Ġc ache
Ġl ag
Ġad min
Ġshe er
ond a
Ġatt itudes
lud es
Ġdesign ers
Ġdeb ut
Ġbeat en
Ġtight ly
Ġsimpl er
Ġbiz arre
. ).
M at
ĠS ide
ist ance
ĠPh ill
T R
W as
Ġs ixt
ens ing
Ġinter pre
ĠIs a
sy stem
Ġkid ney
Ġfirm ly
ĠBas ically
Gen eral
f ull
Ġst ats
ĠM agn
ĠP u
ast ically
Ġqu ad
Ġcar rier
Ġref res
ĠS everal
ĠBl ock
Ġment ions
Ð º
Ġw anna
Ġm igration
Ġinc ons
Ġown s
Ġrep ublic
atter ing
ĠGet ting
Ġarrange ment
Ġwh ist
ons in
Ġimm ense
Ġcivil ization
Ġid iot
Ġbreak down
ĠEd itor
Ġcontact s
Ġhost ing
Ġstick s
Ġdeliber ately
ĠD ue
ĠF un
iz able
ĠIn n
Ġcr ust
Ġpromot ion
ĠT am
ĠB ag
ĠF ant
ene z
Ġsac red
u f
Ġwas ted
ĠInt el
En ter
ĠM and
ĠE V
Th ree
Ġexpl oration
Ġquot ed
Fe b
Ġtob acco
Ġin k
ul ator
op ping
ress ive
ish op
Ġ5 4
ath on
Ġaff air
ĠSe ason
Ġswitch ing
Ġconcl usions
Ġuncertain ty
ĠKenn edy
g i
Ġf ats
con st
els on
isc onsin
m ake
ra it
ĠC orn
Ġsa il
Ġacc us
Ġgener ating
Ġconc lude
ĠTr ade
udd enly
Ġgenuine ly
E v
ä º
on ge
ĠH u
Ġal pha
Ġover d
ĠSt ore
ĠFr ont
Ġdefend ing
Ġdeliver ing
ke ys
ect or
ĠAnd erson
Ġpat ience
Ġintent ions
Ġignor ant
sem ble
P al
i ors
Ã ±
ow th
Ġair pl
rit is
Ġrent al
Ġjack et
Ġoverse as
C ome
Ġref ere
Ġcomple ment
Ġintim id
U M
Ġc rop
is hers
Ġh ilar
ĠE D
Ġdef ines
201 5
Ġstruct ural
Ġtoler ance
r r
Ġwe aken
ol er
ĠÂł Ġ
Ġprom ising
Ġspecial ist
Ġcompl iance
Ġsens es
Ġcross ing
Ġst ressed
Ġsh ore
Ġbas ement
Ġreve aling
ĠArt icles
Ġpu pp
Ġadvoc ate
Ġj am
ĠHe aven
Ġatt raction
bs ite
Ġabsor bed
Ġgoog le
' )
N ET
e lect
u v
at on
Ġg ambling
Ġv apor
av irus
Sh ould
ĠArab ia
Ġpharm acy
k ers
Ġc od
as a
ĠS el
ĠW onder
ĠH E
Ġres ort
aur a
Ġalbum s
Ġfort un
Ġutter ly
Ġd well
et erm
Ġr ushed
Ġthr ows
Ġmin imize
Ġbo ots
Be ing
iot ics
Ġvel ocity
ĠWith in
Ġoccup ied
Ġcoop eration
Ġhe d
ĠH ur
rib ution
ID S
ĠIraq i
ĠC ond
ĠN ear
Ġacc idents
ange l
Ġwa ist
re ed
Ġd uck
Ġg rief
Ġlay ing
ĊĠĠĠĠĠĠĠĠ Ġ
P L
S y
p ath
Ġl over
Ġne arest
Ġro d
Ġtransl ated
Ġarr anged
Ġp ars
ar ity
ĠM un
ĠY e
Ġsc hem
Ġcor ners
ĠDe b
O ff
P oint
d ess
Ġbe ars
ut her
ĠO bs
Ġunf ortunate
Ġcont ra
Ġcar bohydr
att oo
Ch ange
Con f
ĠScot land
H y
b n
ou ps
The ir
ĠSh adow
ĠSp orts
Ġ199 3
Ġaddress ing
Ġagre es
Ġearth qu
Ġknock ed
Ġexhaust ed
P age
d ig
k h
Ġc os
Ġf ighter
Ġd ive
ĠS ales
ĠM aking
M art
U ST
d ing
p ool
Ġint est
Ġout standing
Ġbu ck
vern ment
ĠBl u
Ġapplic able
Ġinteract ive
Ġmac ro
Ġphotograph s
he w
ore r
Ġch ase
S l
W elcome
l ord
s omething
Ġa f
or ian
Ġth reshold
Ġl as
ĠM B
Ġpro ves
Ġen velop
Ġpan els
Ġemer ge
ĠSim on
d og
Î ¹
Ġex pend
ĠG ro
Ġlast ing
200 7
Ġtraged y
c ular
Ġind ication
Ġsimilar ly
Ġphr ases
Ġorient ation
Ġbom bs
C all
Ġf ighters
em en
Ġpre val
ather ine
Ġwond ers
Ġprop os
Ġcounter part
Ġsoul s
Ġtourn ament
ĠH ong
ĠL uck
Ġaud iences
Ġarri ves
Ġdisp ute
Ġpal m
ĠBro ok
Ġdistur bing
ĠS ays
ĠM ath
per m
Ġlaw suit
Ġsn ake
ĠPe ace
Ġsubst itute
Ġcontinu ously
Ġsuspect ed
Ġtack le
Ġfor k
ur ities
ĠPh oto
Ġautom ated
Ġpoll s
Ġbelong s
Ġbe ats
Ġre ign
oc key
ĠMan ager
ĠSim ple
Ġtransl ate
_ {
Ġm m
ĠThe ory
au x
Ġact ed
ĠInd ex
ĠBet ween
Ġfle w
Ġiniti ative
Ġbrut al
Ġelig ible
Ġdiscon nect
W ar
p ur
Ġc oding
Ġm ud
Ġout rage
ĠU V
Ġtast es
Ġnav igate
Ġru in
Ġconvin cing
n ote
an ed
et ts
ĠA B
us hes
ip her
Ġunderstand s
Ch ris
Ġtruck s
othe rapy
Ġcompat ible
Ø ¨
ig m
ĠB ol
Ġstr anger
Ġlist ing
Ġcharacter istic
burg h
p ublic
ĠM C
ĠH ouston
and ra
Ġtrick y
ĠMedic ine
cyclop edia
ĊĊ ĠĠĠĠĠĠĠĠĠĠĠĠĠĠĠĠĠĠĠĠĠĠĠĠĠĠĠĠĠĠĠĠĠĠĠĠĠĠĠĠĠĠĠĠĠĠĠĠĠĠĠĠĠĠĠĠĠĠĠĠĠĠĠĠ
ĠW i
Ġfl ies
Ġfr ames
ott om
Ġtarget ing
Ġfert il
Ġat oms
os c
ĠJ S
Ġsp awn
Ġbar riers
Ġreven ge
Ġhol idays
Ġstrict ly
ĠE mb
Ġrec ession
ĠSo on
hys ical
Ġhost s
ĠRober ts
Ġflo at
Ġmolec ular
$ .
ĠF ro
Ġvar ies
Ġsell er
Ġ199 1
ĠStud y
iox id
Ġancest ors
Ġbankrupt cy
b ury
Î µ
ĠB ase
Ġnot able
Ġr anks
Ġtr im
Ġres erve
Ġcle ared
201 6
Ġjur isd
ë ĭ
ĠT ips
ĠA BC
Ġli ability
Ġesc al
ar ound
il ib
ĠF est
Ġlike lihood
Ġbl own
Ġtw in
olute ly
Ġimplement ing
Me anwhile
Ġisol ation
Sim ilar
Ġtheoret ical
2 000
Ġn ick
ĠB ab
Ġres olved
by e
Ġhur ts
Ġirre levant
n ut
Ġw ard
Ġm ate
Ġmass age
Ġconsist ency
Ġdemand ed
Ġuncle ar
ĠP arent
Ġsh aking
Ġsp ine
we ek
Su per
Ġvary ing
ĠIll inois
ĠE li
Ġper ceive
Ġcol ored
Ġpartic le
Ġisland s
Ġtum or
Û Į
Ġd ude
Ġhe ter
Ġad verse
Ġoff set
Ġsc ulpt
pro cess
Ġexcl usively
mind ed
appropri ate
s chool
ĠM E
ĠG un
Ġen erg
ob ic
Ġadv ised
Ġsens ors
ĠSte el
Ġappoint ed
ĠÂłĠÂłĠÂłĠÂł ĠÂłĠÂłĠÂłĠÂł
B ar
P rodu
Ġst ub
Ġbel oved
be an
Ġclim bing
Ġcoc onut
ĠBid en
A K
Ġb ree
Ġsh ar
ah oo
sp ace
Ġroll s
Ġm es
ay ed
if ully
ĠP y
ĠD iff
Ġsc am
ĠUn ivers
reg on
Ġcat ast
col or
ĠBat man
H L
Ġp ond
st ory
iv ia
ĠDo ll
ĠDef in
Ġcart oon
Ġfif ty
iox ide
e em
Ġpr one
Ġhealth ier
ĠInd ians
Ġself ish
Ġanal ys
Ġ; )
Ġpharm ac
Ġannounce ment
ĠPenn sylvania
âĢĿ )
Ġl aughter
se a
Ġr ally
ĠN ep
Ġover ly
Ġgood ness
ĠPro per
d b
s ch
Ġd aughters
Ġbe aring
ĠP ope
ĠG il
Ġgr ades
Ġcy cl
Ġv on
Ġsu p
ĠN at
Ġcons olid
ĠBe aut
Ġsex ually
Ġcirc ulation
Ġprevent ed
Ġer u
ĠReview s
ĠSqu are
ĠM obile
ĠE R
ĠSe attle
ĠCon c
Ġdecl are
ĠLog o
Ġmulti pl
ĠNob ody
p ical
ight ing
Ġj ealous
oy d
Ġdef ining
ric ane
Ġachie ving
ĠColumb ia
a ired
b es
r ust
Ġe ternal
ĠI C
em ia
ĠL ane
Ġour s
ĠCl in
ĠCl ark
Ġlab our
Ġingred ient
Ġvent ure
ĠSat an
ĠLis ka
ĠJac ob
Ġmin erals
Ġsal ad
Ġenh anced
m ain
ar ious
Ġst un
ĠF inal
Ġconv iction
Ġcatch ing
Ġreci p
C ustom
Ġw ww
Ġd ining
Ġh ood
Ġr ated
ĠTh ought
Th rough
Ġear ning
ĠInt elligence
Sc ore
post ed
id o
ate ur
ĠR O
Ġadv ances
Ġconsider ably
Ġdraw s
iam i
ĠPort ug
ur l
ĠC SS
Ġle ase
Ġorgan ize
Ġaccording ly
R ob
e ous
on al
at ched
it ably
ro ach
qu arters
Ġfl ame
Ġqual ify
Ġdecre ased
ogen ic
C ount
k now
o j
ar se
ri ors
ĠP ent
ĠâĢ Ŀ
oo oo
Ġun e
Ġsur ge
Ġchart s
C opyright
E vent
Ġf iscal
as ury
Ġn u
Ġfe ather
Ġstart up
Ġgener ous
Ġart istic
roll er
ĠPat rick
p x
ĠD est
Ġsh ade
ĠF ig
ĠAnd re
Ġens ures
Ġfeat uring
intend o
L D
Ġc ited
le ading
ra ined
ĠH appy
Ġr anging
ry st
Ġdis ability
Ġreview ed
oty pes
Whe ther
health y
T otal
Ġde emed
um m
ie val
ĠJ ob
ĠSt aff
Ġsc ales
ef its
Ġloc ate
Ġquestion ing
Ġbroad er
Ġconcent rate
Ġp s
em ale
arr ow
h ill
m art
ĠT ok
ĠT erry
ĠS W
ĠP ick
Ġsc rap
ĠHow ard
Ġpass enger
Ġstick ing
ĠVict oria
rape ut
Ġf itting
Ġd ot
ĠD omin
Ġby tes
au ge
Ġcal cium
elt a
Ġfund ed
Ġmist aken
Ġrout es
Ġsmart phone
Ġeth ics
ĠBro ad
Ġfort une
Ġl in
Ġch unk
ĠG ene
Ġind irect
Ġac ute
Ġprof itable
Ġcell ular
Ġfail ures
Ġhyp ocr
Ġagric ulture
X X
ĊĊ ÂłÂłÂłÂłÂł
Ġle verage
ĠE asy
Ġsec ular
Ġexam ined
Ġpract icing
Ġcontrib uting
ĠStand ard
b us
Ġd ign
Ġcon form
akes pe
Ġsw itched
Ġfast est
Ġur ine
Ġdepart ments
1 000
t em
Ġb ust
or ig
ĠS ony
Ġca ffe
** *
c os
Ġth ou
ĠS ection
ach us
Ġcy l
Ġshall ow
as ures
ĠW ow
ĠW ords
ĠP ath
ĠK a
Ġcur iosity
Lear n
q l
Ġst ance
Ġdev oted
Ġcomment ed
Ġstrugg led
Ġshif ted
Ġpresum ably
u j
Ġw itch
Ġm akers
Ġd ess
ad i
ĠD M
Ġsa ves
ult y
Ġmod es
ĠEx press
Ġtreat s
Ex ample
Ġdocument ed
Ġmetaph or
ĠHosp ital
J ames
Ġ5 7
ĠIs n
ivers ary
Ġcharacter ized
Ġste aling
Ġvol unt
Ġinhab it
ĠT ib
ĠW inter
ĠĠĠĠĠĠĠĠ ĠĠĠ
Ġvol can
Ġclean ed
ĠCont act
Ġtransform ed
Ġp ension
ro se
ĠM erc
ag ain
Ġover view
Ġsk ull
Ġbuff er
C ross
ĠT our
ad der
Ġfor ums
ĠW oman
ĠD J
ĠBr un
ĠPr int
Ġkid n
Ġvit amins
Ġshif ts
B L
g reen
Ġh ips
Ġfor b
ĠF le
ĠY ears
ical s
Ġinc idents
Ġlight ning
ĠBe ck
oura ge
olit ical
ĠC op
ĠB or
so ever
Ġno ble
Ġwr ist
Ġfin ishing
Ġmeant ime
Ġque en
Ġwal let
b ot
Ġd ip
ĠT oy
Ġar rog
Ġ5 6
ĠEd it
Ġlif ting
Ġvir uses
II I
A tt
is ations
ĠA qu
ul ously
ĠW iki
Ġen light
Ġsp am
Ġtw isted
ĠV in
Ġbo om
ĠSc ript
Ġveget able
Ġwitness ed
Ã ¨
Ġan k
Ġsl ice
Ġadv ise
Ġste ep
semb ly
oster one
W ow
p ose
ĠC hen
Ġachieve ment
, âĢĻ
J o
Ø ©
ĠM arsh
ĠAl an
Ġgame play
anc ers
p in
os itive
Ġdam ages
Ġpan c
ar ians
ic ates
ch i
ĠC ole
ĠTh or
Ġass ured
Ġcy c
Ġda wn
Every one
L ove
Ġb ark
se ason
ul ates
Ġabs ent
Ġden ial
Ġkil omet
H D
] ]
e enth
Ġthat s
am on
ĠF ollow
ĠG ary
Ġcontin ually
ĊĊĊĊ ĊĊĊ
ĠJohn ny
Ġprec ision
Ġacqu isition
ĠCap ital
ck ed
Ġsh oe
Ġwho ever
ĠK night
the m
Ġcompl ications
medi ate
Ġpartners hip
Ġp ad
âĢ ħ
ĠT ed
ĠS EO
ĠG ot
Ġte asp
Ġhead ache
arm ing
Ġsubsc ription
igen ous
am ents
ĠB art
ĠD ifferent
Ġtr illion
ac cept
ote in
Ġgener ator
me ga
Ġcompl aining
ĠComm and
nes ota
Ġstret ched
ĠDet roit
aren cy
Ġblank et
Ġb orr
be it
Ġve t
ĠBer lin
usal em
Ġcalc ulation
T ry
s ource
Ġch lor
Ġsu cc
Ġsc ored
Ġoper ators
Ġwat ches
Ġcast le
Ġa ver
Ġb ang
Ġy og
Ġwh ites
ĠFl ash
Ġtravel ed
mm et
ĠAv oid
L ink
S am
V is
ĠD ise
ĠR ating
ĠWr iting
Ġwitness es
H ist
oc ate
Ġfil ters
Ġ7 2
irt ual
Ġhoriz ontal
ĠChamp ions
d rop
w oman
pe ction
Ġr ude
Ġch apters
ĠCar ter
enez uel
Ġst unning
Ġca ution
Ġdam aging
Ġrespond ing
Ġbot hered
oen ix
u ated
v ance
re r
Ġf og
ĠP ain
ind ex
ens ively
Ġpo et
Ġloc ally
He alth
play er
Ġdig it
Ġjoint s
Ġoblig ation
c d
ul se
Ġle cture
ĠN AT
og ram
200 5
akespe are
om as
ĠS oul
Ġ5 3
ex per
Ġtable t
Ġcapital ism
ĠSum mer
Ġincent ive
ĠHarr is
Ġlone ly
Ġappet ite
Ġbe nd
ĠS em
ĠC L
Ġend e
Ġreal izing
Ġdem o
Ġfat ty
Ġmagn itude
ĠGovern or
Ġevolution ary
Ġsear ches
Ġmarg inal
Ġmetabol ism
Ġinequ ality
achus etts
ĠB rain
Ġpro long
ĠR AM
Ġ3 60
ph ia
It s
ĠVe gas
Ġauthent ic
I ST
Ġl aund
Ġv om
Ġopp osing
Ġz ones
Ġalt ered
Ġsod ium
Ġtutor ial
Ret urn
ĊĊ ĠĠĠĠĠĠĠĠĠĠĠĠĠĠĠĠĠĠĠĠĠĠĠĠĠĠĠĠĠĠĠĠ
Ġany time
ber y
Ġlong est
Ġdef ence
Ġbre asts
Ġaut ism
mark s
Ġreb ell
Ġelabor ate
on omy
Ġch airs
aim ed
Ġneg lig
Ġmount ed
ĠBre ak
Ġvolunte ers
dri ven
a ci
k g
qu es
Ġal iens
Ġk ernel
Ġvar ied
Ġorgan isms
Ġstrong est
ĠMag ic
Ġdiam ond
se en
sh ould
Ġris es
Ġgorge ous
Ġw are
Ġo un
Ġu m
ĠMar x
v ised
ĠC M
Ġr ust
Ġar row
Ġrec overed
Ġacc ent
Ġcost ly
work ing
Ġsqu ad
ĊĊĠĠĠĠĠĠĠĠ ĠĠĠĠĠ
Ġagric ultural
Ġp seud
Ġdis charge
Ġsp otted
Ġnewsp apers
Ġcontrovers y
B ER
E r
g ree
n or
r us
ig ion
Ġne ural
int o
ĠX P
Ġinc on
omet ric
IN E
Ġang les
Ġperman ently
Ġtra ct
Ġear liest
Ġimpro ves
Ġla wn
ĠFore ign
ĠS ame
Ġr anges
Ġwhat soever
Ġmar ine
Ġlim iting
Ġcomment ary
oot ing
Ġteac hes
Ġcalcul ations
Ġvir al
Ġforg ive
Ġfarm ing
Ġwound ed
r ans
Ġc ope
ĠA aron
ĠR A
Ġcar pet
Ob ject
" ).
B ased
as ive
ĠC ass
ĠM as
Ġres idence
io let
sec urity
Ġpun ish
eff ective
Ġadministr ative
S un
Ġg ard
ur ring
Ġcom ics
Ġqu eries
Ġgr an
Ġsomet ime
Ġob esity
Ġnecess ity
Ġtit led
Ġagre ements
Ġesc aped
ĠLa ure
Ġhun ger
Ġlabel ed
Ġfle et
Ġdefic iency
P ol
Ġf ame
ar o
Ġn ail
im ation
che m
T ER
W atch
ĠS in
Ġpro gression
ĠN ut
ber ries
Ġev olve
Ġnight mare
reg ular
Look ing
Ġvend ors
ĠA ward
ĠM ail
ĠL am
Ġfl ick
ern ame
bre aking
Ġadapt ed
Ġbless ed
h ma
ĠB alt
ĠB uilding
ĠP itt
Ġtra gic
Ġ19 30
ret ion
Ġinvest or
ĠFe ed
Ġcompar able
ĠCount ry
Av g
O k
S D
Ġab dom
ĠF ra
Ġpract ition
ĠConf erence
) (
ĠB uck
Ġse am
ĠCh i
Ġrece iver
ĠSc he
Ġsell s
adel phia
j e
ĠC art
Ġso vere
ĠL iving
Ġup s
Ġjust ified
Ġindic ating
Ġflav ors
________ ________
Ġsurve illance
Ġbudd y
m ph
s ign
Ġ ÂłÂłÂł
Ġd angers
Ġn ost
Ġcomp ression
Ġsp y
Ġquestion ed
ĠBr idge
ĠAd vent
Ġstat istical
Ġrespect ed
Ġvill ain
Ġimpr ison
h um
t oo
in is
Ġf are
Ġd ioxide
ĠW ere
Ġbl owing
Ġam ino
ĠBe at
Ġspend s
ĠEm peror
ĠFin ancial
Ġnurs ing
z i
Ġh ills
Ġl obby
st ore
ow a
Ġpo ckets
Ġwithdraw al
ĠAnth ony
Ġn an
ĠR aj
Ġout line
Ġexp ose
ĠAg ency
Ġtrig gered
ĠTor onto
ĠHop efully
N G
Ġin ability
Ġnot ing
act ly
Ġher itage
ĠK am
ĠSe an
Ġscreen ing
Ġindic ator
ĠAnge l
Ġcab in
ç ļ
if iers
ne ed
bl ack
Ġrecommend ation
ĠPot ter
Ġconstra ints
G iven
ag ged
Ġref uses
AN T
Ġill usion
Ġalleged ly
fr ame
p owered
it ories
ro lling
ĠG ib
Ġ5 8
As k
Ġrad ar
Cons ider
Ġl ane
Ġgu ides
Ġ19 40
ik o
ĠNot ice
Ġarg ues
Ġdom inated
Ġ198 9
ĠPerson al
ro ck
Ġmin eral
Ġvol umes
Ġspect acular
ĠRel ations
Ġt v
re ply
ĠP oly
ĠF el
Ġj azz
Ġcred ibility
Ġstrength s
Ġclick ing
resp ons
A ut
O s
en cer
Ġbe es
ĠM ovie
em a
Ġpe an
Ġappe aring
Ġri p
Ġfif teen
Ġdelic ate
Ġshif ting
Ġtrans cript
Ġrandom ly
ĠStud ents
Ġelimin ated
ĠJon athan
oub ted
f ive
as ma
ion ed
ĠD E
ace ut
Ġback ing
ĠCh annel
pect ives
ik ed
Ġautom ation
Ġcelebr ity
Ġcrypt ocur
ĠResp ons
S w
c all
Ġapp les
Ġhel icop
Ġpolit ician
ĠPer l
ĠEmer ald
N Y
on i
at ab
ĠG ordon
Ġactiv ated
spe ed
ĠLis a
Ġcoal ition
Ġfacil itate
T est
Ġp ause
Ġab normal
gg y
cl ick
Ġdelay ed
B o
M ike
w er
Ġaward ed
Ġsuspic ious
Ġcott on
ĠTes la
. -
Ġf uzzy
Ġl os
Ġhas h
âĢĿ ?
Ġph osph
Ġmet eor
Ġcreat or
Ġoption al
Ġobst acles
J ul
re ement
Ġb atch
am iliar
ol k
Ġsupp ress
Ġmod ules
che ll
Pl ay
Ġsynt hetic
Wr itten
Ġh ind
her ic
ĠL arry
Ġmod est
Ġair line
Ġtable ts
Ġhoriz on
F I
id ency
ĊĊ ÂłÂłÂłÂłÂłÂł
ĠP ear
Ġimp osed
Ġintu itive
s um
Ġw ished
ct ive
Ġwas hed
ĠSt ri
Ġback s
Ġtra ins
Ġinv ention
Ch apter
Ġspin ning
ĠT enn
ack ed
ail and
ĠAl most
ric ulum
Ġscript s
ĠIran ian
ĠMag azine
Ġfool ish
U C
f u
Ġwe igh
br is
Ġmiss ile
Ġpromot ed
Ġrein force
ĠMos cow
L ong
Ð ²
Ġc ens
ĠK ill
Ġgl uten
Ġcomb inations
Ġcompan ion
Ġtravel s
l av
l ah
and om
ĠG PS
Ġadd ict
Ġdisc om
uck er
Ġdeterm ines
Ġadjust ed
Ġencoun ters
N E
P P
Ġcol ours
Ġquant ities
Ġsubsc rib
$ $
O G
d y
d el
i ological
Ø ³
Ġt il
oc hem
In tern
Ġ= =
ĠTe a
mm m
Ġintegr ate
Ġfrank ly
çļ Ħ
Ã £
Ġb ases
Ġso y
ĠO scar
Ġhard est
Ġdevelop ments
Ġsmall est
Ġ\ (
Ġder iv
ĠEv il
Ġsli pped
Ġcinem a
ĠDie go
S er
d ra
Ġg el
Ġr ays
Ġ5 9
Ġreg ulate
Ġorig ins
Ġske pt
ibl ings
ĠSimilar ly
o ft
ĠB irth
Ġun pre
ĠRe agan
Ġcor rection
Ġname ly
St ate
Ġteen age
ĠÙ ħ
ĠFil m
ation ally
ĠC ool
ĠD ru
Ġsp here
So cial
ĠInd ones
sec ond
Ġult ra
oubted ly
M ain
d ia
j u
ĠT ru
Ġst ain
ĠSt ars
Ġthr ust
Ġi OS
Ġmem orable
ential s
ĠHar vard
ĠNet her
Ġemp ower
ĠSt ew
Ġexp ed
Ġlast ed
Ġpur suit
Ġdr if
ĠIm m
Ġcivil ian
Ġgal axy
in stein
Ġh ug
Ġfor ty
ol utions
Ġdo i
Ġsim ulation
Ġstr angers
ash i
Ġfinan cing
Ġcool er
ĠBel ow
he ll
or ie
Ġk in
ĠR y
ĠE arly
Ġbr ick
Ġsatisf ying
ĠCub a
Ġgramm ar
k an
Ġs ab
ast ing
Ġpre y
Ġper mitted
Ġco aches
ah u
Ġdeal er
Ġkey words
Ġnetwork ing
Ġtim eline
Ġtun ed
Ġinterf erence
Ġther m
j s
Ġg aps
ĠG as
Ġfl ed
cl ock
Ġliber als
Ġjewel ry
ĠT ar
Ġsu ited
Ġint imate
ip le
Ġrep orters
Ġdecl ar
Ġmembr ane
al id
Ġam endment
Ġche ek
ank ing
ĠAd ams
ĠElect ric
s v
ĠS aint
ĠH on
cc a
Ġsub ur
Ġindepend ently
Ġpaint ings
Ġcab inet
Ġham mer
ĠOx ford
Ġcaffe ine
h ar
n is
Ġn arc
ro x
am ic
ĠH ig
ĠâĢ ĭ
ĠV enezuel
ĠCh a
Ġoper ates
ĠAut o
ĠEsc orts
N D
Ġw aking
Ġd airy
ĠG a
Ġret reat
Ġcomple tion
ug ar
ĠRes erve
v ity
Ġa pt
Ġb ind
le nd
Ġhe x
em ption
out ing
ĠO regon
az ines
ze ch
Ġsubject ive
Ġconsid ers
Ġcelebr ation
o ks
Ġs ighed
ĠB E
Ġpro x
Ġlow ered
Ġexcept ional
Ġch ill
Ġun ity
ip se
Ġsc are
Ġapp l
less ness
Ġdep ressed
ĠChrist opher
Ġpubl isher
Ġappreci ation
Ġcelebr ated
Ġther mal
ĠRub y
Ġarbit rary
Ġ å
Ġo v
Ġp orts
Ġn oun
ĠAnd y
Ġmet als
Ġdirect ors
Ġoper ational
Ġsuspend ed
Ġt ribe
in fl
Ġc el
Ġu h
am el
ĠS aw
iv an
Ġdesign ing
Ġanal ogy
Ġclin ic
o ven
Ġn ause
ĠN ice
ĠRe pl
ĊĊĊ ĠĠĠĠĠ
ĠWar ren
atur ally
Ġsynt ax
Ã³ n
t d
Ġd war
le ton
ĠF ile
Ġen abling
ĠK y
ict ional
Ġproblem atic
light s
Ġrepresent atives
amm ad
ĠBel g
Ġlabor atory
Ġneighb our
Ġdiam eter
Ġvolunte er
ĠPrin cess
orient ed
P T
m ons
Ġf ierce
ĠA le
ĠD R
Ġsh aft
Ġres ign
Ġtyp ing
Ġactiv ists
ĠGerm ans
Ġcivil ians
Ġteen ager
Ġnic he
Ġdescript ions
u pp
on el
ke ep
Ġcomp act
Ġsp ont
Ġrele asing
ĠHell o
ĠLab our
Ġb ru
ĠT aking
Ġhe ated
ĠH oll
ĠK ings
Ġins isted
ĠRe qu
Ġaffect ion
Ġmagn et
Int erest
abul ary
P ublished
s ite
t elling
Ġw olf
Ġm apping
Ġth under
Ġup side
ĠIn v
ĠK ids
ib an
Ġfree ze
Ġprop he
Ġfra gment
dim ensional
D em
o qu
ĠH app
th al
ard o
ĠY ang
ple ment
Ġcur se
Ġhead er
hand ed
Ġlean ed
b oth
in ator
in ery
re ll
ĠH ub
Ġex agger
og an
Ġsee ks
ploy ed
Ġcontain ers
ĠWord Press
Ġox id
Ġl ou
ur ious
ra c
ĠP ast
th ood
ĠF RE
ĠO pp
Ġpre jud
Ġprov ince
Ġdist ances
ĠTra ining
Ġbull shit
Ġadm ire
Ġshout ed
Ġye ast
i ov
Ġb ast
ul ative
ĠL ic
ell er
Ġsur g
Ġquick er
ĠW isconsin
Ġover r
hat tan
ĠFor um
Ġactiv ation
Ġmat ched
Ġprior ities
Ġattrib uted
Ġinsp ire
ĠMass achusetts
Ġexhib it
Ġsle pt
e u
se arch
ĠD allas
Ġwor ries
int age
Ġke en
Ġcorpor ation
Ġwhis pered
Ġelectron ics
T W
b one
Ġbe am
Ġhe ck
Ġor che
Ġsh ine
Ġdownt own
S I
Âł Ġ
Ġover s
Ġcle ans
Ġpack aging
Ġguess ing
ĠGo ing
B R
D D
O H
ĠT an
ĠA my
ĠC ash
ang o
ĠCh rome
Ġbo il
Ġfix ing
ĠNever theless
ĠC ulture
ĠM ale
Ġab used
ĠG host
Ġout let
Ġco aching
Ġval ve
Ġseve rely
ĠD ays
Ġcl ay
ple asant
Ġpot ato
ĠCon vention
ĠMar vel
Ġill um
Te chn
ĠPhil ip
Ġconstit u
( );
F il
are t
ĠX ML
Ġant ioxid
Ġfinan cially
ĠAp pe
ĠFre edom
ĠVis ual
Ġprospect s
ĠMach ine
A p
Ġp ier
est hes
ĠN ap
Ġpo ker
Ġhigh way
Ġal umin
Ġpre vention
Ġbr ow
Ġsw ear
Ġtrad em
ĠBar b
Ġteen agers
g t
Â ´
ĠP L
ĠD ating
Ġaw ards
ĠFr an
Ġintrodu cing
row ave
ĠÃ ¢
ĠJim my
Ġneur ons
p hy
Ġu k
ĊĊ ÂłÂłÂłÂł
li ers
Ġstruct ured
ĠTem ple
ĉ ĉ
ĠM iami
ĠR PG
Ġsc oring
Ġfl aws
Ġpres cribed
Ġca ut
ĠMin nesota
ĠBlog ger
ilib rium
M AN
b as
Ġe uro
Ġreal ised
ograph ical
Ġsecret ary
Ġcru ise
ĠEconom ic
f und
Ġw ounds
Ġm aker
Ġso cially
res pect
Ġrob ots
Ġtox ins
ĠiP ad
Ġdiscom fort
ed uc
Ġreg ulated
Ġcare ers
ĠWh it
opp y
ĠSus an
w atch
al in
Ġind ivid
ĠZ ero
Ġste pping
Ġcheap est
Ġnegoti ations
L at
S ur
ĠR ow
ac o
Ġgu ided
ix on
let te
cer pt
Ġblack s
Ġannoy ed
Ġrecyc ling
o ids
er ic
Ġf aint
ĠD rive
Ġdec ay
bo ot
Ġremark s
Ġp ine
st ock
ĠB uff
Ġbo ats
Ġsubsequ ently
Ġt ennis
ĠM atter
Ġse aled
Ġcom ed
ĠG it
ĠE ye
Ġres ur
Ġres erv
ob ia
Ġto ll
st age
Ġsh ru
oc aly
OR D
Ġfra g
Ġdecl ined
oper ative
ĠJer usalem
Ġhilar ious
E xt
Ġo we
ĠK ansas
ĠSt ay
Ġfl ames
Ġbr on
Ġdisc rimin
Ġmor ph
Ġdark er
Ġhistor ically
Ġbound ary
d ney
f ox
u er
Ġcle aring
fra c
Ġw ives
Ġsh o
Ġcomp ress
sh ow
uff icient
Ġcast ing
Ġâ Ĩ
E mail
S um
V ery
h d
Ġm att
ĠT otal
ri pp
ĠD I
ĠF al
ĠG arden
Ġint act
Ġar ter
Ġmor ality
Ġforest s
may be
Ġje ans
Ġan ten
ge ls
us cript
ass ador
Ġbet ting
ĠCh air
Ġnum b
Ġredu nd
Ġfrequ encies
ĠAre a
ĠAnt on
ibl ical
g reat
Ġa ug
ir ation
ĠC row
Ġbr id
Ġsw itches
Ġparticip ating
Ġworry ing
Ġconcent rated
c f
o is
r idge
ĠP il
ĠN intendo
Ġtri ple
Ġed itors
Ġ: -)
Ġport able
200 4
Ġsix th
Ġtom atoes
Ġpipe line
Pres ident
ĠTib et
O B
Ġt ense
ĠH ans
ab e
Ġk et
Ġpresent ing
Ġenc rypt
Ġrisk y
Ġfather s
ON E
ĠEngine ering
7 00
l oe
Ġm aj
Ġto ken
ĠH ung
Ġle ver
Ġmay or
Ġtra ff
Th us
ĠSu ccess
ĠAct ive
Ġcann abis
Ġincent ives
ĠTurk ish
D a
he a
ĠS A
ĠS ave
ĠB ear
Ġtri v
Ġtri um
Ġsepar ately
Ġsus cept
Ġinvestig ating
Ġexpress ing
Ġkiss ed
U D
ĠP aper
ĠD ictionary
Ġle ap
ĠL as
Ġdid nt
Ġbus h
Ġshock ing
Ġreject ion
ĠDiv ision
Ġinev itably
ĠS N
el ed
ĠF ortunately
Ġun aware
ĠK al
Ġsl im
Ġdevelop s
Ġcare d
ĠPr im
Ġsens ory
Ġwarm th
ĠAust in
Ġmob ility
Ġtour ist
Ġconsult ation
Ġalign ment
ot te
um atic
ak h
te x
Ġform ats
Ġval ley
Ġgra ins
St r
ĠRog er
Ġd ictionary
Ġsc attered
Ġinter val
ĠEx change
ĠMar ine
Ġpredict able
F R
Ġf oul
Ġu pt
Ġrep ository
Ġinterpret ed
Ġrank ing
st ration
Ġpe e
Ġche ating
cent ury
Ġmis con
ĠEd ition
ĠCent ury
ĠSim ply
Ġque ue
Ġutil ized
Ġmand atory
O ST
Ġw ipe
Ġc ents
ul u
so cial
Ġcl iff
Ġfre ak
Ġlo vers
Ġmis erable
Ġdatab ases
Ġincl ined
Ġacknowled ged
B uy
G L
b uilding
h im
h ol
l ocal
Ġw iki
Ġp ork
ĠW ol
Ġsens ible
ĠMc G
Not hing
hold er
pay ers
an ity
et a
ĠG raph
Ġam id
Ġcomple ting
Ġemb ry
a eda
ĠC rit
ĠD oc
ĠV as
Ġdemonstr ates
ias m
atal ie
Ġvend or
ĠUk raine
Ġt in
ĠI an
ĠP ed
ĠD er
ĠF ollowing
ĠJ erry
Ġthr one
ĠSh akespeare
ĠRep resent
Ġselect ing
Ġsequ el
I O
n ames
Ã Ĺ
í ķ
Ġw ires
ĠS ent
ĠR h
ĠL iter
ĠG B
ĠSt ories
Ġinflu ential
Ġflu ct
ĠPhil adelphia
ĠSwed ish
E s
ce nding
th ird
ĠWe ight
Ġexpect ation
.... ..
ĠMc K
AL LY
Ġdat as
Ġamb ig
Ġnurs es
Ġlaund ry
V ideo
c ourse
d ict
Ġb icy
Ġn erves
ĠC ann
Ġcount ed
com pass
ĠBr on
Ġcap ac
pro v
ĠImper ial
Ġw ont
Ġout fit
ĠSt ation
Ġtrans mit
Ġgl ob
Ġanim ated
hel p
Ġcommand er
Ġanaly tics
Ġsad ly
Ġmanip ulate
Ġoblig ations
st ru
Ġwh oles
ment ioned
ĠR u
ĠF ace
Ġout right
Ġlot tery
urope an
Ġble w
Ġrou ter
itzer land
d oes
Ġt attoo
Ġwas ting
op ard
um bers
ĠF OR
ĠO racle
ink le
Ġgl ow
Ġbro ker
ĠNe uro
Ġcirc ular
Ġtour ists
do ors
Ġrecept or
worth y
Ġrhet oric
or ial
Ġl ingu
am ination
ĠM ort
od a
Ġch rist
Ġj umps
ĠE le
Ġcont amin
Ġprof iles
AT ION
Ġintegr al
Ġstream s
Ġdele g
Ġelev ated
ĠEgypt ian
Ġtrave lling
C M
R ay
ow een
Ġ1 10
ac er
Ġrel ates
Ġins ure
ĠTr ad
Ġcolon ial
Ġinject ion
ĠMedic are
H appy
b usiness
on ents
Ġs add
Ġc attle
Ġdes irable
Ġnow adays
Ġchar m
pr ising
Ġsust ained
Ġjun ior
Ġtrop ical
K E
a que
Ġ ic
om aly
Ġde bris
Ġspell s
Ġveter an
ĠC over
Ġar th
Ġprogram me
ĠPer formance
Ġheav ier
Ġfuck ed
m ax
Ġ ib
Ġa ster
if iable
ĠC el
ĠJ ake
arm ed
Ġdig ging
IV E
ĠHawai i
Ġmun icip
us ually
ĠHe brew
Ġgener ates
Ġret ro
20 20
ĠLe ban
Ġ18 0
ĠFe el
Ġunf old
Ġast on
ĠOlymp ic
$ ,
P ut
P riv
Ġre un
ut ers
ge nder
ble ms
Ġmax imize
ĠAnt i
cont rol
Ġdepart ure
om ers
Ġn as
um i
Ġun ited
Ġrel ies
sh aped
Ġpast a
Ġsucceed ed
Ġnegot iate
Ġarrange ments
Ġinher it
and o
ĠF DA
ĠV ersion
Ġinst itutional
Ġ6 2
ĠAl ong
Ġhum ble
Ġ9 8
Ġprop ri
Ġpredict ions
Ġentreprene urs
ĠTai wan
Ġn ails
Ġg erm
Ġpro be
ĠH us
ak u
Ġgr ams
Ġbl onde
Ġhost ile
Ġstress ful
gu ard
blog ger
Ġexplo it
Ġdeploy ed
Ġtheat re
rapeut ic
N O
m ad
Ø ¹
ust ral
ĠD ear
ĠN BA
Ġdi ver
Ġmag azines
Ġmid st
Ġkick ing
Ġtrig gers
Ġtherap ist
Ġtempor arily
Ġres il
li ver
Ġcolle ges
Ġperfect ion
Ġlegend ary
f our
Ġf el
Ġm asks
ĠTh ailand
Ġun pleasant
Ġind ul
Ġpers istent
Ġoper ated
Ġcook ie
C r
V er
Ġf usion
Ġg em
Ġam p
Ġrel ating
Ġcr ush
ĠDe pending
ĠSpe cific
Ġconserv ation
M M
Ġf ist
Ġm ol
op ia
ĠG ill
Ġimp ly
Ġhand les
ok u
Ġorder ing
Ġview er
Ġver bal
agn etic
ĠPol and
Ġclar ify
ĠDar win
Ġrefuge es
C ould
h ile
Ï Ħ
al ia
ur ate
Ġcan cel
Ġneed le
Ġbu cks
Ġsub mar
ĠNe ither
Ġcateg or
Ġintention ally
E nd
M al
ĠP ing
ud s
Ġim pe
Ġdesign ated
Ġve gan
Ġdeb ts
ĠBar ry
Ġreported ly
ĠIns urance
Ġoverwhel med
Ġb og
Ġwe ars
Ġbre w
Ġri vers
Ġoccup ation
R NA
Ġg ast
ess age
ĠW ait
Ġaccount able
ĠCent re
ĠSing h
. ),
l ie
Ġp sy
Ġl ord
ĠC and
op ing
Ġart if
Ġsn ack
Ġpack s
ams ung
ĠVal ent
ĠPlan et
ĠAnonymous reply
Ġrender ing
Ġchop ped
Ġexecut ives
Ġp iv
ĠF uck
ĠO nt
Ġher bs
Ġem pir
Ġrest ing
Ġtrad itionally
Im agine
Ġestabl ishing
Ġtub es
Ġdos age
em ail
pl an
Ġsm iles
Ġaw aken
Ġcompl iment
ĠDown load
Ġapolog ize
Apr il
T ell
m ill
Ġse gments
Ġde er
we b
Wh ite
Ġclos et
Ġdevast ating
Ġsurviv ors
( $
M arch
U E
j an
s er
Ġs iblings
le ans
ĠP ic
Ġli z
ĠTh ai
erc ise
ĠSuper man
ĠWork ing
Ġchrom os
C L
E p
U RL
ĠS ite
un ci
te ch
Ġdist urb
ĠBe yond
Ġfore head
ĠGr ant
Ġvan illa
Ġhaz ard
ĠFest ival
at able
is en
ot hy
ver b
ch ildren
ke e
ĠW ales
ĠL ost
Ġeduc ate
Ġsear ched
ĠPhilipp ines
f un
r ition
Ġa rom
im ated
ĠH ann
ĠJ oy
Ġ19 20
az i
Ġwild life
Ġterr ifying
ĠArch ives
Ġpul se
I X
S ch
n ell
Ġ Ñ
at ility
ĠT s
ĠS L
th a
ĠK han
ĠCom plete
ĠMar ie
with out
Ġdress ing
ĠAtt orney
Ġvacc ines
Ġped est
ĠCle an
Ġdismiss ed
Ġrespir atory
Ġres erves
Ġsupp lied
Ġplace ment
Ġclass ification
ĠSu z
Ġcourt esy
Ġter ribly
R ober
c am
Ġo ct
Ġg ad
ĠT el
ĠA ra
ab il
Ġsec ured
Ġ6 7
Ġfun eral
ĠSp ider
Ġmid night
Ġmer cy
Ġdiet ary
Ġillustr ate
Ġphilosoph ical
Ġd inos
Ġl id
st ud
ĠP el
Ġ- --
ĠK u
Ġenc ryption
off ee
rit ers
Get ting
J es
b ine
Ġaw hile
Ġhead aches
ĠCl are
Ġencoura ges
Ġpet ition
Ġsandw ich
d ie
Ã ł
Ġ á
al ine
Ġmet a
Ġsk i
Ġfar ms
ĠSer iously
O ld
b ag
r ors
Ġp ap
Ġsl ots
Ġrest art
ĠAr ts
su ccess
With out
Ġmart ial
h ang
Ġm all
Ġd amp
Ġch ron
ĠAll iance
ĠSp ot
Ġsent iment
ĠAny thing
Ġdepos its
ĠGab ri
Ġschem es
Ġt ales
ou ri
Ġn ipp
Ġg n
id i
Ġch in
ĠE c
Ġtri angle
Ġsw ap
Ġopp ose
ĠCam bridge
Ġenzy mes
Ġcollaps ed
Ġcust ody
^ {
ï Ĥ
ain ted
Ġpers ist
Ġgl anced
Ġexpl ored
ĠPro blem
Pro f
Ġsufficient ly
person al
Ġpron ounced
> ,
re nd
or neys
ĠP ap
Ġsu g
Ġmon op
Ġvis a
Ġsymb olic
ĠWalk er
R uss
ĠW right
ĠCh o
Ġbu cket
Ġval ued
Ġactiv ate
Ġ198 8
Ġexplan ations
rep resent
Oct ober
m atic
n an
t ake
as i
Ġl enses
Ġre lying
Ġob l
ature d
Ġcontin ent
Ġneg lect
ES S
ĠCra ig
Act ually
ĠFA Q
F our
b uild
ä »
Ġt oug
ĠW ant
ain able
Ġbl o
oss ibly
Ġpers pectives
Ġdist ress
Ġhost ed
ĠMon th
Ġphenomen a
ĠGirl s
Ġindivid ually
ĠH alf
Ġch asing
Ġgo ver
ĠF R
ĠN i
ire ction
Ġdis like
ĠAn ne
Ġhome own
Ġfree zing
sc ript
Ġlack s
Ġfeed s
Ġinstall ing
Every thing
Ġat om
Ġdis gu
Ġspe lling
sh ine
Ġsum mon
Ġmanip ulation
heart ed
M icro
T im
m ic
Ġb aked
ĠC V
ĠH art
em ade
Ġtr unk
ĠU I
Ġam azed
Ġmin us
Ġblog ging
Ġplant ed
Ġcontem pl
parent s
Art icle
ĠGuard ian
Ġallerg ies
G I
Ġs ung
Ġwe ed
ĠP HP
ĠP retty
ĠN S
iz ational
Ġmet rics
Ġdra gged
Ġadapt ation
c ra
er ie
or p
ll ers
ot ine
ĠB eth
Ġse iz
ri ages
ĠR oom
ĠN ich
ĠN ative
ĠEx ample
Ġprop ose
Ġdeli vers
Ġsch olar
ĠWay ne
Ġtransp arency
s pring
ing ton
Ġre ception
Ġhe els
ĠA x
ri ved
ĠAs sembly
ĠLe o
ĠX box
Ġeye br
G S
ĠI L
ĠR NA
Ġsc roll
read ing
Ġpar as
ane an
ĠEm ploy
?? ??
ĠTH AT
ĠVal ue
Ġextend s
Ġimper ial
Ġobsc ure
Ġt id
Ġc age
Ġb od
Ġman uscript
Ġdon ations
Ġfil ing
head ed
ĠRec ords
Ġcert ified
Rec ent
Ġconfirm ation
a iting
ter ing
ĠB os
ph abet
Ġ6 8
Ġrest ored
Ġwar fare
Ġinvestig ated
Ġund oubtedly
ĠOrgan ization
Ġhier archy
1 20
J oe
d id
Ġp ione
Ġl ymph
ĠB B
Ġref und
Ġbre eding
Ġvill ages
Ġrevolution ary
ĠBow l
B ill
S omething
æ ľ
ĠT rib
ĠD ur
Ġle aning
ĠUn cle
sh irt
Ġele phant
Ġarg u
Ġesc orts
Ġoptim ization
Ġadvent ures
Sub scribe
Ġo w
Ġrep ay
Ġbit coin
Ġcommun icating
Ġprotect s
Ġrepe ating
Ġwarn ings
Ġtriv ial
Ġc ater
Ġpro ving
Ġunder go
Ġass ure
Ġ6 6
Ġtrad ers
ĠPh one
su per
Ġband width
Ġresist ant
Ġvir gin
Ġdecre ases
Ġunw anted
P ower
] ;
s ky
ĠH om
ound ed
Ġcr ushed
ĠAl t
ĠAl aska
Ġhot els
Ġpred iction
Ġstret ching
Ġcreep y
H ar
p her
Ġb ip
ĠE gg
Ġins erted
ĠNiger ia
l ove
p ol
Ġv ic
ex cept
Ġdr ill
Ġann iversary
Ġpositive ly
Ġyield s
Ġacceler ation
ĠEp isode
Ġt an
in formation
it us
Ġst are
ge nds
ell ar
Ġinter vals
Ġdead line
Ġfavor ites
Ġpath way
ĠAb raham
Ġassum es
ĠLaw rence
ĠTit le
H ead
Ġm um
Ġg ases
ĠH erm
Ġen er
Ġun limited
Ġhapp ier
Ġdr one
Ġfar mer
Ġassoci ations
×ķ ×
J une
r ational
an ies
ĠB S
ĠP oll
ant i
Ġfr idge
Ġpract iced
Ġgreen house
Ġadjust ments
uls ion
Ã£ o
Â Ģ
at ivity
it ol
ĠC zech
Ġde ployment
ĠD uke
Ġdis par
Ġinc om
ĠSt ra
Ġpat ches
Ġpack et
ĠBill y
Ġath lete
Ġaccommod ate
} {
Ġse ctors
ĠW ang
ĠE dd
Ġmight y
Ġnever theless
ĠSh op
Ġliter al
Ġpen alties
Ġpark s
Ġcrowd ed
ĠPut in
Hel p
M ac
T E
T ags
d irect
ĠM ight
ĠM aterial
ab ama
Ġall iance
act iv
Ġun int
Ġmethod ology
Ġmicro sc
ĠStud io
Ġscr ut
Ġplug in
ĠRus sell
d est
u rop
Ä ±
Ġt roll
Ġp udd
um per
Ġtrans cription
Ġsupport ive
Ġpursu ing
D s
P ublic
c ost
on ies
ĠC urrent
Ġcl ause
Ġbl ink
Ġsc ram
ec onomic
ĠAr gent
Ġdest ructive
Ġclean er
ĠMil itary
Ġremote ly
e g
is ive
Ġm im
Ġh obby
Ġg auge
ke nds
Ġen act
Ġrem ed
Ġmet h
ĠAr k
Ġlearn s
Ġri pped
Ġreven ues
Ġretrie ve
V P
Ċ ĠĠĠĠĠĠ
Ġw ax
Ġon ion
ĠE VER
Ġcomp iled
Ġvirt ue
ĠTal iban
Ġentreprene ur
Ġrend ered
R ich
ĠA venue
Ġra id
Ġche eks
Ġfin ances
Ġspec ulation
Ġfair y
Ġvine gar
Ġener get
s cience
t own
Ġs ized
ĠP in
Ġsh orts
ĠK ay
Ġinc ap
Ġsm arter
Ġcur riculum
Ġcou pled
St ring
port ed
Ġvari eties
Ġded uct
Ġru ined
ĠProt ection
onest ly
l ad
Ġ ç
im als
Ġmod er
Ġhalf way
Ġess ays
Ġ198 4
Ġ198 7
Ġdistract ed
atab ase
n bsp
Ġin appropriate
ĠI RS
Ġwe aker
ĠK id
Ġgovern ance
ĠEn c
Ġsurv iving
Ġinput s
Christ ian
Ġattach ment
ĠDise ase
a is
r ise
Å ¡
Ġto es
Ġrece ipt
ĠSy dney
ĠAct iv
ĠEnter prise
ĠNether lands
er ting
Ġpro claim
Ġtra it
Ġinter ven
be fore
ĠEx cept
Ġobs essed
Ġtou ches
Ġsimpl est
ĠHam ilton
at ics
Ġprov in
pro du
Ġsurround ings
ĠCast le
Aug ust
Ġeleg ant
r ays
Ġm asters
Ġd in
il ers
ĠW el
ĠD ale
Ġby pass
ĠL ock
Ġtw ins
Ġcr ude
sh ore
Ġopt ical
ĠEn joy
Ġprior it
Ġbul lets
Rep ort
ĠMot or
V C
c ision
f amily
il k
ĠJ obs
Ġmess y
ĠRes ources
unt u
ĠEd ge
Ġrecept ors
Ġsurg ical
w ere
ĠW y
os itions
Ġman kind
ens itive
Ġev ac
Ġcar n
Ġsimilar ities
Ġpil ots
aus ible
Ġathlet ic
Ġanth rop
i ang
Ï ģ
ĠI BM
qu is
ĠD im
ĠG ate
ass ium
Ġres ent
Ġinc oming
Ġcar go
Ġtax i
ĠMar g
ili ation
ĠCont in
OV E
ĠLink ed
Ġimmun ity
l en
ĠS ac
ĠU b
Ġge ometry
ipp i
ĠTor ah
Ġsuck ed
Ġnutr itional
G reen
b ly
Ġal right
Ġlike wise
ib bean
Ġref using
ĠAr ound
uff le
Ġretail ers
Ġabund ance
N umber
Ġan gel
Ġcr ashed
Ġsub conscious
Ġeconom ies
Ġcomb ining
Ġstar ter
Ġsmooth ly
ĠAut om
Ġtrib es
Produ ct
) -
G ame
N on
R un
Ù Ĥ
Ġth rive
Ġe ld
ac hers
Ġad ren
iz ens
Ġ3 50
ash a
Ġweight s
ĠFore st
ĠNY C
d it
m el
en c
Ġcost ume
Ġwar rior
Ġembarrass ed
Ġfart her
m ia
Ġs arc
it ives
ĠT arget
im eter
ĠS ett
ĠL en
ĠO z
int ed
Ġblog ger
Ġprim itive
ey ed
Ġhall way
Ob ama
Comm un
c ould
ul as
Ġpro pe
ĠD ri
Ġpl un
Ġun healthy
Ġcol ony
Ġgl oves
ik h
Ġfig uring
ĠSw itzerland
ĠSpe ed
ĠHel en
Ġhur ting
Ġevalu ated
Ġbless ing
omed ay
1 10
s ince
Ġl amp
ll i
ĠP ubMed
ain ts
ĠPre p
olit an
m ount
Ġ ion
Ġs perm
Ġl y
Ġimp ose
ph p
Ġsl id
Ġsw ift
ĠUS D
Ġtal ents
itc her
Ġyell ed
Ġâ Ī
Ġjudge ment
g ue
p rom
~ *
he imer
ĠL ot
Ġlic ensed
ĠArab ic
Ġindu ced
Ġinher ited
Ġg ates
Ġor b
ĠB L
ĠF ish
ĠL oc
Ġun le
Ġ6 3
Ġsoft ly
ĠInt egr
Ġrespond s
Tr ump
Ġdial og
Jan uary
Ġunh appy
P ort
am ac
Ġst adium
um bs
Ġdon ation
te chn
Ġnon etheless
Ġcoll ar
AM E
Ġconduct ing
Ġpassword s
Ġinterrupt ed
Ġfortun ate
ĠS pect
ĠP od
ĠN athan
ĠE ar
pt on
In s
Ġcho oses
ĠAN Y
B ay
J eff
Ġw icked
Ġc iv
es see
âĢ Ĭ
ĠM ade
ĠB io
Ġsh iny
ie re
Ġpre st
Ġsk etch
ĠOr leans
Ġmusic ian
AC K
Ġscream ed
Ġenthus iasm
ĠPolit ical
Ġphotograp her
Ġdesp air
Ġpropos als
l ib
r il
Ġc yn
ĠG O
Ġad ul
Ġqu arters
Ġsy rup
Ġpar a
Ġport ions
ĠMin istry
Ġpus hes
Ġlength y
Ġmanufact ured
Ġkick s
ĠPrin ci
Ġdent ist
Ġsurre nder
r t
ur ated
ĠD or
ĠR ap
Ġbl ows
Ġins pection
Ġsing ular
Ġtrad ed
Ġball ot
Ġl ion
se lling
Ġcon ve
ĠR aven
Th ings
ĠAn na
ĠIs lands
Ġworth while
Ġvot er
Ġgas oline
Ġsynt hesis
Ġinterf ere
ĠOffic er
oust ic
c in
Ġf ried
im ore
ĠC ro
ĠP as
Ġgr im
Ġrem edy
Ġsl ides
Ġprov isions
Ġmean ings
ĠNew ton
ĠPer fect
Ġfac ulty
Ġmer it
Ġappropri ately
Ġvoc abulary
Ġreli ability
lah oma
G R
G ive
Ù ĥ
Ġl bs
ore m
Ġex empt
Ġmed ieval
Ġpost ure
ĠMan hattan
Ġprin ter
Ġmax im
Ġmir acle
ĠBack page
ĠSaf ety
u u
he y
Ġc hess
Ġd ile
ch ild
Ġtw itter
Ġmet ric
Ġhead lines
Ġpot ent
Ġappear ances
Ġadm its
Ġabsor ption
M ag
p df
ĠS ounds
ach ment
ĠV ari
Ġreal izes
Ġwin ners
Ġsuper hero
osp here
Ġbul b
ĠHun ter
atern al
Ġalleg ations
ĠBrook lyn
Ġdign ity
U LL
m ma
Ġa uction
Ġtheir s
ĠJ en
Ġher s
Ġdi ets
Ġdr own
Ġter rain
Ġadjust ment
oca ust
- ]
g ae
x it
Ġs igh
ut t
et al
ĠH indu
ĠN elson
ĠG rey
Ġad mission
Ġext ensions
Ġsound ing
ĠMar ia
Ġpray ers
Ġcontrad ict
Ġaest hetic
Ġteasp oon
m outh
Ġs ins
ĠLe ave
12 3
ĠPh oenix
Ġelement ary
D iscussion
Ġl ined
Ġl uc
ĠT a
Ġan at
ĠP rior
Ġsh ove
Ġsexual ity
Ġpromot es
Ġuncom mon
ĠPract ice
ĠPalestin ian
Ġfundament ally
P eter
s n
im ity
Ġor ph
Ġgl oss
Ġenjoy s
ĠIS BN
ĠCustom er
ĠStew art
H as
K ing
f ood
Ġl ing
iss ippi
Ġpri ests
Ex pl
Ġutil izing
Ġharass ment
g ien
as is
Ġst air
Ġab st
ĠG re
ĠG ard
ere rs
ĠJ ere
Ġcl ues
ia o
Ġ6 9
Ġimm ort
Ġball oon
ĠUp on
Ġadvoc ates
Ġstimul us
Ġresident ial
à ®
at isf
am er
Ġst oring
ass y
Ġam bit
ell ed
Ġnew est
Ġdes erved
There fore
Ġstuff ed
ffic ial
Re al
reg n
Ġconsist ing
Ġincorpor ated
Ġdipl om
ĠNAT O
m itting
r oup
Ġnot ably
qu al
ĠD ocument
ĠR F
Ġwork force
ia z
Ġper sec
Ġsy ll
Ġpred omin
bor ne
Post s
c ertain
Ġp oured
Ġg room
Ġal mond
out heast
ĠO ak
Ġam ateur
Ġcar riers
Ġperform s
Ġprotocol s
Ġven ue
Ġthy roid
Ï Ĥ
Ġh ates
ĠG er
ĠE at
ah n
Ġstick y
ĠEm ily
ĠGener ally
Ġintrig uing
ĠCorpor ation
iov ascular
p it
st ruction
ĠM orm
ĠW ard
Ġr ug
ĠV oice
ĠCh uck
ade qu
Ġpol ite
Ġorgan izing
Ġsuper natural
Ġlegisl ative
Ġtoss ed
n amed
t urn
Ġfo am
Ġprot esters
Ġproject ed
Ġtax payers
ĠSw iss
Ġrank ed
ĠÙ Ī
Over all
Ġworksh op
F ore
G P
Ġup ward
Ġsp oon
Ġpart ition
Ġdown ward
Ġfo x
Ġorgan isations
Ġhands ome
ĠTre k
Ġdigest ive
Ġpip es
Ġdoct rine
E lect
ĠS olar
ĠC ON
ul ent
form ing
ĠAn cient
Se ptember
esthes ia
M C
f red
j ack
ic hes
ĠW at
Ġv ivid
ov ies
ij ing
ĠThom pson
Ġsan ctions
Ġcoast al
ĠLead er
ĠBrother s
exp ensive
ĠKent ucky
D i
ĠC urrently
Ġk idding
iz on
ĠK r
Ġhel pless
Ġrep airs
ĠMay or
Ġremember ing
bal ance
Ġmic rowave
Ġh ay
ĠI owa
ot ox
ir i
Ġsc ent
... )
Ġdet erior
ĠBe gin
Ġtrad es
ĠRuss ians
Ġbehavior al
Ġrelax ing
it ic
ĠP D
Ġcan on
un ct
Ġper ipher
Ġbl u
Ġrest ra
Ġdem ons
Ġpar an
Ġpack ing
Ġinvestig ations
Ġgest ure
Ġrefres hing
ĠS yn
ĠB us
ĠH ost
ĠF ri
Ġcomp ly
Ġequ ilibrium
Ġimag ing
=" "
Ġund ers
Ġwilling ness
ĠRem ove
roph ic
Ġsquee ze
D ev
S R
re hens
ke eper
ĠH ale
Ġex otic
ĠD al
Ġgen ome
Ġtrans mitted
Ġsw elling
Ġbed s
Ġlength s
Ġtradem ark
k ill
an ia
ke eping
ol ics
ac ies
Ġty r
gen eration
ĠComm ons
Ġinterview ed
Ġgrav it
Ġru ins
Ġcoc aine
~* ~*
B ad
O A
Ġt ones
ĠW E
ĠD rug
ĠUn it
bl ood
Ġ198 6
Ġsyn chron
Ġunp redict
? ).
he at
Ġb ore
ed e
st an
ol o
est one
ĠTh an
Ġfe ared
ced ented
ĠCl ar
Ġstra ins
Ġcompl ained
Ġir ony
Ġemp athy
Ġbelong ing
Ġwhis per
ĠJeff erson
Ġembarrass ing
Ġfu els
t alk
or ate
ot on
ob ject
Ġsur geon
Ġexp on
Ġharm ony
ĠExper ience
ĠFriend s
Ġdun geon
Ġsusp ension
×Ļ ×
W H
Ġf ictional
Ġd orm
ĠM ix
Ġsh red
ĠR ules
ĠF ried
Ġdisc ont
Ġloc als
Ġcat aly
Ġprosec ution
prot ected
K nown
T unes
al ph
ig o
Ġex h
ĠD iam
Ġswe pt
Ã© s
ĠEm ma
ĠLu cy
Ġelimin ating
Ġresearc her
Ġgradu ated
Ġsubstant ially
ĠNaz is
Ġallerg ic
M ult
g ative
Ġin h
ĠM aj
ĠW ik
Ġr ation
th ree
un ts
Ġtr ump
Ġad oles
view s
Ġnotice able
Ġpun ished
Ġment ality
Ġuns ure
Ġflaw ed
J uly
g ro
j ob
l ength
ic iary
ĠK az
Ġmess aging
ĠEss ay
Ġs ang
ent ric
ĠT ower
ul k
Ġout lets
00 1
Ġpe cul
ĠV R
Ġkey word
Un ited
Ġhousehold s
Ġportray ed
Ļ Ĥ
ĠT odd
ĠM itt
ĠM ason
Ġface book
Ġce ase
Ġdoub ts
ĠCr ime
ĠMiss ion
ĠBas ic
Ġl ining
Ġli ed
Ġfe as
ress es
ĠGr ay
ball s
Ġbeaut ifully
Ġcontact ed
Ġdownload ed
och ond
Ġtag ged
conf ig
Ġadj acent
Ġairpl ane
ch air
ĠN atalie
ĠK urt
Ġpr ince
Ġ6 1
Ġey el
Ġsymp athy
Ġsymp athetic
ĠNar uto
Ġcarbohydr ates
s ure
Ġl ump
Ġst ole
ch ant
ĠE T
ft y
ĠAn imal
Ġhead line
Ġelect oral
Ġconsult ing
Ġmerch ant
Ġcondem n
m id
Ã º
Ġpl asma
Ġsent enced
Ġsqu ir
ĠCor ps
ĠTest ament
ay an
ess a
ob i
Ġburn s
Ġpun ct
Ġille g
Ġsyn c
ĠCam eron
ĠDa wn
Ġdistinct ive
Ġauthent ication
Ġinqu iry
ĠJenn ifer
U lt
e an
Ġbe e
ĠT ogether
ad ers
ĠF arm
ĠV itamin
Ġsub mission
Ġlast s
Ġworks he
Ġarri ving
Ġimpl ied
ĠPat ri
ĠLar ge
b ands
s ervice
Ġa ka
Ġto dd
ĠT ro
ĠS F
Ġpro xy
ĠP ages
ĠR ou
Ġinf ring
put er
Ġrad ius
Ġbomb ing
ĠHot el
ĠCB D
f ix
ĠB P
pl ates
Ġqu iz
Ġinf erior
Ġ9 7
Ġpath ways
ĠTok yo
Ġo z
Ġb arn
Ġd ug
ĠM R
ĠF L
ĠZ ion
Ġpersonal ities
Ġcolle ague
Ġcollect ions
OM E
ĠTre asury
ĠProt est
ĠHall oween
Ġenzy me
ryst al
Ġyog urt
L ater
it err
ĠM is
ĠD anny
oad ing
Ġmarket place
19 99
200 3
ĠPer iod
Ġsecret ly
Ġpros pective
ï¼ Į
ĠOnt ario
Ġambit ious
Ġst ew
Ġsh ining
ĠL aura
Ġpl aint
Ġart work
uck ed
Ġfr iction
Ġbre ach
Ġprot agonist
Ġdom ains
just ice
ĠStr ange
Ġsurve ys
ĠInterest ing
s a
t ag
t ube
el ia
Ġref eren
Ġbo iling
St op
Ġorig inated
Ch ina
ĠNe il
ĠHer o
asc ript
Ġbull ying
Ġreward ing
Ġoverlook ed
o T
w art
ĠS old
ĠR ing
Ġmin istry
Ġhum idity
ĠQ ur
ĠOr thodox
Ġconsider ations
Ġlog ged
ĠMc Donald
ĠOlymp ics
Ġwip ed
Ġcyc ling
C ap
Ě Ě
ĠS kin
ĠW or
qu o
av ior
Ġconnect s
ram id
Ġur gent
ĠChar acter
Ġfaith ful
Ġchick ens
Ġash amed
Ġfrag ile
m ag
Ġf oster
Ġst amp
ĠL ots
ac re
Ġinv alid
Ġcr unch
Ġblock chain
Ġarch ive
Ġobt aining
Ġtoler ate
Ġjurisd iction
c uss
h in
Ġ ê
ĠR ace
ĠF an
mer cial
Ġac ne
Ġcent ered
sm all
htt ps
Ġicon ic
Ġdupl icate
Ġchampions hip
ĠMit chell
ĠFant asy
N ational
w ife
ĠC ert
ĠW ed
ĠG race
Ġpo ems
ank ed
ĠBl oom
ĠPh D
tr ue
Ġconfig ured
Se lect
Ġrig id
Ġincon ven
D ep
i w
Ġh uh
Ġcon gr
ci pl
Ġher b
Ġwork flow
Ġhead quarters
Ġpress ures
ÂłÂłÂłÂłÂłÂłÂłÂł ÂłÂłÂłÂłÂłÂł
Ġmention ing
Ġtour ism
Ġsad ness
Ġmedic ines
W ater
Ġt ide
Ġa fore
Ġu l
ick y
ific ant
Ġ7 8
Ġpret ending
ĠEx amples
Ġthreat en
Ġsmell s
Ġkiss ing
Ġtow el
Ġcrack ed
Ġinspir ing
Ġprosper ity
ĠMichel le
G old
M or
an cies
Ġimpl icit
Ġanaly zed
App le
ĠMem bers
Ġmand ate
amac are
W omen
ĠI F
ro le
if i
Ġare na
ĠD B
ĠK l
av an
Ġtrans it
ĠPhys ics
H ub
y y
y on
th ought
Ġal igned
ĠR ule
ĠF err
ick er
Ġ9 6
Ġdeb ates
ĠNe v
Sh ort
Ġbi ased
ĠOver all
Ġfert ility
Rober t
Ġ ip
ed er
al ities
Ġd ice
ll ah
ur red
Ġcon sec
ĠB ah
Ġr ats
ĠN SA
Ġun belie
Ġsp inal
Ġcons cience
Ġthought ful
ĠIS IS
ĠSand ers
Ġhed ge
ĠN A
ine e
ous ing
ĠIn side
Ġdifferent ial
Ġaff irm
ĠBe ast
Ġmiss iles
Ġpersonal ized
Ġimag ery
Ġproceed s
Ġintr ins
Ġvi agra
Ġamer ican
Ġalumin um
ĠT un
Ġon ions
ĠG ates
ĠK erry
Ġcoll ision
tain ment
Ġbul bs
Ġincl usion
Ġvamp ire
Ġbree ze
R ad
j amin
Ġ æ
Ġd ated
ve t
Ġsh ades
ag u
Ġbl amed
Ġreal ization
Ġdisc retion
Ġposition ing
Ġachieve ments
Ġmel ting
Ġbrows ing
ĠSa fe
ĠGra ham
ĠAtl anta
Ġcomprom ised
ĠUt ah
Ġgenet ics
c ond
d ration
i otic
t ical
Ġc ad
st ill
ĠP ant
Ġche f
ĠCl ose
Ġlim bs
Ġsn acks
Ġstri ve
Ġlock s
Ġclim bed
Ġthick ness
Ġnutri ent
ĠTreat ment
Ġcoinc idence
ĠMalays ia
Ġgover ning
S il
i ated
p riv
Ġu mb
od s
ĠTh u
Ġatt orneys
ok o
ĠGod s
Ġcorrect ed
Ġunf amiliar
Ġjournal ism
Ġsimpl icity
ĠTy ler
he res
Ġal beit
og ene
Ġdown s
ĠAl abama
AS E
Ġdu ct
Ġstim ulate
ĠWhe never
ĠMary land
Ġmolec ule
Ġhyper t
ĠWal ter
Ġinherent ly
ĠDoug las
in ja
Ġn urt
ot ive
Ġsh irts
ie ves
ĠV o
Ġbo oth
Ġ9 2
ari us
Ġmort ality
ĠGM T
hend el
Ġwre ck
Ġcoron avirus
Ġconcentr ations
iterr anean
er red
st eps
Ġch i
ĠL ay
pr ises
Ġequ als
ĠQu ant
Ġhook ed
Ġorg asm
ĠðŁ ĺ
Ġpiss ed
M R
S en
w ave
is le
Ġl ith
Ġst ove
ĠP oor
ĠR ice
ĠRe pe
ĠCl aire
Ġlog s
Ġcompet ent
Ġmis leading
Ġden ying
Ġcitizens hip
Ġrelax ation
Ġenhance ment
achel or
Ġsuspic ion
B ob
D el
Ġo l
ĠL ang
ac cess
Ġtime ly
Ġchar ming
Ġvis itor
ĠCol lect
ĠCar ibbean
Ġver ified
Ġbackground s
Ġmill enn
Ġprison er
Ġhar ness
Ġban ner
Ġmotor cycle
ĠFranc is
C are
U P
d ist
Ġan not
ra ising
ĠC her
Ġdo ses
Ġcl an
ĠĠĠĠĠĠĠĠ ĠĠĠĠĠĠĠ
Ġgr ind
Ġright eous
Ġpoint less
Ġappe als
Ġcustom s
ĠEx cel
Ġaud it
Ġsuspect s
Ġscrew ed
Ġweakness es
Ġanten na
g rav
o ard
v oc
Ġab ol
Ġle nder
ĠF ocus
Ġpre cip
ĠAr c
Ġappro ve
Ġcra cks
Ġpubl ishers
ĠPerson ally
Ġvoc als
K n
ĠM uh
Ġar ises
av ascript
end s
Ġche at
Ġunderstand able
ĠZ one
Ġcrit ique
Ġanticip ated
Ste ve
Ġincomp et
Lat est
f at
f iction
ĠT her
ĠV iol
Ġinv itation
Ġ7 7
Ġsocial ist
Ġcred ible
Ġhonest y
Ġban ana
Ġalt itude
Ġflo ors
Ġlaunch ing
Ġreform s
ĠNor way
Ġwand ering
ĠCertain ly
S O
W ait
c od
ĠB ec
ĠW elcome
Ġat omic
ĠD ynam
ĠR ic
ĠF if
ag ging
Ġport al
Ġ198 5
Ġdistrict s
Ġperm its
T oo
Ġthe rapeutic
Ġc ables
ĠS weet
Ġcomp iler
Ġoff ended
Ġread ings
Ġunt o
ĠSe pt
ĠNot es
Ġreb els
Ġroutine ly
ĠB attery
op l
ĠD ouble
Ġout look
Ġfin est
ĠAl pha
Ġpix els
! ),
B ox
b irth
m or
p rop
it ial
ĠT ab
ĠB oo
Ġman eu
Ġper f
Ġind oor
Ġmark er
Ġ8 8
ĠEn h
ĠAnt ar
ĠIndian a
Ġloud ly
Ġlad der
Ġgre ed
Ġjun gle
ot hing
th y
os ity
ĠL iver
ĠSt atus
Ġcomm itting
ĠAl bert
Ġel astic
year s
Ġdistrib ute
ĠReg ardless
Ġmaint ains
TH E
M uch
T O
f ind
Ġt et
Ġh i
ot ional
ers ed
the se
Ġ7 00
Ġkind ness
Ġtest osterone
Ġve gg
Ġintern ally
Ġ: :
Ġexc uses
Ġdiv or
ĠDes cription
place ment
ĠHT TP
Col or
F ire
s ki
Ġd y
Ġdon ate
ĠCh ron
Ġdec omp
Ġcor rid
Ġbra ce
Ġmar vel
ĠPl ayer
Ġmer ge
IC E
Ġanaly zing
Ġmush rooms
ic ism
ĠT ools
ĠC ris
ĠM es
Ġnot ices
ĠR ot
ĠJ u
Ġrec l
Ġsupp liers
ĠAr n
rop y
Ġdem ocr
Ġdesc ent
ĠInt roduction
Ġcow ork
ĠLuck ily
Ġunpre cedented
Ġs i
Ġl itter
ason able
Ġair lines
fe ld
Ġshare holders
ĠRes ults
Ġdemon stration
ĠDoes n
Pr int
Ġdepth s
G M
J im
L ess
Ġthe e
Ġc ows
Ġm ig
Ġto e
Ġe tern
il itation
ĠB eng
Ġr ides
Ġover weight
ign ment
Ġext ending
ĠBl ake
Ġreview ing
ĠSw itch
ĠON E
âĪ Ĵ
D ig
b uy
h alf
Ġv icious
Ġbet s
Ġind o
200 1
Ġliber t
boy s
Ġna ive
Ġaccord ance
Ġearthqu ake
C ent
p ad
Ġh ij
ĠT ool
Ġhe ars
Ġsh ipped
Ġab rupt
Ġle ct
Ġall y
ĠG ay
Ġrel ieve
Ġref ined
Ġwar mer
Ġshort age
ĠÂ §
Ġprin cess
ĠCo oper
Ġhur ry
m ist
at to
Ġh ipp
im en
ir s
ĠL oss
Ġout doors
ĠK rist
Ġinter rog
ĠSe ven
Ġz oom
ĠMur ray
Ġpreval ent
Ġinhabit ants
accept able
ĠPitt s
Ġg y
Ġint ra
ud a
Ġad ject
Ġcl ips
own s
ĠCh loe
hed ral
Ġend ure
Ġdiscover ing
Ġoptim istic
Ġeditor ial
Ġinterf aces
Ġrab bit
ĠVenezuel a
> .
o at
Ġn g
em pl
Ġpl ag
Ġint ric
Ġoff line
ows ki
me aning
Ġserv ants
Ġdem ographic
De cember
Ġroll er
char ged
Ġdisappoint ment
Ġunst able
Ġtrium ph
Ġenerget ic
e pend
es ar
Ġf t
ar ium
Ġl ig
ĠS ke
Ġam using
Ġsl iding
Ġdet ox
ier re
A I
f its
is ure
am as
ĠP erm
ĠE aster
int egr
Ġwee kends
ĠDe al
Ġoccur rence
Ġdisci ples
Ġprompt ly
Ġexplos ive
ĠInf o
M D
ĠH ook
ab a
Ġrem embers
Ġsl aughter
Ġ7 6
Ġca f
Ġyoung est
Ġrepl ication
ĠMan chester
Ġinflu en
aur us
Bl ue
ĠUp dated
Ġterr ified
Ġnom ination
ĠIndones ia
Ġargu ably
C am
D et
J un
ant ine
du ctor
Ġwell ness
aw k
Ġ19 45
Ġvari ant
Ġfavor able
Ġindic ators
ĠMad ison
Ġshel ves
Ġdil ig
ĠH ind
ĠP and
Ġrem oves
Wh atever
Ġprop osition
Ġmach inery
ĠMiss issippi
H uman
f illed
Ġp uls
im port
Ġch ord
ĠTh under
ach i
ĠPl ant
Ġlink ing
Ġann ually
Ġpred ec
Ġjud ging
ih ad
Ġscar ce
Ġware house
Ġskept ical
ad ata
ĠB anks
ast ics
Ġsp ider
iss ance
Ġdiscuss es
ĠPolit ics
onom ous
J on
m ont
t or
Ġp H
im g
ce ans
ĠS amsung
ĠA V
ĠA part
Ġso cks
Ġobs erving
ĠCo hen
Ġreb uild
Ġthank ful
Ġconsult ant
Ġfro st
ĠIndust ry
Ġspat ial
ĠUnivers al
Ġanalys es
Ġs ulf
ar in
Ġe ats
ad ise
Ġwh it
ĠB R
ĠP ra
Ġk g
our t
Ġbl at
Ġpres idency
Ġ7 4
Ġel bow
Ġpat hetic
uls ive
ĠGal axy
ĠOk lahoma
Ġzomb ie
ĠChall enge
U K
ig hing
ig ating
ĠS oph
Ġsu e
ĠL inks
Ġbr ide
Ġgl owing
Spe aking
Ġgall ery
Ġdisg usting
icular ly
w al
ic us
Ġl ur
ol ith
ĠB ureau
Ġsign aling
Ġcred entials
Ġcolor ful
Ġrev ision
pre m
ĠUp date
Ġborrow ed
Ġfright ening
F ollowing
e le
it em
ĠD ub
Ġdom inate
On line
ĠRom ans
ĠEv olution
Ġstim ulation
ĠStr ateg
Ġcompre hend
Ġcher ry
Ġsup reme
Â «
Ġt iles
or o
Ġh ike
Ġh ockey
ĠH ood
ah l
Ġdisc ourse
Ġimport ed
go vernment
head s
Ġcondition ing
Ġpal ace
ĠStr ong
Ġrum ors
Ġmos qu
dep th
D aniel
ĠS ud
out ube
Ġun ch
ody nam
Ġi Tunes
Ġstory line
ĠCons ult
ĠSam uel
Get ty
Ġhighlight ed
ĠAgain st
Ġconj unction
p i
Ġ iv
om on
ĠW ii
ĠH at
Ġal ot
ĠĠĠĠĠĠĠĠ ĠĠĠĠĠ
cl ipse
Ġmodel ing
ĠDem on
Ġnegative ly
ett a
Ġcoord inates
Ġmas cul
Ġincom plete
S everal
Ġto ps
em in
Ġen compass
Ġmon key
Ġexam ining
âĢ¦ ..
Ġphys icians
Ġhop eless
su its
Ġinte ger
Ġrelie ved
Ġpecul iar
A G
C urrent
F in
L ocation
× Ķ
Ġb ikes
ĠS uddenly
ĠA IDS
ul us
ĠB ud
Ġaccess ed
ĠPol ish
Ġshout ing
ĠPop ular
Ġantib iotics
Ġswall ow
l ate
o an
Ġd ots
Ġn aming
ĠL ore
ĠL ex
aw r
Ġsci ences
Ġbal ancing
ĠRec ord
inn amon
Fr ank
Ġmel ted
ĠCommun ist
Ġillness es
Ġelev ator
A f
C ong
L ab
m ult
w estern
Ġc er
ĠP ink
ĠY ellow
ock et
Ġend orse
Ġsystem atic
Ġ9 11
Ġhy pe
Ġill ustration
Ġlaugh s
ĠBudd hist
Ġsuscept ible
C ard
g ling
i u
m ight
n ik
Ù ģ
in come
Ġo ste
Ġh ollow
om orph
Ġe g
ĠS add
ch y
ĠB ed
ĠH end
ĠL LC
Ġsc ra
oss ip
str ate
ĠApp lication
Ġstat ue
Ġsubject ed
ĠPer ry
ĠKe ith
Ġcris p
Ġconfig ure
ĠEconom ics
Ġdess ert
N orth
S uch
T urn
Ġw ow
ou ver
Ġp ity
Ġp ics
ĠC ars
ri ans
th ose
ĠL OL
ĠL aden
ans hip
oy s
Ġserv ant
St and
Ġobs ess
Ġoffer ings
Ġsil ently
Ġsuff ers
Pl us
Rec omm
Ġpean ut
B rit
Å į
Ġg inger
ĠT ue
ĠM ong
Ġse ized
Ġout lined
ĠJ ump
ib les
be h
Ġcommun ist
Ġlog ging
Ġarch ae
ĠStud ent
Ġcrowd s
Ġ197 9
ĠSing le
Ġprompt ed
Ġneuro log
Ġtempt ed
Ġcompat ibility
c ott
Ġp ython
Ġin adequ
Ġle nding
ĠF ear
Ġdr ift
ĠÂ ·
Ġir regular
Ġtrou bled
Ġtom ato
Ġhun ter
Ġproceed ings
Ġstorm s
Ġconfident ial
ĠClear ly
Ġcommod ity
Ġt read
Ġre dd
ĠT on
Ġide ological
ĠLet ter
han cing
Ġemphas ize
Ġtact ic
Ob viously
bet ween
G H
H ot
T L
n c
at re
ĠC osm
ĠM ik
ant o
Ġab usive
Ġjust ification
ĠK le
Ġhel met
Ġ7 3
ats on
ĠLe gal
Al tern
Ġjud ged
Ġspir al
Ġshot gun
Ġprem ature
Ġvalid ation
Sp ace
IG HT
Ġgentle man
ĠKnow ledge
L aw
m any
er ally
Ġb ible
Ġp umps
il ight
ĠM ol
ĠW ire
ĠG R
Ġus ername
ĠO liver
Ġbl ah
lic ations
Ġsl ope
Ġcur rencies
Ġcard iovascular
Ġobs ession
Ġcontrib utes
Pre vious
Ġprohib ited
Ġtransf ers
Ġstub born
D ave
N eed
ment al
ĠN ancy
Ġsm ok
Ġbur nt
IT H
Ġcelebr ating
ĠPet e
ĊĊĠĠĠĠĠĠĠĠĠĠĠĠĠĠĠĠ ĠĠĠĠĠĠĠĠĠĠĠĠ
ĠProduct s
Ġenvelop e
ore sc
qu er
ĠU ber
ang a
Ġgl imp
oll o
Ġhon our
Ġproceed ed
Ġbub bles
Ġhes itate
Ġreluct ant
ĠExec utive
Ġglimp se
A ir
P I
nd um
Ġf ade
Ġth irst
Ġph ases
ug in
Ġpop ul
cl osure
Ġnews letter
play ing
Ġguess ed
Ġcat ches
AC T
Rec ently
ĠKn owing
F ood
V ol
a cious
Ġt am
er ness
Ġl ust
ĠC OM
ĠB oe
ĠP ir
th s
Ġup stairs
end group
Ġback ward
be ging
ĠSh ar
br al
Ġexerc ising
ĠPal ace
ĠVol ume
Ġgam ers
Ġmurd ers
ĠExpl ain
ĠCreat ive
beging roup
l ay
Ġa ids
Ġw ield
Ġout ward
ĠTh r
Ġback page
ert o
Ġev olving
ĠInd ividual
Ġactiv ist
Ġteach ings
Ġdisp osal
ĠSl uts
ĠDec lan
osh op
Ġboss es
ĠMult i
D NA
J ew
n om
Ġm aid
ĠM ine
ĠM oses
ĠL uther
ci ble
Ġfl ush
Ġref lex
fe eding
Ġred irect
Qu ick
ĠProf essional
Ġwrit ings
Ġwhist le
H and
p aper
Ã ª
æ Ĺ
Ġp osed
ĊĊ ÂłÂłÂł
ĠB Y
Ġfin ite
uck ing
Ġgl ue
att ed
Ġstory telling
eral d
Un like
Ġchair man
uten ant
Ġvibr ant
indu ced
Person al
ĠQual ity
' :
S outh
m em
as per
ri en
Ġhas s
Ġcont empt
ĠV ice
Ġra ck
Ġpat rol
Ġbas eline
ott a
Ġaccess ories
Ġrele vance
Ġbal let
Up date
Ġcompens ate
Ġcosm ic
Ġgravit ational
M om
p ayer
w p
act ers
Ġqu o
Ġcur ves
Ġpos es
sc ill
Ġpu ppy
Ġguarant ees
Ġsan ct
Ġpharm aceut
à¥ į
Ġfib ers
en ment
al am
ĠC opyright
ĠR ound
ĠO tt
ac s
ĠSt ream
Ġsl am
ĠDo ing
Ġcompan ions
Ġcop ied
Ġtast y
Ġanaly sts
ĠSen ior
ĠTrans port
ĠMor ning
Ġtur key
Ġbacter ial
Ġparagraph s
Ġglob ally
Ġch ore
ĠSt ring
ov id
ef in
Ġinteract ing
Ġaim ing
Ġdeliber ate
Ġpix el
W ant
n umber
om nia
Ġan gels
ĠP ad
ist ered
un less
ĠR oth
ĠG and
Ġint ensive
Ġ8 3
ĠSh a
Ġorgan izational
Re ally
Ġbrows ers
Ġveter ans
A cc
P ass
T ag
d ot
ph ants
rop hy
Ġdr ums
Ġviol ations
Ġforeign ers
. *
ri ad
Ġpe as
Ġreal ities
Ġtrans plant
Ġmus cular
Ġparticip ated
mod ern
Ġcounterpart s
Ġ __
Ġa unt
al ism
Ġse min
all ic
Ġbl ades
Ġ8 4
Ġcertain ty
Ġyell ing
Ġatmosp heric
ĠSci ences
ĠTenn essee
? âĢĻ
Ġt ile
Ġg i
ĠS or
ĠC oc
Ġne x
ĠR ole
ap olis
uff s
Ġimpact ed
Ġmat hem
Ġlisten er
Ġtrain er
ĠØ ¨
Ġpossess ed
ĠBudd h
ĠSad ly
ĠCirc uit
ĠFoot ball
B E
os lav
ĠWe bsite
ĠBe ijing
Ġexpect s
ĠCal cul
Ġupd ating
Ġple as
Ġpsych ic
Ġsympt om
ĊĠĠĠĠĠĠĠĠ ĠĠĠĠĠĠĠ
Ġsem ester
ĠAdv anced
ĠPriv ate
c ause
l ings
p ract
ĠS ally
ĠC ou
Ġall ergy
ial is
Ġback yard
Ġche w
arr ay
Ġsal aries
Ġ13 0
Ġgod dess
à¤ ¾
ĠDep ression
Any one
Ġcert ification
Ġmad ness
Ġiniti atives
ĠMarsh all
C OM
N OT
om i
st ation
Ġre he
Ġso cket
Ġun av
Ġapp ar
Ġdef ects
Ġret ention
Ġfound ing
Ġfre el
oun ge
ĠMed iterranean
Ġsport ing
ĠBern ie
ĠðŁ ĻĤ
D am
Ġc ripp
ul er
ĠD elta
ĠR ate
ĠG ov
ere k
Ġun real
Ġgr ants
Ġsat urated
iny l
Ġround ed
prof ile
Ġadministr ator
Ġexch anges
ĠIss ue
" ),
ĠP un
ear ly
Ġpa used
ĠMe aning
Ġjud icial
Ġpark ed
Ġhom emade
Ġattend ance
ii i
ĠDen ver
Ġmetab olic
ĠPri ze
Ġaccus ations
Ġrecip ient
Ġhelicop ter
& #
, [
f alls
w ait
it an
Ġb acon
us c
ov ation
ne a
ict ures
Ġmod ification
Ġdiv ing
Ġ198 3
yl an
cont ent
Ġunw illing
ĠFood s
Ġfemin ist
Ġles bian
Ġdipl omatic
l ance
ĠT u
Ġu b
Ġal ley
Ġch unks
Ġli king
com ed
Ġrecord ings
Ġaccept s
Ġcat alog
ĠHar per
Ph ot
ett le
ĠMiss ouri
ĠVict or
Ġimper ative
connect ed
Ġnarc iss
! '
C lear
d oc
Ġm use
ic iency
il ateral
ĠD NS
ĠN BC
ĠO t
pl it
Ġsc rub
ock er
Ġinf amous
ĠSh i
Ġvis ually
De velop
ĠPal in
new s
Ġintention al
Ġgenet ically
Ġtraff icking
M att
Ġs omeday
ent ry
ĠS ize
ĠJ ed
Ġmed ian
Ġcle arer
ash ville
Ġvis ibility
ĠCl imate
Ġorgan ism
Ġposition ed
sequ ently
ĠGl ass
Ġcelebr ities
c ity
Ġthe or
Ġf aded
Ġg ren
et ooth
ĠM ut
Ġab oard
ĠN ort
Ġup wards
Ġpat ents
Ġsell ers
Ġanaly st
ĠMet al
Ġrenew able
V M
p oon
ĠD ust
ĠG T
Ġpl ausible
Ġag gression
Ġrel ent
Ġsub set
Ġhy dr
ĠAd vert
Ġmis ery
Ġreact or
ĠBen efits
Ġrul er
ĠScott ish
Ġcoord ination
ĠLiber ty
Ġscan ning
ĠLouis iana
ĠVill age
ĠMerc ury
H ard
l it
im edia
ĠB ir
Ġk ings
ĠF acts
ĠSt yle
Ġmon itors
ortun e
Ġfore most
Ġdam ned
Ġpick up
Ġmeaning less
Ġwild ly
ĠAM D
Tr ue
Ġoptim ize
Ġdies el
uis ine
ĠBalt imore
S M
ĠY ug
Ġsl ap
Ġ[ ]
Ġdr astically
Ġtem p
for cing
ĠEurope ans
Ġmir rors
Ġinstruct or
ocy tes
ĠVen us
Ġanch or
B usiness
P et
á »
he im
Ġst umbled
ĠS end
ĠP E
um at
iz a
ign ant
Ġbl adder
Ġstra nd
ĠMe chan
Ġstri pped
Ġconcept ual
Ġjo ins
Ġneighborhood s
alg ia
Ġkilomet ers
L ine
S ex
u ating
Ġb ats
Ġd ancers
Ġh ast
im ental
Ġse as
Ġal phabet
ĠO ptions
eng u
Ġsever ity
Ġcomb ines
Ġauthor ized
Ġlower ing
Ġmat urity
Ġnote book
Ġflu ids
Ġterr ific
Ġiron ic
Ġpoly mer
ĠCath olics
Bel ow
Ġank le
Ġbrid ges
L ocal
N one
r ative
ld om
Ġst yl
ĠC arm
ĠP ie
ĠP ok
Ġr ider
Ġle thal
Ġpl ural
Ġwr ink
Ġind igenous
Ġdist raction
Ġpass ages
Ġquestion able
Ġident ities
Ġimag inary
Ġtim er
Ġpref ix
ĠMess age
Ġtempor al
S ep
Ġf ills
ĠT ommy
ĠR ail
Ġcomp ile
ĠV erm
Ġprob able
Ġbad ge
Ġsound track
het ical
ĠComm ander
Ġmail ing
c urrent
al pha
Ġin expensive
Ġl ame
Ġr ushing
Ġdis reg
Ġgr ill
sel s
Ġdoes nt
Ġ7 9
Ġaccount ability
Ġsn apped
ĠSc reen
Ġport rait
Ġep it
Ġinvestig ators
Ġhell o
Ġmagn ific
rim p
Ġconver ting
Americ a
ĠFrank lin
Ġsustain ability
ĠList en
GB T
Ġpour ing
Ġcraw l
ÂĢ Â
Ã ¥
Ð ¼
å ¤
Ġb un
Ġp ains
ĠI Q
ĠG L
ĠY ahoo
Ġag gress
Ġdon or
Ġro de
Ġ8 6
Ġsuper visor
ask et
bl ue
Ġsun ny
Ġlear nt
Ġir rational
Ġbattle field
ĠBob by
Ġforb idden
Ġsho ots
ïĤ Ĺ
Ġunpredict able
l ower
Ġa kin
au er
Ġcl o
Ġpr iced
Ġsm ugg
stand ard
oun ter
Ġrecommend s
Ġast hma
ĠDel hi
Ġsuck ing
Ġcoord inate
ĠEffect s
Ġspokes man
o W
u ble
ĊĊ ÂłÂł
ĠD aw
os ion
Ġcl ut
oc ide
we ed
Ġatt ain
Ġpres erved
Ġsk irt
ien cies
Ġcreat ors
Ġbreak through
ĠAb u
Res earch
\ )
f re
Ġh ints
ill o
Ġv ow
ind a
Ġno ises
ix el
Ġpop ped
Ġprogram mers
Ġspecial ists
Ġenjoy ment
ero ids
Ġharm on
Ġpill ow
Ġrevers ed
b rand
c orn
r iction
Ġh alt
Ġn inet
ĠC urt
Ġcon gest
ĠF O
ans w
ens en
Ġspe cially
Ġdep icted
Ġdefin itive
IM E
Ġillustr ated
ĠFed eration
Q ue
k it
n n
ar ah
ĠI R
Ġg ospel
ĠM ist
ĠP s
Ġsu ic
ci le
Ġtw ent
ĠV ision
ec hes
Ġcomb ust
de pendent
ateg ories
Ġdry ing
Ġexhib ition
Ġabund ant
Ġtel esc
Ġappl iances
à ¦
ic ut
am bers
ov o
Ġco herent
Ġins ufficient
Ġsum s
anc ouver
ĠPort land
Ġdece ased
Pol ice
Ġdeclar ation
" ><
S L
S cient
s un
å ħ
ĠH ills
el and
ĠF u
Ġsu ite
Ġad vers
Ġcomp ute
ĠCh icken
Ġra ped
Ġref in
Ġide als
Ġcand le
mpt oms
Ġprint s
Ġbelong ed
ĠKen ya
ĠColl ins
Wind ows
B ra
T alk
d et
ow ell
il ia
ĠB aker
ĠF unction
Ġvers a
Ġhy gien
Ġdefin ite
umb ing
Ġpaper work
ĠTy pically
Ġparad ox
ĠJam ie
Ġempir ical
Ġcongr at
C y
J apan
S an
Ġin acc
Ġh over
Ġbe an
ĠW u
ĠW ays
Ġint oler
Ġdis able
Ġspecific ations
ĠFr ame
oun ces
Ġpsych iat
Cl oud
Pop ular
Ġarth ritis
unci ation
Ġafore mentioned
e ffic
ĠV ent
Ġes p
Ġelect rons
let t
Ġver ification
Ġunc ont
Ġcommer ce
Ġdetect ive
Ġrub bing
Ġrevel ation
Word Press
" ...
U ntil
ä ½
Ġ í
Ġw ander
al m
ĠS i
Ġover load
Ġrec alled
Ġdeal ers
ograp her
B esides
d ream
Ġa we
Ġd od
ĠA RE
ide os
ĠJ oh
Ġun im
Ġdisc oura
Ġform ulas
Ġprot otype
orth y
ran ium
Ġreprodu ctive
Ġrepet itive
å ı
in ence
ĠA id
Ġcr ashing
Ġcar b
Ġgl orious
ĊĊĠĠĠĠĠĠĠĠ ĠĠĠĠĠĠĠ
Ġminor ities
Ġdisappoint ing
bet a
Ġjer k
Ġparad igm
vit ra
Ġprolong ed
l at
} $
Ġ Ä
ar u
ĠA K
ĠM all
Ġr ant
ment ation
ĠN uclear
ĠK an
Ġexp orts
Ġdisc overs
Ġconst itute
pro bably
Ġprofess ors
Ar ch
Ġremain der
ĠPC s
ĠRob inson
ĠOpt im
Ġcryptocur rency
S U
Ġp unk
ig a
ch at
ĠM ode
ĠE P
ud ed
Ġag ile
vel ength
Ġback pack
Ġrem inis
Ġend urance
Ġass hole
ustom ed
Ġparent ing
Ġtravel ers
cell ence
Ġtransl ates
Ġveget arian
po ons
bet ter
Ġreprodu ce
Ġsne ak
Ġwarrant y
ĠMove ment
M em
] :
b ags
re ally
on er
Ġw izard
ĠB in
Ġcan ada
ĠIn form
ĠK urd
Ġtra ces
Ġinv iting
Ġinform ative
Ġpat ron
Ġtreat y
Add itionally
Ġquarter back
ĠDev il
ĠRab bi
Ġrebell ion
ĠBarb ara
P ay
Ñ Į
le en
Ġk o
Ġup right
ĠK yle
Ġnew born
ony ms
Ġsitu ated
Al ice
Ġfire arms
ĠGr iff
Ġsil k
udd y
ĠAdd ress
Ġmel ody
Ġorient ed
ĠNob el
sen al
Ge orge
Ġrecyc led
Ġmant le
. (
G F
S n
a ic
n ings
Ġ ____
Ġa u
Ġb ounce
ĠM Y
Ġinter mediate
Ġmar athon
ER Y
Ġworth less
Ġexc luded
ĠCont inue
rol ogy
Ġimpl ant
Ġ198 1
Ġconfront ed
Ġmarg ins
ìĿ ´
Ġsevent h
ĠâĨ Ĵ
Ġw it
Ġon set
ĠS ue
ĠC ape
Ġgo bl
ĠN ixon
Ġoff spring
vel t
Ġeven ly
Ġdown side
Ġcar bs
Ġexp osing
Ġdet er
com merce
Ġdist ortion
amp a
yn asty
Ġdest iny
Ġhack ers
Ġfulf illed
ĠBudd ha
Ġadvis or
ĠRon ald
Ġembra ced
Jes us
ĠLinked In
s qu
Ġt ant
Ġg ru
Ġyou tube
ĠD iscuss
ĠJ oin
Ġ[ -]
ann ers
Ġve ins
An n
Ġwar riors
Ġeng lish
Ġcontract or
Ġsam pling
Ġcritic ized
M iss
c ur
p ire
y et
Ġa h
Ġst ems
ĠD ak
ĠF light
Ġrun ners
Ġform ally
ĠPh arm
ĠAust ria
coh olic
Ġsynt hes
ĠCamp bell
ĠDiv ine
ĠPhys ical
inst all
g ive
Ġm uc
ut er
ĠB oss
ĠN PC
ĠL ion
we g
ĠRe id
Ġ7 1
Ġ8 2
Ġproject ion
ĠSc ar
Ġmot ions
Ġrecogn ise
Ġreb el
ĠDet ails
Ġknock ing
ĠSure ly
ĠSn ap
Ġstake holders
Ġerect ile
Ġzomb ies
S W
re lla
Ġo ath
Ġc ement
Ġe h
Ġe ll
se nd
ĠS EC
Ġcan vas
ĠD ance
Ġv intage
ĠG am
Ġper ceptions
Ġunder water
Ġexpl oded
ĠOb amacare
Ġcapt uring
AA AA
ĠTerm s
Ġintu ition
F act
J ournal
L ittle
T T
l iness
in f
Ġs rc
Ġd ur
ĠS ull
ĠC hat
ĠC offee
ĠR av
Ġj elly
Ġrun ner
âĢ¦ ]
Ġnorm s
verse ly
ĠMe et
sec ure
Ġund erest
Ġhyp not
Ġdecre asing
Ġment or
ĠDen mark
ĠPoint s
ĠNev ada
n osis
Ġan omaly
ĠH unt
ĠF er
Ġtr ay
Ġun in
Ġsp ices
Ġdig its
200 2
Ġreflect ing
Ġmicro phone
Ġrot ating
Ġnic otine
Ġvulner ability
Ġswall owed
N ovember
m uch
it ored
al an
ar g
Ġl amb
ĊĊ ĊĊĠĠĠ
ard on
Ġcl usters
ep r
Ġsp ill
Ġphys ic
Ġresearch ing
Ġcas inos
Ġidi ots
M ap
l ene
â ĸ
is ers
Ġst all
ĠC AN
Ġcon ventions
Ġpre view
ĠV PN
Ġconf ess
Ġhold er
aff e
Is rael
ĠPart ners
ĠLike wise
Ġassign ments
Ġsubsc ribe
Ġrecru iting
ĠAbs olutely
ĠEdd ie
w ick
Ġme g
ĠO d
Ġen cyclopedia
Ġwork outs
Ġinter section
bo at
Ġcard iac
Ġswe ep
Ġconcept ion
Ġscream s
. ?
E ss
M ad
t ax
Ġp ave
Ġit er
ĠS ens
ĠA th
Ġan ts
Ġcan cers
ĠG ent
Ġout break
Ġz ip
ĠSc ore
Ġsuper f
ĠPh ilos
Ġrecogn izing
ĠThanks giving
Cont inue
Ġpump ing
greg ation
Ġfest iv
ĠTit an
M aking
on z
Ġl oot
ĠC hel
Ġde af
ĠL ower
Ġover he
Ġafter math
Ġcr ashes
ĠOr d
Ġmot ives
Ġlif es
ĠHar vey
ĠTest ing
Ġassemb led
Ġritual s
bour ne
Ġprox imity
Ġcaut ious
ĠPitts burgh
T itle
r ator
Â Ĵ
Ġo mn
ic i
ut able
ĠA ren
ĠB udget
ĠE ight
Ġint ro
Ġac oustic
ĠInd ependent
Ġhope ful
Pr ot
Ġfasc inated
Ġtang ible
s ay
ort ions
Ġint ens
ag ar
ĠJ up
ĠK it
ount ain
ĠCh an
Ġfound ations
Ġhy ster
ox y
Ġshoot er
ĠCor p
Ġarr ows
Ġroot ed
bel ief
Ġdiscl osure
ĠNic ole
Ġrefrig erator
ĠMuh ammad
en ch
al one
ld a
ĠS alt
Ġch im
Ġun related
Ġconf ined
ann on
Ex per
Ġassess ed
ĠProf ile
ĠLib ya
Ġgrin ned
m illion
z ero
Ġp enny
Ġp df
âĢ ²
Ġwor m
ĠU C
Ġgood bye
Ġtra ps
Ġsl owing
uff ed
Ġpublic ations
Ġoper a
Ġsum mit
Ġviol ated
Ġtend ed
AR D
Ġseason al
ĠRed dit
Pro ject
level and
Ġreward ed
u ations
ĠA G
ol an
ĠF ab
ĠL ag
ĠE L
ĠE b
ĠJ et
ick ets
ok ia
Ġpublic ity
Ġmot if
sp ot
Ġselect ive
Ġlisten ers
Ġmut ations
Ġfant as
ĠInter view
Des ign
ĠBoy s
Ġspons ored
Ġbod ily
H ope
it ars
ĠI E
ĠF isher
ĠAr ctic
AT H
Ġcompet itor
chie f
Ġsun set
ĠEvery body
Ġpen cil
ĠComp anies
ĠBre xit
ĊĠĠĠĠĠĠĠĠĠĠĠĠĠĠĠĠ ĠĠ
Ġmal ware
Ġlapt ops
ĠOl ivia
ĠPing back
Ġ ________
Ġw ishing
Ġd urable
Ġg it
ĠD rop
Ġv est
ĠN OW
ĠK or
Ġpass port
ĠSe ems
Ġlock ing
Pl an
Ġprem ises
Ġlic enses
Ġwrest ling
Ġfeather s
Hist ory
ĠLeban on
M a
R O
at ches
Ġb ac
Ġn erd
ĊĊ ĠĠ
Ġpro se
res a
ear chers
Ġun cover
Ġswe eping
Ġintrodu ces
OR T
Add itional
M I
Ġc ass
ĠM aine
ĠP icture
Ġex terior
um ed
iv able
Ġgr as
ident ally
Ġinf ilt
Ġdr ank
Ġrev is
Ġdel ays
Pro v
ĠPsych ology
Q U
e pt
ĠS ie
Ġnot ification
th anks
qu et
os i
ĠK ra
Ġrec y
Ġmag nes
Ġsqu ares
Ġbroad ly
Ġbudget s
Ġcompar isons
Ġwel comed
Spe cial
Ġdivid ing
Ġcounsel ing
Ġrefere ndum
] )
y nt
Ġs v
âĢ ³
ĠT error
qu estion
ĠR isk
ĠV irtual
ien na
Ġcollect ively
IT Y
Some one
Ġrat ios
ĠCr own
Ġvalid ity
Ġdiagn ostic
whe el
Ġcyl inder
Ġdile mma
M el
S end
T aking
Ġre de
ĠC re
ab lo
Ġen large
Ġun acceptable
Ġpr aying
Ġpol es
ĠBr ig
Ġland lord
Ġgrand parents
Qu ery
Pr ice
Ġprosec utor
ĠStan ley
F amily
a urs
p ent
ĠI gn
ĠS ara
Ġr ay
ĠD h
Ġover th
Ġbl ues
Ġbelie vers
Ġ8 9
Ġprocess ors
Ã© mon
ĠAir port
Ġtow ers
ĠEnter tainment
Def in
vas ive
ing o
Ġn ort
ĠT err
Ġsp it
ĠV A
Ġthr illed
ĠWe ap
Ġexpl ode
oose velt
ĠSl ow
ĠLog an
Ġfab ulous
Ġobst acle
Ġgrat itude
a ires
Ġt ed
Ġc ush
Ġd ancer
rom agnetic
ĠJ enny
ub ric
ush i
Ġpot assium
Ġformer ly
Ġconsist ed
Ġ198 2
Ġtransport ed
ĠRel igion
Ġnause a
T em
n u
Ï ĥ
Ġs om
ĠM I
Ġde ment
ab lish
os ures
Ġli vest
ĠN L
Ġimp ed
Ġev angel
Ġins ists
Ġext r
ĠFor ces
work ers
app er
ett es
ĠSer ge
Or der
ĠLiber al
ĠTurn er
occ up
F re
S ay
w orm
ro be
ĊĊ ĠĠĠĠ
Ġpro l
ĠTh inking
sc he
Ġ14 0
Ġcrit ically
ĠResp onse
ĠPent agon
M o
Ġp est
ĠF ly
Ġadd icted
ef ined
Ġhard core
Ġsing les
Ġsal vation
Ġident ifies
Ġsimilar ity
Ġharm less
she ll
Ġdomin ance
Ġastron aut
Ġhomosexual ity
Ġvib ration
Ġstun ned
A W
Ġo ceans
ĠC rypt
ĠH ud
ĠCh ile
ne um
Ġbu ys
iss ue
Ġpost ers
Ġbit es
Ġmar riages
ĠOr ange
Ġvers es
Ġsort ed
ĠWar ner
Le vel
Ġadminist ered
ij i
Ġvast ly
ĠHeat hendel
ĠPriv acy
Ġin ert
le m
ĠI l
Ġhe el
Ġcon cess
Ġse ated
ĠH ab
Ġsu ed
Ġfil med
Ġap ology
Ġpay roll
Ġfree zer
Ġste ering
ĠUs ers
ĠiP od
ĠUr ban
Ġeru pt
Ġbicy cle
K ING
Ġ ï¬ģ
Ġm i
Ġth ighs
et ics
Ġv ain
ĠR unning
Ġar che
ven ant
Ġprogram mer
Ġslow ed
Ġ197 4
Ġtrib ute
Ġindu ce
Ġoverl ap
ĠPhill ips
F ive
M obile
P o
R s
á ½
pe lled
ĠP red
ĠF uzzy
ĠL iked
ĠL GBT
Ġam mo
ĠAl ber
Ġtruth s
Ġshell s
lif eration
List en
Ġcompr ised
Î »
× ¨
Ġt sp
re ational
an other
Ġto mb
Ġth ief
Ġha w
est eem
Ġdo ck
Ġkn ight
oc he
Ġbl unt
Ġdec imal
olog ic
Ġ[ [
rop ic
eng ine
Ġadjust ing
ĠSee ing
ĠUnder standing
ĠHy dro
Ġmyth s
Ġshr ink
ĠCru z
Ġpractition ers
ĠFRE E
k u
Ġf itted
Ġin justice
Ġas y
ill ary
Ġse ct
ĠL td
Ġsp ike
orn s
Ġlim b
ĠCan ad
aut o
Ġcirc uits
Ġextra ction
ĠUs ed
Ġund es
Ġded ication
ĠMem ory
Ġtermin ology
C apt
b rain
v ideo
Ñ ı
id get
ĠP resent
Ġbl aming
Ġown ing
Ġcamp ing
Ġterr itories
Ġbon uses
ĠMur phy
A ng
f ill
ĠS V
ĠF resh
Ġcomp oser
Ġqu art
Ġsp ice
Ġfact ories
Ġmod ifications
Ġ9 3
Ġz e
Ġspread s
Ġ196 8
ĠSur v
Ġsubt ract
ĠFin ance
Ind eed
T erm
e a
Ġn ar
Ġhe n
ĠB I
Ġpe nding
Ġcor ps
cl usion
ĠCl ay
ĠMar io
Ġ* *
Ġmultip ly
Ġautom obile
Ġevalu ating
Ġ196 9
ĠSand y
Ġirrit ation
ĠLuc as
Ġlend ers
ĠBelg ium
M G
Ġb olt
or um
Ġm uff
op ed
Ġex cerpt
ĠD iscussion
os able
ĠE SP
ĠTh ing
ĠK ath
Ġpo inter
Ġimp air
ced es
Ġfix es
Ø§ ÙĨ
ĠReg ister
Ġimmigr ant
Ġcompe lled
Ġfemin ine
Ġenerg ies
Ġborr owing
ĠAdvent ure
J P
R ock
Ø Ń
re ach
Ġn our
ĠT iger
ro ot
ĠG A
ang les
ĠV i
Ġacc ustomed
cl usive
12 5
Ġstat ute
Ġpred ators
urch ase
Ġrid ers
Ġrob bery
Ġhabit at
ras ound
ĠFa ith
H C
c reate
ĠH air
ĠU m
Ġno od
ĠK aren
ax ies
Ġmon itored
Ġdr ought
Ġcal orie
Ġarm ies
Ġfold ed
Ġstir ring
Ġpist ol
art en
Ġgr inding
Ġsc aling
ov able
Ġgu ild
Ġsl uts
ank a
Ġext ensively
Ġexam s
Ġconf use
Ġfilm ing
ĠApp s
AC E
Ġcapital ist
ĊĠĠĠĠĠĠĠĠĠĠĠĠĠĠĠĠ ĠĠĠĠĠĠ
Ġtwe ets
Ġb ake
Ġj ourn
ĠN HL
Ġher d
ĠK ick
Ġob ey
Ġhard ship
ĠCom par
Ġfire f
amm ers
Ġforg iveness
Ġinstruct ed
Ġliqu or
Ġextract ed
Ġflood ing
ĠAsh ley
ĠUlt imately
Ġencrypt ed
Ġscrut iny
K now
N ov
P E
S em
ĠS hen
Ġnot icing
us ers
Ġch ords
ĠF ew
iz en
Ġret ained
ret urn
Ġtrack ed
ĠAg ent
ĠSte am
ĠÃ ł
Ġhorr ific
sm ith
Ġiniti ated
Ġvig il
B ro
E nt
r ina
Ä «
st atic
ab i
ĠE t
cept ive
Ġcar ved
Ġdr ones
Ġevent ual
ox ide
itor ial
Ġstri ps
ĠMon itor
ĠJes se
Ġtables poons
Ġimper fect
ĠCamp aign
Ġdiscount s
Feb ruary
ĠRespons es
O p
Ġdo omed
ĠD rew
ĠF ail
ens ation
Ġsl ammed
Ġmon ument
Ġperform ers
Ġvari ants
Ġbar gain
fl ower
Ġforget ting
Ġlegit im
Ġstead ily
Cross Ref
b ug
g ra
g ov
Ċ ĠĠĠĠĠĠĠĠĠĠĠĠĠĠĠĠĠĠĠĠĠĠĠĠĠĠĠĠĠĠĠĠ
Ġb a
ĠI con
Ġst ark
Ġbr oth
Ġreg ain
Ġdi arr
Ġsn iff
sp ir
AS H
Ġsick ness
ĠJul ia
Ġradical s
Ġdistingu ished
Ġathe ist
ĠPalestin ians
ĠConserv ative
ĠIsa ac
Ġvom iting
S ystem
d isc
l ot
Ġt ier
Ġc ries
is fact
ad os
ĠW atson
Ġr ang
ĠR ush
og ging
ins ula
Ġdra gging
ĠLe gend
Ġdiv isions
ĠCont ract
ĠRec ently
Ġshut down
Ġpig s
Ġdict ators
ĠRog ers
Ġlou der
awr uss
l ab
o ften
in se
en ame
le ased
Ġre nown
ĠA gr
ĠB ot
Ġse ldom
Ġle isure
Ġdis ruption
Ġspe ar
ne x
Ġfo il
Ġdisc ern
com mon
oll en
Ġintern ationally
ĠGr owth
Ġones elf
Ġviol ate
mm etry
Ġslight est
ris k
Ġhur ricane
Ġappoint ments
[ /
ic ans
Ġan ec
ĠC bd
Ġde ple
Ġat ro
Ġle aks
Ġafter ward
Ġsupp lier
Ġinf ants
Ġgra bs
Ġimag in
af ia
ĠGl ad
Ġdisplay ing
ĠPark er
Ġtun ing
Ġspr int
ĠThought s
Ġconsec utive
F riend
e ur
Ġex cel
ĠD raw
Ġout dated
Ġdis respect
Ġdon ors
Ġind ie
Ġrest oration
ĠAr ist
Ġteam mates
Ġground ed
Ġaddition ally
Ġdoub led
ĠComp et
Ġtrib al
ĠProp het
ĠGP U
Ġcance lled
Ġvolunt ary
Ġfeas ible
V e
an ol
ĠT B
ĠY oga
ps hire
Ġbook ing
Ġbre eds
Ġpop ulated
Ġrese ar
Ġland sc
Ġsn akes
Ġsn ipp
itch ing
Ġri vals
reng th
Ġver dict
Ġdecl ining
she et
ĠQue bec
ĠEve lyn
ĠUb untu
Ġmagnes ium
F inal
Ġ ....
ĠD rag
ĠL if
og ical
ĠY am
Ġlight weight
ĠPro s
Ġmom s
ĠÂ «
Ġhero in
Ġ197 3
ĠBen jamin
ĠStr ategy
Ġdump ed
Ġslic es
D irect
E V
S ite
S ervice
m il
Ġh ats
Ġst eroids
Ġwe ld
ĠB UT
ang led
In vest
Ġap pend
Ġbus es
ĠWh ole
pro gram
Ġphys iological
Ġsuper st
ĠHis pan
af i
ĠArch itect
ĠBi ology
bul let
ĠJere my
v iol
ĠC elt
Ġcan s
ĠR T
Ġqu ir
ang ular
Ġam use
Ġfl ux
Ġreg istry
Ġsur plus
ax is
Ġhead phones
Ġinform al
ĠSh aw
Ġmean while
ĠCom ing
rop he
Ġwa velength
Ġeconom ically
Ġattack er
Ch oose
Ġtast ed
Ġsmart phones
ĠCommun ication
Ġstro kes
Will iam
Ġmit ochond
Ġaccum ulated
d iff
d raw
m and
v or
Ġc ube
ack er
ub a
Ġind efin
Ġmark ers
rop olitan
ik er
Ġ16 0
ĠAp ache
Ġhack ing
Ġincl usive
p ages
Ġg a
Ġst arring
ch anging
ĠH orse
Ġsh ark
out ed
ĠR ah
Ġso b
Ġdis m
Ġsur pass
ott le
Ġaut umn
Ġinit iate
Ġur ged
Ġtum ors
grad uate
Ġpseud o
g ages
Ġb out
am ation
ir ling
ĠM i
ĠB ert
ĠD addy
ĠY a
ĠK on
Ġfl ashing
Ġstand point
Ġair ports
oint ed
ĠGet ty
cont rolled
Ġgrab bing
Ġoccup y
Ġdivide nd
Mus ic
Ġrecruit ment
Ġaggreg ate
Ġaddict ive
Ġdement ia
R ating
Ġin box
Ġr uth
pl oad
Ġen rich
ach t
Ġro ok
we alth
Ġ8 1
ex e
ĠMy st
Ġsocial ism
Ġknowledge able
Ġord in
ĠSpe aking
Ġlic ensing
Ġillustr ates
Ġinstrument al
Ġscholars hip
atern ity
orig inal
Micro soft
Ġto ast
ow der
ĠS ri
ĠA U
ĠM akes
ĠThe rapy
ĠW oo
ab etic
ĠK el
Ġbr ass
Ġdef ended
Ġinter ventions
St ay
Ġele ven
Ġdevelopment al
Ġdom est
Ġcommercial s
ĠSub ject
ĠHol ocaust
Ġspons or
M aster
g raph
it ous
es ian
Ġp enn
ĠA A
ĠB le
ĠR alph
Ġcl one
Ġimp art
Ġdiff ers
Ġsince re
Ġsw ords
ĠPro blems
Ġve in
de al
Ġpack ets
ĠMe g
Ġclos ure
ï¿½ ï¿½
Blog ger
ĠNep al
e b
h ouses
in fo
at he
Ġp estic
Ġor th
ĠF inn
ĠL I
ĠO ri
per ature
Ġno on
Ġev apor
me an
ĠFire fox
ĠCub an
Ġconstit utes
Ġmatt ress
H O
M ic
s kin
Ġch orus
ĠR uth
Ġli able
ĠE instein
act ivity
Ġad orable
Ġcur t
Ġconf erences
ĠMy SQL
Ġmor ally
Ġsched ules
ĠYOU R
Ġarrog ant
ĠDiam ond
b ucks
Ñ ĭ
on ent
le ys
se ver
ol ation
ĠM ak
per haps
... ]
Ġ4 01
Ġref usal
ĠAl z
uk a
Ġmob il
Ġ197 2
Ġ197 5
Ġ197 8
HE HE
ĠJess ica
Ġgard ens
f ig
ad vert
ĠL an
ac et
Ġen vision
ish i
ĠShe l
Ġview point
ĠQu ite
Ġdig estion
ĠCont rib
Ġcous ins
ĠSpecific ally
ĠEVER Y
epend ence
M er
S al
ant om
Ġli b
ĠN est
ĠN aturally
ĠG N
Ġsa us
reat h
Ġrun time
pr ints
ĠBl air
Ġpain ts
Ġmur m
ĊĊĊĊĊĊĊĊ ĊĊĊĊĊĊĊĊ
mun ition
Ġrecon c
Ġinflamm atory
ì Ĺ
Ġm und
om ical
ĠC arr
ĠR oosevelt
pl er
av al
Ġmin isters
ĠBr ing
ĠCol omb
Ġrecogn izes
Ġmechan ic
Yes terday
Ġdisp utes
Ġshut tle
ĠEv ents
Ġunem ployed
Ġdistur bed
G irl
e j
s ometimes
Ġo scill
Ġe cc
Ġan onym
per fect
Ġstud ios
Ġref err
Ġlaw suits
Ġobject ion
Ġsurpr ises
Ġlif el
Ġemb ark
ĠExper t
Ġprivile ges
ĠConnect icut
Ġnit rogen
ĠPortug al
Ġobl iv
ĠSadd am
B it
m ble
v ine
om o
ĠS it
ĠM ental
art icle
ĠF ine
ĠJ ama
ĠK ara
Ġunder wear
Ġsec urities
Ġ8 7
Ġdep uty
Ġrout ines
Ġnation wide
Am ong
hh hh
ĠWood s
Ġmerch and
Ġbureau cr
Ġincap able
/ .
T re
t xt
Â Ŀ
Ċ ÂłÂłÂłÂł
Ġnot orious
Ġcom bo
ĠH az
Ġpe nd
Ġco ating
Ġreg en
Ġpar ade
ĠIm prove
Ġparticip ant
Ġcontext s
Ġcircumst ance
Ġcolon ies
ĠLi u
Ġpersu ade
Ġnucle us
ĠBeaut y
ĠHig her
ocaly pse
role um
ĠYug oslav
L ight
R T
c ool
c ross
t itle
v ings
Ġre per
ĠB ee
ĠG em
ci o
ang s
ĠV C
ĠV el
Ġquest s
ah o
Ġdev ote
Or gan
Ġanticip ation
Ġaccum ulation
ĠParent s
ĠEnh ance
C ook
C redit
E arly
L in
b ows
d ue
× ľ
Ġp ads
ĠL OVE
au f
Ġwhere by
ian e
Ġob ese
Ġdifferent iate
med ia
Ġaccess ing
Ġsort ing
Ex p
Ġcalcul ating
ĠAp ollo
ĠHy per
Res p
Ġpump kin
Ġanticip ate
Ġscreens hot
Ġadequ ately
avor ite
Ġgreet ed
Ġvag ina
Ġenthusi astic
Ġnick name
ĠArgent ina
ĠMorm on
W est
re ase
it ates
Ġb iting
Ġn ig
Ġbe gging
ĠR SS
Ġher bal
hes ive
Ġpop s
Ġmarket ers
Ġhold ers
Ġmot ive
ĠInst all
Cont ent
hemat ics
win ning
ĠNE VER
iche ver
B ase
M ary
m itt
ou ched
ĠA ld
ĠC leveland
ĠM M
od er
Ġbl iss
li ber
Ġskin ny
Ġmanip ulated
Ġsched uling
respons ible
c ook
i ating
Ä ĩ
im ination
ill es
th reat
Ġcan al
out e
all ow
ĠL az
ĠO g
ĠY emen
Ġsc oop
ĠV ar
Ġfin es
Ġinf ra
ĠSh ah
Ġlim itation
Ġdream ing
Ab stract
Ġvalid ate
ixt ures
Ġspr ink
Ġlit igation
Ġod or
ĠEnvironment al
Ġunderm ine
Ġshar ply
Ġantioxid ants
9 00
V I
ir teen
od ied
Ġen forced
Ġfl ock
Ġright ly
Ġinv ari
Ġmet adata
ster dam
Ġneg lected
Ġrespect s
ades h
Ġut ilities
Ġclick s
Ġacqu iring
Ġflav our
Ġinnov ations
ĠCommun ications
Ġremark ably
Ġnom inated
Ġcow ard
Ġassert ion
D ue
d oll
s erver
Ġd an
Ġst ing
ĠH ait
Ġpl ots
Ġmy riad
Ġwho lly
ĠV I
Ġvari ance
Ġobs erver
Ġdraw ings
Ġtour s
def ault
ĠCy ber
ĠAuthor ity
Comm on
ĠFour th
Ġbund le
ëĭ ¤
H H
L ive
re x
Ġc bd
ĠB og
ĠO wen
ount y
Ġlaw makers
aj a
Ġopp ression
sh ort
Ġlo ops
Ġste ak
Ġtransl ations
Ġ` `
Ġreprodu ction
Ġdelight ed
B uild
N N
R est
T ech
m oon
v ic
Ġs her
ĠC ir
qu ote
Ġv oy
Ġsupp orter
Ġsw ings
ĠEx actly
ĠMin i
Ġplant ing
ĠSpe aker
Ġclick ed
Ġid le
De ath
Rep ly
atell ites
Ġprivile ged
PubMed Google
grad ation
Ġslic ed
3 50
I ll
p c
t imes
er vers
Ġc uisine
Ġhe mp
am eless
ĠA ur
ĠB att
Ġse w
ĠThe atre
ĠP le
ĠE A
âĢĿ ).
Ġgu itars
Ġcor pse
Ġdr illing
Ġbra ke
Ġconnect ivity
ops is
ĠSur vey
Ġacceler ate
Ġrecover ing
Ġcul pr
ĠStan ford
C ategory
g rand
in als
Ġc ite
et on
Ġpro state
ĠL P
ĠK arl
hy dro
pro ved
ĠFl u
Ġri ot
Ġhus bands
ĠTH IS
Ġvill ains
Ġconstruct ive
Ġtort ured
Bas ically
Ġsubscrib ers
Ġvegg ies
C urrently
E uropean
b ear
r ots
Â ½
Ġs ings
Ġw ool
as ia
Ġl ob
ver ts
ĠM T
ĠP owers
ĠR um
Ġun con
ict ing
oy le
Ġinter cept
Ġgl ands
Ġtri o
Ġ9 4
Ġmind ed
Ġimpro per
Ġexc lude
16 0
Ġcontract ors
Ġfra gments
ugg age
Ġdrag ons
Ġinnoc ence
ĠSol utions
Ġpra ised
Ġub iqu
f ed
j ar
l ift
Ġs orrow
se xual
il ogy
Ġde eds
Ġnot ifications
qu in
ĠG y
ĠG aza
Ġra z
ĠSh ot
Ġrecogn ised
Ġfra gr
Ġge ography
Ġ197 6
ĠBern ard
ĠProv ide
mmet ric
ĠHoll and
Ġdivor ced
L ow
g one
k t
Ġc ues
ur ry
ra ged
Ġk arma
du ino
Ġam munition
Ġimp ulse
Ġsub ord
ys on
com ments
Ġtax payer
Ġsuper market
Ġqual ifications
Ġadop ting
Ġmort al
Ġmal icious
Ġmerch ants
Ġartif acts
! ?
a ism
n uts
r ates
on ial
ĠS ak
ĠS onic
ob o
ĠV ancouver
ish a
ĠBut ler
hys ics
ĠCar bon
Ex ternal
ĠCr iminal
Ġlivest ock
Ġm esh
Ġwh ip
ul atory
ĠR io
ĠG ore
Ġapp ra
Ġrel ied
Ġcr ank
Ġche wing
ĠAn a
ok a
St ation
Ġlack ed
Ph il
yl um
Ġradio active
Ġdress es
Ġtheat ers
AV E
Ġsovere ign
infl amm
ustral ia
C ase
h oles
q us
en ne
ĠT rip
ro ads
ĠS ter
ĠM ack
Ġr im
ĠK in
Ġpre lim
ob ody
ĠQ aeda
Ġtrad er
ĠAb d
sp oken
Ġcoll agen
Ġdream ed
Bl ood
ĠAv ailable
Ġrub bed
olec ular
Ġtor que
Orig inal
? ),
e lection
o i
u art
Ġc ensus
it ially
Ġd ia
Ġth ru
Ġg reens
ĠS id
ĠS ugar
ĠA wards
ĠW itch
ag in
form s
li ance
ĠRe ason
Ġtrans cend
Ġwar r
ĠAm azing
Ġple asing
ica id
ĠAnge ls
Ġneighb oring
Ġfur ious
ĠFel ix
Ġanec d
c ils
z el
Ġf ren
ver ages
ĠC BS
ĠB ast
ĠD ell
ĠD ylan
Ġany ways
Ġrec urring
Ġph on
Ġmin s
Ġ9 1
Ġrest riction
Ġcapt ures
ĠGl enn
ĠMon ster
Ġencourage ment
ĠSat urn
Ġgate way
Ġgre edy
Ġaccompan ying
Ġtempt ation
Val ue
Y ear
is se
Ġbe aches
ĠT ig
ĠA W
ĠM oving
ĠH arm
ĠH off
Ġwork load
Ġpo op
Ġdifferent iation
not hing
ĠAll ow
co ll
pro ject
Ġsqu e
ĠGen eration
Ġinterpret ations
.' '
Ġ196 7
Ġdiss ent
M il
en es
ĠE lement
Ġam end
Ġco il
Ġthr ill
hes es
ric a
Ġca us
app le
Ġspecific ation
Ġsoci o
Ġx xx
Is lam
Ġut er
Ġcrack ing
bu ilt
Ġpropri etary
Ġintrins ic
P owered
Ġs ie
Ġb apt
Ġf ret
Ġm p
Ġh iking
Ġe Bay
Ġg ee
Ġbe ard
ĠP ull
Ġ( +
Ġgo v
Ġrec ount
Ġcur b
fe ed
Ġvol atile
ĠGr ad
ĠGu est
Ġble ed
ĠRich ards
Ġpool s
Ġfulf illing
Ġcann on
ĠIndust rial
hd ad
Ġinadequ ate
k ens
m ode
s in
in qu
an im
Ġst agn
ĠB uzz
ĠB uffy
op hers
ĠP am
pp ery
ĠTh read
Ġimp at
Ġcr ushing
Ġgl and
Ġbeh old
me al
Ġz inc
AT A
AR S
do ing
Ġsimpl ify
Ġmyth ology
ĠIce land
ĠHum ans
Ġshru gged
ĠArn old
: )
A ge
N OW
Ġw ines
Ġst akes
Ġex empl
ne xt
Ġrepl icate
Ġfoot print
Ġsoci etal
AS S
Ġbright ness
Ġdiss olved
ĠUnder stand
def ined
Ġcere mon
Ġghost s
Ġhypert ension
' ;
C ode
D ark
i eth
m oney
p ired
at um
Ġm ph
Ġd addy
Ġe b
ĠThe m
ĠD ogs
ĠL OT
ine a
Ġcomp ressed
ĠU h
any a
ĠSh iro
âĢ¦ "
rop ract
Ġtem plates
ĠDem ocracy
amb oo
ĠDis co
Ġswing ing
Custom er
Ġnas al
Ġmagnific ent
c hen
p hew
v id
w ire
Ġbe asts
ur ations
ĠL ets
Ġref resh
ĠSp ark
Ġfre aking
Ġvol atility
set t
Sc ott
Ġspl itting
eff ect
Ad v
Ġcryst als
ĠLeg isl
Ġpupp et
Ġindirect ly
Ġic ons
( \
C at
E ffect
K im
L ead
l iter
n els
r m
he e
Ġd ye
Ġbe ers
ĊĊ ÂłÂłÂłÂłÂłÂłÂł
ĠB apt
ĠD atabase
ud ing
ĠU nd
Ġdis abilities
Ġrec reational
ĠPro du
Ġrese mble
Ġdepend ence
Ġcomfort ably
Ġquant itative
Ġ197 7
Ġlegisl ature
ĠVis it
ĠExpl orer
Ġmast urb
Ġprejud ice
Ġhass le
Ġpharmaceut ical
F ar
S ize
f ar
it ations
Ġp agan
ĠP H
ink y
Ġcont ing
ĠV eter
Ġcred ited
Ġbur d
Ġcock tail
Ġcraft ed
Ġende av
C ra
n orm
Ì ¶
× Ĳ
Ġc innamon
Ġg le
Ġhe ater
ĠK os
ons ored
Ġob ed
Ġfin ishes
Ġhum id
ĠCom plex
Ġkind ly
arth y
Ġcand les
Ġ197 1
char acter
ĠWhe el
ĠMem orial
Ġfet ch
Ġupgr ades
Ġwholes ale
Ġw olves
Ġf uss
ĠC reek
ĠB enn
ĠP i
Ġso ber
ĠN okia
iv o
cc oli
Ġsc ans
ĠRe lease
Ġeconom ists
ĠEd wards
osh i
Ġdiam onds
Ġcha otic
Ġembarrass ment
anth a
Ġsubsid ies
Ġcombust ion
n ational
Ġw ary
Ġl akes
et o
ĠH oney
Ġpl ague
ag les
Ġtr an
ous ed
og ens
Ġun ified
Ġ12 8
Ġ18 00
Ġaut onomous
Ġrot ate
Ġmel od
ĠAss ad
ĠAtt ack
HA HA
Ġgest ures
Ġbrow se
) $
J ac
T ur
z illa
ust ainable
Ġle gends
Ġli ar
av i
gr own
Ġinv asive
Ġpop ping
Ġdem ol
Ġprogram med
Ġmen stru
Ġcra ppy
Ġple a
ĠCo ach
IC K
ĠAss ess
ĠWr ong
Ġkiss es
Ġpoison ing
prising ly
ĠMarg aret
B aby
R a
Ġs ights
ed ged
Ġe co
ch t
op athy
ist ani
ĠF itz
ear th
Ġdis asters
ren ched
Ġbra kes
ĊĊĊĊ ĊĊĊĊĊ
ĠNo ah
ĠEx ercise
Ġtre k
min ent
Ġ: (
Re quest
Ġdistrib utions
ĠJul ie
Ġgradu ates
Ġcollabor ative
Ġcrypt o
Ġpurs ued
Ġcondem ned
b ank
i pper
l asses
Ġc iting
it ant
ar an
Ġg arn
ĠM end
ĠP ills
ĠD A
Ġle x
ĠN G
ĠSt age
ĠBut ton
Ġday light
Ġcar cin
Ġtest ified
Ġcost umes
Ġpa ired
ĠCo al
Ġremind ing
Ġspot light
Ġhun ters
Ġrenew ed
Ġinstinct s
ĠBeh ind
ĠJup iter
M essage
T Y
b f
r ating
Ġc ores
ĠT ag
ĠW ade
us en
ĠD ennis
ĠO m
ry s
ĠV M
gg er
Ġmark ing
Ġcurrent s
atic an
Ġmer its
Ġnumer ical
Ġimpress ions
Ġtail ored
Lear ning
last ing
ĠCha os
Ġspont aneous
E LL
Ġb ully
or ne
Ġan omal
ĠB rew
us able
Ġall ocation
itt ees
Ġsw ell
Ġcountry side
Ġbal d
het ics
spe cial
Ġstret ches
ĠArch ive
ĠCharl otte
Ġtu ition
ĠIss ues
ĠTob ias
} \
Ï Ģ
al ong
Ġal gae
Ġj ava
ĠE yes
ty pes
Ġchar ism
Ġinter course
Ġvis ions
Ġorgan ised
ĠAd obe
Al most
Ġconv ictions
ĠWell s
Ġwild erness
Ġadvert ise
Ġgradu ation
ĠBrazil ian
ĠValent ine
P ath
S yn
e ach
w ild
Ġt urt
Ġt ensions
Ġm ism
ĠW orth
iz oph
Ġspe eches
Ġco h
Ġinv aded
ĠCom pl
ĠNet works
Ġec ological
Ġgig antic
ĠRand om
Ġconfront ation
ĠAff airs
Ġepid emic
Ġcatast rophic
Rich ard
E ver
H ouse
J ose
Ġ 000
in ar
ĠC F
ĠM awruss
ans om
Ġad here
Ġpe ar
Ġhand ing
Ġins ign
irl ines
Ġspace craft
Ġenc oding
ĠGr ound
Ġcard board
ĠAg reement
ĠWr iter
Ġgal axies
ĠChampions hip
N AS
P H
h all
u ced
á º
Ġand roid
ĠW alking
Ġne phew
ab ol
em et
ĠD D
Ġsh attered
Ġk er
ĠE agle
ĠJ a
ans on
Ġcl oses
Ġtra ject
Ġcar p
Ġext inction
ĠCom b
Ġcustom ized
Ġmiss es
Ġtem ples
Ġdeb it
Ġbar g
gu y
ĠMel issa
Ġfright ened
Met hod
Ġric her
Ġconqu er
ĠImp act
ĠLic ense
D an
D iff
g am
Ġo ak
ou lt
Ġg ossip
op ian
ĠF alls
Ġj oking
ĠE PA
Ġ3 000
Ġro ster
Ġdirect ing
ĠEd en
Ġlif ts
ĠRec omm
Ġmort gages
pat ient
Ġsnap shot
Ġvague ly
is ol
Ġd ens
Ġg uts
ĊĊ ÂłÂłÂłÂłÂłÂłÂłÂłÂłÂłÂł
ĠP oke
Ġgo at
ĠF emale
ĠL l
ĠY og
ĠCh ocolate
ues e
Ġmed al
Ġclear ance
Ġmut ation
Ġannoy ance
Ġpin ch
ĠFre qu
Ġelev ation
Ġgall ons
Ġmoist ur
Sm all
ÑĢ Ð°
Ġsandw iches
psy ch
Ġdisadvant age
H en
Ġb ounds
ing es
Ġm s
ĠF ix
ĠL ily
form er
Ġplay offs
be gin
ok i
Ġparent al
ĠMc L
ĠPlay ers
Ġexplo itation
Ġtherap ies
Ġbarrel s
ĠAnton io
? </
c op
l ittle
l abel
ke es
ĠM ig
Ġsp un
ĠRe ality
Ġel imination
Ġdi ary
Ġele phants
Ġris en
Ġdeterm in
Ġmouth s
Ġcontinu ity
ĠÐ ²
Ġexception ally
ĠMult iple
ĠBag hdad
ĠVas an
Ġremed ies
Ġp ins
Ġh ott
Ġl ime
se in
ad h
ĠA ven
ĠC ream
Ġcont amination
Ġmet res
Ġdisc rete
Ġspecific s
Ġacqu aint
ĠBro oks
Up dated
ĠON LY
Ġmit igate
ĠConsider ing
ĠStat istics
ĠAnaly tics
Ġeyebr ows
H op
k ov
Ġo re
Ġd ar
Ġl ubric
ot rans
Ġk its
Ġen hancing
Ġpe el
ĠĠĠĠĠĠĠĠ ĠĠ
Ġreg ression
Ġapplic ants
af ood
Ã© e
EN D
ĠChe ney
Sub ject
Ġincons istent
Ġrenown ed
izoph ren
A ccess
C ON
P DF
Ã ¸
Î ¼
Ġ ie
Ġh id
ĠT ask
ĠS ell
ill ery
Ġr ash
Ġinc omes
Ġhum ili
Ġadv ancing
Ġdu o
Ġdict ate
Ġrehab ilitation
ĠSuz anne
ĠCanad ians
C oll
{ {
he rence
Ġn ude
ĠB ug
ĠV ERY
Ġtra ils
ĠRe ci
It em
be e
uc ing
erv ices
gen cies
Ġrock ets
Ġbill ing
US A
Ġassess ing
ĠFil ip
ĠUlt imate
Ġmerc ury
ĠBry an
ĠMarc us
ĠSett ings
in fect
en ergy
ĠT ak
Ġst agger
ĠS om
ri o
Ġpro liferation
Ġr att
ĠR ud
ĠR ider
ĠE S
Ġen roll
ĠK il
Ġgen res
Ġrep s
Ġmin es
Ġbo iled
Ġspecial ty
medi ately
but ton
Ġkid neys
Ġhero ic
Ġnav al
ĠHam pshire
ĠHol mes
Ġinject ed
Ġpuzz les
Ã¼ r
C a
C ity
F rench
H a
Ġt apping
ot ch
us r
ĠH S
ĠN an
Ġper missions
ple ase
Ġplay off
ier ra
Ġpur se
Ġhuman itarian
pro per
de gree
Ġstandard ized
ĠSim pson
ĠDis qus
Ġhistor ian
Ġgraph s
Ġclim ax
App arently
Ġtab s
ãĢ Ĥ
ĠGall ery
Ġcurs ed
ĠDak ota
o os
w olf
en z
Ġin effective
ut ation
Ġan emia
ĠW oW
th inking
Ġv ault
ĠL ate
ĠE ld
our cing
Ġtra umatic
ert ation
Ġcr icket
Ġinst ability
Ġpresent ations
Ġste alth
Ġcollect or
ĠInt o
OC K
gu ided
Ġstupid ity
Ġamb ition
Ġske ptic
Ġupload ed
product ive
ĠScient ists
Ġrehe ars
c up
c rit
d ale
al ways
Ġl anes
ig nt
ig ator
Ġhe ights
Ġde ed
ĠF ac
ĠL amb
iz zy
Ġinto x
ex c
Ġdoub les
Ġstar ters
IS S
Ġer ad
Ġfilter ing
Ġgif ted
Ġrib s
M E
P icture
b ish
f ashion
h ai
ent o
id ate
ĠT W
ro ke
am o
ra z
Ġne o
pp ings
ĠD ash
Ġcomp osite
Ġun ve
ove l
Ġem an
Ġdef enses
Ġel ites
cl ose
Ġsun shine
rest rial
Ġesc aping
ĠDid n
Ġspr ings
ĠMont real
ĠHarr ison
ĠGi ants
Ġovers ight
Ġhygien e
< <
L S
P F
g od
m u
ë Ĭ
ĠS hip
Ġwh im
em y
Ġab bre
Ġj ohn
Ġme ga
ĠL iqu
ĠE TF
ag ne
ĠV lad
ex isting
Ġgra pe
Ġcap ita
Ġbank ers
ĠAdd ed
Ġassist ed
Ġdemonstr ating
Ġcritic ize
ĠSqu ad
Ġconce al
Ġtempt ing
ĠPubl ishing
Ġoun ces
Ġnipp les
Ġsug ars
ĠPok Ã©mon
K ev
on ce
Ġin mates
ĠS eth
ĠL ance
Ġrec alls
erm at
augh s
Ġassoci ates
ĠGree ks
Ġconscious ly
Ġju ven
ĠPlan ning
ĠSU V
Ġdatas et
Ep isode
A round
Ġw iring
at an
Ġbe verages
am ina
ĠW es
ist ol
Ġsp icy
Th ird
Ġdef ect
Ġgl am
Ġca ption
ier y
Ġ15 00
Ġhost age
ĠMor occ
ĠDet erm
aa aa
Ġgentle men
Ġstere otypes
ĠPers ian
ĠMun ich
ĠAlz heimer
B B
R andom
f air
o fficial
p aid
r ase
s cient
w iki
Ġo m
Ġf isher
Ġe ch
st ri
ith ub
ĠH orn
ĠL ux
ook s
ĠCh ance
Ġbr ighter
Ġsm oked
ĠWe ather
Ġend ors
Ġvers atile
Ġcop ying
IN D
ĠApp lications
ĠAnge la
Ġhall uc
ĠLy dia
Ġsquee zed
ĠKind le
count ry
Ġslee ve
ĊĊĠĠĠĠĠĠĠĠĠĠĠĠĠĠĠĠĠĠĠĠĠĠĠĠĠĠĠĠĠĠĠĠĠĠĠĠĠĠĠĠĠĠĠĠĠĠĠĠĠĠĠĠĠĠĠĠĠĠĠĠĠĠĠĠ ĠĠĠĠĠĠĠĠĠĠĠĠĠĠĠĠĠĠĠĠĠĠĠĠĠĠĠĠĠĠĠĠĠĠĠĠĠĠĠĠĠĠĠĠĠĠĠĠĠĠĠĠĠĠĠĠĠĠĠĠĠĠĠĠ
Ġimmort al
Ġilleg ally
" "
A g
v ir
en o
Ġde gr
un cture
ĠG ospel
Ġinc arn
Ġam ple
ĠCh in
Ġtra ction
Ġgen ocide
Ġsystem ic
ĠRe asons
erv ative
Ġmult itude
play ed
ĠGen esis
Ġrout ing
Ġdecl aring
cont in
ĠJud aism
ĠIde as
whe ther
ĠIdent ify
Ġassass ination
W in
m ot
Ġo mega
Ġp rag
Ġm ug
al most
Ġwe ighed
ĠM iles
ĠH mm
ag us
ĠSt ef
Ġ19 00
Ġsec uring
Ġins omnia
uff er
Ġtax ation
ĠSy l
ĠEd gar
Ġconsequ ently
ĠStep han
isco ver
Ġwra pping
Ġhypot hetical
Ġgall on
ĠAD HD
ĠAh mad
Ġpremium s
ĠScient ific
ĠNorm ally
Ġpy ramid
Ġcav ity
Ġber ries
Ġsacrific es
" );
* .
C ost
W ords
h or
l oss
s afe
ĠI RA
ĠM ovies
Ġcon ceived
ĠP ure
Ġal coholic
Ġup hold
Ġpol ished
Ġfound ers
ex ec
Ġve ctors
Ġopt ed
ogn itive
down s
ĠEv ans
ĠLook s
Ġdiagn ose
Ġox ide
Ġrepet ition
ĠFro st
ĠWel sh
G ot
T M
f an
Ù Ĳ
it led
Ġb aff
Ġp ac
ter ror
ĠM add
Ġde gradation
ĠW on
ĠW ing
Ġ1 11
Ġcl aws
ĠK ane
Ġ19 44
sh ots
Ġside walk
Ġdep ressing
het ti
Ġbox ing
Ġthreat ens
ĠPart icip
Ġenter prises
ĠReg ular
Ġ36 5
Ġtact ical
sole te
Ġdict ator
isp here
Ġinherit ance
Ġnex ium
) /
A H
b ast
c irc
Ġ ï
Ġ Ã©
Ġs urn
Ġth ieves
Ġl ac
ĠH ERE
ĠP interest
ĠG E
Th omas
Ġcount ies
Ġdra ined
Ġ12 5
Ġsuper vision
Ġdoor way
Ġrespond ents
99 9
ograph ics
Ġsyn th
Ġproud ly
ĠStart ing
Ġscrew s
Ġaccum ulate
Ġadvertis ement
Ġdisadvant ages
Ġhomeown ers
, ''
h it
l ining
re a
Ġw akes
Ġo t
Ġp ony
Ġl uggage
ad ic
ĠA F
ĠA ch
ĠN ag
so ver
Ġdis ast
Ġpo lling
any on
Ġperiod ic
Ġpsych ologist
ĊĠĠĠĠĠĠĠĠĠĠĠĠĠĠĠĠ ĠĠĠ
Ġsymp ath
Ġmamm als
Priv acy
F ound
S cience
b uck
Â ¢
Ġs ane
Ġp c
ĠB ishop
ĠN ord
00 3
Ġag grav
Ġsub way
ĠAs ide
amp ing
ĠAr g
Ġsw ung
With in
Ġstrange ly
Ġsan ction
ĠTy pes
des ign
izz ard
Ġresc ued
Ġreson ance
Ġaffili ate
Ġartic ulate
ĠVin cent
o il
Ġy ang
ro st
ĠC ant
ĠP eters
ab ad
ĠD ani
Ġte aring
ĠK iss
ĠCh ase
Ġret ros
Ġsk ies
Ġbelie ver
Ġsuccess ion
For got
ĠCol lection
Ġbur ger
Ġten ant
Ġlock er
Ġge ographic
Americ ans
ĠSum mary
Ġbudd ies
ĠBrand on
Ġresemb les
Ġarter ies
# #
S a
S ave
in j
in v
Ġbe nding
ot hel
ĠT ouch
Ġst a
ith m
Ġwith stand
Ġha ha
ĠN PR
ĠL ester
Ġpl um
ud er
ĠJ D
ĠJ ar
Ġsk et
ĠMan ual
Al ways
Ġhuge ly
Ġnarr ator
Ġamb assador
Ġinfect ious
Ġdisappe ars
Ġcorrespond s
Ġdisg ust
Ġstere o
Ġbast ard
Ġtoug her
Ġmaneu ver
ignt y
f light
r unning
u ph
w ich
Ġu ranium
Ġhe ap
ĠA verage
ir ies
ĠP ale
ĠD H
ĠO w
Ġar tery
Ġthere of
Ġpe aks
ĠU l
reat ive
Ġdown stairs
ĠAn gl
icult ural
Ġbegin ners
13 0
miss ible
ĠSy mb
Ġcross es
Ġboard ing
ĠThank fully
Ġstre ak
cript ions
Te am
Ġproport ional
ĠJosh ua
Ġprelim inary
V A
y ers
Ġc d
if ting
Ġgo of
ĠF unny
ĠN am
ĠE state
ĠU pper
Ġmon arch
Un less
Ġmount ing
Ġhur d
Ġphilos opher
list ed
ĠRE ALLY
Ġovert urn
ĠCe lebr
ĠOcc up
Ġoun ce
Ġpudd ing
ĠI oT
ĠS und
ĠC ind
Ġnot ions
Ġthr iller
oh an
ĠBr ight
Ġline up
Ġlearn ers
ĠCon cept
fl oat
Ġur gency
Ġpsych iatric
ĠTra in
Ġspl ash
Com merce
ĠØ ¹
Ġpron ounce
Mod ern
................ ................
ĠDeb t
Ġetern ity
O ften
c ro
s q
Å «
à ¹
Ġ il
re view
Ġs inking
Ġp ent
ĠA the
ĠH oo
ĠR ust
ĠG uru
ous se
ĠJ uan
ĠK um
Ġdon ated
Th read
Ġsl ash
Ġstr ay
Ġfin ale
Ġap ost
Ġcor related
uc le
ane ously
Ġz oo
Ġprotect ions
soci ated
Ġdest ined
Ġred ist
Ġrespons ive
Ġsepar ating
Le ft
Ġver te
zz le
Ġfresh ly
ĠHealth y
Ġgro cer
ĠProper ty
ĠChair man
B P
S ir
re ne
Ġl oser
ĠS ense
ĠC roat
Ġwas t
Ġcon ced
ĠL oad
ĠG os
ĠE lection
Ġcl erk
Ġgu iding
ĠPro ced
most ly
ĠZ hang
put ed
Ġste er
IN T
Ġrepe ats
ĠCor rect
ĠLaw s
ĠCap itol
abl ished
Ġsubur ban
M oney
Ġd arn
ĠT X
im o
ĠM asters
ĠW a
ĠH onestly
Ġj our
ĠJ azz
Ġpres erving
ĠTe en
ĠMan ufact
Ġworksh ops
Ġappar atus
ĠSull ivan
E ar
p osition
in put
Ġbe verage
Ġst ern
ĠS olution
ke ley
ol ia
ĠW end
Ġcomp ares
oc used
tern s
ĠBut ter
Ġfact ions
Ġfriends hips
Ġfav ors
Ġbal ances
Ġchem otherapy
Ġarch ives
Ġunc overed
Pl ayer
ĠClass ic
Mat thew
ĠDoll ar
atto os
F ran
N ice
S ad
Ð ¹
Ġd op
if le
ĠC I
Ġdo om
ĠD ry
ĠR C
Ġall ocated
ĠL E
ĠE N
Ġcomp ost
ĠV atican
Ġconc ise
Ġrest ed
ÂłÂłÂłÂłÂłÂłÂłÂł Âł
ĠSy ndrome
ĠFl ag
Ġfear ful
Ġgrad ual
Ġprofession ally
ĠEr ror
Ġreput able
Ġnegoti ating
ĠUk rain
Ġted ious
A bs
E st
M other
V ict
b ons
w riters
Ġa ven
ĠS IM
ĠD erek
ĠR s
ie ce
ib al
Ġcr us
ĠIm port
unt il
Ġder ive
Ġpoll en
Ġadvance ment
ĠÎ ¼
ĠRead er
ĠVe h
Ġadministr ators
Ġmant ra
b ies
k ar
x iety
Ġa rose
id ation
ĠB ou
ĠB ach
Ġse l
Ġcan ned
Ġsh aping
Ġgo ose
ĠF inding
ĠO dd
Ġpr ud
Ġco oper
ator ies
ape l
Ġpriv ately
aur ant
ĠHar bor
ĠSte in
Ġarr ays
Ġconfir ms
Ġresid ual
Ġbron ze
Ġaster oid
Ġmuse ums
ĠChel sea
E qu
f igure
Â ±
Ġw ired
Ġo lig
Ġm arsh
ic ator
ĠA ges
Ġha unted
ĠM IT
ĠH SS
ĠH onda
Ġsh itty
Ġby te
ick r
omet own
old ing
Ġhum our
ĠSh ield
Ġdist orted
Ġsun screen
Ġri pp
Ġimpl ication
atur ated
Ġamb ul
Ġdiscover ies
Ġconver ts
Ġtox in
Ġproport ions
requ ently
ĠJS ON
ĠToy ota
Ġreserv oir
Ġcontamin ated
Ġperipher al
weg ian
ĠHud son
R P
l ob
Ġb ud
Ġbe ams
ro e
od ium
ĠN umer
Ġkn e
ire n
Ġres in
Ġover time
ord e
Ġpo ke
ĠV ideos
Ġrem ake
up uncture
ĠAl cohol
ĠAl fred
ĠFor ums
ĠLe af
ĠCar rie
Ġengine ered
ĠEv idence
Ġtur bo
ĠPan el
Ġren al
Ġredund ant
F un
F ast
H arry
S elf
Ġs atellites
Ġf ry
Ġm ates
Ġl act
ad in
Ġha ul
ĠF ixed
Ġun success
be cca
cl osed
Ġpain ter
Ġbro kers
Ġsuper b
ĠAm sterdam
Ġsett ling
ĠPresident ial
Ġten ants
Ġaccident al
atin um
Ġtall er
Ġnom inee
Ġlun ar
Ġaccomp any
ï¬ Ģ
ĠWW II
Ġintim acy
ĠPear l
Ġumb rella
isfact ory
J ason
P rom
c ence
c amp
c ases
y eah
Ġ Ñģ
Ġw aving
Ġb unk
Ġex ert
Ġsh rimp
Ġch ak
ĠY ale
Ġimp aired
Ġser um
ange red
Ġperson a
ah ah
fe el
Ġfav ored
Ġri pe
ĠCons umer
ĠÐ ¿
Ġformat ting
ï¬ Ĥ
æĹ ¥
b ps
s an
s ix
Ġp itcher
Ġh atch
ĠR S
ĠF iles
Ġimp uls
ĠV amp
Ġfl ipped
Ġsy nd
Ġass im
com plete
ĠTw in
Ġbrand ing
Ġemer gence
Ġstress es
Sp ot
Ġhall s
Ġpossess ions
EE E
ĠPhot os
ĠNC AA
Ġsubmar ine
Ġlith ium
F eed
O per
h orn
p u
v iate
Ġ );
Ġt iger
Ġg ears
ĠA er
ĠB orn
ĠB omb
ĠL em
Ġun equ
av ier
gr owth
Ġmet allic
Ġmem e
Ġmess ed
Ġbegin ner
umb les
Ġfire arm
Ġhon ored
reg ulated
Ġmotiv ate
Ad vert
Ġuns afe
Ġmath s
Ġcig ar
Ġsignature s
Ġaccommod ation
Under standing
Ġdiarr hea
/ -
c uts
l r
å ®
Ġl ore
ĠC ort
ĠW A
act ing
vers ation
You ng
Ġsw ollen
Ġpri zes
Ġemer ges
Ġund o
Pro per
ĠSun ni
Ġban anas
Ġbag gage
ĠMount ains
Book s
found er
Ġcaps ule
Ġhier arch
ĠMO RE
ĠBlu etooth
ĠAra bs
Ġmerchand ise
F ield
h n
Å ĵ
Ø ´
is al
Ġin ward
Ġin verse
ic able
Ġl ent
ĠT ol
ĠA ve
Ġimp osing
ĠHe avy
Ġrem n
Ġac res
Ġins ulation
atter s
And rew
ĠMed icaid
Ġhistor ians
Ġdownload ing
Ġrul ers
Ġoptim ized
Gen erally
Up on
ĠJo el
Ġirrit ating
Further more
Ġimprison ed
ĠBuddh ism
Ġs unk
Ġb ait
im son
ĠC ards
ri ber
iv ism
Ġoff shore
Ġro pes
ĠCh oice
Ġplay ground
ows er
Ġmod eration
ĠRe ed
Ġ[ âĢ¦]
Ġcomput ational
Ġaccess ibility
Ġprop het
Ġdish onest
Ġcosm etic
ĠCit izens
Ġvib e
Ġtodd ler
emet ery
Ð ´
Ċ ĉ
es que
id ae
Âł ĊĊĠĠĠ
ĠC u
ĠC amb
ill ions
Ġso aked
ĠN ormal
Ġun just
ber ger
Ġper me
ang ling
ĠSt ack
ĠSt alin
Ġco efficient
ĠCh anges
ph is
Ġreg isters
Ġins anity
ĠAn imals
Ġfr amed
ĠSh ut
Ġelect romagnetic
Ġdev iation
ĠEx c
yl on
Ġtun es
ĠOpen URL
Go ing
Ġnegot iation
Ġdivide nds
Ġdiscipl ines
ĠPhot oshop
ĠYu ya
ĠAud io
Ġadvertis ements
Ġprophe cy
pher d
Ġcorrid or
c ustom
p ill
Ġw agon
ĠB ak
ri ly
Ġyour selves
Ġch alk
reat ment
Ġ19 41
Ġche es
Ġide ally
ĠBr ady
Ġentire ty
fl ies
ĠQu iz
cell ular
Ġsubst it
ĠPre vious
ĠHam as
N or
b ath
d ark
Ã ¦
Ġc u
is ite
ĠI g
ut ral
et ra
im on
ĠW is
ance l
Ġem peror
Ġgl or
Ġpast or
ĠSp ock
ĠFl ow
ĠGu ess
Ġhair s
Ġign ores
ĠMin or
Ġsimpl ified
Ġexcl usion
Ġsan ity
Ġrig orous
Ġpreced ent
ĠPu erto
Kev in
Ġn i
ot le
ĠP ere
Ġtw ists
ĠV ienna
Ġtra ced
Ġshow case
Ġbra cket
Ġfore ns
AT CH
Ġrev ised
Ġapart ments
Ġbench mark
ĠOrig inal
Ġneat ly
Ġhypocr isy
Ġsquir rel
R om
U RE
å ľ
st ones
if ty
ĠC ause
ĠM ull
our ge
Ġcomp ilation
Ġun used
Ġno isy
ĠSt ark
Ġback l
red ited
ath om
de ath
Ġdest inations
Ġmer ged
OS S
Ġvill agers
Ġid ol
ĠQue ens
Ġske leton
imm une
Ġdinos aurs
Ġsuperf icial
Ġmund ane
Ġdisast rous
T rad
h art
Ġt its
Ġw aved
is ement
Ġp neum
im ir
ĠC ord
ĠC ategory
th ank
ĠR ails
Ġso fa
ag i
Ġus able
Ġqu itting
Ġsp iders
Ġcur ved
ump ing
ĠSp ort
Ch ildren
Ġmot ors
Ġspeed ing
Ġflu oresc
Ġsen ator
DA Y
ĠAC T
Ġcasual ties
ĠDun can
ĠBrad ley
' ?
re v
Ġs ou
Ġh t
ur ous
ĠA unt
Ġwor ms
ĠK o
Ġbefore hand
rib ute
Ġcor ros
Ġfr owned
10 5
Ġappe ll
ĠPro duction
St ory
ĠMar tha
Ġdepend ency
ĠHer itage
inc lude
Ġliber ation
Ġanaly tical
Ġpup ils
Ġorph an
( ).
L ou
s ided
Ġo wed
Ġm l
il ot
ĠC opy
ĠM ob
ĠB ru
ĠE ating
Ġman ga
Ġyear ly
ĠAs ked
Ġwom b
ern and
br ush
Ġcent r
sh irts
ĠDo ctors
Re v
Ġden omin
Ġdemonstr ations
Ġmut ant
ĠWhere as
ĠCD C
Ġvan ished
ĠAnn ie
Ġtables poon
Ġfold ing
ĠLead ership
ĠUlt ra
Ġpor ch
Ġdash board
Ġaston ishing
Recomm ended
A sh
c ulture
Â £
Ġm ul
ĠT M
Ġst alk
ĠA irlines
ĠD UI
ĠF iction
ord ered
ĠV ers
Ġstart ups
Ġexpl ores
ĠZ omb
__ _
ĠSer b
Ġrequest ing
ogen esis
Ġhook s
ĠFore x
Ġconce aled
ĠAltern atively
Ġmonop oly
Ġreferen ced
ĠCris is
Ġintric ate
inflamm atory
E arth
U r
t al
Ġw ig
ct ica
ĠT ap
ĠT roy
ke ll
ĠM orr
ul ators
Ġrel oad
Ġcar rots
Ġexp ans
Ġcur tain
Ġca fe
Ġinn ate
spe aking
Ġestim ation
Ġven ues
Mus lim
ĠMethod s
Ġexped ition
l ux
t ree
Ġh ull
Ġg ems
Ġre boot
op sy
Ġch urn
Ġso ak
ĠL ocation
Ġpl edge
Ġplace bo
Ġdev otion
12 8
ĠIm ogen
14 0
Ġrock y
Ġaccompl ishment
Ġexcl aimed
ĠLight ning
Ġretail er
Ġspons ors
const itutional
H R
W A
f uck
Ġto pped
Ġon board
im ming
Ġor n
Ġfe ast
ib li
Ġmed s
rop ortion
Ġcop ing
Ġviol ating
Ġtend encies
AR E
udd le
ĠLog ic
Me et
Ġveget ation
rim ental
Ġridic ulously
ĠGal ile
ĊĊĠĠĠĠĠĠĠĠĠĠĠĠĠĠĠĠ ĠĠ
Ġathe ists
Ġexch anged
Ġfut ures
Ġabdom inal
Ġinacc urate
B Y
S us
n og
Ġt ilt
se lect
ĠT yr
Ġst al
ĠS ah
ĠS ora
ĠP G
ĠP ictures
Ġcomp os
ĠCh and
Ġpol ish
Ġgovern ed
Ġdem ise
ĠAt hens
ĠCon sequently
Ġrespect ful
Ġvacc ination
Ġske let
Ġprepar ations
ĠKat ie
ĠLind a
Ġunbelie vable
Ġlegitim acy
Ġs ack
ĠI van
Ġcl a
ĠSt ress
uss ian
ĠPro gress
ĠPl atform
Ġsum m
Ġviol in
Ġrecon struct
Ġcort ex
R on
T B
d ead
l ived
v s
Ã ´
Ġc akes
Ġp ag
th ings
Ġim minent
ĠCh amber
oth s
ex ist
So ft
Ġtyp ed
co ins
Ġrepl ica
Ġda unting
Ġden ies
Ġunique ly
ev il
Ġconfig urations
col m
ĠHome page
Ġadm itting
Ġcomprehens ion
ÃŃ a
ĠCa esar
ĠAw esome
Ġweaken ed
Ġparan oid
Ġcongest ion
D ist
T en
c it
e ither
g led
t aking
Ġat op
Ġsl ows
Ġpres ervation
ĠRe b
br aska
ĠMar ines
Ġfair ness
Ġens l
inter pret
Ġadapt ive
ĠAss istant
Ġrent ed
cel ona
car bon
Ġcere al
ĠWal mart
Ġuniform s
Ġmyster ies
ĠArm strong
ĠGh ana
Ġneglig ence
Ġcyn ical
Ġlect ures
ĠJed i
Ġamuse ment
m ust
ot ics
ĠS MS
ĠC rystal
ĠM illion
ich i
per ate
Ġacc l
ĠSh in
ien ced
Ġaut onomy
aut ions
fl at
ĠSal v
Ġbell s
Ġstack ed
ĠCreat ing
rat ulations
Ġdescend ants
Ġfreed oms
Ġoutrage ous
Ġconsolid ation
ĠProtest ant
A w
M edia
P ot
l aws
s ame
Ġl amps
ig are
ĠS ale
ĠB ass
ĠH ang
ĠN ine
Ġkn ot
Ġun rest
Ġsim ulations
Ġhand ic
Ġsl ack
cle an
icult ure
Ġir res
Ġadvert ised
gl ass
Ġring ing
Wr iting
ĠInvest ment
Ġcoup on
Mart in
ĠGabri el
Ġsmok ers
: -
G erman
m om
s aid
w omen
in ters
or ically
le gal
Ġst ains
Ġan a
ra wn
ĠR osen
ĠF alse
Ġoff enders
Ġbl oss
ĠSt re
Ġsuccess es
Ġtext ures
che z
18 0
Ġbrain w
25 6
ĠMost ly
Ġexec uting
sec ret
asion ally
ĠCour se
Ġrain bow
Ġdim ensional
Ġacceler ated
ĠPalest ine
Ġcommod ities
P an
m ong
y les
Ġhe aled
Ġwe ighing
ĠC os
us k
ĠJ ourney
Ġbr icks
ock ing
Ġfun nel
ĠTr ading
vent h
Ġfoc al
ĠIm portant
ĠPre vention
Ġdefend er
Ġpet ty
Ġmurd erer
Ġdecor ated
Ġdescript ive
Ġcurs or
ĠNorm an
Ġsubur bs
priv ate
ĠGand hi
p resent
Ġ ).
Ġthe orem
Ġo st
Ġto kens
ĠS omal
ĠW R
ĠW alt
ĠP RE
ĠR aw
Ġle aked
ĠG n
Ġhis s
Ġpass ions
ĠMar riage
ĠPr ison
ON G
Se ven
Ġneighb ours
Ġloose ly
Ġdestro ys
Ġdimin ished
Ġunlock ed
Ġseiz ures
Ġtyr anny
I r
d ifferent
Ù ı
Ġg ays
Ġde lt
ant ics
ide press
Ġpe ek
Ġdiff ering
ob a
Ġhel m
li able
Ġchar ities
Ġdet rimental
Ġ9 00
Ġspec s
ret ched
Ġkill ers
ĠSp encer
Ġlater al
cent er
Ġdeep est
ĠMe an
uel ess
Ġult rasound
ĠTra ck
ĠRec ent
ĠBel ieve
Ad am
ĠStep s
Ġju ices
there um
lar ation
ĠCarl os
ãĢ Ģ
Ġfulfill ment
Ġliz ard
Ġdiscont in
) "
D en
D iv
Ġt ad
Ġc erv
it ious
Ġin secure
ĠS we
ĠM aps
ĠB rief
qu ire
ĠR ange
ĠR ank
ĠR az
Ġj apan
ĠJ oker
Ġim balance
Ġcl er
Ġconc ludes
ĠQu est
ĠRec ogn
Ġshut ter
ĠPat ients
Ġplug ins
Ġpreced ing
Ġgri ev
Work ing
Ġsixt y
eterm ined
Ġintest inal
Er ror
B i
F E
W I
l est
Ù Ĵ
Ġa pe
at ism
Ġp as
al ign
Ġe ther
Ġas cend
ĠC ircle
ĠM H
ĠP ig
ĠE ug
Ġpre ach
ĠCh ip
Ġgener ators
Ġ| |
umb ai
ma res
Ġcredit ors
ĠSim s
Ġexpress es
Ġdownload s
ĠHigh way
cor rect
Ġupgr aded
Ġfundament als
Ġcleans ing
Ġresil ience
Ġfestiv als
Ġp es
Ġh ose
Ġl od
Ġre pt
ĠC ult
ĠP izza
Ġsu prem
our ing
ood le
Ġapp la
ĠV ik
Ġtrans gender
Ġdisc arded
Ġimport s
Ch arl
Ġfoot steps
AN S
ID ENT
Ġfell ows
Ġdetect or
Ġvisual s
Ġclin ics
Des cription
mod el
Ġaccomplish ments
ĠInterest ingly
Ġpenet ration
Ġbetray ed
Ġdisconnect ed
H um
L R
R Y
é Ľ
Ġo s
Ġc ath
Ġc unt
Ġf rench
ĠT ip
ĠC raw
Ġr h
Ġex cellence
Ġch ina
ĠF oster
Ġj ets
ĠG und
iv ated
ach a
Ġro gue
ob acter
hy dration
Ġinv ade
Ġdisc rep
Ġconnect or
ĠTe acher
Ġbar bar
Ġesc apes
ĠHy p
Ġchat ting
ĠAT M
Ġincorpor ating
Ġflood ed
bro ken
Ġintrig ued
names e
Ġambig uous
Ġjourn als
Ġt apes
he it
Ġc asc
ĠS I
um en
ĠD anish
pl aced
Ġpart isan
ens on
Ġfl ashes
Ġwhere in
ĠRe uters
Ġbook ed
Ġoutput s
ĠJul iet
Ġfault s
Ġwise ly
ĠRod rig
ĠBM W
- $
at ical
Ġd aring
Ġit eration
ĠS aid
ĠS outheast
ĠC arn
Ġr idge
Ġal erts
ĠR ico
ĠL il
ak in
ĠU P
Ġres olutions
Ġsl ick
Ġgl aci
ĠPl aying
oph obia
Ġpow d
iber n
Ġreact ed
ih il
Ġexplos ions
Ġexhaust ion
Ġexplo ited
Ġstrengthen ing
Ġfract ions
Orig inally
ĠYan kees
ëĭ Ī
Ġreminis cent
% %
f y
l m
Ġthe ology
or b
ĠC reation
ĠB A
ĠB ros
ĠW ine
ĠW izard
ĠP ul
ĠF M
Ġsa iling
Ġun att
ĠYou th
Ġfil tered
Ġgl ut
Ġswe ating
aught y
Ġvent ilation
Ġcollabor ate
Ġrail road
ĠThrough out
Ġtrave lled
ĠDra ke
opath ic
Ġende avor
educ ated
Ġprovin ces
S arah
f aced
Ġ Å
ic ol
Ġst rap
ĠS ites
Ġnot ation
ĠD iana
ĠE arl
Ġpl ugged
Ġsupp ressed
Ġph il
ote chn
land o
work er
ĠSome how
che t
Ġcontrib utors
Ġlat ency
Ġpredict ing
Ġsen iors
Ġlegisl ators
Ed itor
Ġther most
Ġproc ure
acer b
ĠVerm ont
Ġrook ie
? ,
S K
Ġp als
ar us
ĠW ave
Ġpl at
ĠO ption
Ġthere after
Ġcomp artment
Ġsur real
com pl
ĠBr itt
Ġcat al
ĠHar old
Pro gram
Ġge ographical
Ġdisp roportion
Ġplanet ary
erg us
sm art
Ġ; -)
Ġped al
Gl obal
ĠBul gar
ĠBeaut iful
ĠBroad way
Ġdwar f
F uck
I ron
N ick
b ott
g ay
g us
h ash
n est
p aste
v d
Ġc ue
Ġc ured
Ġb ob
Ġth riving
Ġl obb
Ġn ud
ĠC isco
ĠE val
iz ards
Ġpost p
Ġterm ination
erg arten
ĠIS O
Us ually
idel ity
Ġhighlight ing
HT ML
ĠEll en
Ġprost itutes
ĠBaby lon
Ġexpend iture
Ġabdom en
pract ice
Ġresear ched
M ind
} .
or f
ut ory
id ian
Ġst ellar
Ġres ide
ĠSt ick
ĠRe act
Ġmind ful
ĠCl aim
AL E
Be yond
Ġeffic acy
Ġpromot ional
Ġearn est
col ored
bal anced
Ġfault y
Ġcorrespond ence
ĠWH O
( (
3 60
i antly
l anguage
Ġh ue
Ġre ef
ot er
ĠT all
Ġst unt
ĠM ann
ĠB iol
us sels
Ġ( )
Ġal oud
Ġch ambers
ĠL ad
Ġcomp ass
oc re
Ġneed les
ah ren
co al
Ġtre mb
Ch inese
Ġintegr ating
ĠComp are
Ġcas ually
.' "
Ġhol istic
urd y
ĠKeep ing
ĠPak istani
Ġheaven s
Reg ardless
Ġsli pping
Ġshield s
Ġrefuge e
Ġinsult ing
ĠIncre ase
ĠFran co
ĠDI Y
ĠBloom berg
J ob
c ards
f iles
g ard
p us
or ously
im an
Ġsh uff
Ġsh oved
Ġch ased
ĠN y
Ġpl aque
uch a
Ġ$ $
Ġinter change
line ar
Ġgra pes
de ep
Ġbal con
ĠDr ink
Ġsin us
Ġrank ings
ĠJeff rey
Ġunus ually
Ġsovere ignty
Ġpredomin antly
ĠRepe at
Ġmascul ine
G ar
c racy
h l
Ġm asc
ig ated
ĠM AN
ant ically
ĠD in
ĠR ew
Ġres igned
10 9
Ġsal mon
Ġobs ervers
ĠEn ough
ĠDes cribe
Ġstar ving
Pro bably
Ġdisp osable
More over
Ġarchitect ural
ĠDev ice
ĠSky pe
ĠCase y
ĠChem ical
Ġstain less
ĠArk ansas
epr int
C ast
F unction
L ee
e vent
j ournal
t ry
u ber
Ġb um
Ġb iblical
Ġf al
Ġwe eds
ĠC ad
ĠC atherine
Ġk a
ĠG ear
ip ation
Ġro ast
Ġob solete
Ġshow ers
10 4
ĠQ i
iter ate
Ġtext book
Ġsqu ash
bor g
ĠStud ios
edd y
Ġwel coming
ĠCD s
ĠMil an
Ġirrit ated
Ġcruel ty
Ġcultiv ation
Ġparliament ary
Ġoverr ide
B u
D ifferent
p he
w s
Ġwh ipped
ĠW ILL
ĠD uel
ĠR anger
ub s
Ġdown right
ract ed
Ġfact ion
Ġmet ap
ĠRe in
Ġcustom ize
ĠEx pect
ĠRep orts
Ġpack aged
ĠCol in
ĠPer u
OT H
ĠOut side
Ġtransform ing
Ġcream y
def ense
ĠMcC arthy
lyn n
Ġcoc oa
ĠPen is
Ġdescend ed
Ġmemor ial
ĠLyn n
Ġadmin ister
Event ually
Ġlibert arian
D ER
Ġl am
ĠT S
ro ved
ĠD od
ĠN ad
Ġpe ppers
ĠU FO
oc ating
ĠCh ick
Ġsm ashed
get ting
ph oto
ole on
urs or
Ġstat istically
la res
Ġimpl ants
Ġdial ect
Ġthick er
ĠSchool s
ĠSecond ly
ĠSk ills
Ġadvoc acy
Ġdispl aced
Ġmilit ia
ĠLiver pool
Ġinfra red
B rian
D O
L inks
M ember
N obody
S ounds
l ords
ct ory
ĠM ouse
Ġ( *
un it
ĠIn come
Ġgl oom
ĠSh ang
Ġcare g
Ġperiod ically
ĠFe atures
mon ary
Ġcomfort ing
Ġphilos ophers
ey e
ĠMag gie
ĠSol o
Ġadvoc ating
OO K
ĠOper a
ĠBeh avior
Ġcongress ional
Ġkidn apped
need ed
Intern ational
H am
L uke
W AY
Ġb ash
Ġh ometown
Ġl ick
ig ger
ĠA way
ĠB elt
ge ons
ĠH ep
Ġout we
ph i
wh atever
Ġlog istics
Ġdrive way
Ġcart ridge
ogen ous
Ġpref ers
Ġenh ances
Ġpossess es
Ġoblig ed
ĠJun ior
ĠMen u
Ġdraft ed
ĠExt ra
fol k
ĠCreat or
Ġstere oty
ĠIM O
Ġpenet rate
ĠPri est
ĠPubl isher
ĠGib son
Intern et
Ġf ries
Ġf ury
Ġd ances
Ġg h
st arter
ĠS ans
ĠC ats
ĠM t
ĠB order
Ġsh akes
Ġal k
ĠK ap
ual ity
Ġinform s
ĠWh is
ann ie
Ġpar se
ĠMy th
Ġrespect able
Ġgas ped
ĠSS L
ĠRef erence
Ġampl ifier
Bet ter
ĠHus sein
Ġciv ic
Ġration ale
B s
æ ĺ
se par
ĠT ot
ĠG one
ĠE sp
ĠO UT
ĠV ista
Ġlook up
Ġcol oured
ĠZ en
orr h
Ġstat istic
AC H
mark ed
Ġbroad band
Ġprefer ably
ĠCongress ional
Ġtur b
Ġguard ian
ĠTop ics
Ġpoison ous
Ġsed iment
Ġpound ing
ĠNich olas
ĠDisco very
ĠPoke mon
re asing
Ġs ib
ĠS R
ĠM atch
ĠH A
ĠR ivers
Ġme ats
ĠN as
Ġkn ives
Ġsp lend
av in
Ġrec urs
Ġadd itions
Ġmem o
Ġdr astic
Ġcell ul
Ġapplic ant
ĠMe asure
Ġviol ently
Ġbed time
Ġgrad ient
Ġattract ing
Ġer osion
Ġpump ed
ĠDi abetes
aus en
Ġhack er
Ġpron unciation
ĠMont ana
ĠTreat y
ĠBirth day
Ġindo ors
answ ered
Ġnood les
T or
f oo
s il
t arget
Ġd itch
Ġh ides
ll o
Ġhe pat
ol and
ĠF F
Ġbr ushing
Ġchar itable
ah an
Ġsol itary
Ġpur ity
Ġcost ing
Ġeconom ist
Ġfilm makers
Ġcompet itions
Ġagree ing
ĠMon ica
ĠState ment
Ġreflect ive
Ġmotiv ations
asp berry
Ġutil ization
Ġdelight ful
Ġreck less
dra ul
A ud
N F
R o
â ĺ
ç Ķ
Ġa isle
Ġb iod
ĠM RI
ĠB ottom
Ġex acerb
pl ot
Ġbl ond
Ġchar ter
Ġopt imum
Al ong
Ġscen ery
Ġded uction
Ġmut ually
Ġcart oons
ĠRock y
asm ine
Ġfet us
Ġsli ppery
Ġdiscl ose
Ġincons ist
Ġeld ers
4 50
B oy
m ass
è ¿
ì Ĭ
Ġa ired
Ġc ialis
Ġb inge
Ġp onder
Ġdis li
Ġsp ins
ef it
any ahu
Ġpar alle
Ġattack ers
orr or
Ġinstall ment
Ġtast ing
Ġneut r
Sm art
Ġparad ise
Ġnod s
Ġcomplement ary
Ġgast ro
Ġgad gets
C ore
C AR
M ass
g ames
k top
Ë Ī
he he
is ch
Ġth inner
Ġl ure
Ġy o
Ġas hes
ĠH our
ĠP rest
ous ands
act ually
Ġcl ing
Ġman ners
Ġinc idence
ov ic
Ġcomm ittees
Ġmem oir
ĠSh oot
Ġ25 6
Ġcontrib utor
Ġcold er
Ġhor ribly
Un iversity
tr ad
ĠLog in
Ġcommit ments
Ġstim ulating
Ġsch izophren
Ġsin ister
Rep ublic
ĠCra zy
ĠBase ball
ĠPortug uese
Interest ing
ej ano
oult ry
E conom
I ran
L ar
c ock
l ists
m ile
â Ĩ
Ġa il
Ġwh ales
Ġpro active
ĠR M
Ġ2 40
ĠN ode
ĠG oth
ĠE ur
Ġout fits
ac a
Ġem ission
ĠEx cellent
ĠTe h
Ġrad ically
ubl in
AR Y
Ġtrust worthy
OU T
ĠMet a
ĠTrans fer
Ġrub bish
riv ation
ĠMad rid
Ġprosec utors
ĠNon etheless
uzz le
ĠEth i
Ġrecru ited
onel iness
ĠBuff alo
ĠPrep are
Ġgi ants
Ġunreal istic
- "
in ci
at z
Ġl av
Ġas semble
ill as
ĠH U
Ġun a
ĠV L
ib a
gr oups
Ġrep aired
Ġhome land
âĢ¦ )
Ġrest s
Ġlog ically
Ġcy an
Ġseason ed
ĠAdd ing
Ġwilling ly
Ġliqu ids
Ġ196 6
ĠRel ated
Ġwarn s
ĠBer keley
Ġregul ators
Top ic
rec ord
Ġunre asonable
Ġincorrect ly
Id ent
ĠBrun ner
Ġplaint iff
B rad
J S
a q
b ull
d ates
Ġb ury
Ġb umps
Ġg ag
Ġg imm
Ġbe ads
ĠS uff
ess im
ong s
Ġcont ag
Ġinc ub
Ġind ict
Ġdet ain
Ġdet ention
Ġhum orous
Ġcent res
Ġnon profit
ĠRes ource
Ġur l
à¤ °
Ġshut ting
Ġ196 2
ĠÎ ±
Ã¡ n
Ġpil gr
Ġfraud ulent
Ġcryst all
Ġrif les
Stud ents
ĠDefin itely
Ġexagger ated
Ġfel ony
Ġluc rative
P ack
R ather
p ine
æ ĸ
in it
ĠA ce
Ġwe ighs
ĠC anyon
ĠW OR
art ed
oc ative
Ġbl and
Ġam used
Ġcr ises
Ġhand ler
ĠSh awn
ĠGr ade
ha o
Ġir responsible
Ġang ular
Ġthank fully
Ġassess ments
Ġelimin ates
Ġcoord inated
Sim ple
Ġindu ction
ĠEss entially
Ġmerc en
Dig ital
C ertain
F ortunately
b t
Î ²
Ġs aint
ke red
ĠM U
op tion
Ġch oke
ĠF it
Ġad apter
oy a
ject ion
Ġpres idents
ĠDo om
ĠPl ugin
ĠCan on
Ġfire wall
Ġrecogn izable
Ġbur ial
Ġconflict ing
ĠAc cept
Ġarrest s
Ġamb itions
Ġexperiment ing
Ġdecent ral
aren thood
Ġhack ed
ĠCub s
ĠMess ages
ĠBal ance
Ġmigr ate
fil m
Ġencl osed
Ġdeleg ates
Ġsung lasses
Ġabrupt ly
Ġlifes pan
A li
E duc
W E
Î º
æ Ī
in as
Ġis ot
ĠS AT
Âł ĊĊĊ
ĠA us
ĠC inem
est ial
Ġle agues
ĠL ives
Ġcl aw
Ġun ic
Ġunder way
Ġav oc
ĠX ander
ĠAm ber
Ġsqu at
Ġcoun ters
ĠSpe c
friend s
Ġ/> </
ĠWould n
Ġadvis able
Ġembra cing
ĠTibet an
Russ ia
Ġadul thood
ĠESP N
ĠEnhance ment
Ġgrocer ies
P arent
S chool
e ating
i very
l ated
Ġo ve
Ġp ens
Ġof t
Ġl ament
Ġhe red
ĠS word
Ġwh ale
Ġv enge
Ġab uses
ĠR iley
ĠL ith
pl aces
ĠJ P
ĠJ ill
ĠK ai
ĠShe ll
oh a
Ġside ways
oun s
unk y
ĠMus k
ĠTra ce
Ġpun ches
Ġsche ma
ĠStar bucks
Ġprofit ability
Ġspiritual ity
Ġemphas ized
Ġgang s
Ġdistract ions
ĠCorpor ate
Bet ween
w ant
z ip
ĠC lient
Ġse ize
Ġde let
ĠW ash
ĠR an
ĠE pic
Ġcomp ose
ish ly
Ġstr at
Ġsk ipped
Ġ[ ...]
ĠZ ach
ĠCl aud
Ġ12 3
ĠGr an
ĠGr anted
ID E
uk es
AP I
De ep
Ġ196 3
Ġclock s
Ġfool s
ĠAssoci ated
ĠRos a
Ġhorn s
Ġmarch ing
Ġvolunt arily
Ġresign ation
Ġmunicip al
' ]
F inding
L u
d ocument
e val
Ġt ucked
Ġb ouncing
Ġp ots
ent on
ir med
ĠP ill
ĠD ial
Ġsu pers
ĠG ross
Ġen vy
Ġro asted
aw i
Ġsl apped
Ġsk ate
pr us
ron ics
ĠÂł ĊĊ
Ġge ared
Ġpet roleum
Ġeight h
ĠMart ine
Ġ196 5
Ġped iatric
ĠProt ocol
Ġbreast feeding
Ġscan ner
Ġelectro ly
Ġvag inal
Ġadvertis ers
Ġraz or
Ġtraject ory
D M
m und
Ġt ut
Ġt ighter
Ġto re
Ġis nt
Ġst amped
ĠP ine
out ine
ĠR hod
ĠL un
ĠG UI
Ġun for
ĠIn flu
Ġinc umb
ell i
ex ample
Ġsince rely
Ġiss uing
Ġ: -
ĠGr ill
Ġimag ining
rel igious
Ġprogress ed
force ment
idel ine
ĠCustom ers
ä¸ Ģ
Ġdub bed
Count ry
Ġaggress ively
Ð ·
Ġt attoos
in vest
Ġle vitra
ĠE lder
Ġsc ars
ĠCh ang
Ġ19 42
Ġop io
ĠAr men
âĢĶ âĢĶ
ĠAt hen
Ġintern ship
ocr ats
ĠFe eling
Ġcoll ateral
inc inn
ĠIntern al
Ġarm our
Ġdefend ers
Ġdefend ants
Ġsolid arity
Ġhur ried
Ġexperiment ation
Ġblank ets
ĠMel bourne
mo il
Ġpitch ing
ĠPay Pal
Ġvibr ations
Ġrhyth ms
Ġstimul i
Ġtheoret ically
Ġinterpre ter
Ġlos ers
ĠSud an
Jose ph
C e
I mp
\ "
g old
n ode
s ave
è ¯
Ġa ux
Ġs ap
ion a
Ġas ylum
ĠC ovid
ĠH amm
ĠP OS
ĠD j
ib ration
Ġaw aiting
Ġins urg
ĠRe form
Ġgl aring
Ġav iation
not es
Ġimm oral
ĠSw ift
Ġisol ate
Ġmild ly
Ġpersec ution
Ġtelesc ope
C reating
K B
N atural
R unning
U h
l ace
m oving
p ound
Ġth igh
ig uration
ĠD ee
ĠN J
Ġcl ergy
Ġdis l
ĠV it
Ġrec ess
Ġrel ay
old er
gg le
Ġart ific
Ġ10 5
Ġperform er
ĠMar co
Ġwind ing
Ġtext ing
Ġsens ations
Ġesc ort
Ġgrand ma
Ġtour ing
Ġhyp nosis
see ing
spe c
Ġban ning
Ġpal ette
Ġstation ary
lock ed
Ġtun nels
Ġliquid ity
Ġwhis key
Ġbatt ling
ĠLim ited
Ġwand ered
ĠRepl ies
ĠAntar ctica
T ips
j oin
t ell
Ġre use
Ġst amps
ĠB ald
ĠB TW
est ation
ĠJ ur
Ġdis belief
end ant
ord able
ĠV ote
Ġdec isive
ĠRe yn
Ġfil thy
Ġdet on
Ġcommun ism
Ġsal v
Ġproject ions
Ġmag ically
Ġfund raising
Ġprop oses
Ġdoc s
ĠAdd itional
Ġframe works
Ġrot ten
Cont in
ĠAP Is
Ġnav y
ĠJul ian
Ġauthent icity
Ġstab bed
organ ized
Supp ort
================ ================
Ġvolcan ic
C ut
T ex
V D
c ultural
h ak
l ov
u ctions
Ġ ions
er i
Ġm ash
Ġd anced
Ġin aug
ĠB oot
ĠD uck
Ġwhat s
Ġshe ar
ond o
vel ine
Ġpo etic
Ġam en
ĠRe quest
Ġbra ces
not ation
Ġant agon
AN G
Ġrob bed
Qu it
ĠAc id
Ã¡ s
ĠTop ic
Ġnic kel
ĠOper ation
Ġspo il
Ġhaz ards
Ġric hest
every thing
Ġtweet ed
ĠDefin ition
Ġhazard ous
Ġwrink les
? :
G al
S ty
c ities
c ounter
g io
p ositive
in ion
Ġb ounty
en stein
Ġp iles
Ġre charge
Ġre write
Ġk ettle
ĠG ur
ud ic
Ġtr ilogy
Ġun sc
Ġco ated
Ġ19 39
Ġgreat ness
ĠAl b
Ġsing ers
fe it
Ġsuccess or
ĠAm anda
eth ical
Ġcalcul us
Ġalle viate
Ġmir ac
ĠMil k
Ġax e
ĠVict orian
Ġsurf ing
Ġconvenient ly
Ġinfin itely
lif ting
Ġcertific ates
Ġdimin ish
Ġconqu ered
Ġmisunder stood
Ġenact ed
ogene ous
S ound
s ql
re cy
Ġe lic
ĠB less
ore an
Ġr all
Ġsh arks
ĠG ET
oo o
ff ff
ĠY outube
Ġun ite
Ġno v
ĠK itchen
Ġfour teen
ĠAd mir
ĠSc and
ha ired
ĠBar celona
Ġreact ive
Ġcompar ative
Ġmut tered
Ġbond ing
ano ia
def in
Ġcraft s
Ġadvis er
Ġincompet ent
C I
M rs
R ate
S ide
l ass
n as
Ġm alf
ĠT ale
ĠM MO
od ore
Ġcom r
Ġex ile
Ġv inyl
ĠF eng
Ġj ugg
ĠV on
Ġpres ently
Ġhist ories
Ġpar aly
Ġcheck out
for ces
Ġobject ions
Ġdepend encies
AT ED
Ġsett lements
ĠBar on
Not ice
Ġshoot ings
vention al
ĠTry ing
Ġ× Ķ
ĠNor wegian
Ġdistract ing
Ġdefic its
ĠLabor atory
Ġintimid ating
Ġdrown ing
Ġimpat ient
E ric
F oot
H ad
R od
R yan
v ote
Î ·
Ġb ids
Ġm ansion
Ġin efficient
Ġh obb
est hetic
ĠF E
Ġapp rent
Ġunder going
Ġra v
Ġlong ing
ert ility
In fo
Ġmon keys
Ġexp ands
com b
Ġprogram mes
ron es
11 1
Ġcra z
ĠAb ove
Ġri ots
Is n
Am azon
Ġsne e
PD ATE
ĠHug hes
ĠPrem ier
Ġubiqu itous
B attery
L ord
W ashington
c ue
it as
Ġp am
Ġin advert
Ġl b
Ġg rie
ĠA J
ĠN u
ĠG iant
per ing
ĠV ic
Ġwell being
ave z
ĠSp art
Ġbro ccoli
Ġfine ly
bor ough
ĠReg ion
Ġodd ly
Ġbow el
agon al
Ġbless ings
ĠJo an
Ġsuperior ity
t ar
~ ~
Ġf ost
Ġm int
ĠT rial
ĠS erve
Ġse afood
op ause
Ġnot or
ĠW ald
ĠD OM
Ġle aking
ĠJ oint
Ġen v
ap le
Ġsc anned
ath a
Ġpay check
ump y
ĠPro st
Ġant idepress
Ġfilm maker
ĠAd s
Ġbi ases
Ġcool ed
ugg er
Ġ196 4
OW N
Ġtox icity
Ġmyst ical
Ġdepos ited
onge vity
Ġmim ic
Ġanat omy
Ġdisreg ard
Ġlifel ong
Ġstagger ing
I ss
S qu
c row
f ing
j ah
l iving
Ġt art
it ime
Ġm ans
am ount
ĠS au
ĠC li
ab olic
Ġaw a
In side
Ġchar ger
amp oo
ling ton
Ġtax ed
ĠPh ase
bl ank
Ġbi om
Ġtrou bling
Ġquot ing
met hod
Ġdesper ation
ĠSher iff
Ġeager ly
Ġflee ing
Ġinterpre ting
Ġpredec essor
Ġmathem atic
D ead
E asy
r ather
Ġh r
Ġwh ining
ĠH ive
ĠF lex
ĠL ars
Ġun load
Ġdis ks
Ġsp raw
Ġcor al
Ġfam ously
ump ed
sh adow
ĠPro of
Ġpolic ing
Ġenvironment ally
Ġten ure
Ġcircum cision
rem ember
ĠMat rix
ĠTechn ical
Ġnom inal
ĠProgram ming
Ġunexpected ly
Ġstere otype
Ġmetaph ors
Ġblend ed
Ġcompassion ate
Ġgreet ing
Ġmisunder standing
Ġcyl ind
Ġenlight enment
ĊĊĠĠĠĠĠĠĠĠĠĠĠĠĠĠĠĠĠĠĠĠĠĠĠĠĠĠĠĠĠĠĠĠ ĠĠĠĠĠĠĠĠĠĠĠĠĠĠĠĠ
ĠGit Hub
Brit ish
Ġfantas ies
Ġsaus age
Ġjuven ile
N orm
T ax
h ots
p olitical
Ġt enth
Ġre imb
ĠM ood
ĠH ack
Ġsh ines
Ġ" ...
Ġpo ets
Ġrec ap
aw ays
ug h
gin a
ĠĠĠĠĠĠĠĠĠĠĠĠĠĠĠĠĠĠĠĠĠĠĠĠĠĠĠĠĠĠĠĠ ĠĠĠĠĠĠĠĠĠĠĠĠĠĠĠĠ
Ġautom otive
IT E
ĠSpe ech
Ġamazing ly
ĠBo ost
Ġmel an
Ġunivers ally
Ġhang s
Ġvulner abilities
ĠWall ace
Ġsimultane ous
Ġathe ism
ĠColumb us
Ġinte gers
pur pose
Da ily
Ġdisgu ise
Ġpave ment
incinn ati
b c
Ï ħ
at en
Ġb amboo
ĠS B
ĠC er
ĠC red
ol ate
ĠH aven
ĠP or
ist le
Ġ2 20
Ġtr am
Ġpr ow
Ġfact ual
Ġturn over
ÂłÂłÂłÂłÂłÂłÂłÂł ÂłÂł
het ically
inc eton
Ġprec autions
ĠFin land
Ġrein forced
Ġunex pl
Ġvamp ires
Similar ly
Ġchromos ome
Ġblat ant
ithm etic
c p
f le
w ent
in el
it ism
ĠM um
un ter
Ġso othing
ish ops
Ġwr ath
Ġinv ites
Ġfr own
ĠSh ock
Ġclass ics
Ġtest ify
Ġcontin ental
ik u
Ġelect orate
Ġsal ty
ĠFl ore
Ġfast ing
Ġtrain ers
Ġvisual ize
Ġamb ient
Ġcalm ly
IF I
ĠMot ion
ĠEconom y
Ġburst s
Ġcontrad iction
ĠBa iley
ĠTele vision
Ġnumb ered
Ġlandsc apes
fashion ed
F ather
n ick
u ates
å Ĳ
Ġb art
Ġf res
ed ar
Ġbe et
od us
ĠP our
ĠL ed
ĠJ os
Ġcl ust
gr owing
Ġ10 8
Ġcontro llers
bo llah
Ġmar ble
Ġlive ly
ĠInd ependence
Ġmass ively
ĠRes ident
Ġdefault s
Ġinvent or
>> >
ĠKir by
Ġdrunk en
Ġrail way
Ġexceed s
Que en
ĠUkrain ian
c ake
e ight
m ove
t re
Ġa ura
Ġw oo
at ible
Ġb achelor
om id
Ġl est
Ġe book
ĠC rist
ĠM oss
ĠM aur
Ġne on
ie u
ĠO H
Ġhas ht
Ġag on
ĠRe x
Ġterm ed
ox in
Ġrock ing
ĠCr us
Ġlic ence
Ġtur moil
top ic
ĠCoun ter
Ġpartners hips
ĠIN T
Ġcraft ing
Step hen
ĠDam n
Ġancest or
ĠBrother hood
ĠViet namese
Ġcoop erate
á¹ £
Ġmedi ocre
elect ric
Vis it
Ġsab ot
Ġinterven e
Ġrelent less
R N
Ġs ul
er ick
en os
as hy
ĠP P
ĠP v
Ġfe ud
Ġres ides
ĠIn sp
Ġmor als
Ġcomput ed
Ġann ouncing
back ed
RE AD
Ġut most
ĠMed ium
Ġrev ol
Ġattract ions
part icularly
Ġreci pro
Ġoptim ism
Ðµ Ð½
ĠStand ards
rec ogn
ĠIde a
osc ope
Ġneurolog ical
Ġhott est
( ),
B ur
S leep
r ising
t im
Ġb ans
Ġth irteen
ĠS ister
ĠC ob
ul ars
ĠH earing
ĠTh umb
Ġdis integr
ph al
Ġref rain
Ġbelie vable
Ġgovernment al
ĠSp in
Ġemploy ing
ĠIm mun
Ġbi ography
Ġsepar ates
Ġprinci p
Ġgrand children
Ġfresh man
ĊĠĠĠĠĠĠĠĠ ĠĠĠĠĠ
ĠAss uming
cons uming
Ġtow els
ĠHist orical
Ġyouth ful
Ġexhib ited
ĠOrig in
ĠFle et
Ġlingu istic
Ġresent ment
Commun ity
ĠFrame work
ĠPhilos ophy
: \
B rand
B uilding
E U
x ml
Ã ¯
Ø ¬
it ures
Ġf iery
Ġp uff
am y
Ġst ained
ĠM ush
ĠB IG
og ged
ĠY ep
ĠSt adium
Ġend uring
Ġsub mitting
ins ky
Ġword ing
Ġbusiness man
pro duction
Ġcomput ation
ĠInst ruct
Ġjud gments
Ġmix er
ĠTra il
alu able
Ġsimpl istic
Ġvalu ation
Ġacadem ics
ĠMcC oy
olit ics
Ġquad r
Ġderiv atives
ĠPod cast
T I
\ ,
k ick
å Ī
Ġt ails
im i
Ġst igma
ĠB ash
ĠB erry
Ġde ception
Ġen ch
Ġrec ol
Ġfl are
Ġinv oice
Ġreg ulating
Ġext inct
[...]
