{"<|endoftext|>":0,"!":1,"\"":2,"#":3,"$":4,"%":5,"&":6,"'":7,"(":8,")":9,"*":10,"+":11,",":12,"-":13,".":14,"/":15,"0":16,"1":17,"2":18,"3":19,"4":20,"5":21,"6":22,"7":23,"8":24,"9":25,":":26,";":27,"<":28,"=":29,">":30,"?":31,"@":32,"A":33,"B":34,"C":35,"D":36,"E":37,"F":38,"G":39,"H":40,"I":41,"J":42,"K":43,"L":44,"M":45,"N":46,"O":47,"P":48,"Q":49,"R":50,"S":51,"T":52,"U":53,"V":54,"W":55,"X":56,"Y":57,"Z":58,"[":59,"\\":60,"]":61,"^":62,"_":63,"`":64,"a":65,"b":66,"c":67,"d":68,"e":69,"f":70,"g":71,"h":72,"i":73,"j":74,"k":75,"l":76,"m":77,"n":78,"o":79,"p":80,"q":81,"r":82,"s":83,"t":84,"u":85,"v":86,"w":87,"x":88,"y":89,"z":90,"{":91,"|":92,"}":93,"~":94,"¡":95,"¢":96,"£":97,"¤":98,"¥":99,"¦":100,"§":101,"¨":102,"©":103,"ª":104,"«":105,"¬":106,"®":107,"¯":108,"°":109,"±":110,"²":111,"³":112,"´":113,"µ":114,"¶":115,"·":116,"¸":117,"¹":118,"º":119,"»":120,"¼":121,"½":122,"¾":123,"¿":124,"À":125,"Á":126,"Â":127,"Ã":128,"Ä":129,"Å":130,"Æ":131,"Ç":132,"È":133,"É":134,"Ê":135,"Ë":136,"Ì":137,"Í":138,"Î":139,"Ï":140,"Ð":141,"Ñ":142,"Ò":143,"Ó":144,"Ô":145,"Õ":146,"Ö":147,"×":148,"Ø":149,"Ù":150,"Ú":151,"Û":152,"Ü":153,"Ý":154,"Þ":155,"ß":156,"à":157,"á":158,"â":159,"ã":160,"ä":161,"å":162,"æ":163,"ç":164,"è":165,"é":166,"ê":167,"ë":168,"ì":169,"í":170,"î":171,"ï":172,"ð":173,"ñ":174,"ò":175,"ó":176,"ô":177,"õ":178,"ö":179,"÷":180,"ø":181,"ù":182,"ú":183,"û":184,"ü":185,"ý":186,"þ":187,"ÿ":188,"Ā":189,"ā":190,"Ă":191,"ă":192,"Ą":193,"ą":194,"Ć":195,"ć":196,"Ĉ":197,"ĉ":198,"Ċ":199,"ċ":200,"Č":201,"č":202,"Ď":203,"ď":204,"Đ":205,"đ":206,"Ē":207,"ē":208,"Ĕ":209,"ĕ":210,"Ė":211,"ė":212,"Ę":213,"ę":214,"Ě":215,"ě":216,"Ĝ":217,"ĝ":218,"Ğ":219,"ğ":220,"Ġ":221,"ġ":222,"Ģ":223,"ģ":224,"Ĥ":225,"ĥ":226,"Ħ":227,"ħ":228,"Ĩ":229,"ĩ":230,"Ī":231,"ī":232,"Ĭ":233,"ĭ":234,"Į":235,"į":236,"İ":237,"ı":238,"Ĳ":239,"ĳ":240,"Ĵ":241,"ĵ":242,"Ķ":243,"ķ":244,"ĸ":245,"Ĺ":246,"ĺ":247,"Ļ":248,"ļ":249,"Ľ":250,"ľ":251,"Ŀ":252,"ŀ":253,"Ł":254,"ł":255,"Ń":256,"Ġt":257,"Ġa":258,"he":259,"in":260,"re":261,"Ġthe":262,"on":263,"Ġs":264,"er":265,"Ġw":266,"at":267,"Ġo":268,"Ġc":269,"nd":270,"ou":271,"it":272,"is":273,"Ġb":274,"ing":275,"es":276,"en":277,"Ġf":278,"or":279,"Ġp":280,"Ġm":281,"an":282,"Ġto":283,"ed":284,"al":285,"Ġd":286,"ar":287,"Ġof":288,"Ġth":289,"Ġin":290,"Ġh":291,"Ġand":292,"le":293,"ic":294,"as":295,"om":296,"ion":297,"Ġl":298,"Ġn":299,"ll":300,"Ġe":301,"ĠI":302,"ve":303,"ly":304,"Ġg":305,"st":306,"Ġy":307,"Ġbe":308,"Ġre":309,"ot":310,"ĠĠ":311,"ent":312,"Ġis":313,"ut":314,"ow":315,"Ġyou":316,"âĢ":317,"ct":318,"Ġthat":319,"et":320,"se":321,"id":322,"ĠT":323,"ro":324,"Ġon":325,"ay":326,"im":327,"Ġit":328,"Ġu":329,"ad":330,"Ġfor":331,"ig":332,"ver":333,"ce":334,"ld":335,"Ġhe":336,"am":337,"Ġst":338,"ĠS":339,"ur":340,"Âł":341,"ĠA":342,"ch":343,"Ġwh":344,"ith":345,"ir":346,"Ġan":347,"Ġwith":348,"Ġas":349,"ke":350,"Ġwe":351,"ation":352,"Ġha":353,"if":354,"ra":355,"il":356,"ĠC":357,"ol":358,"ĊĊ":359,"Ġare":360,"ter":361,"ill":362,"her":363,"ĠM":364,"od":365,"Ġwas":366,"ck":367,"âĢĻ":368,"Ġor":369,"Ġcon":370,"ul":371,"ĠB":372,"ge":373,"Ġse":374,"op":375,"ore":376,"ers":377,"ĠThe":378,"Ġde":379,"Ġnot":380,"'s":381,"ate":382,"ht":383,"Ġcom":384,"ess":385,"ĠW":386,"ri":387,"Ġat":388,"us":389,"Ġhave":390,"Ġpro":391,"ould":392,"pe":393,"ĠH":394,"ĠP":395,"Ġ(":396,"Ġr":397,"Ġex":398,"um":399,"est":400,"Ġne":401,"Ġdo":402,"th":403,"ant":404,"ab":405,"ist":406,"rom":407,"Ġthis":408,"em":409,"Ġ1":410,"Ġcan":411,"pp":412,"un":413,"qu":414,"ust":415,"ĠD":416,"ally":417,"ĠĠĠĠ":418,"Ġv":419,"Ġsh":420,"ain":421,"ure":422,"ight":423,"os":424,"Ġal":425,"ive":426,"ome":427,"nt":428,"Ġab":429,"ment":430,"Ġyour":431,"ĠâĢ":432,"out":433,"Ġch":434,"Ġk":435,"Ġfrom":436,"and":437,"el":438,"art":439,"ĠR":440,"Ġthey":441,"Ġle":442,"ity":443,"Ġgo":444,"Ġ2":445,"Ġby":446,"Ġbut":447,"ĠF":448,"Ġsu":449,"Ġj":450,"Ġli":451,"ort":452,"Ġso":453,"Ġme":454,"Ġwor":455,"ies":456,"Ġwhe":457,"ost":458,"ie":459,"all":460,"ĠN":461,"res":462,"Ġall":463,"ĠL":464,"ĠG":465,"ĠE":466,"oug":467,"ak":468,"ard":469,"..":470,"oo":471,"one":472,"ere":473,"pt":474,"Ġpl":475,"'t":476,"Ġwill":477,"Ġ\"":478,"ack":479,"Ġint":480,"Ġout":481,"ast":482,"our":483,"ag":484,"ide":485,"iv":486,"Ġus":487,"ĠO":488,"Ġmy":489,"ect":490,"are":491,"ther":492,"ind":493,"Ġhis":494,"Ġup":495,"The":496,"ci":497,"Ġtheir":498,"ake":499,"very":500,"ud":501,"ine":502,"Ġtr":503,"ich":504,"Ġmore":505,"Ġabout":506,"pl":507,"ound":508,"ame":509,"ous":510,"Ġone":511,"ong":512,"Ġlike":513,"00":514,"per":515,"Ġhas":516,"ff":517,"ĠJ":518,"ime":519,"age":520,"ough":521,"au":522,"act":523,"Ġwho":524,"ĠĠĠ":525,"ook":526,"ions":527,"og":528,"Ġsome":529,"ac":530,"ĠTh":531,"Ġen":532,"Ġar":533,"Ġwould":534,"Ġwhat":535,"Ġte":536,"Ġim":537,"Ġif":538,"ice":539,"ans":540,"Ġfe":541,"Ġthere":542,"Ġthem":543,"Ġkn":544,"Ġget":545,"Ġad":546,"Ġpe":547,"so":548,"Ġcl":549,"Ġher":550,"Ġcomp":551,"iz":552,"ire":553,"ÂłÂł":554,"Ġother":555,"ated":556,"ink":557,"Ġman":558,"ap":559,"ep":560,"ven":561,"Ġhad":562,"Ġwhen":563,"Ġany":564,"Ġjust":565,"ople":566,"ue":567,"ĠIt":568,"Ġwhich":569,"able":570,"ĠY":571,"ays":572,"ear":573,"Ġbec":574,"Ġqu":575,"ĠU":576,"Ġcont":577,"Ġsa":578,"ite":579,"own":580,"âĢĿ":581,"ble":582,"cc":583,"Ġun":584,"Ġtime":585,"ry":586,"ber":587,"Ġwere":588,"Ġpeople":589,"Ġ-":590,"ose":591,"ip":592,"ile":593,"orm":594,"ace":595,"ult":596,"ass":597,"ical":598,"ance":599,"ause":600,"Ġwork":601,"Ġag":602,"Ġres":603,"ach":604,"Ġdis":605,"reat":606,"Ġhow":607,"Ġno":608,"Ġthan":609,"ings":610,"ence":611,"ick":612,"oc":613,"ase":614,"ĠIn":615,"ĊĠ":616,"Ġinto":617,"ĠK":618,"ia":619,"Ġshe":620,"ress":621,"hing":622,"Ġknow":623,"Ġbeen":624,"ary":625,"Ġpre":626,"Ġover":627,"ĠâĢľ":628,"Ġsp":629,"ign":630,"ations":631,"int":632,"Ġoff":633,"Ġper":634,"av":635,"Ġalso":636,"du":637,"Ġinc":638,"ru":639,"ove":640,"end":641,"Ġpart":642,"ĠĠĠĠĠĠĠĠ":643,"ub":644,"Ġgr":645,"ount":646,"ond":647,"Ġact":648,"Ġneed":649,"ree":650,"Ġpr":651,"ang":652,"ens":653,"Ġspe":654,"vel":655,"Ġbl":656,"Ġ3":657,"Ġour":658,"ood":659,"iff":660,"ord":661,"ory":662,"Ġyear":663,"ail":664,"Ġcould":665,"itt":666,"Ġonly":667,"Ġpo":668,"Ġam":669,"ĠSt":670,"Ġimp":671,"Ġsc":672,"Ġwant":673,"Ġhim":674,"nder":675,"ial":676,"Ġdon":677,"hat":678,"Ġthink":679,"sel":680,"ark":681,"Ġbet":682,"Ġbecause":683,"ell":684,"ov":685,"Ġro":686,"Ġthen":687,"ild":688,"ition":689,"Ġtw":690,"ĊĊĠĠĠ":691,"ction":692,"Ġback":693,"Ġmake":694,"fter":695,"ors":696,"Ġapp":697,"01":698,"Ġnew":699,"ents":700,"ĠâĢ¢":701,"irst":702,"Ġevery":703,"uch":704,"Ġco":705,"Ġdid":706,"form":707,"Ġsee":708,"Ġdiff":709,"ĠHe":710,"ob":711,"red":712,"ĠV":713,"ĠCh":714,"Ġmost":715,"Ġlook":716,"Ġway":717,"Ġeven":718,"ade":719,"Ġmay":720,"Ġthr":721,"Ġdoes":722,"ater":723,"ious":724,"Ġsaid":725,"ish":726,"Ġrec":727,"...":728,"ons":729,"ces":730,"ne":731,"mer":732,"omet":733,"ple":734,"Ġshould":735,"ict":736,"oy":737,"Ġuse":738,"ual":739,"ĠThis":740,"wn":741,"urn":742,"Ġfl":743,"Ġthese":744,").":745,"other":746,"Ġmuch":747,"Ġunder":748,"we":749,"hed":750,"Ġvery":751,"ull":752,"Ġits":753,"fore":754,"Ġgood":755,"Ġwhere":756,"Ġdes":757,"ft":758,"ian":759,"Ġfirst":760,"ually":761,"Ġser":762,"hy":763,"Ġsy":764,"Ġacc":765,"Ġcons":766,"ĠYou":767,"hen":768,"Ġwr":769,"ates":770,"Ġcomm":771,"Ġtwo":772,"vers":773,"les":774,"xt":775,"Ġtoo":776,"ating":777,"ise":778,"Ġatt":779,"Ġbu":780,"ife":781,"Ġhel":782,"igh":783,"ting":784,"Ġnow":785,"Ġbeing":786,"ks":787,"Ġbr":788,"Ġsm":789,"Ġmany":790,"oss":791,"Ġrel":792,"Ġthrough":793,"Ġ4":794,"ning":795,"Ġtra":796,"Ġdown":797,"Ġright":798,"ving":799,"ily":800,"Ġra":801,"Ġdiffere":802,".\"":803,"Ġke":804,"Ġind":805,"ĠAnd":806,"Ġem":807,"Ġhelp":808,"Ġsomet":809,"Ġwell":810,"Ġafter":811,"aking":812,"ib":813,"Ġpers":814,"ĠIf":815,"ful":816,"ĊĊĠ":817,"Ġ5":818,"Ġrem":819,"ew":820,"self":821,"Ġreally":822,"aw":823,"Ġsay":824,"ific":825,"ock":826,"Ġlong":827,"ower":828,"ath":829,"Ġdec":830,"tern":831,"Ġagain":832,"cial":833,"Ġfo":834,"ec":835,"gr":836,"Ġadd":837,"lic":838,"te":839,"ange":840,"ĠWe":841,"ible":842,"ject":843,"Ġplay":844,"Ġgu":845,"cess":846,"iss":847,"ty":848,"Ġstart":849,"li":850,"Ġthose":851,"oth":852,"ĠBut":853,"erm":854,"Ġgoing":855,"Ġown":856,"ments":857,"ert":858,"Ġgen":859,"lect":860,"ĊĠĠĠ":861,"pect":862,"ced":863,"Ġsuch":864,"ren":865,"ves":866,"Ġinv":867,"Ġyears":868,"Ġev":869,"alk":870,"ars":871,"Ġ19":872,"get":873,"Ġsim":874,"Ġ201":875,"Ġtake":876,"iew":877,"Ġcall":878,"Ġbefore":879,"Ġsame":880,"Ġrep":881,"ular":882,"ics":883,"Ġpoint":884,"Ġbel":885,"Ġstill":886,"ph":887,"Ġcr":888,"ered":889,"Ġend":890,"Ġob":891,"Ġread":892,"Ġfind":893,"Th":894,"ave":895,"Ġsupp":896,"stem":897,"Ġaw":898,"'m":899,"its":900,"ved":901,"ought":902,"ĠThey":903,"ÂłÂłÂłÂł":904,"olog":905,"Ġsec":906,"Ġperson":907,"'re":908,"Ġfeel":909,"Ġinst":910,"old":911,"Ġthings":912,"hes":913,"day":914,"Ġreal":915,"Ġprodu":916,"Ġused":917,"Ġdef":918,"ont":919,"Ġeff":920,"Ġsomething":921,"Ġhere":922,"als":923,"Ġhand":924,"Ġhapp":925,"up":926,"Ġreg":927,"Ġac":928,"ever":929,"ative":930,"lud":931,"ident":932,"Ġent":933,"imes":934,"Ġ'":935,"ows":936,"Ġset":937,"ility":938,"Ġdifferent":939,"ody":940,"akes":941,"In":942,"rib":943,"Ġph":944,"Ġworld":945,"ather":946,"Ġche":947,"Ġlife":948,"),":949,"Ġsl":950,"ities":951,"Ġcol":952,"Ġmade":953,"Ġpol":954,"Ġday":955,"ef":956,"Ġaround":957,"read":958,"thing":959,"cept":960,"Ġlot":961,"ased":962,"Ġins":963,"Ġwhile":964,"Ġsub":965,"ied":966,"Ġsur":967,"ĠAs":968,"ract":969,"ĠSo":970,"ying":971,"ward":972,"ĠAn":973,"cy":974,"ax":975,"Ġgreat":976,"gg":977,"Ġsystem":978,"ween":979,"ince":980,"Ġcar":981,"ms":982,"Ġstr":983,"owing":984,"the":985,"Ġchar":986,"Ġexper":987,"uring":988,"ittle":989,"ature":990,"Ġass":991,"Ġnum":992,"Ġfact":993,"Ġquest":994,"Ġmin":995,"ness":996,"Ġbetween":997,"Ġ$":998,"Ġhigh":999,"any":1000,"ah":1001,"ically":1002,"ote":1003,"Ġeach":1004,"led":1005,"ways":1006,"Ġmod":1007,"Ġstud":1008,"Ġ6":1009,"Ġmight":1010,"Ġinter":1011,"air":1012,"Ġ200":1013,"ank":1014,"Ġfin":1015,"atch":1016,"ason":1017,"Ġpres":1018,"Ġcount":1019,"Ġmon":1020,"Ġnever":1021,"ix":1022,"ues":1023,"ins":1024,"Ġop":1025,"Ġmet":1026,"Ġexp":1027,"Ġcre":1028,"ĠRe":1029,"ĠHow":1030,"Ġfil":1031,"ited":1032,"Ġlittle":1033,"Ġfew":1034,"Ġseem":1035,"Ġinclud":1036,"ution":1037,"alth":1038,"ng":1039,"Ġprov":1040,"It":1041,"Ġtrans":1042,"Ġref":1043,"'ve":1044,"Ġdisc":1045,"ĠThere":1046,"Ġwhy":1047,"Ġrun":1048,"gan":1049,"Ġproble":1050,"ize":1051,"be":1052,"ten":1053,"Ġext":1054,"Ġgot":1055,"ss":1056,"iness":1057,"arch":1058,"Ġap":1059,"Ġmed":1060,"ines":1061,"Ġgener":1062,"riend":1063,"ee":1064,"Ġear":1065,"Ġfoll":1066,"less":1067,"Ġbetter":1068,"ool":1069,"Ġexam":1070,"ĠUn":1071,"nce":1072,"ner":1073,"ps":1074,"Ġchild":1075,"ism":1076,"Ġart":1077,"ork":1078,"Ġlet":1079,"Ġboth":1080,"Ġty":1081,"Ġcur":1082,"ense":1083,"velop":1084,"der":1085,"Ġlast":1086,"Ġcor":1087,"hip":1088,"Ġput":1089,"Ġfam":1090,"und":1091,"Ġmov":1092,"Ġthing":1093,"meric":1094,"Ġfun":1095,"Ġdet":1096,"ices":1097,"Ġcle":1098,"ale":1099,"oney":1100,"Ġkeep":1101,"Ġbest":1102,"Ġanother":1103,"Ġusing":1104,"Ġhard":1105,"Ġrequ":1106,"Ġalways":1107,"Ġform":1108,"erest":1109,"Ġgiv":1110,"Ġret":1111,"ata":1112,"Ġinf":1113,"ists":1114,"ĠAl":1115,"ages":1116,"ouse":1117,"ĠThat":1118,"--":1119,"Ġposs":1120,"Ġsk":1121,"Ġide":1122,"sw":1123,"uck":1124,"Ġfound":1125,"Ġsign":1126,"az":1127,"Ġbus":1128,"stand":1129,"ational":1130,"ger":1131,"Ġbelie":1132,"Ġask":1133,"ably":1134,"Ġval":1135,"io":1136,",\"":1137,"Ġwithout":1138,"Ġgl":1139,"Ġeas":1140,"Ġcome":1141,"ute":1142,"pr":1143,"Ġconf":1144,"Ġhum":1145,"Ġimport":1146,"Ġ[":1147,"ĠFor":1148,"here":1149,"Ġcomple":1150,"Ġcour":1151,"Ġhead":1152,"ublic":1153,"atter":1154,"arm":1155,"Ġturn":1156,"Ġbig":1157,"ention":1158,"ash":1159,"ys":1160,"Ġexpl":1161,"Ġ7":1162,"ĠWhat":1163,"Ġmark":1164,"vern":1165,"Ġ10":1166,"Ġel":1167,"ĠĠĠĠĠĠĠĠĠĠĠĠĠĠĠĠ":1168,"Ġfr":1169,"ead":1170,"Ġwom":1171,"Ġpost":1172,"ĠAmeric":1173,"uth":1174,"ĠShe":1175,"ts":1176,"Ġlead":1177,"iting":1178,"Ġbo":1179,"Ġless":1180,"Ġhome":1181,"This":1182,"Ġpower":1183,"ĠâĢĵ":1184,"Ġi":1185,"Ġplace":1186,"Ġinform":1187,"Ġlar":1188,"ric":1189,"Ġold":1190,"ized":1191,".âĢĿ":1192,"Ġdevelop":1193,"Ġ8":1194,"Ġmem":1195,"ĠSh":1196,"Ġthought":1197,"Ġprocess":1198,"com":1199,"Ġword":1200,"Ġcare":1201,"Ġeffect":1202,"ets":1203,"Ġmean":1204,"Ġsmall":1205,"Ġdidn":1206,"Ġinterest":1207,"uss":1208,"ug":1209,"con":1210,"Ġav":1211,"chn":1212,"Ġwee":1213,"Ġsure":1214,"Ġtell":1215,"ex":1216,"ertain":1217,"ures":1218,"Ġmoney":1219,"gy":1220,"Ġactually":1221,"You":1222,"ient":1223,"Ġca":1224,"line":1225,"Ġbook":1226,"Ġdist":1227,"amp":1228,"ÂłĊ":1229,"What":1230,"arn":1231,"ern":1232,"ience":1233,"Ġsays":1234,"Ġstate":1235,"Ġresult":1236,"Ġshow":1237,"Ġmust":1238,"Ġpass":1239,"Ġenough":1240,"Ġfriend":1241,"Ġdoesn":1242,"ately":1243,"Ġadv":1244,"'ll":1245,"Ġplan":1246,"ames":1247,"Ġpay":1248,"Ġtri":1249,"chool":1250,"man":1251,"ined":1252,"Ġ9":1253,"Ġdire":1254,"Ġgame":1255,"Ġspec":1256,"ared":1257,"Ġaway":1258,"Ġresp":1259,"âĢ¦":1260,"Ġ0":1261,"Ġwater":1262,"Ġsince":1263,"Ġunderstand":1264,"ier":1265,"ĠWh":1266,"Ġiss":1267,"ider":1268,"Ġsol":1269,"ode":1270,"ĠCom":1271,"Ġloc":1272,"Ġkind":1273,"Ġed":1274,"Ġlist":1275,"ling":1276,"bs":1277,"ĠIs":1278,"oh":1279,"Ġtalk":1280,"Ġmain":1281,"Ġvar":1282,"view":1283,"Ġconc":1284,"Ġbeh":1285,"Ġrest":1286,"Ġstand":1287,"Ġnumber":1288,"Ġdi":1289,"Ġagainst":1290,"Ġthree":1291,"Ġlove":1292,"ired":1293,"ross":1294,"Ġcontro":1295,"Ġmus":1296,"ption":1297,"Ġable":1298,"uc":1299,"Ġlevel":1300,"Ġimportant":1301,"Ġgive":1302,"to":1303,"pend":1304,"Ġgrou":1305,"Ġopen":1306,"br":1307,"Ġnext":1308,"Ġbody":1309,"Ġgovern":1310,"Ġansw":1311,"Ġcou":1312,"ants":1313,"Ġpartic":1314,"Ġvis":1315,"ters":1316,"Ġgra":1317,"Ġunt":1318,"Ġdata":1319,"Ġoften":1320,"Ġlaw":1321,"Ġthough":1322,"Ġbusiness":1323,"Ġduring":1324,"Ġhappen":1325,"osed":1326,"Ġcase":1327,"Ġinformation":1328,"rent":1329,"Ġtop":1330,"Ġexample":1331,"aug":1332,"ĠAr":1333,"Ġpat":1334,"rop":1335,"ology":1336,"Ġpur":1337,"Ġsecond":1338,"Ġdri":1339,"Ġsomeone":1340,"ret":1341,"Ġhealth":1342,"If":1343,"aj":1344,"Ġincre":1345,"Ġsupport":1346,"Ġbre":1347,"me":1348,"orn":1349,"Ġbit":1350,"ety":1351,"gram":1352,"ĠWhen":1353,"Ġdr":1354,"ruct":1355,"Ġclass":1356,"Ġquestion":1357,"Ġbra":1358,"Ġtest":1359,"Ġ|":1360,"âĢĶ":1361,"Ġcontin":1362,"ases":1363,"land":1364,"ĠNew":1365,"Ġdoing":1366,"ural":1367,"ither":1368,"Ġsit":1369,"Ġchange":1370,"err":1371,"Ġsw":1372,"Ġ=":1373,"Ġtechn":1374,"ĠĠĠĠĠ":1375,"ĊĊĊ":1376,"ok":1377,"000":1378,"10":1379,"Ġfull":1380,"Ġfree":1381,"ield":1382,"Ġleft":1383,"We":1384,"Ġpop":1385,"Ġfar":1386,"Ġey":1387,"ump":1388,"ik":1389,"Ġhaving":1390,"ality":1391,"dd":1392,"Ġpos":1393,"Ġproduct":1394,"arent":1395,"Ġcalled":1396,"Ġname":1397,"Ġ20":1398,"Ġserv":1399,"Ġprot":1400,"ember":1401,"ats":1402,"Ġcommun":1403,"Ġcharact":1404,"Ġopp":1405,"Ġappe":1406,"att":1407,"Ġbuild":1408,"Ġlight":1409,"ĠBr":1410,"Ġprob":1411,"Ġbas":1412,"Ġmaking":1413,"Ġproblem":1414,"inal":1415,"Ġschool":1416,"Ġprof":1417,"Ġreason":1418,"ides":1419,"Ġmind":1420,"ĠDe":1421,"bers":1422,"Ġstory":1423,"Ġmakes":1424,"Ġteam":1425,"Ġmeans":1426,"Ġmonth":1427,"Ġleg":1428,"ital":1429,"Ġuntil":1430,"Ġchang":1431,"Ġever":1432,"Ġfood":1433,"ream":1434,"Ġdone":1435,"vious":1436,"Ġcent":1437,"How":1438,"nect":1439,"âĢľ":1440,"Ġmove":1441,"Ġtimes":1442,"Ġdem":1443,"reen":1444,"Ġes":1445,"not":1446,"Ġterm":1447,"sh":1448,"Ġjob":1449,"ĠQ":1450,"Ġside":1451,"ready":1452,"ently":1453,"Ġcertain":1454,"Ġleast":1455,"ĠUS":1456,"uff":1457,"Ġequ":1458,"Ġdirect":1459,"aring":1460,"Ġorder":1461,"Ġcost":1462,"ids":1463,"ann":1464,"Ġanything":1465,"Ġstop":1466,"Ġgetting":1467,"ĠPro":1468,"'d":1469,"med":1470,"Ġpri":1471,"Ġprogram":1472,"ivid":1473,"ering":1474,"ird":1475,"Ġbad":1476,"cing":1477,"ustom":1478,"Ġfamily":1479,"oad":1480,"Ġdesign":1481,"Ġgovernment":1482,"ott":1483,"lease":1484,"Ġair":1485,"Ġalready":1486,"Ġdays":1487,"erv":1488,"Ġhuman":1489,"ished":1490,"ien":1491,"ains":1492,"aps":1493,"Ġmen":1494,"cl":1495,"ope":1496,"Ġcourse":1497,"Ġmarket":1498,"icle":1499,"Ġ--":1500,"orts":1501,"Ġsound":1502,"20":1503,"Ġothers":1504,"Ġsing":1505,"Ġtry":1506,"most":1507,"Ġaff":1508,"Ġlarge":1509,"ining":1510,"ator":1511,"ĠZ":1512,"Ġbecome":1513,"ploy":1514,"ards":1515,"by":1516,"sc":1517,"ĠBe":1518,"ĠCl":1519,"gin":1520,"rist":1521,"Ġconst":1522,"Ġpossible":1523,"Ġpublic":1524,"ision":1525,"Ġmom":1526,"Ġonce":1527,"ised":1528,"__":1529,"Ġ.":1530,"ĠTo":1531,"ged":1532,"ĠBl":1533,"ĠTr":1534,"19":1535,"Ġhour":1536,"ony":1537,"irl":1538,"So":1539,"Ġben":1540,"ional":1541,"used":1542,"Ġcurrent":1543,"Ġve":1544,"Ġprobably":1545,"Ġpret":1546,"Ġchildren":1547,"Ġhist":1548,"Ġcontrol":1549,"Ġnight":1550,"Ġidea":1551,"hys":1552,"ives":1553,"ĠDo":1554,"ories":1555,"ĠâĢĺ":1556,"Ġpolit":1557,"An":1558,"work":1559,"rap":1560,"ĠAt":1561,"Ġkill":1562,"Ġline":1563,"Ġcompany":1564,"And":1565,"Ġperform":1566,"Ġinvest":1567,"Ġocc":1568,"St":1569,"As":1570,"ccess":1571,"ided":1572,"Ġtrying":1573,"Ġwar":1574,"els":1575,"bo":1576,"Ġmar":1577,"Ġpast":1578,"Ġlearn":1579,"Ġbelieve":1580,"Ġorgan":1581,"ĊĊĊĊ":1582,"iqu":1583,"of":1584,"Ġcame":1585,"Ġpa":1586,"ted":1587,"ton":1588,"itive":1589,"ron":1590,"Ġclear":1591,"Ġappro":1592,"Ġexperience":1593,"ots":1594,"Ġpar":1595,"Ġet":1596,"way":1597,"Ġele":1598,"Ġeng":1599,"eng":1600,"Ġelse":1601,"app":1602,"Ġisn":1603,"illion":1604,"ane":1605,"Ġcountry":1606,"aim":1607,"Ġpain":1608,"Ġview":1609,"idd":1610,"Ġwithin":1611,"Ġdra":1612,"ajor":1613,"Ġlooking":1614,"Ġelect":1615,"Ġhouse":1616,"iter":1617,"Ġcreat":1618,"conom":1619,"side":1620,"Ġdep":1621,"ential":1622,"Ġwent":1623,"Ġmatter":1624,"ĠMy":1625,"There":1626,"Ġ/":1627,"Ġwomen":1628,"Ġcomplete":1629,"ĠAll":1630,"ĠSp":1631,"oice":1632,"Ġgroup":1633,"11":1634,"Ġdev":1635,"Ġproper":1636,"ĠOr":1637,"atic":1638,"Ġ12":1639,"ush":1640,"Ġcap":1641,"Ġris":1642,"Ġanswer":1643,"But":1644,"ike":1645,"ĠLe":1646,"Ġwhole":1647,"gether":1648,"Ġtogether":1649,"Ġpot":1650,"Ġcustom":1651,"Ġshort":1652,"ĠÂł":1653,"ior":1654,"lf":1655,"Ġeither":1656,"Ġworking":1657,"Ġtoday":1658,"Ġnothing":1659,"Ġreturn":1660,"selves":1661,"ortun":1662,"ization":1663,"ium":1664,"Ġfore":1665,"ries":1666,"aster":1667,"alf":1668,"ians":1669,"ina":1670,"cially":1671,"ified":1672,"ply":1673,"Ġtyp":1674,"outh":1675,"utes":1676,"ilar":1677,"Ġface":1678,"Ġmil":1679,"Ġexpect":1680,"iron":1681,"Ġallow":1682,"Ġcheck":1683,"Ġcomes":1684,"Ġrese":1685,"ĠNo":1686,"He":1687,"Ġeverything":1688,"co":1689,"Ġgiven":1690,"ĠHowever":1691,"Ġseen":1692,"Ġrather":1693,"Ġroom":1694,"vent":1695,"Ġlater":1696,"ched":1697,"ument":1698,"Ġcommon":1699,"Ġ&":1700,"Ġyet":1701,"Ġnear":1702,"12":1703,"ividual":1704,"ĠSe":1705,"Ġsever":1706,"Ġprom":1707,"Ġmiss":1708,"Ġcond":1709,"pro":1710,"Ġwon":1711,"Ġhold":1712,"cle":1713,"Ġseems":1714,"Ġdeal":1715,"Ġlim":1716,"Ġmajor":1717,"Ġsci":1718,"Ġquick":1719,"uro":1720,"Ġlive":1721,"ination":1722,"Ġwa":1723,"ury":1724,"ĠOn":1725,"Ġpract":1726,"ulation":1727,"Ġ18":1728,"Ġweek":1729,"Ġlow":1730,"Ġ15":1731,"Ġtook":1732,"Ġpretty":1733,"ĠEx":1734,"Ġtem":1735,"?\"":1736,"Ġnon":1737,"ral":1738,"Ġspecific":1739,"for":1740,"Ġsex":1741,"ivers":1742,"ery":1743,"Ġbased":1744,"oint":1745,"oll":1746,"let":1747,"Ġstarted":1748,"Ġest":1749,"Ġparticular":1750,"ĠPl":1751,"itions":1752,"Ġdesc":1753,"hod":1754,"ances":1755,"Ġconnect":1756,"Ġseveral":1757,"Ġrecord":1758,"Ġyoung":1759,"ained":1760,"ured":1761,"Ġknown":1762,"Ġsocial":1763,"Ġamount":1764,"ergy":1765,"Ġeconom":1766,"Ġaccount":1767,"Ġindividual":1768,"Ġvide":1769,"Ġfre":1770,"Ġneeds":1771,"Ġalong":1772,"Ġwords":1773,"ĠGod":1774,"Ġ<":1775,"Ġbuy":1776,"Ġconsider":1777,"Ġtold":1778,"fe":1779,"Ġwin":1780,"ĠInd":1781,"Ġago":1782,"Ġinvol":1783,"ability":1784,"Ġalmost":1785,"Ġoper":1786,"ration":1787,"Ġorig":1788,"Ġsuccess":1789,"Ġintern":1790,"Ġfollowing":1791,"ource":1792,"Ġcell":1793,"ĠFr":1794,"Ġfour":1795,"aken":1796,"ĠX":1797,"Ġaut":1798,"ĠRep":1799,"Ġtre":1800,"oid":1801,"ify":1802,"uthor":1803,"Ġlikely":1804,"arr":1805,"Ġsal":1806,"Ġproject":1807,"!!":1808,"Ġbro":1809,"Ġmess":1810,"Ġquite":1811,"Ġcal":1812,"elt":1813,"Ġtrue":1814,"ohn":1815,"Ġeveryone":1816,"Ġz":1817,"Ġsense":1818,"Ġincluding":1819,"wh":1820,"Ġtax":1821,"ones":1822,"Ġfollow":1823,"ware":1824,"Ġtype":1825,"Ġheart":1826,"ĠNot":1827,"ĠAmerican":1828,"Ġpresent":1829,"ully":1830,"Ġstrong":1831,"Ġmusic":1832,"Ġpress":1833,"Ġphys":1834,"Ġphot":1835,"Ġrece":1836,"Ġvers":1837,"ency":1838,"Ġcreate":1839,"ggest":1840,"Ġfall":1841,"Ġclose":1842,"use":1843,"gle":1844,"Ġactiv":1845,"Ġmult":1846,"ĠCon":1847,"ama":1848,"Ġwhether":1849,"Ġfoc":1850,"....":1851,"ĠChrist":1852,"Ġgirl":1853,"Ġstep":1854,"Ġredu":1855,"Ġcult":1856,"Ġattack":1857,"ape":1858,"wards":1859,"pped":1860,"ĠCan":1861,"cent":1862,"Ġavail":1863,"Ġtreat":1864,"omm":1865,"Ġbenef":1866,"angu":1867,"Ġcharacter":1868,"Ġwatch":1869,"Ġvalue":1870,"Ġwalk":1871,"ills":1872,"Ġhig":1873,"idence":1874,"Ġland":1875,"uture":1876,"pecially":1877,"ney":1878,"min":1879,"Ġprotect":1880,"ÂłÂłÂłÂłÂłÂłÂłÂł":1881,"ĠOne":1882,"Ġfriends":1883,"ison":1884,"Ġentire":1885,"50":1886,"Ġimpro":1887,"cer":1888,"ches":1889,"Ġsimply":1890,",âĢĿ":1891,"Ġfail":1892,"icult":1893,"ole":1894,"por":1895,"aces":1896,"oun":1897,"Ġevent":1898,"Ġarg":1899,"When":1900,"though":1901,"Ġenergy":1902,"Ġmor":1903,"Ġident":1904,"lish":1905,"Ġ:":1906,"ĠMar":1907,"over":1908,"Ġbreak":1909,"Ġsuggest":1910,"Ġtrad":1911,"ĠMay":1912,"Ġant":1913,"Ġabove":1914,"Ġself":1915,"Ġarea":1916,"fect":1917,"Ġhy":1918,"Ġcut":1919,"port":1920,"leep":1921,"aut":1922,"ler":1923,"Ġmeet":1924,"gs":1925,"Ġwanted":1926,"Ġrepl":1927,"ER":1928,"where":1929,"Ġopt":1930,"par":1931,"Ġanal":1932,"mb":1933,"Ġsitu":1934,"Ġtaking":1935,"ĠWith":1936,"ored":1937,"sy":1938,"Ġwond":1939,"ising":1940,"Ġwrong":1941,"Ġkey":1942,"Ġclaim":1943,"Ġfilm":1944,"Ġcomput":1945,"Ġprovide":1946,"Ġsn":1947,"anks":1948,"ene":1949,"Ġetc":1950,"ĠAd":1951,"Ġreport":1952,"Ġeasy":1953,"Ġpict":1954,"Ġsingle":1955,"Ġrelations":1956,"Ġabs":1957,"Ġblack":1958,"Ġblood":1959,"rect":1960,"Ġusually":1961,"Ġemploy":1962,"Ġaccess":1963,"ĠThese":1964,"Ġdeb":1965,"Ġgrow":1966,"itional":1967,"Ġexist":1968,"Ġcra":1969,"Ġeyes":1970,"urther":1971,"Ġspace":1972,"Ġmethod":1973,"For":1974,"eral":1975,"ĠSc":1976,"urs":1977,"Ġcomment":1978,"ĠPr":1979,"Ġ#":1980,"Ġasked":1981,"Ġdeath":1982,"Ch":1983,"Ġdue":1984,".)":1985,"put":1986,"Ġvari":1987,"joy":1988,"Ġhalf":1989,"Ġwind":1990,"Ġbegin":1991,"Ġsimilar":1992,"ctor":1993,"Ġavailable":1994,"Ġ11":1995,"Ġobject":1996,"Ġyourself":1997,"Ġ*":1998,"Ġinstead":1999,"viron":2000,"Ġfunction":2001,"Ġanyone":2002,"Ġsent":2003,"Ġbehind":2004,"ression":2005,"Ġfuture":2006,"Ġmag":2007,"urity":2008,"Ġnet":2009,"Ġla":2010,"Ġdifficult":2011,"Ġoffic":2012,"Ġdam":2013,"Ġnat":2014,"irc":2015,"ĠEng":2016,"my":2017,"Ġpie":2018,"oud":2019,"oot":2020,"ording":2021,"Ġacross":2022,"Ġexact":2023,"rew":2024,"Ġmot":2025,"201":2026,"oose":2027,"Ġworks":2028,"Ġsoft":2029,"Ġparent":2030,"Ġsimple":2031,"Ġlocal":2032,"Ġfight":2033,"Ġhistory":2034,"Ġquestions":2035,"ĠSome":2036,"acy":2037,"Ġsuper":2038,"oon":2039,"Ġstay":2040,"Ġdiscuss":2041,"Ġinfl":2042,"Ġissue":2043,"Ġnorm":2044,"Ġcomb":2045,"Ġcause":2046,"ried":2047,"Ġanim":2048,"ental":2049,"Ġpick":2050,"Ġearly":2051,"ley":2052,"Ġthemselves":2053,"Ġproblems":2054,"Ġnews":2055,"unch":2056,"Ġways":2057,"ĊĊĠĠĠĠĠ":2058,"Ġhours":2059,"orth":2060,"ially":2061,"Ġage":2062,"Ġlink":2063,"ites":2064,"enn":2065,"Ġcannot":2066,"orr":2067,"body":2068,"Ġfav":2069,"iod":2070,"ĠPh":2071,"like":2072,"Ġtot":2073,"Ġwasn":2074,"Ġpoints":2075,"Ġgets":2076,"Ġcred":2077,"ively":2078,"ox":2079,"Wh":2080,"ients":2081,"Ġenc":2082,"Ġfig":2083,"ĠTe":2084,"Ġ13":2085,"Ġbring":2086,"book":2087,"Ġapplic":2088,"ging":2089,"Ġlangu":2090,"fer":2091,"Ġspecial":2092,"ples":2093,"oke":2094,"ĠĠĠĠĠĠĠ":2095,"ires":2096,"Ġnecess":2097,"ume":2098,"ĠYour":2099,"aining":2100,"ister":2101,"Ġtakes":2102,"âĢĵ":2103,"Ġpersonal":2104,"Ġmoment":2105,"empt":2106,"soci":2107,"Ġespecially":2108,"une":2109,"Ġcity":2110,"yle":2111,"Ġfund":2112,"Ġonline":2113,"Ġarticle":2114,"ask":2115,"Ġspend":2116,"Ġenjoy":2117,"Ġgoes":2118,"Ġvideo":2119,"Ġitself":2120,"Ġsaying":2121,"Ġfeature":2122,"ges":2123,"Ġfront":2124,"ript":2125,"Ġ30":2126,"13":2127,"ogn":2128,"augh":2129,"Ġmeas":2130,"de":2131,"Ġmonths":2132,"iol":2133,"Ġann":2134,"Ġhowever":2135,"Ġfiles":2136,"Ġsaw":2137,"ands":2138,"Ġtext":2139,"Ġrelationship":2140,"ique":2141,"ended":2142,"Ġwoman":2143,"Ġservice":2144,"ived":2145,"Ġstra":2146,"aterial":2147,"verage":2148,"Ġess":2149,"itch":2150,"Ġlo":2151,"Ġaccept":2152,"Ġfield":2153,"Ġdetail":2154,"vironment":2155,"Ġresearch":2156,"Ġneeded":2157,"ued":2158,"Ġdefin":2159,"Ġmass":2160,"irt":2161,"Ġdou":2162,"imate":2163,"Ġ16":2164,"Ġcompan":2165,"ules":2166,"son":2167,"Ġrisk":2168,"Ġsell":2169,"yn":2170,"verse":2171,"Ġcode":2172,"ĠâĢĶ":2173,"Ġsum":2174,"rodu":2175,"ĠJohn":2176,"\".":2177,"Ġbar":2178,"ources":2179,"Ġdepend":2180,"light":2181,"Ġlog":2182,"Ġminutes":2183,"haps":2184,"Ġindust":2185,"istic":2186,"Ġlonger":2187,"ips":2188,"reme":2189,"Ġmovie":2190,"ĠNe":2191,"itting":2192,"uses":2193,"Ġstuff":2194,"back":2195,"itor":2196,"ĠNow":2197,"asing":2198,"ung":2199,"Ġdest":2200,"Ġlab":2201,"resent":2202,"Ġcolle":2203,"ai":2204,"olution":2205,"Ġauthor":2206,"Ġrad":2207,"ĠAm":2208,"Ġcop":2209,"Ġcoming":2210,"umb":2211,"ibility":2212,"Ġsong":2213,"Ġrele":2214,"Ġperfect":2215,"Ġprop":2216,"Ġoutside":2217,"ateg":2218,"Ġremember":2219,"ledge":2220,"Ġred":2221,"Ġissues":2222,"ilt":2223,"Ġmedia":2224,"ĠWhy":2225,"ude":2226,"Ġtaken":2227,"Ġwhite":2228,"Ġrespons":2229,"Ġ14":2230,"Ġhigher":2231,"ĠMan":2232,"che":2233,"urope":2234,"Ġgeneral":2235,"Ġcontent":2236,"lement":2237,".,":2238,"Ġstudents":2239,"ĠAfter":2240,"ĠUnited":2241,"Ġinside":2242,"orld":2243,"Ġinclude":2244,"Al":2245,"omes":2246,"Ġfire":2247,"15":2248,"Ġfelt":2249,"ault":2250,"Ġrequire":2251,"osp":2252,"Ġste":2253,"ĠJust":2254,"ift":2255,"Ġhimself":2256,"ster":2257,"Ġpriv":2258,"Ġhope":2259,"Ġblog":2260,"Ġvol":2261,"Ġworth":2262,"Ġsleep":2263,"Ġneg":2264,"ication":2265,"uly":2266,"IN":2267,"Ġperiod":2268,"Ġpolitical":2269,"Ġposition":2270,"Ġcamp":2271,"Ġprofess":2272,"Ġcompl":2273,"Ġdescrib":2274,"Ġ199":2275,"Ġmillion":2276,"30":2277,"itten":2278,"Ġthinking":2279,"ĠGr":2280,"ecause":2281,"vert":2282,"ĠThen":2283,"Ġrunning":2284,"aced":2285,"uge":2286,"Ġpolic":2287,"Ġheard":2288,"Ġsignific":2289,"Ġaddress":2290,"aving":2291,"Ġwebs":2292,"Ġpull":2293,"That":2294,"Ġsoon":2295,"eth":2296,"ĠIm":2297,"Ġexc":2298,"iding":2299,"erence":2300,"Ġdeterm":2301,"Ġkids":2302,"go":2303,"osing":2304,"Ġlooked":2305,"Ġliving":2306,"erc":2307,"18":2308,"Ġmaybe":2309,"Ġleave":2310,"Ġground":2311,"Ġpack":2312,"ffic":2313,"Ġtool":2314,"val":2315,"Ġcirc":2316,"face":2317,"No":2318,"Ġprice":2319,"Ġwrite":2320,"head":2321,"Ġimm":2322,"Ġhands":2323,"Ġchall":2324,"Ġ+":2325,"Ġfive":2326,"ule":2327,"Ġsort":2328,"Ġ,":2329,"Ġmaterial":2330,"str":2331,"Ġresults":2332,"14":2333,"Ġreview":2334,"==":2335,"Ġfurther":2336,"Ġoil":2337,"antly":2338,"oogle":2339,"Ġamong":2340,"Ġknew":2341,"iction":2342,"Ġaffect":2343,"Ġmother":2344,"Ġ17":2345,"oved":2346,"ensive":2347,"AT":2348,"Ġfile":2349,"Ġmyself":2350,"ĠOb":2351,"ĠHis":2352,"arget":2353,"Ġwriting":2354,"Ġcompanies":2355,"Ġhear":2356,"Ġgames":2357,"play":2358,"Ġaud":2359,"Ġtalking":2360,"ma":2361,"aged":2362,"Ġboy":2363,"lt":2364,"na":2365,"gress":2366,"Ġpage":2367,"Ġsearch":2368,"Ġchanges":2369,"Ġones":2370,"Ġtrack":2371,"16":2372,"Ġenvironment":2373,"Re":2374,"ĠPe":2375,"Ġshare":2376,"Ġdoc":2377,"ĠSu":2378,"Ġmention":2379,"Ġmembers":2380,"Ġstore":2381,"Ġlost":2382,"oor":2383,"miss":2384,"iddle":2385,"bl":2386,"Ġdru":2387,"Ġcompet":2388,"Ġeduc":2389,"ubl":2390,"Ġphone":2391,"Ġcrit":2392,"Ġsend":2393,"Ġport":2394,"ables":2395,"Ġhot":2396,"Ġsometimes":2397,"To":2398,"Ġparty":2399,"Ġdeep":2400,"Sh":2401,"fully":2402,"Ġspeak":2403,"hers":2404,"My":2405,"Ġ100":2406,"Ġinteresting":2407,"iet":2408,"Ġrelig":2409,"Ġvarious":2410,"Ġcouple":2411,"ĠCol":2412,"Ġweight":2413,"ators":2414,"gen":2415,"mber":2416,"Ġstudy":2417,"ĠEurope":2418,"oms":2419,"action":2420,"ĠMe":2421,"ĠStates":2422,"Ġupon":2423,"Ġslow":2424,"Ġreading":2425,"Ġsens":2426,"ĠCar":2427,"ocr":2428,"ze":2429,"error":2430,"Ġsite":2431,"ball":2432,"medi":2433,"chie":2434,"Ġrate":2435,"Ġsituation":2436,"Ġquickly":2437,"era":2438,"Ġblock":2439,"fl":2440,"Ġfocus":2441,"Ġmanage":2442,"Ġdevelopment":2443,"ming":2444,"ĠRes":2445,"Ġeat":2446,"Ġattempt":2447,"Ġbehav":2448,"ĠSy":2449,"ĠQu":2450,"ĠFl":2451,"Ġhit":2452,"Ġserious":2453,"Ġseries":2454,"Ġsat":2455,"Ġlay":2456,"ili":2457,"Ġcorrect":2458,"Ġcompletely":2459,"Ġdig":2460,"ĠApp":2461,"Ġfoot":2462,"Ġcy":2463,"iversity":2464,"atever":2465,"Ġaction":2466,"raph":2467,"Ġexactly":2468,"Ġdifference":2469,"Ġlanguage":2470,"Ġep":2471,"Ġnatural":2472,"Ġstruct":2473,"Ġclean":2474,"AN":2475,"Ġill":2476,"aff":2477,"Ġsoci":2478,"Ġimag":2479,"Ġstat":2480,"ening":2481,"Ġskin":2482,"icro":2483,"17":2484,"Ġdark":2485,"Ġcard":2486,"reet":2487,"ĠAmerica":2488,"Ġdead":2489,"load":2490,"Ġtable":2491,"Ġsubject":2492,"zy":2493,"Ġmodel":2494,"ped":2495,"Ġbrain":2496,"anger":2497,"oes":2498,"ological":2499,"Ġconv":2500,"Ġhappened":2501,"Ġobs":2502,"\",":2503,"overed":2504,"Ġconcern":2505,"Ġsize":2506,"Ġmach":2507,"Ġcommunity":2508,"amed":2509,"ilities":2510,"Ġbuilding":2511,"Ġviol":2512,"Ġtechnology":2513,"ĠFe":2514,"itary":2515,"Ġtried":2516,"Ġlooks":2517,"200":2518,"Ġconsum":2519,"mon":2520,"Ġlower":2521,"Ġcases":2522,"Ġpotential":2523,"Ġrole":2524,"Ġdoor":2525,"Ġincrease":2526,"asons":2527,"Ġturned":2528,"Ġterms":2529,"af":2530,"Ġprevious":2531,"oe":2532,"ises":2533,"Ġpicture":2534,"Ġlives":2535,"Ġnice":2536,"izing":2537,"Ġtend":2538,"Why":2539,"Ġdom":2540,"onse":2541,"Ġshows":2542,"ems":2543,"ĠGu":2544,"Ġfair":2545,"Ġbeaut":2546,"Ġsurpr":2547,"Ġoffer":2548,"fort":2549,"Ġx":2550,"Ġguy":2551,"Ġproducts":2552,"Ġinde":2553,"Ġfather":2554,"AR":2555,"Ġtravel":2556,"Ġfast":2557,"Ġopportun":2558,"ĠEn":2559,"Ġcomputer":2560,"ached":2561,"Ġrespect":2562,"Ġpaper":2563,"Ġbecame":2564,"Ġbelow":2565,"Ġens":2566,"Ġtarget":2567,"lex":2568,"Ġcreated":2569,"ny":2570,"unk":2571,"Ġfavor":2572,"Ġpurp":2573,"Ġdrink":2574,"ĠDon":2575,"Ġversion":2576,"Ġpercent":2577,"pping":2578,"Ġball":2579,"25":2580,"Ġbott":2581,"Ġbegan":2582,"Ġexperien":2583,"Ġquality":2584,"ourn":2585,"hel":2586,"Ġfeeling":2587,"Ġability":2588,"ĠBy":2589,"aves":2590,"rel":2591,"ese":2592,"Ġsqu":2593,"Ġimpact":2594,"ON":2595,"Ġparents":2596,"Ġmis":2597,"Ġpred":2598,"ĠPer":2599,"Ġconsid":2600,"Ġcam":2601,"Ġwouldn":2602,"Ġbed":2603,"Ġprim":2604,"apt":2605,"ext":2606,"Ġaren":2607,"ades":2608,"Ġfill":2609,"aby":2610,"Ġhon":2611,"gest":2612,"right":2613,"!\"":2614,"Ġemot":2615,"Ġpopular":2616,"come":2617,"Ġbal":2618,"Ġsystems":2619,"usion":2620,"Ġhair":2621,"Ġcontinue":2622,"Ġapproach":2623,"ĠWar":2624,"Ġrecomm":2625,"Ġyes":2626,"Ġwonder":2627,"Ġoriginal":2628,"itted":2629,"Ġpath":2630,"Ġrepresent":2631,"utions":2632,"Ġrecogn":2633,"Ġspeed":2634,"Ġappear":2635,"Ġimprove":2636,"Ġassoci":2637,"bit":2638,"Ġtowards":2639,"Ġobvious":2640,"Ġcoun":2641,"Ġsecurity":2642,"Ġsource":2643,"Ġsafe":2644,"ana":2645,"Ġplaying":2646,"Ġswe":2647,"ST":2648,"ober":2649,"ĠMr":2650,"time":2651,"Ġguess":2652,"Ġloss":2653,"Ġknowledge":2654,"Ġsun":2655,"Ġachie":2656,"Ġdiv":2657,"Ġcredit":2658,"ray":2659,"Ġinit":2660,"ement":2661,"cious":2662,"oring":2663,"Ġ25":2664,"Ġavoid":2665,"ops":2666,"Ġfinan":2667,"Ġcountries":2668,"ĠMc":2669,"Ġextra":2670,"Ġevidence":2671,"Ġimage":2672,"ĠAb":2673,"Ġattention":2674,"sp":2675,"Ġemail":2676,"Ġdise":2677,"Ġlack":2678,"ĠInst":2679,"ĠPres":2680,"ĠĠĠĠĠĠĠĠĠĠĠĠĠĠĠĠĠĠĠĠĠĠĠĠĠĠĠĠĠĠĠĠ":2681,"ification":2682,"Ġpolice":2683,"Ã©":2684,"ibly":2685,"On":2686,"They":2687,"Ġexcept":2688,"irth":2689,"ĠWell":2690,"Ġuser":2691,"off":2692,"Ġservices":2693,"ences":2694,"Ġregard":2695,"Ġengine":2696,"add":2697,"reg":2698,"het":2699,"Ġbox":2700,"Ġeasily":2701,"Ġcouldn":2702,"Ġlear":2703,"Ġhuge":2704,"Ġforward":2705,"ĠTw":2706,"</":2707,"Ġbi":2708,"Ġwants":2709,"aught":2710,"Ġcover":2711,"ĠAf":2712,"mit":2713,"erson":2714,"uel":2715,"Ġwebsite":2716,"Ġcool":2717,"wise":2718,"Ġforce":2719,"Ġphysical":2720,"ground":2721,"Ġfix":2722,"urch":2723,"Ġri":2724,"Ġvot":2725,"Ġstri":2726,"Ġcoll":2727,"ĠWhile":2728,"duct":2729,"Ġchance":2730,"Ġhappy":2731,"unt":2732,"Ġnormal":2733,"ille":2734,"Ġtou":2735,"mp":2736,"ha":2737,"astic":2738,"ressed":2739,"Ġcook":2740,"set":2741,"Ġjud":2742,"sych":2743,"Ġmeaning":2744,"cul":2745,"Ġroad":2746,"attle":2747,"Ġgave":2748,"urt":2749,"Ġsepar":2750,"Ġbank":2751,"Ġinflu":2752,"Ġindustry":2753,"ĠEven":2754,"Ġconsidered":2755,"RE":2756,"Ġfac":2757,"Is":2758,"bed":2759,"Ġ50":2760,"Ġcolor":2761,"more":2762,"Ġsus":2763,"Ġconcept":2764,"Ġwall":2765,"Ġrequired":2766,"ĠÂ":2767,"Ġextreme":2768,"Ġlevels":2769,"Ġwritten":2770,"Ġcomplex":2771,"ĠWorld":2772,"Ġmultip":2773,"Ġlate":2774,"One":2775,"Ġsil":2776,"lying":2777,"22":2778,"Ġprevent":2779,"Ġtit":2780,"now":2781,"Ġdecided":2782,"Ġut":2783,"Ġeffects":2784,"arily":2785,"hem":2786,"Ġweeks":2787,"Ġimmedi":2788,"just":2789,"ring":2790,"arth":2791,"ctions":2792,"ĠEd":2793,"ĠWill":2794,"using":2795,"Ġreach":2796,"tt":2797,"Ġmat":2798,"Ġperformance":2799,"ĠCont":2800,"anced":2801,"Ġinvolved":2802,"Ġda":2803,"eter":2804,"Ġjo":2805,"Ġparts":2806,"Ġgun":2807,"Ġhappens":2808,"Ġthird":2809,"ned":2810,"ĠHere":2811,"ĠGo":2812,"aur":2813,"pite":2814,"Ġsuff":2815,"Ġhop":2816,"Ġcontact":2817,"Ġregular":2818,"Ġresponse":2819,"Ġsoftware":2820,"Ġdeli":2821,"erve":2822,"Ġthreat":2823,"Ġeye":2824,"40":2825,"ĠSec":2826,"urance":2827,"Ġnature":2828,"Ġgives":2829,"Ġheav":2830,"Ġbooks":2831,"Le":2832,"ram":2833,"Ġcollect":2834,"isc":2835,"Ġpoor":2836,"Ġrange":2837,"Ġchoose":2838,"Ġseason":2839,"Ġcomments":2840,"ĠMed":2841,"Ġfine":2842,"Ġwhatever":2843,"ĠPart":2844,"Ġconvers":2845,"Ġsold":2846,"Ġprep":2847,"Ġdrive":2848,"Ġpurch":2849,"Ġtypes":2850,"eah":2851,"lling":2852,"Ġfat":2853,"icated":2854,"ĠDem":2855,"Ġcat":2856,"ĠKe":2857,"Ġworked":2858,"rest":2859,"ari":2860,"Ġplayers":2861,"olute":2862,"Ġoption":2863,"Ġrock":2864,"chan":2865,"tain":2866,"Ġcharacters":2867,"artment":2868,"ĠGerm":2869,"Ġlearning":2870,"Ġscreen":2871,"ping":2872,"Ġpiece":2873,"ees":2874,"Ġnecessary":2875,"Ġagree":2876,"Ġalone":2877,"ival":2878,"ened":2879,"oul":2880,"Ġdream":2881,"lled":2882,"Ġscient":2883,"Ġspir":2884,"Ġareas":2885,"Ġoffice":2886,"ĠOf":2887,"Ġnetwork":2888,"ww":2889,"____":2890,"Ġmorning":2891,"ĠBrit":2892,"Ġfeed":2893,"itter":2894,"obal":2895,"inary":2896,"Ġnumbers":2897,"Ġce":2898,"Ġweb":2899,"):":2900,"Ġdro":2901,"ager":2902,"ners":2903,"Ġchoice":2904,"ran":2905,"ĠJan":2906,"Ġ@":2907,"Ġson":2908,"mm":2909,"Ġvoice":2910,"king":2911,"irm":2912,"resh":2913,"Ġcand":2914,"Ġstru":2915,"ĠEnglish":2916,"ysis":2917,"Ġtruth":2918,"Ġ24":2919,"Ġgroups":2920,"Ġvict":2921,"Ġstates":2922,"Ġfinally":2923,"ky":2924,"Ġtotal":2925,"Ġtemper":2926,"ĠYork":2927,"ino":2928,"Ġtrust":2929,"Ġign":2930,"Ġmodern":2931,"//":2932,"Ġmoving":2933,"80":2934,"ĠCal":2935,"Ġbur":2936,"ishing":2937,"ivil":2938,"ĠMost":2939,"hood":2940,"Ġreasons":2941,"Ġmedical":2942,"etic":2943,"?âĢĿ":2944,"itely":2945,"ĠUs":2946,"Ġstandard":2947,"Ġevents":2948,"yond":2949,"aling":2950,"ceed":2951,"ief":2952,"nces":2953,"Ġmix":2954,"Ġcourt":2955,"udd":2956,"ales":2957,"ension":2958,"ĠGe":2959,"Ġgiving":2960,"Ġfem":2961,"Now":2962,"Ġdeg":2963,"Ġoccur":2964,"Ġadded":2965,"Ġcontrib":2966,"Ġcertainly":2967,"Ġrev":2968,"Ġpractice":2969,"ivity":2970,"ription":2971,"Ġbreat":2972,"Ġsave":2973,"ĠEvery":2974,"Ġliter":2975,"Ġprin":2976,"Ġinstall":2977,"Ġtraining":2978,"Ġpan":2979,"60":2980,"ĠHer":2981,"ID":2982,"room":2983,"Ġdraw":2984,"Ġdecision":2985,"Ġautom":2986,"inc":2987,"oph":2988,"Ġuses":2989,"Ġbase":2990,"imum":2991,"23":2992,"reng":2993,"Ġaverage":2994,"Ġcells":2995,"ounds":2996,"Ġideas":2997,"Ġteac":2998,"Ġhost":2999,"Ġmultiple":3000,"icles":3001,"aging":3002,"oura":3003,"Ġlegal":3004,"Ġscience":3005,"OT":3006,"Ġready":3007,"Ġmilitary":3008,"Ġtown":3009,"Ġsolution":3010,"atory":3011,"Ġrecent":3012,"lim":3013,"Ġlif":3014,"rict":3015,"omb":3016,"amm":3017,"Ġpressure":3018,"Ġsix":3019,"Ġmessage":3020,"Ġwide":3021,"itution":3022,"Ġcold":3023,"Ġopin":3024,"ĠAlso":3025,"iday":3026,"Ġculture":3027,"olic":3028,"Ġfit":3029,"----":3030,"Ġintrodu":3031,"Ġperhaps":3032,"Ġexec":3033,"Ġdoll":3034,"Ġpositive":3035,"Ġmiddle":3036,"Ġfrequ":3037,"Ġaccording":3038,"Ġsurv":3039,"Ġcross":3040,"Ġreality":3041,"gar":3042,"Ġgone":3043,"Ġrights":3044,"Ġsociety":3045,"ada":3046,"AS":3047,"Ġheld":3048,"oses":3049,"sequ":3050,"Ġguys":3051,"Ġupd":3052,"Ġir":3053,"Ġpen":3054,"iful":3055,"Ġstock":3056,"Ġrules":3057,"Ġactual":3058,"Ġfigure":3059,"word":3060,"Ġpresident":3061,"Ġ\\":3062,"ĊĊĊĠ":3063,"Ġur":3064,"She":3065,"Ġinn":3066,"Ġshot":3067,"Ġsett":3068,"Ġden":3069,"Ġfinal":3070,"ĠDr":3071,"Ġpubl":3072,"ĠGen":3073,"Ġknows":3074,"ĠTV":3075,"iny":3076,"Ġagre":3077,"Ġhor":3078,"ĠPresident":3079,"ams":3080,"cies":3081,"Ġfear":3082,"Ġver":3083,"fact":3084,"Ġgrowth":3085,"Ġunderstanding":3086,"Ġgas":3087,"ĠRepublic":3088,"ruction":3089,"ux":3090,"ĠHar":3091,"Ġallowed":3092,"Ġplayer":3093,"Ex":3094,"Ġdel":3095,"Ġpolicy":3096,"Ġdog":3097,"Ġrecently":3098,"egr":3099,"lier":3100,"but":3101,"ĠLet":3102,"agn":3103,"ĠRuss":3104,"ĠAre":3105,"imin":3106,"Ġaware":3107,"Ġrelated":3108,"ĠÂłĠÂł":3109,"Ġchanged":3110,"Ġple":3111,"Ġoptions":3112,"apan":3113,"Ġ2012":3114,"Ġreve":3115,"Ġarri":3116,"Ġfinancial":3117,"ĠCent":3118,"Ġdocument":3119,"uments":3120,"ĠYes":3121,"Ġord":3122,"Ġtreatment":3123,"Ġaddition":3124,"su":3125,"AL":3126,"Ġesc":3127,"Ġestab":3128,"rit":3129,"Ġcry":3130,"Ġband":3131,"iced":3132,"ĠObama":3133,"Ġusers":3134,"Ġgenerally":3135,"onym":3136,");":3137,"Ġemb":3138,"Ġ{":3139,"Ġmist":3140,"ously":3141,"Ġbrand":3142,"aly":3143,"=\"":3144,"aign":3145,"Ġselect":3146,"Ġallows":3147,"Ġvisit":3148,"Ġproduction":3149,"Ġvote":3150,"Ġdoub":3151,"ĠInt":3152,"ĠIntern":3153,"Ġbuilt":3154,"Ġphoto":3155,"24":3156,"ĠComm":3157,"oming":3158,"Ph":3159,"Ġwait":3160,"Ġbrought":3161,"minist":3162,"asc":3163,"Ġnational":3164,"Ġexerc":3165,"ĠSm":3166,"Ġfeet":3167,"ashing":3168,"Ġ...":3169,"21":3170,"Ġplayed":3171,"Ġstraight":3172,"Ġdirectly":3173,"Ġhelps":3174,"Ġsignificant":3175,"Ġdate":3176,"Ġfell":3177,"Ġfa":3178,"ald":3179,"ĠAct":3180,"inally":3181,"iles":3182,"Ġstyle":3183,"Ġdamage":3184,"Ġslight":3185,"Ġthous":3186,"Ġwarm":3187,"Ġconditions":3188,"Ġplease":3189,"icate":3190,"Ġload":3191,"sec":3192,"Ġleaders":3193,"Ġ21":3194,"Ġcustomers":3195,"Ġrout":3196,"Ġeasier":3197,"Ġalthough":3198,"Ġweap":3199,"aughter":3200,"how":3201,"ken":3202,"Ġbirth":3203,"ĊĠĠĠĠĠ":3204,"pir":3205,"Ġnote":3206,"All":3207,"Ġstreng":3208,"zz":3209,"Ġwife":3210,"uted":3211,"aries":3212,"ĠBecause":3213,"Ġpaid":3214,"ĠMus":3215,"enty":3216,"ederal":3217,"Ġburn":3218,"Ġbenefits":3219,"ament":3220,"Be":3221,"ero":3222,"ength":3223,"Ġgoal":3224,"Ġtemperature":3225,"Ġbasic":3226,"ĠDes":3227,"OC":3228,"Ġeconomic":3229,"aul":3230,"uk":3231,"Ġeffective":3232,"Ġcarry":3233,"Ġflow":3234,"ĠCo":3235,"Ġunique":3236,"ĠGoogle":3237,"Ġstories":3238,"rupt":3239,"Ġcosts":3240,"Ġlose":3241,"ĠMin":3242,"Ġofficial":3243,"ournal":3244,"Ġabsolute":3245,"cient":3246,"OR":3247,"Ġhaven":3248,"Ġheat":3249,"Ġrepe":3250,"Ġplaces":3251,"Ġten":3252,"By":3253,"Ġteach":3254,"At":3255,"Ġpurpose":3256,"atives":3257,"Ġdanger":3258,"Ġimplement":3259,"ests":3260,"ograp":3261,"Ġapplication":3262,"idge":3263,"Ġcustomer":3264,"Ġwrote":3265,"what":3266,"ĊĊĠĠĠĠĠĠĠĠ":3267,"ropri":3268,"ĠSw":3269,"Ġcapt":3270,"Ġemer":3271,"lear":3272,"Ġinvestig":3273,"bor":3274,"ession":3275,"Ġpsych":3276,"itude":3277,"Ġbrother":3278,"cell":3279,"Ġbecomes":3280,"iment":3281,"Ġcontract":3282,"Ġclos":3283,"Ġprivate":3284,"undred":3285,"Ġexplain":3286,"airs":3287,"Ġcit":3288,"ĠAny":3289,"Ġrecommend":3290,"ÂłÂłÂł":3291,"Ġspent":3292,"pper":3293,"year":3294,"Ġbaby":3295,"nes":3296,"Ġstick":3297,"Ġchem":3298,"key":3299,"Ġmatch":3300,"Ġlines":3301,"With":3302,"Ġdisease":3303,"ĠSch":3304,"ellig":3305,"Ġund":3306,"Ġpattern":3307,"Ġaltern":3308,"Ġgreen":3309,".[":3310,"EN":3311,"ĠUniversity":3312,"Ġsounds":3313,"Ġpopulation":3314,"Ġseemed":3315,"Ġinj":3316,"Ġsurface":3317,"atform":3318,"Ġbeyond":3319,"ara":3320,"Ġmeant":3321,"omp":3322,"order":3323,"Ġmechan":3324,"ĠAug":3325,"Ġsubst":3326,"acebook":3327,"Ġeffic":3328,"Ġled":3329,"ech":3330,"Ġunf":3331,"ĠAust":3332,"Ġcomfort":3333,"ĠChina":3334,"ĠKing":3335,"Ġnut":3336,"Here":3337,"entially":3338,"iving":3339,"Ġformer":3340,"Ġtouch":3341,"ĠFrom":3342,"Ġfeatures":3343,"Ġconsist":3344,"Ġparticip":3345,"Ġult":3346,"Ġeducation":3347,"amb":3348,"ĠEarth":3349,"Con":3350,"ĠAg":3351,"ĠPeople":3352,"ĠBar":3353,"âĢĿ.":3354,"rand":3355,"Ġrelative":3356,"osition":3357,"Ġ40":3358,"Ġsupposed":3359,"ights":3360,"han":3361,"Ġ23":3362,"Ġparticularly":3363,"Ġproperty":3364,"imately":3365,"Ġprior":3366,"mission":3367,"Ġstress":3368,"Ġcampaign":3369,"Ġuseful":3370,"Ġmur":3371,"Ġearth":3372,"Ġadvant":3373,"://":3374,"which":3375,"isions":3376,"Ġfra":3377,"azing":3378,"Ġbehavior":3379,"rely":3380,"vant":3381,"rench":3382,"ĠSouth":3383,"Ġstarting":3384,"Ġtrou":3385,"dom":3386,"Not":3387,"ags":3388,"70":3389,"Ġskills":3390,"Ġshop":3391,"Ġseeing":3392,"Ġstar":3393,"Cl":3394,"ĠJew":3395,"ancy":3396,"Ġbeginning":3397,"band":3398,"Ġhealthy":3399,"ES":3400,"Ġvalues":3401,"arc":3402,"ĠChe":3403,"Ġlik":3404,"Ġpowerful":3405,"uary":3406,"Ġ22":3407,"Ġprogress":3408,"Ġindividuals":3409,"ĠSte":3410,"Ġshoot":3411,"Ġensure":3412,"aches":3413,"Ġmeasure":3414,"Ġtast":3415,"Ġmoved":3416,"Ġmemory":3417,"iant":3418,"Ġspread":3419,"ĠEl":3420,"ĠGl":3421,"Ġrespond":3422,"ED":3423,"Ġmouth":3424,"Ġtele":3425,"ĠChar":3426,"Ġimmediately":3427,"iled":3428,"pre":3429,"Ġeffort":3430,"ĠMore":3431,"Ġdesigned":3432,"IS":3433,"orry":3434,"mpt":3435,"Ġkept":3436,"Ġdemon":3437,"Ġcurrently":3438,"Ġvia":3439,"Ġmachine":3440,"Ġgold":3441,"Ġdemand":3442,"alt":3443,"Ġvac":3444,"Ġwat":3445,"Ġinsurance":3446,"Ġboard":3447,"ube":3448,"rael":3449,"ĠApr":3450,"ĠSim":3451,"that":3452,"Ġcondition":3453,"Ġscene":3454,"ĠAfric":3455,"Ġarm":3456,"Ġ2011":3457,"Ġcho":3458,"oles":3459,"ĠFirst":3460,"IT":3461,"ev":3462,"Un":3463,"ris":3464,"ĠJapan":3465,"Ġopportunity":3466,"Ġspirit":3467,"Ġharm":3468,"aker":3469,"Ġfing":3470,"Ġmob":3471,"Ġfuck":3472,"Ġcontain":3473,"Ġhundred":3474,"ications":3475,"99":3476,"hold":3477,"Ġresources":3478,"Ġmember":3479,"Ġscen":3480,"Your":3481,"Ġlat":3482,"Ġkilled":3483,"Ġcreating":3484,"Ġ2010":3485,"Ġdefinitely":3486,"Ġpow":3487,"Ġdie":3488,"Ġstrugg":3489,"ĠMark":3490,"hib":3491,"Ġmovement":3492,"ĠAdd":3493,"ague":3494,"ica":3495,"Ġthroughout":3496,"ĠLike":3497,"ĠDav":3498,"Ġproduce":3499,"Ġthoughts":3500,"Ġonto":3501,"26":3502,"Ġ2013":3503,"ortunately":3504,"Ġwish":3505,"rast":3506,"ĠNorth":3507,"Ġdetails":3508,"Ġmanagement":3509,"**":3510,"AM":3511,"roy":3512,"Ġnames":3513,"Ġneigh":3514,"ograph":3515,"kay":3516,"ael":3517,"Ġinterview":3518,"Ġtal":3519,"Ġkid":3520,"Ġmid":3521,"Ġprinci":3522,"ĠHouse":3523,"Ġhighly":3524,"Ġplant":3525,"Ġeconomy":3526,"Ġmount":3527,"Ġwhose":3528,"Ġtheory":3529,"After":3530,"Ġlearned":3531,"Ġanalysis":3532,"ĠEm":3533,"AC":3534,"dden":3535,"??":3536,"Ġactivity":3537,"Ġwatching":3538,"Ġbeautiful":3539,"oup":3540,"Ġrelease":3541,"ĠTra":3542,"Ġinterested":3543,"Ġshall":3544,"reci":3545,"ĠArt":3546,"Ġdevice":3547,"board":3548,"based":3549,"itation":3550,"ĠOct":3551,"Ġitems":3552,"Ġgrad":3553,"Ġcommand":3554,"bum":3555,"Ġclearly":3556,"ĠMon":3557,"round":3558,"lection":3559,"Ġshown":3560,"ategy":3561,"Ġcancer":3562,"Ġblue":3563,"Ġeventually":3564,"Ġanimals":3565,"Ġprint":3566,"Ġ2008":3567,"Ġincreasing":3568,"Ġcapital":3569,"onymous":3570,"omen":3571,"Ġenem":3572,"Ġplatform":3573,"Ġbill":3574,"ĠTrump":3575,"down":3576,"Do":3577,"Ġglobal":3578,"Ġsudden":3579,"la":3580,"Ġcivil":3581,"Ġstructure":3582,"rs":3583,"you":3584,"Ġcaused":3585,"Ġveh":3586,"Ġenter":3587,"rief":3588,"Ġaspect":3589,"Ġtruly":3590,"hern":3591,"Ġexpected":3592,"Ġnegative":3593,"Ġadult":3594,"ĠSpe":3595,"Some":3596,"Ġassum":3597,"Ġanti":3598,"Ġmostly":3599,"Ġdrug":3600,"ĠState":3601,"ani":3602,"nown":3603,"Ġintegr":3604,"Ġnearly":3605,"Ġprovides":3606,"aled":3607,"Ġcast":3608,"Ġrace":3609,"ores":3610,"Ġgrand":3611,"ae":3612,"iven":3613,"Ġworse":3614,"ufact":3615,"Ġliber":3616,"ĊĊĠĠĠĠĠĠĠ":3617,"rol":3618,"Ġbatter":3619,"Ġnotice":3620,"Ġearlier":3621,"Ġsecret":3622,"Ġassist":3623,"Ġsales":3624,"Ġachieve":3625,"ĠMany":3626,"mark":3627,"Ġstudent":3628,"Ġclot":3629,"lebr":3630,"ils":3631,"27":3632,"Ġdistrib":3633,"Ġreduce":3634,"gn":3635,"ĠDis":3636,"Ġmax":3637,"with":3638,"Ġprote":3639,"Ġsaf":3640,"Ġgreater":3641,"45":3642,"ĠPol":3643,"Ġbroad":3644,"Ġepis":3645,"Ġprovided":3646,"Ġmentioned":3647,"Ġlimited":3648,"aper":3649,"oly":3650,"ĠDemocr":3651,"Ġcandid":3652,"Ġcopy":3653,"ett":3654,"Ġrule":3655,"Ġlarger":3656,"Ġang":3657,"gal":3658,"Ġincome":3659,"Ġdeveloped":3660,"enge":3661,"Ġencoura":3662,"Ġsuccessful":3663,"ĠComp":3664,"anc":3665,"Ġimpl":3666,"Ġthus":3667,"Ġtherefore":3668,"atur":3669,"Ġcollege":3670,"ĠRom":3671,"iling":3672,"ĠRed":3673,"Ġfloor":3674,"Ġfavorite":3675,"edom":3676,"Ġfully":3677,"Ġprofessional":3678,"Ġround":3679,"ĠPar":3680,"Ġwilling":3681,"Pro":3682,"Ġlock":3683,"Ġnamed":3684,"Ġborn":3685,"Ġdat":3686,"Ġbelief":3687,"Ġgod":3688,"ek":3689,"Ġnation":3690,"28":3691,"Ġtools":3692,"Yes":3693,"ĠPre":3694,"Ġcitiz":3695,"raft":3696,"orks":3697,"Ġmer":3698,"Ġlots":3699,"ĠOther":3700,"Ġstage":3701,"Ġprefer":3702,"Ġsteps":3703,"ection":3704,"Ġarch":3705,"Ġrequires":3706,"Ġtour":3707,"Ġindepend":3708,"Well":3709,"iation":3710,"Ġcharge":3711,"Ġsam":3712,"Ġsection":3713,"Ġinternet":3714,"Ġextremely":3715,"Ġgrowing":3716,"cast":3717,"ĠOur":3718,"Ø§":3719,"Ġmajority":3720,"Ġassociated":3721,"Ġdaily":3722,"29":3723,"Ġdisplay":3724,"Ġpus":3725,"udget":3726,"Ġadditional":3727,"Ġmarketing":3728,"ĠJes":3729,"Ġopinion":3730,"ĠOnce":3731,"Ġcenter":3732,"ĠUK":3733,"Ġdoctor":3734,"NA":3735,"ulate":3736,"Ġadminist":3737,"ka":3738,"osis":3739,"Ġhus":3740,"Ġpassed":3741,"Ġolder":3742,"izes":3743,"men":3744,"lam":3745,"imal":3746,"Ġbenefit":3747,"abor":3748,"estern":3749,"ĠIsrael":3750,"ĠCor":3751,"Ġdiet":3752,"Ġwood":3753,"Ġdirection":3754,"35":3755,"Ġtitle":3756,"Ġcompon":3757,"row":3758,"Ġasking":3759,"iber":3760,"erved":3761,"Ġeating":3762,"Ġlaws":3763,"ĠTH":3764,"Ġcareer":3765,"Ġnarr":3766,"ĠPost":3767,"Ġchalleng":3768,"bon":3769,"Ġhosp":3770,"Ġlimit":3771,"iring":3772,"Ġlength":3773,"ĠCons":3774,"Ġ198":3775,"Ġtask":3776,"Ġtrade":3777,"Ġmeeting":3778,"Ġrid":3779,"Ġreceived":3780,"Ġluck":3781,"Ġstatement":3782,"odes":3783,"Ġaccur":3784,"Ġ2009":3785,"Ġstrength":3786,"Ġappropri":3787,"Ġreleased":3788,"ĠChristian":3789,"ocol":3790,"Ġpark":3791,"Ġhistor":3792,"ĠMaybe":3793,"Sc":3794,"change":3795,"Ġbackground":3796,"Ġhonest":3797,"Ġincreased":3798,"Ġbottom":3799,"Ġcentury":3800,"riage":3801,"itable":3802,"Ġclick":3803,"IC":3804,"Ġpun":3805,"LL":3806,"Ġattract":3807,"Ġelements":3808,"Ġinstance":3809,"Ġjobs":3810,"Ġdied":3811,"Ġjump":3812,"ccording":3813,"Ġsmart":3814,"Ġtells":3815,"Ġnovel":3816,"Ġflu":3817,"Ġcompared":3818,"Ġgirls":3819,"Ġrob":3820,"Ġmill":3821,"ruit":3822,"roll":3823,"Ġstarts":3824,"ĠCity":3825,"Ġbeg":3826,"aint":3827,"Ġfactors":3828,"Ġargument":3829,"ĠOh":3830,"Ġunless":3831,"iam":3832,"Ġreceive":3833,"ĠSer":3834,"OS":3835,"Ġremind":3836,"Ġresist":3837,"Ġappears":3838,"ĠBritish":3839,"ugg":3840,"Ġsexual":3841,"Ar":3842,"ĠSince":3843,"Ġcontext":3844,"Ġge":3845,"Ġfollowed":3846,"Ġcounter":3847,"ĠWho":3848,"ij":3849,"umn":3850,"ĠII":3851,"Ġstrategy":3852,"Ġalbum":3853,"Ġglass":3854,"Ġble":3855,"cks":3856,"Ġpatient":3857,"Ġpatients":3858,"Ġserver":3859,"Ġter":3860,"Ġcalcul":3861,"Ġreligious":3862,"iver":3863,"Ġreact":3864,"Ġremain":3865,"Ġincludes":3866,"yl":3867,"Ġdisp":3868,"Ġactions":3869,"Ġtraditional":3870,"no":3871,"ĠFeb":3872,"Ġdry":3873,"><":3874,"ifying":3875,"ustr":3876,"Ġlisten":3877,"orrow":3878,"ady":3879,"ĠGood":3880,"pective":3881,"Ġprec":3882,"Ġdebt":3883,"Ġdecide":3884,"orge":3885,"atically":3886,"Ġcru":3887,"Ġforeign":3888,"Ġfol":3889,"apter":3890,"Ġfeels":3891,"Ġcoff":3892,"ĠAmericans":3893,"Ġvir":3894,"isf":3895,"Ġmanufact":3896,"ĠNational":3897,"inct":3898,"Ġspot":3899,"ĠBlack":3900,"que":3901,"Ġmental":3902,"Ġfresh":3903,"Ġdecl":3904,"Ġwaiting":3905,"Ġsafety":3906,"Ġpeace":3907,"Ġvictim":3908,"Ġstaff":3909,"Ġappreci":3910,"Ġtransl":3911,"Ġrequest":3912,"Ġaudience":3913,"Ġice":3914,"Ġtoward":3915,"Ġvirt":3916,"Ġleaving":3917,"Ġsmaller":3918,"tr":3919,"ĠMich":3920,"Ġelectric":3921,"Ġmethods":3922,"Don":3923,"Ġslightly":3924,"ptember":3925,"Ġcup":3926,"Ġforget":3927,"Ġintellig":3928,"33":3929,"earch":3930,"Ġwild":3931,"Ġcalls":3932,"Ġtrain":3933,"inese":3934,"Ġsetting":3935,"Ġbattle":3936,"Ġreflect":3937,"Ġlocation":3938,"asion":3939,"Ġqual":3940,"ls":3941,"Ġheavy":3942,"Ġanaly":3943,"friend":3944,"Ġegg":3945,"bing":3946,"ares":3947,"Ġcamera":3948,"ĠRec":3949,"Ġcauses":3950,"wood":3951,"oday":3952,"mitted":3953,"Ġhumans":3954,"Ġprograms":3955,"Ġletter":3956,"Ġunc":3957,"Ġsympt":3958,"Ġamazing":3959,"Ġahead":3960,"Ġcelebr":3961,"iers":3962,"While":3963,"Ġrealize":3964,"ĠCong":3965,"Ġbalance":3966,"Ġdespite":3967,"arian":3968,"ĠWind":3969,"Ġ26":3970,"anch":3971,"istics":3972,"cember":3973,"Ġforces":3974,"eration":3975,"asy":3976,"ulated":3977,"Ġfan":3978,"Ġframe":3979,"Ġrefer":3980,"Ġmicro":3981,"Ġherself":3982,"Ġcatch":3983,"Ġoverall":3984,"OU":3985,"Ġleading":3986,"Ġactivities":3987,"amin":3988,"ĠNet":3989,"Ġdefend":3990,"Ġrich":3991,"Ġdrop":3992,"aming":3993,"iliar":3994,"force":3995,"Ġworry":3996,"Ġapparent":3997,"Ġcars":3998,"ovember":3999,"part":4000,"ĠJack":4001,"Ġ28":4002,"Ġ2014":4003,"Ġsummer":4004,"Ġtree":4005,"Ġvs":4006,"Ġcorpor":4007,"Ġbasically":4008,"Ġsequ":4009,"====":4010,"oving":4011,"Ġkick":4012,"Ġhyp":4013,"iverse":4014,"onday":4015,"Ġreported":4016,"Ġpredict":4017,"ĠDay":4018,"lin":4019,"Ġnuc":4020,"Ġimagine":4021,"Ġcash":4022,"ĠMarch":4023,"Ġspecies":4024,"ĠCour":4025,"ties":4026,"ĠJanuary":4027,"Ġbul":4028,"Ġdoubt":4029,"adem":4030,"acter":4031,"Ġspl":4032,"Ġstudies":4033,"Ġapply":4034,"Ġorganization":4035,"coh":4036,"Bl":4037,"Ġclosed":4038,"Ġwindow":4039,"gers":4040,"rig":4041,"ĠFrench":4042,"Ġotherwise":4043,"Ġhell":4044,"aven":4045,"ossible":4046,"Ġ60":4047,"Ġresponsible":4048,"nds":4049,"vey":4050,"Ġtelling":4051,"ronic":4052,"Oh":4053,"Ġweak":4054,"Ġgain":4055,"Ġvill":4056,"formation":4057,"aked":4058,"term":4059,"pes":4060,"Ġ>":4061,"Ġrates":4062,"Ġdetermine":4063,"Ġinternational":4064,"à¤":4065,"ometimes":4066,"eff":4067,"ĠApril":4068,"Ġhate":4069,"Ġshut":4070,"ĠVal":4071,"Ġbasis":4072,"Ġship":4073,"vision":4074,"Ġcontinued":4075,"ĠWhite":4076,"Ġing":4077,"rab":4078,"ternal":4079,"pen":4080,"Ġbeat":4081,"rie":4082,"Ġconnection":4083,"gu":4084,"Ġconversation":4085,"Ġadvantage":4086,"unday":4087,"From":4088,"Ġanyway":4089,"Ġforg":4090,"ĠWest":4091,"ading":4092,"Ġplanet":4093,"Let":4094,"Ġimages":4095,"Ġinteract":4096,"Ġexercise":4097,"eds":4098,"ĠGet":4099,"Ġsche":4100,"Ġhandle":4101,"well":4102,"Ġpublished":4103,"ĊĊĊĠĠĠ":4104,"Ġprimary":4105,"AP":4106,"Ġincluded":4107,"upid":4108,"vest":4109,"ros":4110,"odies":4111,"ĠGreat":4112,"Ġsad":4113,"39":4114,"Ġterror":4115,"09":4116,"Ġdestroy":4117,"Ġpet":4118,"Ġessential":4119,"erg":4120,"ulf":4121,"ban":4122,"Ġeth":4123,"Ġexpress":4124,"Ġadvice":4125,"ĠAustral":4126,"Ġputting":4127,"org":4128,"Ġrat":4129,"inner":4130,"Ġkeeping":4131,"ĠUp":4132,"Ġscript":4133,"Ġid":4134,"Ġbudget":4135,"Ġ27":4136,"Ġsitting":4137,"lict":4138,"anging":4139,"Ġ2015":4140,"Ġvariety":4141,"see":4142,"rain":4143,"Ġchann":4144,"OM":4145,"ulations":4146,"Ġregion":4147,"ĠJesus":4148,"Ġdegree":4149,"Ġcateg":4150,"Ġturns":4151,"Ġhero":4152,"Ġdistance":4153,"Ġreplace":4154,"Can":4155,"Ġexpensive":4156,"Ġacqu":4157,"Ġloved":4158,"ĠJune":4159,"Ġprices":4160,"Com":4161,"Ġdriving":4162,"Ġhusband":4163,"Ġcoffee":4164,"raw":4165,"rible":4166,"uild":4167,"Ġfaith":4168,"Ġmovies":4169,"Ġrand":4170,"Qu":4171,"Ġconduct":4172,"Ġfemale":4173,"illed":4174,"raq":4175,"Ġfaster":4176,"Ġnor":4177,"Ġfinding":4178,"Ġder":4179,"Ġhous":4180,"Ġbillion":4181,"ĠBo":4182,"ĠAugust":4183,"cience":4184,"Ġabsolutely":4185,"100":4186,"Ġactive":4187,"ĠSl":4188,"Ġforms":4189,"Ġcontinu":4190,"Ġdevices":4191,"ET":4192,"Ġquant":4193,"Ġdigital":4194,"itc":4195,"Ġmale":4196,"Ġgraph":4197,"].":4198,"lied":4199,"Ġoffers":4200,"Ġsweet":4201,"Ġspeech":4202,"vis":4203,"arter":4204,"ĠSam":4205,"ĠPaul":4206,"alse":4207,"uman":4208,"BC":4209,"Ġprison":4210,"38":4211,"Ġremove":4212,"Ġerror":4213,"Ġslowly":4214,"Ġhar":4215,"Ġstopped":4216,"Ġfederal":4217,"Ġbecoming":4218,"box":4219,"Ġcards":4220,"ĠThanks":4221,"Ġanimal":4222,"ender":4223,"Ġdouble":4224,"Ġhelped":4225,"ya":4226,"owd":4227,"Ġplans":4228,"ham":4229,"urg":4230,"De":4231,"ĠNews":4232,"ius":4233,"Ġstreet":4234,"Ġdescribed":4235,"ography":4236,"wr":4237,"Ġgar":4238,"pret":4239,"44":4240,"Ġlibr":4241,"ilies":4242,"iforn":4243,"Ġtim":4244,"Ġcheap":4245,"hest":4246,"ĠCr":4247,"ĠJuly":4248,"ception":4249,"Ġarms":4250,"Ġrandom":4251,"fra":4252,"aid":4253,"Ġtick":4254,"ĊĠĠĠĠĠĠĠĠ":4255,"Ġincred":4256,"xy":4257,"Ġtrip":4258,"Ġtopic":4259,"Ġpossibly":4260,"Ġbiggest":4261,"ctors":4262,"36":4263,"Ġroll":4264,"Ġsites":4265,"Ġsurround":4266,"Ġfarm":4267,"Ġwear":4268,"ĠPat":4269,"mas":4270,"Ġtotally":4271,"Ġpush":4272,"ĠDep":4273,"alu":4274,"Ġsources":4275,"ilos":4276,"ĠDOC":4277,"Ġseparate":4278,"ĠÃ":4279,"Ġdaughter":4280,"Ġreb":4281,"ĠRem":4282,"Ġforced":4283,"ÂłÂłÂłÂłÂłÂłÂłÂłÂłÂłÂłÂłÂłÂłÂłÂł":4284,"Ġaim":4285,"can":4286,"Ġfreedom":4287,"Ġchallenge":4288,"point":4289,"Ġdiscussion":4290,"Ġtypically":4291,"Ġchemical":4292,"Tw":4293,"Ġcommer":4294,"ĠDef":4295,"ĠSen":4296,"Ġsugar":4297,"Ġstatus":4298,"yr":4299,"Ġequip":4300,"Ġinfluence":4301,"gment":4302,"ĠNovember":4303,"Ġknowing":4304,"âĢĿ,":4305,"Ġshape":4306,"do":4307,"Ġchanging":4308,"Ġcompar":4309,"itness":4310,"AD":4311,"Ġleader":4312,"However":4313,"ĠSeptember":4314,"Ġsoul":4315,"ĠChinese":4316,"cles":4317,"ails":4318,"known":4319,"PS":4320,"These":4321,"ĠReg":4322,"uesday":4323,"Ġsymptoms":4324,"Ġadjust":4325,"Ġpaying":4326,"Ġadop":4327,"Ġspending":4328,"Pl":4329,"ipe":4330,"Ġworkers":4331,"Ġsymb":4332,"Ġappropriate":4333,"Ġcore":4334,"ĠIraq":4335,"Ġconflict":4336,"Im":4337,"US":4338,"Ġeight":4339,"ĠIndia":4340,"idden":4341,"Ġ2007":4342,"Ġprem":4343,"Ġtrick":4344,"Ġminor":4345,"ĠDavid":4346,"place":4347,"ondon":4348,"Ġcircum":4349,"ĠEuropean":4350,"ĠDecember":4351,"Ġpromot":4352,"Ġhappening":4353,"Ġran":4354,"37":4355,"Ġcrime":4356,"Ġsea":4357,"spe":4358,"Ġmap":4359,"Ġproduced":4360,"Leave":4361,"rough":4362,"Ġodd":4363,"ĠLaw":4364,"Ġpurchase":4365,"ords":4366,"Ġemployees":4367,"cohol":4368,"ĠPal":4369,"Ġmaster":4370,"inated":4371,"Ġded":4372,"Ġtrouble":4373,"Ġstrateg":4374,"Ġlatest":4375,"Ġer":4376,"Ġdollars":4377,"Ġcaught":4378,"New":4379,"Ġdrugs":4380,"Ġadvert":4381,"Ġthousands":4382,"ĠPC":4383,"Ġhtt":4384,"Ġexamples":4385,"Ġmissing":4386,"Ġmaintain":4387,"prove":4388,"ĠIS":4389,"ourney":4390,"05":4391,"ĠMet":4392,"oves":4393,"ĠDoes":4394,"Ġconsequ":4395,"Ġ?":4396,"new":4397,"Ġalle":4398,"ula":4399,"Ġteams":4400,"Ġgoals":4401,"Ġstream":4402,"Ġholding":4403,"Ġlic":4404,"ifornia":4405,"Ġthank":4406,"Ġcritical":4407,"Ġdatab":4408,"Ġchurch":4409,"ĠLog":4410,"Ġdetect":4411,"anted":4412,"rad":4413,"Ġfactor":4414,"ĠAnt":4415,"Us":4416,"Ġshock":4417,"otic":4418,"Ġpoll":4419,"ĠBill":4420,"Ġyell":4421,"Ġshowing":4422,"Ġfish":4423,"Ġhom":4424,"ander":4425,"Ġdemonstr":4426,"Ġentirely":4427,"Ġhurt":4428,"olar":4429,"Ġanswers":4430,"ĠFacebook":4431,"Ġ2016":4432,"Ġreached":4433,"Ġpieces":4434,"Ġpregn":4435,"Ġfans":4436,"Ġarr":4437,"Ġleaves":4438,"ĠAM":4439,"Ġelement":4440,"cont":4441,"Ġterr":4442,"resp":4443,"ĠPM":4444,"Ġbrief":4445,"rapy":4446,"Ġbroken":4447,"cil":4448,"Ġrise":4449,"Ġremains":4450,"Ġfuel":4451,"rial":4452,"Ġmetal":4453,"Ġsatisf":4454,"ynam":4455,"kin":4456,"Ġconcent":4457,"antic":4458,"Ġconserv":4459,"08":4460,"idents":4461,"Ġshowed":4462,"ĠSun":4463,"Ġapplications":4464,"isl":4465,"Ġbought":4466,"ĠMac":4467,"iable":4468,"Ġclaims":4469,"izations":4470,"ashington":4471,"Ġrap":4472,"ga":4473,"Ġthanks":4474,"ednes":4475,"unction":4476,"Ġmut":4477,"55":4478,"ĠSan":4479,"Ġlived":4480,"ste":4481,"ios":4482,"ursday":4483,"cellent":4484,"Ġmagn":4485,"ype":4486,"Ġtom":4487,"vere":4488,"Ġrestaur":4489,"Ġsupply":4490,"Ġbow":4491,"icit":4492,"ĠTheir":4493,"Ġowners":4494,"ĠInc":4495,"Ġdecisions":4496,"Ġpages":4497,"ĠStud":4498,"Ġoutput":4499,"Ġban":4500,"rian":4501,"ref":4502,"Ġstanding":4503,"Ġtesting":4504,"ĠDec":4505,"erry":4506,"za":4507,"Ġscale":4508,"Ġminute":4509,"OL":4510,"Ġbag":4511,"oto":4512,"Ġreligion":4513,"ednesday":4514,"Ab":4515,"Ġswitch":4516,"Ġcommunication":4517,"Ġreci":4518,"Ġtight":4519,"Ġestabl":4520,"34":4521,"Ġbuying":4522,"Ġplants":4523,"Ġproced":4524,"Just":4525,"ĠMod":4526,"Ġseconds":4527,"Ġton":4528,"Ġnone":4529,"rey":4530,"Ġstupid":4531,"lig":4532,"house":4533,"Ġsick":4534,"Ġcrowd":4535,"Ġwalking":4536,"Ġequipment":4537,"Ġ29":4538,"Ġbigger":4539,"Ġmarriage":4540,"Ġâ":4541,"Ġplaced":4542,"Ġcas":4543,"ĠAlthough":4544,"Ġfirm":4545,"Ġfamiliar":4546,"ĠAv":4547,"Ġfamilies":4548,"ki":4549,"ruary":4550,"ĠSee":4551,"Ġassign":4552,"Ġdangerous":4553,"Ġelection":4554,"Ġweapons":4555,"Ġsolid":4556,"Ġnoticed":4557,"Ġschools":4558,"Me":4559,"mar":4560,"Ġobviously":4561,"ĠWhere":4562,"Ġsongs":4563,"Ġhospital":4564,"07":4565,"Ġfighting":4566,"enses":4567,"Ġcitizens":4568,"',":4569,"ico":4570,"Ġattend":4571,"Ġcris":4572,"Ġfant":4573,"iminal":4574,"Ġbound":4575,"ĠOver":4576,"field":4577,"Ġexperiences":4578,"Ġbutton":4579,"Ġ197":4580,"uration":4581,"Ġcloud":4582,"Ġapart":4583,"ĠAc":4584,"Ġwaste":4585,"Ġvalid":4586,"Post":4587,"ayer":4588,"Ġadding":4589,"ĠOctober":4590,"Ġ2006":4591,"04":4592,"edia":4593,"Ġposts":4594,"Ġclient":4595,"ipp":4596,"ĠâĢ¦":4597,"ums":4598,"eed":4599,"Ġcovered":4600,"Ġthread":4601,"Ġserve":4602,"ĠCongress":4603,"osure":4604,"ĠLa":4605,"Ġleads":4606,"ĠTrans":4607,"ĠCourt":4608,"Ġevil":4609,"Ġradio":4610,"Ġbird":4611,"02":4612,"Ġexpression":4613,"iance":4614,"arant":4615,"Ġremoved":4616,"ava":4617,"ĠReply":4618,"Ġdogs":4619,"igr":4620,"ĠOff":4621,"Ġended":4622,"uts":4623,"Ġimpossible":4624,"Ġepisode":4625,"Ġguide":4626,"ING":4627,"Ġmo":4628,"ĠKore":4629,"Ġafford":4630,"Ġexisting":4631,"Ġpros":4632,"Ġproperly":4633,"ĠApple":4634,"Ġequal":4635,"Ġunit":4636,"Ġmanaged":4637,"acing":4638,"Ġpictures":4639,"Ġclub":4640,"ibr":4641,"ida":4642,"Ġast":4643,"ĠRob":4644,"Ġruns":4645,"Ġsuspect":4646,"under":4647,"soft":4648,"cket":4649,"Ġquiet":4650,"erences":4651,"Ġanx":4652,"Ġcontains":4653,"ĠEv":4654,"Ġinvestment":4655,"ache":4656,"olf":4657,"works":4658,"ooth":4659,"osh":4660,"Ġfilled":4661,"Ġpresence":4662,"Ġmort":4663,"Ġnumer":4664,"ĠHel":4665,"Ġinitial":4666,"ĠInstead":4667,"ĠMor":4668,"iques":4669,"bre":4670,"hens":4671,"Ġourselves":4672,"Ġpure":4673,"Ġconfig":4674,"equ":4675,"Ġinput":4676,"Ġvision":4677,"asure":4678,"osite":4679,"Ġreference":4680,"Ġsuddenly":4681,"ours":4682,"Ġassess":4683,"rees":4684,"SS":4685,"More":4686,"rag":4687,"Ġreports":4688,"48":4689,"ĠCount":4690,"ĠInternet":4691,"itute":4692,"ĠCalifornia":4693,"Ġspeaking":4694,"look":4695,"OP":4696,"Ġtaste":4697,"Ġefficient":4698,"edy":4699,"Ġaccident":4700,"32":4701,"Ġclim":4702,"Ġcentral":4703,"Ġmir":4704,"Ġalternative":4705,"oking":4706,"ĠSuper":4707,"Ġdefault":4708,"Ġfailed":4709,"appe":4710,"Ġcloser":4711,"Ġpulled":4712,"lder":4713,"Ġhelpful":4714,"ancing":4715,"Ġidentify":4716,"Ġwealth":4717,"Ġmine":4718,"Ġopening":4719,"Ġattacks":4720,"ĠWashington":4721,"Ġinstruct":4722,"Ġpal":4723,"Ġrot":4724,"Ġprotein":4725,"Then":4726,"Ġindic":4727,"overy":4728,"Ġfunctions":4729,"char":4730,"craft":4731,"Tr":4732,"Ġmode":4733,"ĠBro":4734,"inn":4735,"EC":4736,"Ġreven":4737,"inter":4738,"ĠLondon":4739,"ixt":4740,"47":4741,"edd":4742,"Ġprojects":4743,"ĠMicro":4744,"ĠJames":4745,"Ġstars":4746,"Ġparties":4747,"Ġthrow":4748,"ĠIslam":4749,"06":4750,"Ġtests":4751,"Ġadapt":4752,"dro":4753,"Ġdecre":4754,"Ġopened":4755,"Ġworst":4756,"ait":4757,"Ġsomewhere":4758,"Ġbright":4759,"iency":4760,"Ġfailure":4761,"Ġjoin":4762,"encies":4763,"Ġtrig":4764,"asks":4765,"zen":4766,"ĠGerman":4767,"Ġvisual":4768,"Ġrecords":4769,"hetic":4770,"ounced":4771,"Ġmassive":4772,"Ġviolence":4773,"Ġnuclear":4774,"vention":4775,"Ġwhom":4776,"ĠGree":4777,"Ġjourney":4778,"Ġexpert":4779,"!âĢĿ":4780,"TS":4781,"Ġstation":4782,"Ġempt":4783,"ĠServ":4784,"Ġdownload":4785,"Ġhearing":4786,"Ġmulti":4787,"Ġille":4788,"Ġhur":4789,"Ġfoods":4790,"Ġmeat":4791,"Ġemotional":4792,"Ġroot":4793,"Ġperspective":4794,"uries":4795,"49":4796,"Ġshouldn":4797,"Ġindeed":4798,"Ġsand":4799,"acity":4800,"Ġshared":4801,"Ġdiscovered":4802,"Ġstrange":4803,"Ġweather":4804,"Ġexperienced":4805,"Ġbare":4806,"Ġbond":4807,"Ġmodels":4808,"Ġgeneration":4809,"Ġcalling":4810,"berg":4811,"Ġfamous":4812,"ini":4813,"Ġnotes":4814,"Ġfalse":4815,"Ġbattery":4816,"Ġ^":4817,"Ġflat":4818,"Ġtransport":4819,"Ġpartner":4820,"Ġscore":4821,"fficient":4822,"istry":4823,"alled":4824,"Ġdefense":4825,"ribe":4826,"aturday":4827,"Ġrelationships":4828,"Get":4829,"Ġdesire":4830,"Cont":4831,"Ġends":4832,"Ġfeelings":4833,"ĠMart":4834,"Ġjournal":4835,"onna":4836,"Ġarrest":4837,"Ġbusinesses":4838,"akers":4839,"Ġ2017":4840,"Ġtraffic":4841,"Ġedge":4842,"oyal":4843,"Ġscientific":4844,"ashion":4845,"Ġmaterials":4846,"Ġraised":4847,"Ġproviding":4848,"Ġmission":4849,"ML":4850,"ĠÐ":4851,"Ġseven":4852,"Ġcrazy":4853,"ĊĠĠĠĠĠĠĠ":4854,"Ġmobile":4855,"irect":4856,"Ġjudge":4857,"Ġplenty":4858,"ym":4859,"Ġplanning":4860,"ipped":4861,"Ġ90":4862,"ented":4863,"Ġbodies":4864,"Ġmotiv":4865,"Ġrub":4866,"Ġobjects":4867,"ĠEast":4868,"ĠStar":4869,"Ġselling":4870,"orage":4871,"ĠMake":4872,"ĠUse":4873,"Google":4874,"ĠHigh":4875,"Ġalcohol":4876,"ĠOut":4877,"Ġcommit":4878,"itz":4879,"Se":4880,"Ġconcerned":4881,"Ġteeth":4882,"ĠBen":4883,"Ġliqu":4884,"Ġdefinition":4885,"lies":4886,"ria":4887,"Ġsmile":4888,"ĠWeb":4889,"ocal":4890,"ĠAP":4891,"icians":4892,"Ġfairly":4893,"care":4894,"share":4895,"lor":4896,"ingly":4897,"ĠLook":4898,"irty":4899,"ĠBig":4900,"ĠBra":4901,"Ġsac":4902,"Ġ80":4903,"ĠWhich":4904,"alle":4905,"Ġreaction":4906,"Ġsky":4907,"Ġdiagn":4908,"Most":4909,"estion":4910,"mail":4911,"Ġwalked":4912,"Ġtransfer":4913,"Ġunlike":4914,"Ġconnected":4915,"Ġveget":4916,"Ġ:)":4917,"ĠBel":4918,"ĠWindows":4919,"odd":4920,"ĠMuslim":4921,"Ġoffered":4922,"Sp":4923,"Ġevalu":4924,"Or":4925,"istan":4926,"Ġsen":4927,"Ġengage":4928,"Ġpu":4929,"Ġnav":4930,"Ġexpand":4931,"ĊĊÂł":4932,"while":4933,"Ġinterpret":4934,"46":4935,".'":4936,"Ġdescribe":4937,"Ġrelatively":4938,"Ġchick":4939,"ĠIran":4940,"Ġhol":4941,"ĠTime":4942,"Ġtrial":4943,"umber":4944,"icon":4945,"Ġhun":4946,"Ġbreath":4947,"Ġclimate":4948,"rem":4949,"Ġmiles":4950,"Ġ2018":4951,"Ġrealized":4952,"Ġdefined":4953,"Ġcommercial":4954,"Ġfunny":4955,"itors":4956,"Ġfinished":4957,"night":4958,"Ġaccom":4959,"Ġdifferences":4960,"Ġefforts":4961,"Ġlabor":4962,"ii":4963,"Ġcorner":4964,"Ġdial":4965,"Ġment":4966,"ĠAnsw":4967,"Ġearn":4968,"Fr":4969,"Ġexplan":4970,"Ad":4971,"Ġdriver":4972,"âĢ¢":4973,"Ġreturned":4974,"EO":4975,"Ġdepending":4976,"Ġsides":4977,"Ġwearing":4978,"Ġexcellent":4979,"Ġdu":4980,"ĠEach":4981,"Ġformat":4982,"Ġtaxes":4983,"Ġcritic":4984,"Ġplot":4985,"fortunately":4986,"Ġrough":4987,"Ġteacher":4988,"Ġ%":4989,"Ġmedic":4990,"roid":4991,"Ĥ¬":4992,"ĠCanada":4993,"orter":4994,"Ġprove":4995,"Ġhelping":4996,"ĠFebruary":4997,"kend":4998,"Ġsets":4999,"Ġsust":5000,"Ġthick":5001,"Ġinternal":5002,"ias":5003,"she":5004,"phone":5005,"ensity":5006,"Ġphilos":5007,"Ġalt":5008,"Ġmilk":5009,"Ġamb":5010,"Ġprotection":5011,"Ġuniverse":5012,"Ġdress":5013,"ĠPark":5014,"col":5015,"Ġmarried":5016,"Ġwatched":5017,"Ġplays":5018,"this":5019,"Ġflav":5020,"Our":5021,"ĠHealth":5022,"Ġque":5023,"Ġemp":5024,"Ġcart":5025,"cription":5026,"ĠMichael":5027,"apers":5028,"Ġpolitics":5029,"Ġmonitor":5030,"ologies":5031,"Ġbelong":5032,"Ġdatabase":5033,"Ġconstant":5034,"Ġrelevant":5035,"Ġsimpl":5036,"Ġtur":5037,"lock":5038,"icing":5039,"gor":5040,"Ġvehicle":5041,"03":5042,"Ġcausing":5043,"Ġrelax":5044,"atar":5045,"Ġassume":5046,"Ġaccompl":5047,"Ġspecifically":5048,"Ġcolumn":5049,"Ġking":5050,"Ġ)":5051,"terday":5052,"Add":5053,"Ġsorry":5054,"improve":5055,"EL":5056,"Ġpair":5057,"ey":5058,"Ġregarding":5059,"Ġanymore":5060,"ishes":5061,"Ġmaint":5062,"Ġstret":5063,"azon":5064,"II":5065,"Ġcomfortable":5066,"esome":5067,"Ġdeliver":5068,"Ġtrees":5069,"racy":5070,"Ġdebate":5071,"esh":5072,"Ġfly":5073,"Ġlegs":5074,"Ġisland":5075,"asp":5076,"Ġsem":5077,"Ġallowing":5078,"Ġclasses":5079,"Ġcycle":5080,"ford":5081,"top":5082,"Ġitem":5083,"gl":5084,"Ġprocesses":5085,"Ġmagic":5086,"ĠMag":5087,"Ġmel":5088,"Ġdeveloping":5089,"Ġbelieved":5090,"IM":5091,"ogen":5092,"ĠPlease":5093,"ĠThose":5094,"Ġrain":5095,"cean":5096,"Ġestim":5097,"Ġmurder":5098,"Ġsymbol":5099,"riv":5100,"Ġconstantly":5101,"ĠRussia":5102,"Ġsignal":5103,"ĠThank":5104,"ĠIts":5105,"Ġgrab":5106,"Ġtun":5107,"illing":5108,"Ġcombination":5109,"ipping":5110,"lee":5111,"Ġlargest":5112,"Every":5113,"iety":5114,"Ġbegins":5115,"Ġfolks":5116,"Ġexplained":5117,"Ġconcl":5118,"ÙĦ":5119,"Ġincor":5120,"AA":5121,"vin":5122,"31":5123,"Ġindependent":5124,"Of":5125,"Ġcities":5126,"ĠMal":5127,"Ġstring":5128,"59":5129,"osen":5130,"Read":5131,"Ġraise":5132,"Ġbunch":5133,"Ġclients":5134,"Ġlie":5135,"ĠAss":5136,"Ġlegisl":5137,"ĠLord":5138,"ĠHave":5139,"Ġapplied":5140,"Ġweird":5141,"ĠRober":5142,"reate":5143,"56":5144,"hand":5145,"Ġkilling":5146,"Ġquot":5147,"oom":5148,"Ġfacts":5149,"Ġconscious":5150,"ĠMiss":5151,"Ġrul":5152,"Ġancient":5153,"'.":5154,"Ġsister":5155,"Ġstood":5156,"Ġsports":5157,"Ġspect":5158,"()":5159,"rim":5160,"host":5161,"Ġowner":5162,"ĠAnge":5163,"uy":5164,"usive":5165,"Ġpref":5166,"Ġsyn":5167,"Ġrare":5168,"Ġvolume":5169,"ario":5170,"ĠWr":5171,"Ġmanner":5172,"Ġseek":5173,"Ġrent":5174,"Ġkinds":5175,"arden":5176,"Ġentertain":5177,"Ġlawy":5178,"UT":5179,"Ġmotion":5180,"ĠNOT":5181,"uls":5182,"See":5183,"Ġsmell":5184,"igure":5185,"Ġsomewhat":5186,"ĠAlex":5187,"Ġdepends":5188,"Ġdim":5189,"Ġminimum":5190,"First":5191,"Ġtruck":5192,"Ġrequirements":5193,"illy":5194,"Ġseriously":5195,"Ġcircumst":5196,"nding":5197,"agon":5198,"Ġplus":5199,"Ġcriminal":5200,"urrent":5201,"Ġharder":5202,"ĠSub":5203,"Ġbrows":5204,"Ġanywhere":5205,"Ġdele":5206,"page":5207,"Please":5208,"free":5209,"Ġdance":5210,"gery":5211,"ĠAN":5212,"Ġutil":5213,"Ġinnov":5214,"Ġvit":5215,"Ġfixed":5216,"Ġconsult":5217,"Ġdecades":5218,"ĠUSA":5219,"Any":5220,"\">":5221,"ĠBack":5222,"iously":5223,"Ġparam":5224,"itect":5225,"Ġwel":5226,"Ġsurprised":5227,"Ġattrib":5228,"ĠTom":5229,"ĠBook":5230,"Ġsentence":5231,"Ġfruit":5232,"Ġsigns":5233,"Ġdynam":5234,"arp":5235,"Ġboys":5236,"Ġclothes":5237,"Ġturning":5238,"Ġsolutions":5239,"Ġsnow":5240,"Ġenh":5241,"Ġcontinues":5242,"uit":5243,"ĠGovern":5244,"Ġthinks":5245,"Ġsomehow":5246,"Ġlocated":5247,"utor":5248,"Ġcreative":5249,"Ġtwice":5250,"ĠSystem":5251,"Ġprepared":5252,"Ġmillions":5253,"ĠBre":5254,"Pe":5255,"stood":5256,"Ed":5257,"Ġusual":5258,"Ġfootball":5259,"ads":5260,"Ġlosing":5261,"Ġreject":5262,"ĠBet":5263,"Ġloan":5264,"Ġwitness":5265,"Ġwriter":5266,"Ġappeared":5267,"Ġgro":5268,"ĠReview":5269,"ĠLu":5270,"ĠInter":5271,"Ġdiscover":5272,"kes":5273,"ĠBush":5274,"Ġflight":5275,"uty":5276,"Ġaccepted":5277,"ĠRich":5278,"mosp":5279,"Ġ2005":5280,"Ġwonderful":5281,"inate":5282,"ado":5283,"ĠParty":5284,"Ġ196":5285,"Ġrestrict":5286,"ĠGermany":5287,"ront":5288,"usiness":5289,"Ġtiny":5290,"Ġliterally":5291,"Ġbull":5292,"ror":5293,"Ġbehavi":5294,"57":5295,"Ġingred":5296,"Ġnecessarily":5297,"outs":5298,"42":5299,"den":5300,"ĠRel":5301,"Ġopposite":5302,"Ġweren":5303,"ĠCO":5304,"ĠBoth":5305,"Ġneighbor":5306,"âĢĺ":5307,"Ġfinish":5308,"Ġmuscle":5309,"Ġhighest":5310,"Ġchallenges":5311,"Ġapparently":5312,"Ġhall":5313,"olved":5314,"Ġoptim":5315,"ato":5316,"ashed":5317,"ĠAir":5318,"ĠGold":5319,"abet":5320,"race":5321,"www":5322,"Ġalive":5323,"Ġentry":5324,"bal":5325,"Ġshit":5326,"Ġsav":5327,"ĠOnly":5328,"ĠGreen":5329,"Ġexchange":5330,"Ġring":5331,"ogue":5332,"ĠGeorge":5333,"!)":5334,"semb":5335,"Ġsituations":5336,"Ġhorr":5337,"Ġtreated":5338,"Ġevolution":5339,"itar":5340,"Ġinstr":5341,"Ġlinks":5342,"Ġimportance":5343,"uh":5344,"icip":5345,"Ġneck":5346,"ĠMex":5347,"Ġrapid":5348,"Ġtechniques":5349,"asty":5350,"Ġvalu":5351,"Ġenemy":5352,"anda":5353,"aks":5354,"Ġviews":5355,"ighter":5356,"Ġcultural":5357,"ĠIndian":5358,"Ġintelligence":5359,"gency":5360,"sm":5361,"itory":5362,"Ġteen":5363,"ĊĠĠĠĠĠĠĠĠĠĠĠĠĠĠĠĠ":5364,"aped":5365,"Ġtransform":5366,"Ġboss":5367,"ta":5368,"Ġphotos":5369,"Ġiron":5370,"Ġempty":5371,"ĠStreet":5372,"Ġproperties":5373,"ĠJul":5374,"Ġpoly":5375,"Ġlabel":5376,"Ġcollection":5377,"Ġideal":5378,"Ġeffectively":5379,"Ġfocused":5380,"Ġexcess":5381,"Ġtro":5382,"iest":5383,"Ġkiss":5384,"ĠFrance":5385,"Ġguarant":5386,"ora":5387,"Ġchoices":5388,"eper":5389,"rum":5390,"Ġcrisis":5391,"Ġokay":5392,"Ġtypical":5393,"Ġestablished":5394,"::":5395,"ĠRet":5396,"Ġstuck":5397,"Ġstre":5398,"ago":5399,"Ġclin":5400,"rency":5401,"cons":5402,"anish":5403,"Ġtough":5404,"Ġkeeps":5405,"Ġmal":5406,"ĠPort":5407,"Ġuns":5408,"ĠConst":5409,"ĠRight":5410,"from":5411,"ĠÂłĊ":5412,"ĠMat":5413,"Ġstim":5414,"ulous":5415,"Are":5416,"ĠHome":5417,"ounce":5418,"ĠChristmas":5419,"Ġconstruct":5420,"ĠStep":5421,"Ġskill":5422,"Who":5423,"ĠEngland":5424,"May":5425,"olec":5426,"Ġidentity":5427,"ita":5428,"Where":5429,"Ġbrings":5430,"Ġexperiment":5431,"Ġfilms":5432,"90":5433,"porary":5434,"RL":5435,"ĠStr":5436,"Ġpolicies":5437,"Ġintended":5438,"........":5439,"ĊĊĠĠĠĠĠĠĠĠĠ":5440,"Ġannoy":5441,"fraid":5442,"ĠSing":5443,"Ġmoments":5444,"ÂłÂłÂłÂłÂł":5445,"IP":5446,"yth":5447,"inding":5448,"Ġacid":5449,"itchen":5450,"Ġexcl":5451,"Ġvideos":5452,"adow":5453,"Ġlibrary":5454,"erate":5455,"ĠSa":5456,"Ġteaching":5457,"ĠAp":5458,"list":5459,"ĠAfrica":5460,"Ġflo":5461,"met":5462,"ĠTake":5463,"Ġelimin":5464,"Ġbath":5465,"Ġasks":5466,"Ġexistence":5467,"Ġperfectly":5468,"Ġsch":5469,"isms":5470,"urally":5471,"ĠTwo":5472,"Ġplastic":5473,"olly":5474,"Ġafraid":5475,"Ġfollows":5476,"utive":5477,"idel":5478,"58":5479,"Ġphen":5480,"Ġmanager":5481,"En":5482,"IV":5483,"ye":5484,"pet":5485,"ĠDid":5486,"Ġdiss":5487,"Ġescape":5488,"Ġmotor":5489,"Ġstandards":5490,"wide":5491,"Ġgrav":5492,"OW":5493,"gorith":5494,"ĠAI":5495,"Ġlies":5496,"Ġvast":5497,"Ġsalt":5498,"ups":5499,"Ġcarbon":5500,"ĠLife":5501,"iot":5502,"ĠAnother":5503,"iate":5504,"Ġadministration":5505,"Ġseat":5506,"ĠWork":5507,"Ġinterests":5508,"ker":5509,"Ġphr":5510,"Ġlaugh":5511,"Ġhttp":5512,"ĠCommun":5513,"ĠUnder":5514,"Ġdirector":5515,"ĠProf":5516,"Ġlistening":5517,"Ġbanks":5518,"dr":5519,"Ġ70":5520,"Ġprofession":5521,"Ġju":5522,"ĠAtt":5523,"Ġmessages":5524,"Ġoccup":5525,"ĊĊĊĊĊĊĊĊ":5526,"ĠHam":5527,"Ġsharing":5528,"Ġstorage":5529,"Ġzero":5530,"Ġhundreds":5531,"Ġconsidering":5532,"Ġsecure":5533,"Ġmoves":5534,"Ġride":5535,"Ġadm":5536,"Ġoperations":5537,"ĠWhe":5538,"Ġatmosp":5539,"apping":5540,"Ġtow":5541,"Ġincreases":5542,"Ġmail":5543,"Ġfort":5544,"Ġsurprise":5545,"Ġresponsibility":5546,"Ġcompetition":5547,"Ġunivers":5548,"Ġindex":5549,"amental":5550,"Ġopportunities":5551,"Ġliked":5552,"Ġtechnical":5553,"Another":5554,"Ġmatters":5555,"Ġadvanced":5556,"Med":5557,"Ġ2020":5558,"Ġabsor":5559,"Ġhasn":5560,"Ġcapacity":5561,"ĠChurch":5562,"Ġplane":5563,"igration":5564,"ĠSur":5565,"Ġsmooth":5566,"Ġposted":5567,"Ġsin":5568,"olve":5569,"Ġdetermined":5570,"ona":5571,"Ġabuse":5572,"Ġdinner":5573,"Ġscream":5574,"Ġstated":5575,"ocracy":5576,"Ġrom":5577,"Ġgonna":5578,"Ġtaught":5579,"Ġcrack":5580,"going":5581,"500":5582,"Ġnorth":5583,"opy":5584,"Ġaspects":5585,"Pr":5586,"Ġweekend":5587,"Ġteachers":5588,"rier":5589,"LE":5590,"Ġproof":5591,"Ġfrequently":5592,"eding":5593,"tes":5594,"Ġpreviously":5595,"Ġillegal":5596,"ano":5597,"Ġarticles":5598,"Ġinfect":5599,"ship":5600,"Ġloud":5601,"Ġguard":5602,"Ġsolve":5603,"nel":5604,"Ġfunds":5605,"ĠJapanese":5606,"Ġinsp":5607,"respond":5608,"aying":5609,"Rel":5610,"ville":5611,"Ġpossibility":5612,"ĠSometimes":5613,"Ġfashion":5614,"iki":5615,"Ġdefe":5616,"ĠCam":5617,"Ġdescription":5618,"hab":5619,"okes":5620,"Ġwinter":5621,"Ġcomponents":5622,"Ġgrew":5623,"Ġsuggests":5624,"--------":5625,"Ġreduced":5626,"Ġadvance":5627,"lines":5628,"ĠMo":5629,"Ġagreement":5630,"Ġcreation":5631,"Ġtiss":5632,"ĠYeah":5633,"Ġnoise":5634,"aded":5635,"ĠHy":5636,"Ġpool":5637,"Ġpassion":5638,"tra":5639,"ĠSchool":5640,"Ġdisappe":5641,"Ġchest":5642,"Ġaccounts":5643,"Ġadvent":5644,"ĠTwitter":5645,"Ġchart":5646,"phas":5647,"Ġobserv":5648,"ĠTex":5649,"arsh":5650,"ĠCD":5651,"ĠRepublican":5652,"Ġunable":5653,"Ġpaint":5654,"Ġhomes":5655,"Ġscientists":5656,"ĠST":5657,"Ġnormally":5658,"Phone":5659,"cel":5660,"ortion":5661,"ĠFriday":5662,"Ġwrit":5663,"standing":5664,"pic":5665,"Ġvan":5666,"Ġaffected":5667,"Ġbes":5668,"Ġbusy":5669,"Also":5670,"ĠSocial":5671,"rome":5672,"dule":5673,"omy":5674,"ĠMil":5675,"ĠTur":5676,"reens":5677,"Ġsight":5678,"Ġflex":5679,"ĠDel":5680,"Ġserved":5681,"ĠTherefore":5682,"Ġtalked":5683,"Ġbread":5684,"ĠHist":5685,"Ġtips":5686,"SA":5687,"Ġprofit":5688,"Ġmath":5689,"Ġcapable":5690,"iders":5691,"ĠSunday":5692,"aning":5693,"anged":5694,"Ġdrinking":5695,"Ġhorse":5696,"Ġcontrast":5697,"Ġwave":5698,"isation":5699,"Ġoperating":5700,"agers":5701,"Ġlayer":5702,"ĠDa":5703,"ĠDuring":5704,"eal":5705,"ĠThom":5706,"Ġdesk":5707,"Ġbrown":5708,"ĠMary":5709,"hered":5710,"ette":5711,"Ġneither":5712,"Ġgreatest":5713,"Ġcandidate":5714,"Des":5715,"ĠSal":5716,"ĠAccording":5717,"illa":5718,"Ġrank":5719,"Ġautomatically":5720,"estic":5721,"Ġreaders":5722,"ih":5723,"Ġacadem":5724,"Ġresearc":5725,"Ġaccurate":5726,"pass":5727,"eters":5728,"aph":5729,"ĠIP":5730,"Ġmanufacture":5731,"Ġstom":5732,"Ġupdate":5733,"CH":5734,"Ġfault":5735,"iat":5736,"Ġgay":5737,"icted":5738,"Ġnumerous":5739,"Ġcream":5740,"Ġintroduced":5741,"Ġmaximum":5742,"ching":5743,"coming":5744,"stream":5745,"Ġpayment":5746,"Ġcert":5747,"Ġultimately":5748,"erves":5749,"Ġ31":5750,"Ġ2000":5751,"ructure":5752,"ena":5753,"ĠAustralia":5754,"agram":5755,"Ġpassword":5756,"wing":5757,"ĠMad":5758,"ĠCoun":5759,"ĠAut":5760,"Ġevening":5761,"Ġsignificantly":5762,"ĠGeneral":5763,"bel":5764,"uster":5765,"uing":5766,"41":5767,"Ġcolors":5768,"Ġoperation":5769,"och":5770,"abilities":5771,"ittee":5772,"43":5773,"Ġsquare":5774,"ocolate":5775,"ĠMicrosoft":5776,"omething":5777,"efully":5778,"Ġforgot":5779,"real":5780,"Ġchair":5781,"Once":5782,"Ġwine":5783,"Ġremark":5784,"Ġforest":5785,"Ġheads":5786,"Ġ;":5787,"Ġorganizations":5788,"Ġappearance":5789,"Ġexists":5790,"Ġestablish":5791,"Ġacting":5792,"Ġchain":5793,"ending":5794,"iler":5795,"Ġagent":5796,"Ġmarkets":5797,"asts":5798,"Ġglad":5799,"Even":5800,"itionally":5801,"ses":5802,"aching":5803,"Ġblind":5804,"Ġtelevision":5805,"Ġec":5806,"ĠCenter":5807,"Ġeverybody":5808,"ingu":5809,"EM":5810,"Ġrepeated":5811,"Ġconver":5812,"ĠOpen":5813,"iveness":5814,"Ġpowers":5815,"ollow":5816,"oin":5817,"Ġboost":5818,"Ġconcerns":5819,"Ġfro":5820,"Ġapprox":5821,"related":5822,"Ġpartners":5823,"life":5824,"Ġsouth":5825,"atin":5826,"they":5827,"def":5828,"rical":5829,"Ġforth":5830,"Ġcircumstances":5831,"Ġremote":5832,"Ġreasonable":5833,"Ġfields":5834,"ĠSil":5835,"ml":5836,"Su":5837,"Ġproceed":5838,"Ġsomebody":5839,"Ġbear":5840,"Ġcock":5841,"Ġlaunch":5842,"Ġpatterns":5843,"Ġerr":5844,"atural":5845,"igation":5846,"Ð¾":5847,"Ġthin":5848,"ĠTechn":5849,"rage":5850,"Ġspr":5851,"ĠDet":5852,"Ġrecognize":5853,"ãģ":5854,"Ġdisapp":5855,"ĠØ":5856,"Ġoccasion":5857,"Ġpackage":5858,"Ġessentially":5859,"Ġwal":5860,"Ġaside":5861,"state":5862,"Ġsuggested":5863,"Ġartist":5864,"________":5865,"urd":5866,"Ġinvolve":5867,"ĠJewish":5868,"Ġunderstood":5869,"ĊĊĊĊĊ":5870,"Ġfif":5871,"Ġauthority":5872,"Ġliquid":5873,"ĠMcC":5874,"ĠYet":5875,"orders":5876,"Ġdealing":5877,"Ġknock":5878,"ĠRussian":5879,"Ġarrived":5880,"!!!":5881,"Ġfingers":5882,"ĠPower":5883,"Ġjoy":5884,"Ġgather":5885,"inking":5886,"Ġvacc":5887,"ĠCath":5888,"Americ":5889,"ĠTimes":5890,"Ġtasks":5891,"Ġcarried":5892,"hemat":5893,"bra":5894,"rd":5895,"net":5896,"Ġpicked":5897,"ĠAmazon":5898,"Ġhistorical":5899,"Ġtox":5900,"Ġtired":5901,"ĠDNA":5902,"ython":5903,"Ġappreciate":5904,"Ġanxiety":5905,"Ġalgorith":5906,"outhern":5907,"Ġspin":5908,"Ġpresented":5909,"Ġdropped":5910,"Ġgenerate":5911,"Ġamounts":5912,"Ġyesterday":5913,"Ġofficials":5914,"Many":5915,"Ġhighlight":5916,"Ġexplanation":5917,"Ġhole":5918,"Ġconven":5919,"Ġchannel":5920,"ĠArab":5921,"onic":5922,"hi":5923,"Ġlikes":5924,"ĠMax":5925,"Ġstorm":5926,"Ġpersonally":5927,"Ġvul":5928,"ĠLove":5929,"Ġyounger":5930,"ĠScience":5931,"66":5932,"ĠJud":5933,"Ġpractices":5934,"ĠWestern":5935,"Ġru":5936,"Ġsynt":5937,"Ġofficer":5938,"cknow":5939,"Ġ500":5940,"Ġgotten":5941,"ensions":5942,"Ġ2004":5943,"Ġwarn":5944,"Ġbeauty":5945,"log":5946,"Ġencourage":5947,"Ġweapon":5948,"Ġbacter":5949,"Ġspiritual":5950,"inating":5951,"Rec":5952,"isco":5953,"Ġeggs":5954,"Ð°":5955,"Ġprecise":5956,"pm":5957,"Ġhidden":5958,"Ġconvin":5959,"Ġmistake":5960,"Ġmerely":5961,"ĠAgain":5962,"Ġawesome":5963,"Ġleadership":5964,"ĠJim":5965,"Ġbomb":5966,"Ġkitchen":5967,"lo":5968,"Ġdating":5969,"Ġhide":5970,"Ġunits":5971,"Ġsubt":5972,"Ġlights":5973,"ĠSecond":5974,"Ġsale":5975,"Anonymous":5976,"Ġprofile":5977,"Ġwinning":5978,"Man":5979,"ophy":5980,"ĊÂł":5981,"Ġfinds":5982,"Ġsupported":5983,"Ġcreates":5984,"ician":5985,"ĠToday":5986,"Ġsample":5987,"Ġrestaurant":5988,"ĠThus":5989,"ĠQue":5990,"Ġconfidence":5991,"ĠDepartment":5992,"Ġmoral":5993,"Ġ35":5994,"Ġdegrees":5995,"Ġmeasures":5996,"Ġarchitect":5997,"ĠMa":5998,"Ġsurgery":5999,"ears":6000,"uthors":6001,"Ġreform":6002,"ĠFin":6003,"Ġgradu":6004,"Ġvary":6005,"Ġwire":6006,"Ġcab":6007,"ĠID":6008,"Ġemotions":6009,"Ġhook":6010,"ĠPerhaps":6011,"IA":6012,"oper":6013,"Ġperformed":6014,"Ġsuc":6015,"Ġwalls":6016,"RA":6017,"Ġfeedback":6018,"war":6019,"Ġappoint":6020,"ĠHT":6021,"orthern":6022,"Ġexplore":6023,"Ġinjury":6024,"Ġnoted":6025,"Ġapps":6026,"Ġroutine":6027,"car":6028,"Ġshift":6029,"Ġdad":6030,"fast":6031,"ĠÎ":6032,"Ġstores":6033,"Ġangry":6034,"Ġheight":6035,"Ġsport":6036,"Ġcrew":6037,"Ġmedium":6038,"icial":6039,"Ġletters":6040,"Ġspoke":6041,"Ġtone":6042,"inton":6043,"Res":6044,"ÂŃ":6045,"Ġbroke":6046,"ola":6047,"Ġremaining":6048,"John":6049,"level":6050,"?)":6051,"Ġ2019":6052,"Ġpump":6053,"Ġformed":6054,"Ġadults":6055,"ĠBas":6056,"Ġexplains":6057,"Ġcombined":6058,"ĠSupp":6059,"athy":6060,"uz":6061,"ĠAnn":6062,"elling":6063,"App":6064,"Ġproud":6065,"Ġreturns":6066,"ĠTexas":6067,"win":6068,"ĠDi":6069,"Ġpossess":6070,"Ind":6071,"Ġgoods":6072,"Ġborder":6073,"Because":6074,"Ġblame":6075,"Ġwid":6076,"Ġreviews":6077,"Ġshooting":6078,"Ġmoon":6079,"77":6080,"Ġinvolves":6081,"Ġargue":6082,"Ġpin":6083,"Ġconsequences":6084,"Ġlaug":6085,"ĠFree":6086,"Ġhang":6087,"Ġregist":6088,"Ġjoint":6089,"Ġscr":6090,"DA":6091,"alian":6092,"Ġtrading":6093,"Ġstands":6094,"Ġneighb":6095,"enced":6096,"Ġforever":6097,"name":6098,"raction":6099,"Ã¡":6100,"Ġaid":6101,"ĠPlan":6102,"Ġfinger":6103,"Ġdistinct":6104,"ĠKeep":6105,"oma":6106,"Ġmad":6107,"Ġcorrespond":6108,"ĠAfrican":6109,"Ġterrible":6110,"iller":6111,"cher":6112,"ĠFre":6113,"Ġdrag":6114,"ibilities":6115,"ĠJoe":6116,"Ġupper":6117,"Ġoffering":6118,"Ġcompre":6119,"Go":6120,"Ġnaturally":6121,"Ġexcited":6122,"ission":6123,"Ġvaluable":6124,"Ġdisci":6125,"Ġfasc":6126,"Ġequival":6127,"Ġsees":6128,"Ġcorporate":6129,"Ġgent":6130,"ĠTre":6131,"Ġsan":6132,"Ġdepth":6133,"then":6134,"Ġclassic":6135,"Ġclock":6136,"adian":6137,"Ġfalling":6138,"Out":6139,"ghan":6140,"Ġnobody":6141,"Ġdram":6142,"cers":6143,"andon":6144,"Ġcarefully":6145,"Ġagreed":6146,"ints":6147,"ĠIN":6148,"Ġintention":6149,"omin":6150,"Ġsurprising":6151,"ĠTop":6152,"appy":6153,"water":6154,"Ġspring":6155,"Ġhat":6156,"Ġvent":6157,"Ġhardware":6158,"Ġeverywhere":6159,"Ġbringing":6160,"ĠRepublicans":6161,"Ġtag":6162,"Ġbell":6163,"Ġinvent":6164,"Ġsession":6165,"Ġmissed":6166,"ĠArch":6167,"Ġsurvive":6168,"Since":6169,"yan":6170,"Ġcolon":6171,"press":6172,"Ġsufficient":6173,"post":6174,"Ġimpress":6175,"Ġenvironmental":6176,"ĠLast":6177,"Ġhabit":6178,"Ġquarter":6179,"PM":6180,"zing":6181,"Ġmeal":6182,"ceived":6183,"Ġoccurs":6184,"Ġexternal":6185,"Ġvotes":6186,"Ġacknow":6187,"Ġresistance":6188,"ĠFore":6189,"Ġarmy":6190,"Ġpassing":6191,"Ġencoun":6192,"Ġdecent":6193,"86":6194,"rete":6195,"Ġyeah":6196,"ĠDemocrats":6197,"cript":6198,"pal":6199,"Ġoppon":6200,"Ðµ":6201,"ĠEr":6202,"eting":6203,"ĠRead":6204,"ĠTest":6205,"ĠFrank":6206,"ĠTor":6207,"Ġhadn":6208,"Ġwondering":6209,"ĠSpr":6210,"Ġprocessing":6211,"ĠÙ":6212,"apped":6213,"Ġgrown":6214,"Per":6215,"ellect":6216,"Ġlargely":6217,"sey":6218,"tion":6219,"View":6220,"text":6221,"ĠBob":6222,"ormal":6223,"Ġsmoke":6224,"Ġdistribution":6225,"],":6226,"Te":6227,"Ġmuscles":6228,"Ġtheme":6229,"Ġcomplicated":6230,"Ġpil":6231,"75":6232,"Ġstruggle":6233,"Ġdetailed":6234,"Ġdocuments":6235,"Ġsucceed":6236,"ĠBest":6237,"bert":6238,"Ġfundamental":6239,"Ġsoldiers":6240,"lets":6241,"ĠLou":6242,"Ġtechnique":6243,"Ġnegot":6244,"oman":6245,"CC":6246,"Ġreader":6247,"Ġperman":6248,"Ġcollabor":6249,"ĠPeter":6250,"Ġsevere":6251,"ĠFire":6252,"ĠLin":6253,"Ġfool":6254,"Ġinnoc":6255,"Ġadmit":6256,"Ġthousand":6257,"Ġsuck":6258,"Ġsuit":6259,"Gen":6260,"Ġcro":6261,"aus":6262,"alls":6263,"Ġplug":6264,"Ġsplit":6265,"azine":6266,"Ġcommonly":6267,"ĠFlor":6268,"Ġmolec":6269,"icide":6270,"ĠCap":6271,"Ġfellow":6272,"Ġwet":6273,"Ġextent":6274,"ĠTHE":6275,"bar":6276,"Ġobt":6277,"ĠÂ£":6278,"Ġacts":6279,"ĠConf":6280,"umps":6281,"Ġemphas":6282,"bi":6283,"Ġbutter":6284,"class":6285,"ircle":6286,"Ġstone":6287,"Ġdoctors":6288,"Ġcig":6289,"Ġtries":6290,"Ġgift":6291,"Ġtall":6292,"ĠTy":6293,"osm":6294,"Ġsustain":6295,"ican":6296,"ĠUnion":6297,"Ġath":6298,"Ġrevealed":6299,"whel":6300,"unning":6301,"Ġresulting":6302,"Ġstomach":6303,"ston":6304,"Ġlinked":6305,"Ġpurposes":6306,"nic":6307,"SP":6308,"isher":6309,"Ġseeking":6310,"Ġpointed":6311,"Ġreferred":6312,"rog":6313,"lands":6314,"ĠSmith":6315,"Ġcharges":6316,"Ġreward":6317,"ket":6318,"uting":6319,"ĠSar":6320,"erent":6321,"ĠĠĠĠĠĠ":6322,"Ġuncom":6323,"Ġdisappoint":6324,"Ġmachines":6325,"52":6326,"inger":6327,"Ġconstruction":6328,"RI":6329,"ĠHill":6330,"Ġbon":6331,"ĠIT":6332,"Last":6333,"Ġplate":6334,"Ġdepartment":6335,"who":6336,"Ġcraft":6337,"ĠId":6338,"88":6339,"Ġ32":6340,"Ġwindows":6341,"Ġenemies":6342,"ĠRock":6343,"van":6344,"ĠEU":6345,"Ġbab":6346,"Ġlegit":6347,"Ġpotentially":6348,"Ġtank":6349,"Ġwheel":6350,"Ġlogic":6351,"hent":6352,"Ġidentified":6353,"Ġrac":6354,"Ġske":6355,"inks":6356,"bits":6357,"Ġincident":6358,"Ġdelic":6359,"ĠPhil":6360,"Ġofficers":6361,"Ġschedule":6362,"Spe":6363,"Ġtherapy":6364,"rate":6365,"Ġexperim":6366,"Ġmainly":6367,"Ġimmune":6368,"ĠInternational":6369,"iger":6370,"Ġjustice":6371,"Ġisol":6372,"hips":6373,"Ġyellow":6374,"Ġbeliefs":6375,"Ã¢":6376,"Ġmood":6377,"Thanks":6378,"celer":6379,"amily":6380,"Ġcommunities":6381,"Ġessay":6382,"Ġstro":6383,"itutional":6384,"Ġbreaking":6385,"Ġped":6386,"Ġconfident":6387,"Ġpositions":6388,"Ġcomparison":6389,"ĠBur":6390,"Ġenforce":6391,"Ġstronger":6392,"Ġclar":6393,"ION":6394,"ĠJews":6395,"Ġdust":6396,"Ġreplaced":6397,"Ġemployee":6398,"Ġlanguages":6399,"ĠRE":6400,"Ġcharged":6401,"abled":6402,"Ġmedicine":6403,"Ġingredients":6404,"Ġchosen":6405,"Ġorders":6406,"ĠProt":6407,"Ġorigin":6408,"54":6409,"osal":6410,"Ġsubsc":6411,"Ġtables":6412,"Ġshoes":6413,"Ġdisag":6414,"Ġexposed":6415,"Ġsolar":6416,"ĠRoman":6417,"ĠMonday":6418,"mary":6419,"OD":6420,"isters":6421,"Ġpm":6422,"apes":6423,"aze":6424,"Ġatmosphere":6425,"ĠBefore":6426,"Ġsuffering":6427,"Sub":6428,"asm":6429,"anges":6430,"Ġeditor":6431,"Ġcere":6432,"Am":6433,"ota":6434,"Ġshif":6435,"Ġinstit":6436,"Ġconsumer":6437,"ĠAnswer":6438,"Â°":6439,"Ġprogramming":6440,"Back":6441,"Ġwake":6442,"ocation":6443,"lude":6444,"Ġcareful":6445,"Ġwhis":6446,"Ġnose":6447,"Ġdefine":6448,"Ġsending":6449,"oding":6450,"hesis":6451,"Ġmac":6452,"ĠAssoci":6453,"Ġjoined":6454,"Ġpushed":6455,"Ġhung":6456,"ployment":6457,"ushed":6458,"Ġintent":6459,"Ġmountain":6460,"uous":6461,"ĠBlog":6462,"road":6463,"Ġselection":6464,"Ġchamp":6465,"Ġchapter":6466,"ideo":6467,"edding":6468,"Ġrecommended":6469,"icks":6470,"Ġcooking":6471,"bles":6472,"arl":6473,"ulating":6474,"Ġ/>":6475,"Ġbeer":6476,"ilty":6477,"ĠHell":6478,"Ġtea":6479,"Ġdesper":6480,"53":6481,"Ġgender":6482,"Ġpractical":6483,"aniel":6484,"coin":6485,"Ġemotion":6486,"ĠÂłĠÂłĠÂłĠÂł":6487,"ĠĠĠĠĠĠĠĠĠĠĠĠĠĠĠĠĠĠĠĠĠĠĠĠĠĠĠĠĠĠĠĠĠĠĠĠĠĠĠĠĠĠĠĠĠĠĠĠĠĠĠĠĠĠĠĠĠĠĠĠĠĠĠĠ":6488,"ura":6489,"Ġhoping":6490,"aser":6491,"ĠSand":6492,"Ġregardless":6493,"Ġstrategies":6494,"ĠRobert":6495,"Ġphenomen":6496,"Int":6497,"ĠIns":6498,"Ġputs":6499,"Ġholds":6500,"Ġfle":6501,"ĠPress":6502,"Ġtomorrow":6503,"born":6504,"roat":6505,"ĠWould":6506,"Ġemergency":6507,"xygen":6508,"orney":6509,"Ġmanip":6510,"Ġoccurred":6511,"51":6512,"ðŁ":6513,"ĠOld":6514,"Ġsaved":6515,"Ġchicken":6516,"Ġoblig":6517,"ĠSecurity":6518,"ĠTim":6519,"gend":6520,"Ġspell":6521,"oken":6522,"Ġarguments":6523,"aren":6524,"Ġuniversity":6525,"Ġdreams":6526,"Ġconvention":6527,"Ġsigned":6528,"there":6529,"Ġdomain":6530,"Ġrevolution":6531,"ĠJeff":6532,"ĠPlay":6533,"ĠVir":6534,"gypt":6535,"Ġ`":6536,"Ġcutting":6537,"Ġrisks":6538,"Ġvirus":6539,"grade":6540,"Like":6541,"luding":6542,"Ġexperts":6543,"Ġconsistent":6544,"abetes":6545,"ĠNov":6546,"Ġhack":6547,"yc":6548,"elf":6549,"Ġannounced":6550,"oster":6551,"Ġneut":6552,"Ġdepression":6553,"Ġvariable":6554,"Ġillness":6555,"rip":6556,"Ġdish":6557,"obe":6558,"tw":6559,"Ġphase":6560,"eline":6561,"Ġcommitted":6562,"isted":6563,"ĠJun":6564,"Ġnom":6565,"Ġregularly":6566,"gage":6567,"ĠAbout":6568,"Ġflag":6569,"Ġcoverage":6570,"Ġfacing":6571,"ĠSk":6572,"Ġswim":6573,"burg":6574,"Thank":6575,"Ġvirtual":6576,"Ġflying":6577,"Ġriver":6578,"Ġtail":6579,"Ġopposed":6580,"Ġtor":6581,"ĠUnfortunately":6582,"Ġbone":6583,"Ġlatter":6584,"rence":6585,"Up":6586,"Ġpersonality":6587,"Ġhydro":6588,"Ġending":6589,"Ġguitar":6590,"Ġincredibly":6591,"Ġnic":6592,"elly":6593,"Ġmixed":6594,"Ġridic":6595,"Wr":6596,"ĠScott":6597,"ĠSup":6598,"Ġtwe":6599,"Ġenjoyed":6600,"MS":6601,"Ġartists":6602,"ĠSol":6603,"Ġguns":6604,"ĠRev":6605,"ÂłĊĊ":6606,"Connect":6607,"Ġ36":6608,"Ġfrustr":6609,"Ġcontrolled":6610,"Ġvictims":6611,"Ġhouses":6612,"BI":6613,"Ġfab":6614,"Ġwhenever":6615,"Ġoriginally":6616,"Ġshopping":6617,"Ġvulner":6618,"ĠCP":6619,"Ġtact":6620,"ĠHall":6621,"Ġ2003":6622,"Ġrevenue":6623,"BS":6624,"ĠMem":6625,"Ġexposure":6626,"Ġadvoc":6627,"Ġcomponent":6628,"orters":6629,"Ġcompare":6630,"div":6631,"edit":6632,"ĠHen":6633,"ĠVol":6634,"Other":6635,"anned":6636,"Ġbarely":6637,"long":6638,"Ġreply":6639,"ĠiPhone":6640,"Ġgiant":6641,"Ġcontem":6642,"Ġinfo":6643,"Ġclaimed":6644,"htt":6645,"ĠWil":6646,"Ġworried":6647,"Ġunknown":6648,"Ġnerv":6649,"Ġconsumers":6650,"Ġconclusion":6651,"ifies":6652,"ĠMen":6653,"ĠUN":6654,"aws":6655,"resents":6656,"ĠFlorida":6657,"Ġagency":6658,"stein":6659,"mod":6660,"cend":6661,"ĠWall":6662,"Ob":6663,"78":6664,"igned":6665,"Ġflash":6666,"Ġscenes":6667,"Monday":6668,"Ġax":6669,"Ġrein":6670,"FL":6671,"Ġvillage":6672,"lar":6673,"Ġresearchers":6674,"asant":6675,"ĠStill":6676,"rep":6677,"Ġnations":6678,"Ġagents":6679,"Ġoverwhel":6680,"Ġlisted":6681,"Ġera":6682,"People":6683,"awn":6684,"anna":6685,"Ġvo":6686,"tenance":6687,"uine":6688,"Ġfaces":6689,"Ġgrass":6690,"Ġlunch":6691,"Ġfucking":6692,"Ġsuffer":6693,"xual":6694,"Ġcompleted":6695,"Ġpercentage":6696,"Ġinner":6697,"Ġpharm":6698,"Ġcandidates":6699,"ĠCat":6700,"Ġshoulder":6701,"Ġprocedure":6702,"lements":6703,"estyle":6704,"Ġdecade":6705,"enny":6706,"Ġabandon":6707,"ifications":6708,"acks":6709,"ĠJava":6710,"Ġnewsp":6711,"About":6712,"oral":6713,"Ġdivid":6714,"Ġconsumption":6715,"iform":6716,"Ġquote":6717,"Ġcoord":6718,"rant":6719,"Ġwra":6720,"ĠOK":6721,"âĤ¬":6722,"Ġpill":6723,"sters":6724,"Ġchose":6725,"acc":6726,"ĠSum":6727,"Ġunus":6728,"EE":6729,"Ġadds":6730,"Ġsequence":6731,"According":6732,"Rep":6733,"Ġdiscussed":6734,"Ġexception":6735,"Ġstored":6736,"Ġsole":6737,"Ġcomputers":6738,"ĠList":6739,"Ġconfir":6740,"Ġhyper":6741,"Ġlapt":6742,"ĠSS":6743,"ĠNever":6744,"Ġunw":6745,"Ġresource":6746,"Ġsettings":6747,"mes":6748,"ĠPet":6749,"Ġinterf":6750,"Ġretire":6751,"Ġbelieves":6752,"Ġignore":6753,"ĠLong":6754,"Ġequivalent":6755,"Ġdeeper":6756,"Ġsacr":6757,"ĠData":6758,"orted":6759,"Ġmyth":6760,"Ġdistrict":6761,"Ġdelivery":6762,"95":6763,"Ġchocolate":6764,"ulture":6765,"Ġroute":6766,"Ġtech":6767,"Ġrarely":6768,"Ġbat":6769,"Ġentered":6770,"Ġchat":6771,"Ġprepare":6772,"Ġconservative":6773,"ĠDist":6774,"pected":6775,"ruption":6776,"Ġstreets":6777,"\")":6778,"ĠMer":6779,"Ġtrend":6780,"Ġversions":6781,"rix":6782,"inder":6783,"Ġmyst":6784,"Ġinvestigation":6785,"ĠAC":6786,"ĠResearch":6787,"Ġattitude":6788,"Ġyouth":6789,"ĠClinton":6790,"Ġwelcome":6791,"Ġhits":6792,"otal":6793,"Ġ45":6794,"Look":6795,"ĠSure":6796,"Ġcheese":6797,"Ġauthors":6798,"owed":6799,"ĠAT":6800,"aine":6801,"aa":6802,"ĠIr":6803,"ĠCy":6804,"Ġsector":6805,"Ġassets":6806,"Ġsubstant":6807,"ĠVer":6808,"Ġpromise":6809,"Ġfigures":6810,"ĠShould":6811,"Ġtoler":6812,"emb":6813,"ĠClass":6814,"Ġcalm":6815,"Ġzone":6816,"Ġprinciple":6817,"ĠTry":6818,"ĠDev":6819,"Ġlimits":6820,"Ġloose":6821,"Ġaudio":6822,"Ġblow":6823,"anny":6824,"rastructure":6825,"QL":6826,"Ġcombat":6827,"Ġvisible":6828,"prof":6829,"Ġproposed":6830,"Ġportion":6831,"Ġwriters":6832,"Mar":6833,"Wednesday":6834,"person":6835,"Ġconfused":6836,"Ġsuppose":6837,"Ġattached":6838,"Ġcoast":6839,"IG":6840,"Ġwrites":6841,"ample":6842,"Ġneighborhood":6843,"Ġrecorded":6844,"erring":6845,"rive":6846,"Ġextract":6847,"Ġfalls":6848,"Ġcategory":6849,"angers":6850,"Ġanswered":6851,"inem":6852,"ishment":6853,"Ġpromote":6854,"ĠVe":6855,"ĠTuesday":6856,"TH":6857,"ĠHuman":6858,"ĠLear":6859,"Ġprompt":6860,"ĠCheck":6861,"ether":6862,"imp":6863,"Ġfulf":6864,"ĠGreek":6865,"Ġplain":6866,"Although":6867,"kins":6868,"icago":6869,"eless":6870,"Ġclosely":6871,"va":6872,"Ġocean":6873,"Ġrepresents":6874,"des":6875,"gent":6876,"ĠElect":6877,"Ġprimarily":6878,"Ġ×":6879,"haust":6880,"ĠThough":6881,"Ġsensitive":6882,"Ġobserved":6883,"Ġincorpor":6884,"Over":6885,"uct":6886,"Ġtip":6887,"sect":6888,"64":6889,"itate":6890,"Ġinterface":6891,"ĠWater":6892,"izz":6893,"Ġbottle":6894,"Ġlips":6895,"ildren":6896,"Ġsupporting":6897,"Ġchances":6898,"ĠSaturday":6899,"Ġcow":6900,"Ġdestroyed":6901,"Ġrig":6902,"ĠNor":6903,"Ġinspir":6904,"ĠUsing":6905,"Ġminds":6906,"ua":6907,"ĠBank":6908,"ĠBrown":6909,"ĠService":6910,"plate":6911,"ĠLight":6912,"ĠGra":6913,"ĠChange":6914,"Ġreput":6915,"Ġintellect":6916,"hh":6917,"Good":6918,"orough":6919,"Ġhorm":6920,"Ġnetworks":6921,"Ġboat":6922,"blog":6923,"Ġelev":6924,"Ġbridge":6925,"Ġillustr":6926,"ĠEs":6927,"Ġimproved":6928,"Ġsau":6929,"Ġgrade":6930,"ologist":6931,"Ġlucky":6932,"active":6933,"izer":6934,"ĠDevelop":6935,"Ġreplied":6936,"Ġloans":6937,"ĠGovernment":6938,"ested":6939,"ĠGame":6940,"gged":6941,"allel":6942,"Ġsharp":6943,"Ġjack":6944,"Ġdollar":6945,"Äģ":6946,"Ġchief":6947,"obile":6948,"Ġlit":6949,"rary":6950,"ĠVis":6951,"Ġcorrectly":6952,"ĠHol":6953,"Ġplanned":6954,"ĠRad":6955,"lyn":6956,"Ġmemories":6957,"Facebook":6958,"Ġgenetic":6959,"Ġfilter":6960,"cific":6961,"Ġobtain":6962,"========":6963,"herent":6964,"Ġdepart":6965,"ĠFranc":6966,"Ġbutt":6967,"Ġelectricity":6968,"oration":6969,"Ġtort":6970,"eries":6971,"Ġnasty":6972,"urb":6973,"mal":6974,"Ġliberal":6975,"Ġintense":6976,"cr":6977,"Ġhref":6978,"Ġattempts":6979,"inations":6980,"Ġlady":6981,"rypt":6982,"Ġblank":6983,"Ġbuildings":6984,"ĠBay":6985,"Ġincreasingly":6986,"Ġanger":6987,"ĠEgypt":6988,"ĠFound":6989,"Ġgene":6990,"useum":6991,"Ġstatements":6992,"Step":6993,"ĠGrand":6994,"Ġmathemat":6995,"omic":6996,"Ġnearby":6997,"ansion":6998,"Ġexplos":6999,"DF":7000,"ĠKorea":7001,"uke":7002,"Ġdelay":7003,"Ġbother":7004,"lege":7005,"Ġretail":7006,"noon":7007,"Ġwidely":7008,"Ġyield":7009,"unte":7010,"Ġnative":7011,"ĠPerson":7012,"ĠEnd":7013,"Ġtwenty":7014,"Ġguilty":7015,"DP":7016,"ĠReal":7017,"Ġlying":7018,"ĠCatholic":7019,"âĢ¦.":7020,"ĠStart":7021,"anta":7022,"Ġvehicles":7023,"Ġbless":7024,"Ġenhance":7025,"Ġgenuine":7026,"Ġhousehold":7027,"ĠHarry":7028,"Ġrepair":7029,"acle":7030,"lessly":7031,"Ġlun":7032,"ĠGal":7033,"yes":7034,"...\"":7035,"Ġcurrency":7036,"Ġlaun":7037,"Ġwanting":7038,"76":7039,"Ġdraft":7040,"Ġstrike":7041,"Ġdrivers":7042,"Ġwarning":7043,"ographic":7044,"ĠSat":7045,"ĠMel":7046,"Ġsleeping":7047,"Take":7048,"Dr":7049,"Ġgarden":7050,"ĠMass":7051,"ĠJon":7052,"ĠJe":7053,"Ġhotel":7054,"Ġratio":7055,"Ġgenerated":7056,"Ġtong":7057,"Ġoxygen":7058,"ĠJer":7059,"Ġpig":7060,"agement":7061,"Ġletting":7062,"ĠSpanish":7063,"Fe":7064,"Ġpushing":7065,"Ġtransition":7066,"Ġfavour":7067,"Ġindicate":7068,"ĠBible":7069,"Ġextended":7070,"Ġannual":7071,"Ġfriendly":7072,"Ġiniti":7073,"ÂłÂłÂłÂłÂłÂł":7074,"Ġconference":7075,"Ġheavily":7076,"Ġsmoking":7077,"GB":7078,"Ġì":7079,"Ġsched":7080,"Ġgenes":7081,"ixture":7082,"ĠBer":7083,"Ġcomplain":7084,"Ġwebsites":7085,"Ġarray":7086,"ĠMike":7087,"Ġsoil":7088,"Ġlicense":7089,"Ġraw":7090,"Ġoh":7091,"Ġinstitutions":7092,"pha":7093,"viously":7094,"Ġauto":7095,"Ġtrib":7096,"Ġlad":7097,"ĠAcc":7098,"Ġoutcome":7099,"Ġscenario":7100,"ĠMartin":7101,"Ġtab":7102,"po":7103,"Ġdoors":7104,"Ġpoliticians":7105,"ivered":7106,"Ġwithd":7107,"ĠDen":7108,"even":7109,"Ġlets":7110,"ught":7111,"))":7112,"stract":7113,"rior":7114,"Ġmistakes":7115,"Ġ01":7116,"ĠMP":7117,"Ġdiseases":7118,"Ġexhib":7119,"ĠChris":7120,"Ġrelief":7121,"Ġtrained":7122,"Ġhypot":7123,"Friday":7124,"ĠJournal":7125,"Ġdepos":7126,"was":7127,"Ġgall":7128,"Ġpayments":7129,"ĠWas":7130,"Thursday":7131,"Ġmenu":7132,"Ġadvertising":7133,"ĠWord":7134,"Ġinstructions":7135,"Ġfrequency":7136,"Ġfraud":7137,"Ġstrict":7138,"dis":7139,"date":7140,"essel":7141,"ĠHaw":7142,"ĠRef":7143,"Ġinstalled":7144,"98":7145,"âĢĻ.":7146,"ffect":7147,"Ġdivers":7148,"sl":7149,"Ġmask":7150,"ĠMember":7151,"duc":7152,"Ġaircraft":7153,"olit":7154,"Ġroof":7155,"Ġdeeply":7156,"ĠWilliam":7157,"inos":7158,"ĠMiddle":7159,"ĠBoy":7160,"ĠPot":7161,"Ġresolution":7162,"Ġburning":7163,"Ġtalks":7164,"Ġprinciples":7165,"ĠCouncil":7166,"ÂłĊĠ":7167,"ester":7168,"ked":7169,"Ġshots":7170,"Ġbrowser":7171,"Ġdont":7172,"Ġdriven":7173,"parent":7174,"Ġscrew":7175,"ĠItalian":7176,"luded":7177,"inity":7178,"ĠMount":7179,"Ġexciting":7180,"Ġloves":7181,"ĠTem":7182,"âĢī":7183,"Col":7184,"Ġsty":7185,"Ġfold":7186,"Ġcrucial":7187,"Ġcoc":7188,"Ġfiction":7189,"Ġbreaks":7190,"ĠDemocratic":7191,"Ġbirds":7192,"Ġgentle":7193,"Ġtested":7194,"nam":7195,"nda":7196,"Ġvoters":7197,"Ġordered":7198,"Ġelectronic":7199,"96":7200,"icy":7201,"Ġfunding":7202,"Ġupdated":7203,"Ġarrange":7204,"BA":7205,"Rem":7206,"Sim":7207,"Ġmand":7208,"ikip":7209,"Ġinfection":7210,"Ġbreathing":7211,"ĠThomas":7212,"PA":7213,"achel":7214,"Ġaward":7215,"Ġbatt":7216,"ĠComment":7217,"Tuesday":7218,"Ġnine":7219,"Ġdevelopers":7220,"Ġfee":7221,"Ġcarrying":7222,"ials":7223,"ĠBusiness":7224,"ĠGar":7225,"Ġtissue":7226,"Ġnervous":7227,"Ġpit":7228,"etry":7229,"ĠCentral":7230,"%.":7231,"RC":7232,"zed":7233,"Ġshell":7234,"Ġsupports":7235,"Ġcontrols":7236,"Ġexhaust":7237,"Ġsubs":7238,"ĠHistory":7239,"Ġbrill":7240,"Ġwis":7241,"ĠNext":7242,"boy":7243,"Ġtum":7244,"Ġgang":7245,"ogy":7246,"Ġeveryday":7247,"Ġfourth":7248,"een":7249,"etime":7250,"Ġremained":7251,"mo":7252,"Ġwound":7253,"Ġorg":7254,"Ġincl":7255,"Ġhardly":7256,"utch":7257,"prise":7258,"ller":7259,"Twitter":7260,">>":7261,"greg":7262,"Ġpipe":7263,"ĠGM":7264,"rid":7265,"called":7266,"Ġphrase":7267,"Ġstructures":7268,"da":7269,"ĠFind":7270,"Ġsurvey":7271,"ras":7272,"Ġextend":7273,"Ġappeal":7274,"Ġinvestors":7275,"ĠWay":7276,"rich":7277,"Ġrhy":7278,"Ġshares":7279,"ificial":7280,"Ġobst":7281,"Ġfur":7282,"atell":7283,"Ġbreast":7284,"IL":7285,"Ġcompens":7286,"Ġdomin":7287,"ĠPage":7288,"2013":7289,"ĠAtl":7290,"ĠCEO":7291,"Ġresc":7292,"ĠFood":7293,"ĠNav":7294,"ĠLee":7295,"Ġliterature":7296,"Ġwaves":7297,"ĠDV":7298,"ĠFurther":7299,"Ġacceler":7300,"umes":7301,"ĠLis":7302,"Ġdedicated":7303,"Tube":7304,"ĠIll":7305,"Ġinfrastructure":7306,"Ġexpectations":7307,"Ġsurrounding":7308,"Ġlawyer":7309,"ĠEmp":7310,"Ġselected":7311,"Ġbacteria":7312,"itis":7313,"Ġpra":7314,"Ġdiam":7315,"Ġassemb":7316,"Ġ300":7317,"azz":7318,"Ġviolent":7319,"ikipedia":7320,"ĠPut":7321,"ĠNote":7322,"Have":7323,"Ġblocks":7324,"Ġdrawn":7325,"ĠCounty":7326,"Ġangle":7327,"Ġtechnologies":7328,"ĠDark":7329,"Ġopposition":7330,"ĠForm":7331,"ĠName":7332,"Ġformula":7333,"pending":7334,"uilding":7335,"Ġpregnant":7336,"hus":7337,"ĠDC":7338,"Ġsubsequ":7339,"Che":7340,"gressive":7341,"vy":7342,"Ġwest":7343,"ĠMS":7344,"Ġcomprehens":7345,"Ġexpressed":7346,"Ġequally":7347,"Yeah":7348,"Ġgear":7349,"Ġmechanism":7350,"ĠDown":7351,"Ġreducing":7352,"ĠNY":7353,"Ġunion":7354,"ĠVict":7355,"Ġupset":7356,"ĠSet":7357,"ĠFil":7358,"Ġunex":7359,"Ġinspired":7360,"Ġcapture":7361,"ĠArticle":7362,"Ġimmediate":7363,"Share":7364,"Ġtrigger":7365,"iner":7366,"Ġduty":7367,"0000":7368,"Ġmaintenance":7369,"Ġsilver":7370,"Related":7371,"Today":7372,"ĠLiber":7373,"Ġloyal":7374,"Ġengineering":7375,"Ġprosec":7376,"apse":7377,"ĠSn":7378,"Ġshel":7379,"Ġmanif":7380,"Ġafternoon":7381,"ĠSteve":7382,"Ġstack":7383,"icking":7384,"flow":7385,"Ġcontribute":7386,"Ġefficiency":7387,"PC":7388,"ĠColor":7389,"ĠMexico":7390,"ĠThursday":7391,"Ġaccomp":7392,"athan":7393,"Ġexplo":7394,"âĦ":7395,"ĠKn":7396,"Ġcommunicate":7397,"Ġrecipe":7398,"Ġstable":7399,"ĠSqu":7400,"pan":7401,"ĠThink":7402,"Ġenable":7403,"Ġapartment":7404,"eping":7405,"ĠChicago":7406,"mun":7407,"orce":7408,"ĠMaster":7409,"Ġawareness":7410,"ĠCapt":7411,"Ġbub":7412,"Ġjoke":7413,"function":7414,"Ġgam":7415,"Ġpanel":7416,"Ġ2001":7417,"Ġchallenging":7418,"Ġpregnancy":7419,"ĠItaly":7420,"ĠInf":7421,"ften":7422,"ushing":7423,"ĠPR":7424,"Ġmusical":7425,"Ġyours":7426,"Ġbranch":7427,"Ġsurf":7428,"opp":7429,"ĠBritain":7430,"Ġerrors":7431,"''":7432,"Ġrow":7433,"ĠFederal":7434,"Ġther":7435,"itual":7436,"Does":7437,"iscuss":7438,"Ġlifestyle":7439,"ĠBi":7440,"Ġads":7441,"ĠBudd":7442,"ĊĊĠĠĠĠĠĠĠĠĠĠĠ":7443,"ĠHas":7444,"agan":7445,"ĠAfghan":7446,"xx":7447,"ĠExt":7448,"Part":7449,"lla":7450,"Ġrecovery":7451,"Ġestate":7452,"Ġtonight":7453,"Ġicon":7454,"Ġsod":7455,"pel":7456,"Ġvictory":7457,"IF":7458,"agues":7459,"ĠWithout":7460,"Ġbeings":7461,"Ġsaving":7462,"ĠProject":7463,"Ġjail":7464,"ĠSecret":7465,"inet":7466,"ĊĊĠĠĠĠĠĠĠĠĠĠĠĠĠĠĠĠ":7467,"Ġmovements":7468,"Ġoccas":7469,"Ġfees":7470,"Ġstead":7471,"Ġimper":7472,"Ġmurd":7473,"run":7474,"ashes":7475,"Ġrely":7476,"Ġproven":7477,"Ġdamn":7478,"Ġlesson":7479,"Ġcuts":7480,"Which":7481,"oted":7482,"ubMed":7483,"His":7484,"Ġsuccessfully":7485,"Ġtroops":7486,"fire":7487,"Ġapproximately":7488,"pat":7489,"Ġsenior":7490,"Ġinstrument":7491,"Ġdifficulty":7492,"Ġcontaining":7493,"Ġcoach":7494,"plete":7495,"ĠBeing":7496,"ÃŃ":7497,"Ġacademic":7498,"Ġinject":7499,"Ġfewer":7500,"Ġachieved":7501,"ollywood":7502,"anes":7503,"Ġregions":7504,"Ne":7505,"Ġprivacy":7506,"icity":7507,"Ġwedding":7508,"orse":7509,"Ġchecking":7510,"ĠPlus":7511,"orable":7512,"Ġphones":7513,"Ġbike":7514,"agraph":7515,"Ġ$\\":7516,"Ġrising":7517,"Ġindustrial":7518,"ĠSupreme":7519,"Ġcircle":7520,"sole":7521,"arrass":7522,"Ġrepeat":7523,"Ġroles":7524,"Ġincredible":7525,"Ġdivide":7526,"aping":7527,"Ġpleasure":7528,"emic":7529,"ĠJo":7530,"angle":7531,"Ġcovers":7532,"ns":7533,"actions":7534,"Ġtopics":7535,"Ġtracks":7536,"iro":7537,"ĠPak":7538,"Ġrecognized":7539,"Ġtalent":7540,"Ġauthorities":7541,"Ġauthent":7542,"?!":7543,"Ġears":7544,"weight":7545,"ĠCamp":7546,"Ġpray":7547,"ĠLab":7548,"ĠON":7549,"Sec":7550,"ogether":7551,"Ġvessel":7552,"ystem":7553,"Inst":7554,"ĠWood":7555,"oked":7556,"ĠSpace":7557,"Ġconcepts":7558,"Ġhousing":7559,"ĠArmy":7560,"ĠExper":7561,"Ġconfirm":7562,"Ġdrawing":7563,"Ġopinions":7564,"Ġorganic":7565,"Ġheaven":7566,"Ġlaid":7567,"Ġwise":7568,"ptions":7569,"Ġsteel":7570,"cest":7571,"Ġpounds":7572,"ali":7573,"ĠExpl":7574,"arry":7575,"ĠJose":7576,"Ġrecall":7577,"scape":7578,"âĦ¢":7579,"ima":7580,"Ġconnections":7581,"Did":7582,"inent":7583,"ĠCare":7584,"ĠDiv":7585,"Ġinteraction":7586,"redit":7587,"Ġoperate":7588,"atoes":7589,"Ġthorough":7590,"ĠAD":7591,"ÙĨ":7592,"Ġpitch":7593,"ĠHaving":7594,"Ġusage":7595,"obby":7596,"Ġdifferently":7597,"Ġcigare":7598,"UN":7599,"Ġhealthcare":7600,"Ġcharacteristics":7601,"fall":7602,"Ġclothing":7603,"fol":7604,"Ġlean":7605,"ĠAsia":7606,"Ġcomprom":7607,"Ġdemocracy":7608,"Ġnutri":7609,"endment":7610,"ĠInformation":7611,"Ġphilosophy":7612,"ĠPay":7613,"ĠOS":7614,"Ġmanual":7615,"Ġserving":7616,"idelines":7617,"Ġdiabetes":7618,"Will":7619,"Ġcurious":7620,"some":7621,"ĠMic":7622,"liament":7623,"Ġcleaning":7624,"ĠSuch":7625,"comes":7626,"ĠRiver":7627,"Ġanybody":7628,"ĠYOU":7629,"ĠURL":7630,"Ġbehaviour":7631,"law":7632,"Ġpace":7633,"Ġdict":7634,"ĠShow":7635,"Ġbasket":7636,"Ġimplementation":7637,"eras":7638,"udes":7639,"Ġsignals":7640,"Ġvariables":7641,"Ġdiscipl":7642,"Ġfake":7643,"Ġscan":7644,"ala":7645,"bet":7646,"Ġrum":7647,"Hey":7648,"uan":7649,"Ġprotected":7650,"Ġcontrovers":7651,"Ġgate":7652,"Ġloop":7653,"Ġpub":7654,"asters":7655,"astern":7656,"ĠKir":7657,"utter":7658,"ĠFinally":7659,"ĠIsland":7660,"sub":7661,"olt":7662,"ĠSenate":7663,"Ġfurn":7664,"Ġcha":7665,"obs":7666,"Ġhumanity":7667,"Ġstrongly":7668,"Ġvolunte":7669,"Ġbuff":7670,"Ġdying":7671,"AY":7672,"Ġproport":7673,"Ġ~":7674,"ĠMur":7675,"PG":7676,"Ġrecover":7677,"Ġflood":7678,"urse":7679,"Ġradical":7680,"ĠCarol":7681,"Ġgravity":7682,"world":7683,"Ġactor":7684,"Ġtradition":7685,"Ġbirthday":7686,"ĠWal":7687,"Ġnarrow":7688,"Ġassault":7689,"ca":7690,"ÙĬ":7691,"istent":7692,"when":7693,"ba":7694,"Ġbeach":7695,"Ġformal":7696,"oured":7697,"Note":7698,"Ġregister":7699,"Ġwhereas":7700,"ĠSwed":7701,"ĠCast":7702,"Ġrecon":7703,"bow":7704,"Ġinev":7705,"otted":7706,"Ġreceiving":7707,"ĠEveryone":7708,"ĠPublic":7709,"Ġbills":7710,"ĠRemember":7711,"Ġresponses":7712,"uma":7713,"teen":7714,"Ġactors":7715,"Ġlocations":7716,"Ġgig":7717,"udi":7718,"Ġalleged":7719,"Ġhoriz":7720,"requ":7721,"ĠPan":7722,"Ġcrimes":7723,"anwhile":7724,"otes":7725,"Ġreprodu":7726,"Ġrefers":7727,"Ġdelivered":7728,"Ġpron":7729,"Ġelected":7730,"Ġchecked":7731,"Ġshirt":7732,"Ġobjective":7733,"ĠMot":7734,"Ġproducing":7735,"Ġprotest":7736,"Ġvital":7737,"Ġcoal":7738,"Ġcolour":7739,"Ġencounter":7740,"Ġhorror":7741,"Ġdomestic":7742,"Ġsle":7743,"Ġok":7744,"Ġtongue":7745,"Ġgal":7746,"ĠWomen":7747,"Ġinformed":7748,"Ġmoist":7749,"Ġfaced":7750,"Ġsorts":7751,"Ġarrested":7752,"Ġhappiness":7753,"Ġadvis":7754,"Ġemployment":7755,"Before":7756,"Ġroughly":7757,"Ġdynamic":7758,"Ġcrypt":7759,"ĠBit":7760,"ĠProgram":7761,"ĠLand":7762,"Ġtears":7763,"Ġcrash":7764,"erts":7765,"American":7766,"ĠNaz":7767,"ĠEp":7768,"ĠMinister":7769,"OV":7770,"ĠCub":7771,"Ġathlet":7772,"erving":7773,"Ġcats":7774,"Ġthrown":7775,"Ġregul":7776,"Ð¸":7777,"igan":7778,"Ġtooth":7779,"ĠMont":7780,"Av":7781,"ĠYouTube":7782,"Ġparallel":7783,"Ġsearching":7784,"Ġrational":7785,"Ġinnocent":7786,"rated":7787,"Ġabilities":7788,"Ġ(\"":7789,"nergy":7790,"Ġbowl":7791,"Ġowned":7792,"Ġrecording":7793,"Ġunlikely":7794,"mond":7795,"ĠFed":7796,"crib":7797,"Ġhanging":7798,"Ġgovernments":7799,"ĠChristians":7800,"Ġshout":7801,"Image":7802,"Ġtill":7803,"Ġvegetables":7804,"tery":7805,"essor":7806,"ĠOffice":7807,"Ġunusual":7808,"Ġhire":7809,"Ġdisorder":7810,"pg":7811,"Ġstir":7812,"ĠWednesday":7813,"oga":7814,"Ġsheet":7815,"icked":7816,"Ġ_":7817,"Ġphysically":7818,"Ġthroat":7819,"essions":7820,"ĠStand":7821,"ĠSoci":7822,"Reg":7823,"Ġspaces":7824,"Ġinitially":7825,"Ġlaptop":7826,"Ġrice":7827,"ĠEconom":7828,"Ġspark":7829,"power":7830,"Ġneur":7831,"ĠFar":7832,"Ġcompetitive":7833,"Ġfru":7834,"Ġ2002":7835,"conf":7836,"Ġdestruction":7837,"zer":7838,"ĠHard":7839,"Ġsmiled":7840,"Ġrapidly":7841,"geon":7842,"atively":7843,"97":7844,"Ġ}":7845,"ĠCollege":7846,"ENT":7847,"Art":7848,"Ġuniform":7849,"Ġtack":7850,"Ġinstant":7851,"Ġignor":7852,"Ġfluid":7853,"Ġfantastic":7854,"Pre":7855,"cho":7856,"Ġdrunk":7857,"enger":7858,"ĠLouis":7859,"Ġobtained":7860,"Ġbits":7861,"Ġboot":7862,"Ġstudio":7863,"Ġmixture":7864,"ĠEnter":7865,"Ġeast":7866,"ĠCN":7867,"iture":7868,"ami":7869,"ilst":7870,"Ġsne":7871,"imize":7872,"Ġhealing":7873,"Ġpod":7874,"erman":7875,"Ġgreatly":7876,"Ġreveal":7877,"suit":7878,"gel":7879,"ocratic":7880,"Ġchannels":7881,"Ġreliable":7882,"Ġirrit":7883,"Ġflavor":7884,"HA":7885,"gly":7886,"iac":7887,"mg":7888,"Ġnurs":7889,"ĠDan":7890,"Ġdescribes":7891,"Ġultimate":7892,"ĠĠĠĠĠĠĠĠĠĠĠĠ":7893,"Ġadministr":7894,"itty":7895,"ĠAR":7896,"ĠBid":7897,"Ġinches":7898,"Ġunderlying":7899,"Ġprivile":7900,"Ġsurvival":7901,"IR":7902,"Ġna":7903,"Ġchildhood":7904,"Ġrecognition":7905,"ĠHenry":7906,"Ġdivided":7907,"ĊĠĠ":7908,"ĠCa":7909,"yrics":7910,"Ġperforming":7911,"SC":7912,"Ġgap":7913,"Ġpuzz":7914,"Ġindu":7915,"Ġimpression":7916,"words":7917,"Ġrefused":7918,"ĠBlue":7919,"ustration":7920,"onder":7921,"Ġentit":7922,"ĠGroup":7923,"Ġsuicide":7924,"Ġnarrative":7925,"Ġshame":7926,"ĠRichard":7927,"ĠSign":7928,"Ġdesired":7929,"ĠCharles":7930,"Ġprev":7931,"Ġformation":7932,"Ġrose":7933,"Ġporn":7934,"Ġassistance":7935,".âĢĻ":7936,"Ġham":7937,".....":7938,"Ġpoison":7939,"Ġsuperior":7940,"Ġimmigr":7941,"ĠBad":7942,"Ġ33":7943,"Ġsurely":7944,"Ġpulling":7945,"ĠDesign":7946,"Ġchoosing":7947,"Ġsauce":7948,"ded":7949,"Ġfet":7950,"ĠScholar":7951,"68":7952,"ja":7953,"Ġsuitable":7954,"Ġdiscount":7955,"rection":7956,"Ġpapers":7957,"ĠInstitute":7958,"ĠSep":7959,"Ã¤":7960,"Ġwestern":7961,"ifferent":7962,"ĠOrgan":7963,"ĠOnline":7964,"Ġtape":7965,"Ġcable":7966,"ĠCall":7967,"Ġalien":7968,"rets":7969,"Ġinsight":7970,"Ġradiation":7971,"Ġurban":7972,"Ġembarrass":7973,"ĠDig":7974,"Ġelections":7975,"Ġnutr":7976,"agine":7977,"away":7978,"Ġmeasured":7979,"ĠMedia":7980,"MA":7981,"atus":7982,"eness":7983,"Ġgre":7984,"ĠDar":7985,"Ġpurs":7986,"ĠWin":7987,"print":7988,"Ġsilence":7989,"stone":7990,"Ġelectrical":7991,"Ġfigured":7992,"Ġsed":7993,"ĠCanadian":7994,"Ġsli":7995,"Ġfired":7996,"Ġinjuries":7997,"http":7998,"MP":7999,"Ġmirror":8000,"lymp":8001,"Ġships":8002,"Ġperiods":8003,"Ġbot":8004,"Ġscheme":8005,"umer":8006,"Ġflour":8007,"Ġparagraph":8008,"Ġframework":8009,"ĠLead":8010,"after":8011,"don":8012,"ĠTurn":8013,"Ġliver":8014,"Ġstab":8015,"Ġ00":8016,"ĠRon":8017,"Sunday":8018,"usions":8019,"agger":8020,"arly":8021,"ĠMos":8022,"Ġreaching":8023,"Ġconvinced":8024,"Ġprotocol":8025,"Ġcommenting":8026,"pack":8027,"Ġdies":8028,"ensus":8029,"Ġdecrease":8030,"Next":8031,"Ã¶":8032,"Ġven":8033,"ĠParis":8034,"ĠHead":8035,"Ġparameters":8036,"bably":8037,"Ġcalories":8038,"Ġmortgage":8039,"Ġprofessionals":8040,"enth":8041,"ĠLeague":8042,"Ġrooms":8043,"ĠDespite":8044,"ati":8045,"eps":8046,"Ġalarm":8047,"Ġagencies":8048,"weet":8049,"Connecting":8050,"Ġprime":8051,"Ġreduction":8052,"Ġcake":8053,"ĠPython":8054,"Ġparticipants":8055,"ĠNight":8056,"Ġexecutive":8057,"ĠMoon":8058,"Ġbug":8059,"LY":8060,"Ġdistract":8061,"Top":8062,"Ã³":8063,"making":8064,"Ġreputation":8065,"iano":8066,"etary":8067,"ÂłÂłĊ":8068,"Ġextension":8069,"Ø§Ø":8070,"Ġvoting":8071,"ragon":8072,"uled":8073,"ĠCompany":8074,"LA":8075,"Ġcogn":8076,"othe":8077,"estions":8078,"type":8079,"Ġ1990":8080,"ĠCharl":8081,"cia":8082,"Ġheaded":8083,"ĠLink":8084,"Ke":8085,"math":8086,"Ġsword":8087,"Ġdirty":8088,"Ġestimated":8089,"Ġsavings":8090,"Ġcheaper":8091,"Ġreporting":8092,"ĠPosts":8093,"Ġpresentation":8094,"good":8095,"ĠYear":8096,"atching":8097,"ĠLi":8098,"Ġelsewhere":8099,"Fl":8100,"TC":8101,"aste":8102,"Ġentr":8103,"Ġquit":8104,"Ġdeaths":8105,"Ġadventure":8106,"ĠKnow":8107,"ĠControl":8108,"Ġdeals":8109,"umin":8110,"Ġconfiguration":8111,"Ġdirected":8112,"Ġmic":8113,"Ġconsciousness":8114,"ï¬":8115,"ĠPhys":8116,"Ġexpenses":8117,"Ġpermanent":8118,"Ġcann":8119,"Ġexplicit":8120,"ĠHelp":8121,"Ġlift":8122,"ĠHa":8123,"Ġticket":8124,"ĠCra":8125,"iah":8126,"Ġservers":8127,"Ġimprovement":8128,"Book":8129,"bb":8130,"Ġgeneric":8131,"ĠDeath":8132,"Ġstops":8133,"Ġstaying":8134,"Ġalter":8135,"Ġperception":8136,"Ġaffects":8137,"Ġattractive":8138,"Ġ38":8139,"Ġkeys":8140,"Ġdrives":8141,"ĠSea":8142,"Ġinvolving":8143,"Ġordinary":8144,"ĠAPI":8145,"eling":8146,"Ġparticipate":8147,"Ġfest":8148,"Two":8149,"Ġcryst":8150,"Ġfert":8151,"Ġhonor":8152,"Ġgif":8153,"ĠCle":8154,"Ø§ÙĦ":8155,"Gu":8156,"Ġrail":8157,"Sm":8158,"Ġuncle":8159,"Ġlessons":8160,"Ġstruck":8161,"zil":8162,"Ġupdates":8163,"ikes":8164,"Ġboxes":8165,"oop":8166,"oria":8167,"imm":8168,"iox":8169,"ĠHTML":8170,"Ġlegislation":8171,"alty":8172,"Ġconvert":8173,"Ġversus":8174,"Ġplatforms":8175,"Ġholiday":8176,"ĠAnonymous":8177,"orous":8178,"Ġapproaches":8179,"ĠRa":8180,"Ġdemands":8181,"Ġstayed":8182,"!!!!":8183,"2012":8184,"uana":8185,"Ġcounsel":8186,"Cons":8187,"à¸":8188,"Ġpsychological":8189,"Ġstruggling":8190,"TP":8191,"ila":8192,"Ġ48":8193,"Comp":8194,"Ġfed":8195,"ĠMom":8196,"Ġdismiss":8197,"Ð½":8198,"ultane":8199,"Ġorganized":8200,"Ġrenew":8201,"ĠBern":8202,"Ġfoundation":8203,"vi":8204,"ements":8205,"During":8206,"izza":8207,"Ġregulations":8208,"Ġvisited":8209,"ĠLittle":8210,"ĠCould":8211,"Ġdensity":8212,"ĠTit":8213,"ĠTal":8214,"ĠJones":8215,"Ġprospect":8216,"Ref":8217,"uto":8218,"eties":8219,"Ġconfirmed":8220,"VER":8221,"Ġvert":8222,"CE":8223,"ĠSex":8224,"Ġseed":8225,"Ġanticip":8226,"ĠRay":8227,"Ġalgorithm":8228,"Ġmyster":8229,"Ġenthus":8230,"ĠVery":8231,"lers":8232,"Ġease":8233,"ĠDam":8234,"Ġbrothers":8235,"ĠConstitution":8236,"Ġridiculous":8237,"cal":8238,"Ùħ":8239,"Ġtemperatures":8240,"Ġenforcement":8241,"ĊÂłÂłÂłÂłÂł":8242,"Ġaccomplish":8243,"ĠAuthor":8244,"oval":8245,"Ġpainful":8246,"Ġwash":8247,"strong":8248,"ko":8249,"olars":8250,"ĠRand":8251,"ÑĤ":8252,"Ġpocket":8253,"Ġbathroom":8254,"Ġhabits":8255,"ĠThree":8256,"Ġbreakfast":8257,"erver":8258,"Ġbinary":8259,"ĠAri":8260,"Ġbars":8261,"Ġsymp":8262,"Ġconcentration":8263,"rick":8264,"Ġfought":8265,"Ġmit":8266,"ĠKen":8267,"Ġconfront":8268,"Ġcameras":8269,"Ġcorrel":8270,"Ġcreatures":8271,"65":8272,"ds":8273,"aka":8274,"Ġcriter":8275,"ĠWhether":8276,"Christ":8277,"uten":8278,"owered":8279,"Ġrating":8280,"Ġsetup":8281,"ĠSP":8282,"ĠPrime":8283,"Ġsubjects":8284,"Ġhonestly":8285,"issions":8286,"Ġconcrete":8287,"ĠMedic":8288,"omed":8289,"ĠLinux":8290,"Ġtrem":8291,"ĠJustice":8292,"ĠView":8293,"Ġconsists":8294,"Ġmeetings":8295,"Ġcasual":8296,"Ġtied":8297,"Ġpainting":8298,"eren":8299,"earing":8300,"Ġunem":8301,"Ġscared":8302,"being":8303,"Ġ//":8304,"Ġwisdom":8305,"RS":8306,"alysis":8307,"Ġhorrible":8308,"ĠMusic":8309,"Ġmedication":8310,"Ġshr":8311,"Ġarrive":8312,"Ġlayers":8313,"ĠHand":8314,"Ġshower":8315,"attered":8316,"Ġresidents":8317,"Ġorient":8318,"Ġroots":8319,"ĠHi":8320,"Ġuncertain":8321,"Ġintellectual":8322,"Ġbones":8323,"aron":8324,"through":8325,"ĠGirl":8326,"iana":8327,"Ġattorney":8328,"Ġphysics":8329,"ĠCode":8330,"Comm":8331,"Ġcompe":8332,"Ġhandling":8333,"aved":8334,"Ġdeserve":8335,"Ġmetab":8336,"ĠMess":8337,"Ġarmed":8338,"Ġburst":8339,"Ġoccasionally":8340,"ĠVirgin":8341,"Ġlists":8342,"Ġ1980":8343,"Ġdistingu":8344,"Ġdumb":8345,"Ġgained":8346,"Ġenorm":8347,"OO":8348,"ĊĠĠĠĠ":8349,"ĠFour":8350,"Ġhes":8351,"seless":8352,"erted":8353,"ĠNothing":8354,"ĠSyria":8355,".</":8356,"osexual":8357,"ĠAssociation":8358,"may":8359,"Ġlocked":8360,"ĠAND":8361,"Ġnodd":8362,"riers":8363,"ifier":8364,"oston":8365,"Ġdecline":8366,"aire":8367,"ĠPop":8368,"orses":8369,"Ġthrowing":8370,"alking":8371,"Ġsinging":8372,"uation":8373,"Ġadmitted":8374,"Ġaccused":8375,"Ġconducted":8376,"Ġye":8377,"Ġrecept":8378,"Ġstudied":8379,"Ġbrilliant":8380,"ĠSov":8381,"Ġseats":8382,"Ġexcuse":8383,"Ġtension":8384,"Ġoven":8385,"ourse":8386,"Ġscar":8387,"Ġdialogue":8388,"dated":8389,"},":8390,"Ġprofits":8391,"Ġrepresented":8392,"Ġancest":8393,"oty":8394,"ĠKh":8395,"Ġsilent":8396,"89":8397,"ĠMatt":8398,"Ġaccompan":8399,"HT":8400,"such":8401,"rec":8402,"Ġveter":8403,"Ġutter":8404,"Ġignored":8405,"Ġvitamin":8406,"Ġwithdraw":8407,"esides":8408,"archy":8409,"Ġswing":8410,"Ġequation":8411,"ouch":8412,"ĠQueen":8413,"Ġincent":8414,"Ġconvenient":8415,"Ġairport":8416,"Ġlaunched":8417,"itches":8418,"Ġfemin":8419,"ugs":8420,"Ġattacked":8421,"Ġdelight":8422,"ĠHollywood":8423,"Ġengaged":8424,"ĠAdam":8425,"only":8426,"ĠPoint":8427,"ĠRo":8428,"Ġraising":8429,"Ġassessment":8430,"Ġbabies":8431,"Act":8432,"Ġ!":8433,"67":8434,"Ġmonthly":8435,"ira":8436,"oret":8437,"Ġcategories":8438,"Ġdeploy":8439,"Ġedit":8440,"Ġmagazine":8441,"ÑĢ":8442,"Ġtub":8443,"Ġbom":8444,"Ġongoing":8445,"ĠJohnson":8446,"Ġpassage":8447,"father":8448,"live":8449,"Ġcute":8450,"ĠDead":8451,"Ġexpansion":8452,"Ġmarked":8453,"Ġguarantee":8454,"Ġtoss":8455,"pie":8456,"Ġcrap":8457,"Ġshadow":8458,"ĠKim":8459,"Ġovercome":8460,"Ġreplacement":8461,"ĠAsh":8462,"organ":8463,"Ġclosing":8464,"Ġannoying":8465,"Ġconce":8466,"ĠPS":8467,"iel":8468,"Ġmild":8469,"berry":8470,"Ġapproved":8471,"Ã¼":8472,"Ġinterpretation":8473,"ucky":8474,"Ġtargets":8475,"lan":8476,"Ġsake":8477,"Ġnotion":8478,"ĠOF":8479,"Ġghost":8480,"ĠCard":8481,"pled":8482,"Ġ75":8483,"ĠTeam":8484,"Eng":8485,"Ġjew":8486,"ĠEngine":8487,"Ġsubstance":8488,"ĠThrough":8489,"Ġpersons":8490,"Ġje":8491,"Ġserves":8492,"CD":8493,"worth":8494,"your":8495,"Ġought":8496,"Ġchronic":8497,"ĠSky":8498,"Ġissued":8499,"ĠPolice":8500,"ĠÏ":8501,"Ġren":8502,"ieve":8503,"Ġbene":8504,"Ġethnic":8505,"ĠFox":8506,"ologists":8507,"gun":8508,"link":8509,"Ġedition":8510,"door":8511,"Ġreverse":8512,"theless":8513,"Ġannounce":8514,"Ġdrops":8515,"Ġcommission":8516,"Ġregime":8517,"Ġacceptable":8518,"got":8519,"pot":8520,"ĠCreat":8521,"Finally":8522,"Ġbags":8523,"oric":8524,"Ġgaming":8525,"ĠPen":8526,"Ġentering":8527,"Ġtransaction":8528,"Maybe":8529,"ĠAh":8530,"âĢĻ,":8531,"Ġpermission":8532,"Ġclinical":8533,"Ġdisagree":8534,"Ġstatistics":8535,"irector":8536,"assion":8537,"Ġunexpected":8538,"Ġimplemented":8539,"bell":8540,"made":8541,"ĠOlymp":8542,"Ġscreens":8543,"Ġmatches":8544,"ĠWars":8545,"Ġdisaster":8546,"amps":8547,"Ġimproving":8548,"Ġexceed":8549,"Ġsuffered":8550,"Ġimpressive":8551,"embered":8552,"Source":8553,"mates":8554,"Ġstages":8555,"Ġcircuit":8556,"ĠConsider":8557,"Ġweakness":8558,"Ġmaintaining":8559,"Ġstretch":8560,"Ġloving":8561,"Figure":8562,"Ġagric":8563,"anguage":8564,"ĠDonald":8565,"Ġsuspic":8566,"TV":8567,"Ġshield":8568,"Ġspons":8569,"ĠEverything":8570,"usal":8571,"Ġrelation":8572,"Ġpreferred":8573,"Ġstudying":8574,"because":8575,"ĠSher":8576,"rooms":8577,"Ġdeliber":8578,"ĠLatin":8579,"Ġaccum":8580,"Ġposting":8581,"Ġcaptured":8582,"Mr":8583,"ordan":8584,"necess":8585,"ibl":8586,"Ġchecks":8587,"will":8588,"Ġmarks":8589,"Ġfunctional":8590,"Ġproduces":8591,"Her":8592,"prene":8593,"Ġdeclared":8594,"Ġtoile":8595,"Ġprohib":8596,"Ġlogical":8597,"fortable":8598,"ÃĤ":8599,"Ġwing":8600,"Ġpropag":8601,"igen":8602,"Ġ37":8603,"ĠReport":8604,"Ġpriority":8605,"ĠHot":8606,"thur":8607,"igate":8608,"ĠEss":8609,"ĠLos":8610,"Ġtends":8611,"Ġarchitecture":8612,"Time":8613,"orph":8614,"ĠSarah":8615,"\":":8616,"pers":8617,"Ġneuro":8618,"Ġreferences":8619,"style":8620,"Ġattach":8621,"Ġwins":8622,"ndrome":8623,"leg":8624,"ĠCaptain":8625,"Ġsimultane":8626,"thew":8627,"Ġadvantages":8628,"Ġentertainment":8629,"Press":8630,"Ġhip":8631,"Ġgym":8632,"Ġmeals":8633,"ĠEduc":8634,"Ġgranted":8635,"Ġadequ":8636,"Ġopens":8637,"Ġcommitment":8638,"Gr":8639,"jo":8640,"Ñģ":8641,"ultural":8642,"ĠInvest":8643,"Ġhopes":8644,"elcome":8645,"Ġavatar":8646,"Ġinflation":8647,"inst":8648,"Ġmg":8649,"Ġjer":8650,"Ġsecondary":8651,"Ġwars":8652,"Ġboring":8653,"ifer":8654,"Ġbeneath":8655,"sex":8656,"ĠCost":8657,"Ġminimal":8658,"Ġvolt":8659,"Ġvulnerable":8660,"ĠEmpire":8661,"gas":8662,"Ġhoney":8663,"Ġsupplement":8664,"ĠIslamic":8665,"ĠPac":8666,"Ġdefic":8667,"Ġtempt":8668,"ĠLeg":8669,"Ġfantasy":8670,"%,":8671,"Ġdates":8672,"minute":8673,"Ġroads":8674,"west":8675,"ĠForce":8676,"reprene":8677,"atal":8678,"ĠSir":8679,"Ġfacil":8680,"Ġholes":8681,"Ġintroduction":8682,"quot":8683,"Ġshoulders":8684,"Ġwondered":8685,"Ġirre":8686,"ppy":8687,"brid":8688,"Ġmonitoring":8689,"->":8690,"DS":8691,"case":8692,"ĠðŁ":8693,"ione":8694,"ĠCreate":8695,"Ġapplies":8696,"Ġphotograph":8697,"69":8698,"ĠSociety":8699,"Ġfails":8700,"Ġpicking":8701,"Ġassigned":8702,"Ġfabric":8703,"Ġmini":8704,"aylor":8705,"Ġ1000":8706,"Ġprofessor":8707,"Ġgolden":8708,"ĠAfghanistan":8709,"including":8710,",'":8711,"Ġdancing":8712,"ĠHop":8713,"ĠJac":8714,"Ġspeaker":8715,"à¥":8716,"ĠPsych":8717,"ĠFather":8718,"cover":8719,"ĠUlt":8720,"Ġages":8721,"Ġlip":8722,"Ġcultures":8723,"87":8724,"ifice":8725,"acts":8726,"Ġballs":8727,"charge":8728,"Ġnewspaper":8729,"Ġfir":8730,"ĠColl":8731,"ureau":8732,"Ġpasses":8733,"âĢĵ]":8734,"ĠManagement":8735,"ĠPolit":8736,"ni":8737,"orris":8738,"Ġdefeat":8739,"ptic":8740,"Ġmystery":8741,"Ġcosm":8742,"rug":8743,"Ġconsideration":8744,"LC":8745,"Ġfocusing":8746,"Ġintelligent":8747,".]":8748,"esc":8749,"ĠEve":8750,"Ġgenre":8751,"Ġchemicals":8752,"GE":8753,"ĠHit":8754,"apor":8755,"Ġvend":8756,"Ġepisodes":8757,"Ġseeds":8758,"Ġjun":8759,"ĠThings":8760,"Ġdiscl":8761,"Ġproteins":8762,"Ġadopted":8763,"Ġjuice":8764,"mers":8765,"Ġpul":8766,"Ġmere":8767,"Ġwarming":8768,"Ġsilly":8769,"eek":8770,"Ġforgotten":8771,"athered":8772,"ĠSon":8773,"oded":8774,"Ġquery":8775,"Ġcreature":8776,"Ġsoph":8777,"Ġhitting":8778,"Ġterritory":8779,"have":8780,"ĠTony":8781,"olving":8782,"Ġlens":8783,"Ġindicates":8784,"ĠYoung":8785,"lix":8786,"Ġemails":8787,"Ġretirement":8788,"Ġtheat":8789,"ective":8790,"ĠStory":8791,"Ġcollected":8792,"Photo":8793,"Ġsignature":8794,"ictionary":8795,"Ġbands":8796,"ĠNE":8797,"inds":8798,"Ġspots":8799,"Ġlyrics":8800,"ĠHun":8801,"Ġdrama":8802,"ĠCook":8803,"ĠRoad":8804,"Ġ34":8805,"Ġfallen":8806,"ijuana":8807,"Ġprepar":8808,"Ġdiscovery":8809,"Ġlaz":8810,"Ġunp":8811,"ĠProv":8812,"Ġengines":8813,"Ġdarkness":8814,"300":8815,"Ġtube":8816,"Ġseemingly":8817,"Ġcourts":8818,"Ġaccessible":8819,"Ġassumed":8820,"Ġawful":8821,"olen":8822,"Ġcomic":8823,"Ġprovider":8824,"Ġvisiting":8825,"inction":8826,"Ġtrail":8827,"Ġconversations":8828,"sis":8829,"Tra":8830,"Ġthrew":8831,"Ġinsect":8832,"Ġheading":8833,"ckets":8834,"opt":8835,"Ġpowder":8836,"Ġleague":8837,"ĠCarl":8838,"Ġpurchased":8839,"ĠEll":8840,"Ġproposal":8841,"Ġpresidential":8842,"ĠNetwork":8843,"Ġoutcomes":8844,"Mark":8845,"Ġgest":8846,"Ġhence":8847,"Ġgirlfriend":8848,"Saturday":8849,"Ġconstit":8850,"Ġabsence":8851,"Ġflowers":8852,"Ġcomprehensive":8853,"df":8854,"ĠRun":8855,"Ġconfusion":8856,"occ":8857,"ĠWH":8858,"Ġdisg":8859,"Ġcenturies":8860,"atellite":8861,"ĠMult":8862,"about":8863,"Ġdecides":8864,"Ġcorn":8865,"Ġprocedures":8866,"Ġrender":8867,"Ġcentre":8868,"Ġdump":8869,"Ġroy":8870,"Ġox":8871,"Ġforum":8872,"Ġproved":8873,"ĠRam":8874,"Ġouts":8875,"ĠWilli":8876,"Ġprecisely":8877,"Ġapolog":8878,"Ġtheories":8879,"ĠMain":8880,"una":8881,"Ġvibr":8882,"Ġmonster":8883,"ĠAS":8884,"Ġstere":8885,"Ġinflamm":8886,"natural":8887,"ĠSpir":8888,"uate":8889,"Ġlux":8890,"Ġkil":8891,"Ġvisitors":8892,"Ġrhyth":8893,"CA":8894,"Ġborrow":8895,"Ġcompat":8896,"ĠAndroid":8897,"Ġcurve":8898,"Ġimmigration":8899,"Ġdivision":8900,"Def":8901,"Ġles":8902,"ĠMars":8903,"uming":8904,"Ġmainstream":8905,"Ġconvince":8906,"hot":8907,"Ġodds":8908,"core":8909,"heart":8910,"ocks":8911,"Ġsuggestions":8912,"Ġpour":8913,"Ġimportantly":8914,"Ġbaseball":8915,"abeth":8916,"screen":8917,"Ġpremium":8918,"PR":8919,"ĠFriend":8920,"ĠAsian":8921,"ĠPrin":8922,"Ġtracking":8923,"Ġuniversal":8924,"Ġdil":8925,"rav":8926,"ĠOp":8927,"acles":8928,"Ġcontained":8929,"arently":8930,"ommod":8931,"Ġbeneficial":8932,"ji":8933,"Ġguest":8934,"Ġlovely":8935,"Ġcontainer":8936,"ĠBell":8937,"ĠNon":8938,"Ġbench":8939,"Ste":8940,"arters":8941,"Ġapplying":8942,"Ġbadly":8943,"Ġrequirement":8944,"Ġpover":8945,"Ġremembered":8946,"Ġdocumentation":8947,"Ġnegoti":8948,"Ġeducational":8949,"Ġfacilities":8950,"isk":8951,"Ġhill":8952,"Ġrequests":8953,"Ġdependent":8954,"fr":8955,"gain":8956,"Ġthy":8957,"Ġgut":8958,"ults":8959,"Ġrape":8960,"Ġartificial":8961,"Ġparticles":8962,"Ġasleep":8963,"Ġsear":8964,"opher":8965,"Ġinjured":8966,"Ġexperiments":8967,"Ġvirtually":8968,"ĠKorean":8969,"Ġpoverty":8970,"gments":8971,"Ġtap":8972,"ĠBat":8973,"ĠRub":8974,"Ġmeaningful":8975,"uzz":8976,"bage":8977,"Ġlegend":8978,"Ġworldwide":8979,"][":8980,"irts":8981,"Ġregional":8982,"uction":8983,"Â©":8984,"ader":8985,"ao":8986,"ĠCustom":8987,"TA":8988,"kward":8989,"Ø±":8990,"ĠNic":8991,"Ġ1970":8992,"ĠMuslims":8993,"ĠWikipedia":8994,"cking":8995,"Ġhopefully":8996,"Ġhal":8997,"UR":8998,"Ġsizes":8999,"Ġinqu":9000,"Ġpeak":9001,"oli":9002,"Ġsegment":9003,"Ġearned":9004,"pendent":9005,"ĠAustralian":9006,"ĠWild":9007,"Ġcriteria":9008,"itarian":9009,"Ġsamples":9010,"Ġpink":9011,"Ġdrinks":9012,"Ġstimul":9013,"erior":9014,"ownt":9015,"ĠDaniel":9016,"Ġalign":9017,"Ġlifetime":9018,"Ġwalks":9019,"Sk":9020,"ĠAge":9021,"ĠSpain":9022,"Ġarc":9023,"Ġoffensive":9024,"ĠAngeles":9025,"makers":9026,"anth":9027,"Ġë":9028,"omatic":9029,"neys":9030,"owers":9031,"amber":9032,"79":9033,"Ġsurve":9034,"acher":9035,"Ġtie":9036,"ĠNob":9037,"olicy":9038,"Ġexecution":9039,"Ġbatteries":9040,"Ġnodded":9041,"ĠCommission":9042,"Ġmerch":9043,"Ġpound":9044,"Ġsupplies":9045,"ĠComput":9046,"ĠResp":9047,"Ġsemi":9048,"Ġjudgment":9049,"ĠJackson":9050,"file":9051,"Ġdys":9052,"Ġeliminate":9053,"rics":9054,"Ġfate":9055,"Ġparad":9056,"Ġvoices":9057,"Ġwage":9058,"Ġguidelines":9059,"ĠAsk":9060,"Ġasset":9061,"Ġantib":9062,"Ġcovering":9063,"Ġfarmers":9064,"code":9065,"ãĢ":9066,"ĠIre":9067,"Ġagenda":9068,"Ġcopyright":9069,"Ġreactions":9070,"omer":9071,"Ġrolling":9072,"Ġemployer":9073,"foot":9074,"olves":9075,"Ġcriticism":9076,"Ġaddresses":9077,"ĠGuard":9078,"Ġorange":9079,"rying":9080,"phones":9081,"Ġfindings":9082,"Ġopponent":9083,"cip":9084,"Ġextensive":9085,"ĠGuide":9086,"Ġfilling":9087,"Ġassociation":9088,".;":9089,"Join":9090,"Ġdamaged":9091,"Ġtemporary":9092,"Ġmile":9093,"Ġstepped":9094,"Ġtraveling":9095,"Ġbiological":9096,"ĠIM":9097,"Ġvoc":9098,"ĠBrother":9099,"Ġimmun":9100,"ĠFrancisco":9101,"ĠCH":9102,"Ġsections":9103,"Ġreturning":9104,"Ġattempted":9105,"Ġexercises":9106,"ĠDave":9107,"Ġ/><":9108,"normal":9109,"ntil":9110,"Ġargued":9111,"Ġperpet":9112,"Ġnavigation":9113,"ĠRome":9114,"ĠKat":9115,"Ġtransactions":9116,"Ġinfin":9117,"Ġdiverse":9118,"Ġvoted":9119,"Ġuncomfortable":9120,"obb":9121,"Ġcapabilities":9122,"Ġcolleagues":9123,"Ġstocks":9124,"Ġromantic":9125,"cut":9126,"iy":9127,"Ġstations":9128,"user":9129,"Ġspoken":9130,"Ġparking":9131,"aware":9132,"ĠAdv":9133,"irus":9134,"ĠNAS":9135,"Ġdesigns":9136,"ĠIV":9137,"Ġenjoying":9138,"Name":9139,"pered":9140,"ĠLake":9141,"ogs":9142,"ĠMrs":9143,"FC":9144,"Ġcorrupt":9145,"Ġspecified":9146,"ĠProduct":9147,"Ġdestination":9148,"Ġdivorce":9149,"Br":9150,"mind":9151,"tered":9152,"Ġscope":9153,"Ġfinance":9154,"Ġestimate":9155,"Ġnerve":9156,"Ġdozen":9157,"Ġmeets":9158,"Ġdirectory":9159,"ĠConnect":9160,"Ġinher":9161,"ĠCur":9162,"ailed":9163,"ĠAndrew":9164,"Ġinstances":9165,"Ġsummary":9166,"Ġaggressive":9167,"Ġconventional":9168,"mat":9169,"Ġknife":9170,"ĠHD":9171,"Ġabstract":9172,"Ġbin":9173,"Ġ400":9174,"Ġdecor":9175,"Ġgenerations":9176,"ennis":9177,"ä¸":9178,"Ġmouse":9179,"blem":9180,"Ġsweat":9181,"idance":9182,"ĠBoston":9183,"Ġelectron":9184,"Ġdenied":9185,"ĠType":9186,"ĠBC":9187,"Ġintr":9188,"Ġconspir":9189,"Ġattempting":9190,"ãĤ":9191,"Ġdelicious":9192,"ĠCA":9193,"Ġdisk":9194,"ĠNeed":9195,"Ġabortion":9196,"Ġheal":9197,"isting":9198,"Ġcitizen":9199,"has":9200,"avid":9201,"gression":9202,"sell":9203,"ĠCup":9204,"ĠNO":9205,"Ġho":9206,"Ġinteractions":9207,"Ġoverwhelming":9208,"ÙĪ":9209,"Ġinterrupt":9210,"Ġwinner":9211,"ĠSoviet":9212,"Ġaccommod":9213,"ĠExp":9214,"ĠRights":9215,"Ġrefuse":9216,"Ġsubtle":9217,"Hi":9218,"VID":9219,"Ġrolled":9220,"sem":9221,"Ġriding":9222,"Ġrocks":9223,"opyright":9224,"85":9225,"Ġinnovation":9226,"hydr":9227,"Ġfrequent":9228,"Ġtranslation":9229,"Ġpilot":9230,"Ġmanifest":9231,"ador":9232,"ĠCivil":9233,"never":9234,"Ġviewed":9235,"Ġneutral":9236,"ĠEqu":9237,"Ġsouthern":9238,"Ġmanaging":9239,"Ġfacility":9240,"Ġcollective":9241,"hist":9242,"Ġproviders":9243,"Ġmanufacturing":9244,"Mon":9245,"arts":9246,"ĠEnergy":9247,"ĠViet":9248,"ĠLo":9249,"Ġcontinuing":9250,"Ġlegitimate":9251,"ĠPo":9252,"ĠOper":9253,"Ġspo":9254,"Ġinstantly":9255,"Ġregistered":9256,"mother":9257,"Ġthumb":9258,"Ġstake":9259,"Ġpointing":9260,"Ġdiagnosis":9261,"itudes":9262,"Ġbroadcast":9263,"Ġbrands":9264,"sen":9265,"ĠAcadem":9266,"isp":9267,"ĠDO":9268,"andal":9269,"ĠLy":9270,"ĠEmer":9271,"ĠOk":9272,"ello":9273,"Answ":9274,"ĠPalest":9275,"Ġphenomenon":9276,"ethe":9277,"Ġcommittee":9278,"Ġreferring":9279,"Ġrepresentation":9280,"Ġgraphics":9281,"Best":9282,"ĠRos":9283,"Ġfits":9284,"Ġnorthern":9285,"ĠInterest":9286,"Ġvacation":9287,"ĠPakistan":9288,"Okay":9289,"Ġfruits":9290,"Ġelder":9291,"ĠCross":9292,"everal":9293,"axy":9294,"Ġexperiencing":9295,"Ġdose":9296,"ictions":9297,"Ġmodified":9298,"Ġ07":9299,"Ġlosses":9300,"reated":9301,"erning":9302,"Home":9303,"ĠTO":9304,"onds":9305,"Ġbrut":9306,"Ġavo":9307,"lif":9308,"Ġallerg":9309,"Ġminister":9310,"ocument":9311,"Ġtrends":9312,"ĠDVD":9313,"Ãĥ":9314,"ĊÂłÂłÂł":9315,"Ġspray":9316,"Ġstyles":9317,"ĠFred":9318,"Ġdispl":9319,"Ġcrying":9320,"ĠSO":9321,"Ġpossibilities":9322,"ĠChapter":9323,"Ġ150":9324,"Ġgradually":9325,"ĠEffect":9326,"ĠiP":9327,"Ġbudd":9328,"Ġgrant":9329,"Ġblast":9330,"Ġthreats":9331,"tte":9332,"Ġlowest":9333,"Ġsettled":9334,"ĠJoseph":9335,"BM":9336,"ĠEric":9337,"group":9338,"ĠIII":9339,"Ġenormous":9340,"ĠPass":9341,"awa":9342,"Click":9343,"Red":9344,"Ġdeck":9345,"Ġunnecess":9346,"ĠKingdom":9347,"Ġupload":9348,"Ġprescription":9349,"Ġexplaining":9350,"ĠKey":9351,"Ġrestaurants":9352,"++":9353,"Ġhiding":9354,"bec":9355,"Ġinhib":9356,"Ġchips":9357,"Ġmanagers":9358,"ĠVan":9359,"Ġassuming":9360,"Ġ09":9361,"ĠPhot":9362,"Ġbass":9363,"ĠGames":9364,"Ġderived":9365,"User":9366,"Ġtons":9367,"ĠMuch":9368,"Ġgrace":9369,"ollowing":9370,"Ġmountains":9371,"ĠBrazil":9372,"Ġsought":9373,"isy":9374,"ocy":9375,"Ġpoem":9376,"Ġnaked":9377,"comp":9378,"cture":9379,"Ġresident":9380,"Ġscores":9381,"Ġconsistently":9382,"jpg":9383,"Ġentity":9384,"Ġmodule":9385,"Ġpresents":9386,"ĠGeorg":9387,"Car":9388,"roph":9389,"interest":9390,"Ġportray":9391,"SE":9392,"Ġremoving":9393,"Ġdirt":9394,"Ġcourage":9395,"Ġdear":9396,"ĠFamily":9397,"Ġpreced":9398,"Ġdipl":9399,"Ġawkward":9400,"Ġpromised":9401,"Ġtargeted":9402,"Ġintroduce":9403,"dri":9404,"hend":9405,"arma":9406,"Ġ99":9407,"ĠEvent":9408,"Ġdisorders":9409,"ĠVen":9410,"Ġ1999":9411,"Ġlaughed":9412,"CO":9413,"ĠClick":9414,"Script":9415,"Ġdirections":9416,"ĠÂ»":9417,"stra":9418,"ĠMach":9419,"Ġjury":9420,"Ġspeaks":9421,"ï»":9422,"ĠLib":9423,"Ġactively":9424,"Ġbran":9425,"Ġdemonstrate":9426,"ĠStephen":9427,"Ġdun":9428,"2010":9429,"Ġworship":9430,"olds":9431,"Ġfitness":9432,"Ġengagement":9433,"Ġfib":9434,"kel":9435,"ovie":9436,"Ġnewly":9437,"Ġstrategic":9438,"wed":9439,"ĠRog":9440,"endar":9441,"jud":9442,"ĠSomething":9443,"Ġcous":9444,"ĠIce":9445,"ulin":9446,"aha":9447,"Ġtickets":9448,"low":9449,"ĠSoft":9450,"ĠEastern":9451,"Ġexpecting":9452,"Ġaddressed":9453,"Ġterrorist":9454,"Ġnowhere":9455,"backs":9456,"fs":9457,"Ġexpense":9458,"Ġentitled":9459,"bled":9460,"vas":9461,"ouble":9462,"ĠTri":9463,"ÂłÂłÂłÂłÂłÂłÂł":9464,"Ġnutrients":9465,"FA":9466,"Ġrear":9467,"ĠMother":9468,"Ġdiscussing":9469,"Ġprisoners":9470,"Â®":9471,"inge":9472,"Ġcommunications":9473,"aya":9474,"Ġcontrad":9475,"Ġflesh":9476,"ĠWeek":9477,"Ġrealistic":9478,"Ġfactory":9479,"Ġscary":9480,"Ġcorruption":9481,"Ġrepeatedly":9482,"Ġvoltage":9483,"PubMed":9484,"ĠIron":9485,"annel":9486,"Ġconstra":9487,"Ġlandscape":9488,"Ġpride":9489,"gging":9490,"wan":9491,"ï¼":9492,"claim":9493,"Ġgods":9494,"CP":9495,"ĠProp":9496,"Ġ02":9497,"Ġimagination":9498,"Ġunfortunately":9499,"aud":9500,"ĠOl":9501,"ĠAL":9502,"ĠGiven":9503,"Ġregulation":9504,"Ġhunting":9505,"Ġscholars":9506,"Ġgently":9507,"Ġcontest":9508,"Ġcounty":9509,"Ġrush":9510,"izabeth":9511,"Ġpresum":9512,"Ġsurrounded":9513,"Ġvel":9514,"ĠBow":9515,"Ġmagical":9516,"alling":9517,"Ġcookies":9518,"Ġugly":9519,"Ġtreatments":9520,"Â·":9521,"ensed":9522,"ĠRod":9523,"Ġ64":9524,"holders":9525,"Ġbonus":9526,"Ġbite":9527,"Ġpand":9528,"trans":9529,"Ġdramatic":9530,"Log":9531,"iser":9532,"EG":9533,"Ġdressed":9534,"Ġhorses":9535,"ĠHim":9536,"Ġtoxic":9537,"Ġpunch":9538,"Ġritual":9539,"Ġprobability":9540,"Jan":9541,"apore":9542,"ools":9543,"Ġexit":9544,"ĠRose":9545,"Ġgrin":9546,"arring":9547,"93":9548,"Ġ(#":9549,"Ġshipping":9550,"oser":9551,"Ġyard":9552,"olid":9553,"ĠHum":9554,"Ġobsc":9555,"Ġrefuge":9556,"ĠScot":9557,"Ġacknowled":9558,"ito":9559,"Ġ->":9560,"mann":9561,"Ġhearts":9562,"Ġemployed":9563,"ï»¿":9564,"El":9565,"grad":9566,"Ġswall":9567,"ĠTechnology":9568,"Ġinspiration":9569,"Sometimes":9570,"Ġcinem":9571,"ĠRest":9572,"ighters":9573,"cery":9574,"rine":9575,"rons":9576,"ĠTreat":9577,"ĠBlood":9578,"Ġinherent":9579,"Co":9580,"Ġaccuracy":9581,"ĠTerm":9582,"Ġresulted":9583,"Ġtitles":9584,"List":9585,"otype":9586,"Ġdistur":9587,"ĠSpecial":9588,"Ġpersu":9589,"shot":9590,"vironments":9591,"Ġdistributed":9592,"bul":9593,"Ġcure":9594,"ĠReally":9595,"Ġdeveloper":9596,"Ġengaging":9597,"Ġsubstantial":9598,"ĠPrince":9599,"utors":9600,"Ġsteal":9601,"ĠWilliams":9602,"Ġgrate":9603,"Ġfollowers":9604,"ĠCommittee":9605,"Ð¾Ð":9606,"ĠToo":9607,"Ġcourses":9608,"Ġwarrant":9609,"Ġdisplayed":9610,"Make":9611,"Sign":9612,"ika":9613,"addy":9614,"itals":9615,"Ġworker":9616,"Ġstrings":9617,"rieved":9618,"Lear":9619,"Ġdrove":9620,"-)":9621,"Ġlighting":9622,"ĠEnt":9623,"forward":9624,"Ġamongst":9625,"Ġsessions":9626,"Ġshorter":9627,"Ġstopping":9628,"ĊĊĊĊĊĊ":9629,"inch":9630,"itivity":9631,"Ġidentical":9632,"Ġspectrum":9633,"Ġlawyers":9634,"Ġstroke":9635,"Ġcoat":9636,"Ġ42":9637,"Those":9638,"ĠAdditionally":9639,"Ġintegration":9640,"Comments":9641,"Ġquotes":9642,"Ġtang":9643,"Ġaer":9644,"ĠDun":9645,"Ġresolve":9646,"Ġreads":9647,"Ġsafely":9648,"ĠNumber":9649,"Ġbalanced":9650,"Ġperceived":9651,"Ġflaw":9652,"Ġhanded":9653,"Ġclever":9654,"Ġstrengthen":9655,"Ġsubsequent":9656,"Whe":9657,"Ġtutor":9658,"icious":9659,"Ġcontents":9660,"ĠIreland":9661,"ruce":9662,"Ġcollapse":9663,"Ġresponded":9664,"Ġpunishment":9665,"ĠCommon":9666,"game":9667,"Ġfirms":9668,"Ġpills":9669,"ĠBal":9670,"Ġouter":9671,"Ġpanic":9672,"Ġgrabbed":9673,"ĠRyan":9674,"ho":9675,"pa":9676,"Ġreveals":9677,")?":9678,"Mod":9679,"Ġpants":9680,"Ġwhilst":9681,"ĠOil":9682,"Ġmetaph":9683,"Ġmanufacturers":9684,"gebra":9685,"Ġrelate":9686,"Ġtrave":9687,"Ġtrop":9688,"Ġgri":9689,"Ġstability":9690,"ublished":9691,"ĠSus":9692,"exp":9693,"Ġminority":9694,"God":9695,"ĠLive":9696,"ĠGP":9697,"Ġ08":9698,"ĠGener":9699,"Ġcorporations":9700,"Ġbonds":9701,"his":9702,"tics":9703,"Ġmigr":9704,"icating":9705,"Ġguidance":9706,"ĠAdminist":9707,"Ġseparated":9708,"Ġheroes":9709,"Ġstolen":9710,"Ġrif":9711,"front":9712,"Ġsir":9713,"essed":9714,"Ġcrimin":9715,"check":9716,"Ġ]":9717,"ĠBrand":9718,"elve":9719,"Ġguests":9720,"Ġmature":9721,"ceive":9722,"ĠEst":9723,"Ġbias":9724,"hire":9725,"ĠDie":9726,"ĠRen":9727,"Ġcopies":9728,"Ġloaded":9729,"kind":9730,"idth":9731,"ĠLim":9732,"Ġtouched":9733,"Ġwand":9734,"umbled":9735,"Ġhungry":9736,"Under":9737,"found":9738,"hal":9739,"Ġconsume":9740,"ĠOrder":9741,"ĠGlobal":9742,"section":9743,"ammed":9744,"Ġnights":9745,"Ġmarg":9746,"cribed":9747,"Ġharsh":9748,"ĠRather":9749,"span":9750,"ersion":9751,"agen":9752,"Posted":9753,"Ġintervention":9754,"Ġproductive":9755,"Ġpopularity":9756,"ĠFull":9757,"Ġhumor":9758,"uzzy":9759,"vals":9760,"Ġtherap":9761,"Ġate":9762,"aki":9763,"ĠChief":9764,"Ġbelt":9765,"ucks":9766,"engers":9767,"Free":9768,"ĠWW":9769,"Ġ39":9770,"Ġsupporters":9771,"Ġexisted":9772,"Ġcognitive":9773,"Ġentreprene":9774,"Ġquantum":9775,"Ġabandoned":9776,"amine":9777,"Ġclaiming":9778,"Ġbedroom":9779,"las":9780,"rat":9781,"ĠWatch":9782,"ĠGive":9783,"Ġoffense":9784,"Ġquantity":9785,"Ġbackup":9786,"Ġcoop":9787,"Ġtoilet":9788,"(\"":9789,"Ġcul":9790,"Ġinstinct":9791,"ĠArthur":9792,"Ġmotivation":9793,"82":9794,"star":9795,"ĠAli":9796,"ĠFA":9797,"Ġfears":9798,"Ġarts":9799,"Ġenzy":9800,"Ġsinger":9801,"ĠIrish":9802,"ĠIde":9803,"Ġreminded":9804,"Ġdiversity":9805,"Ġrevers":9806,"Ġstatic":9807,"Ġupcoming":9808,"Ġalongside":9809,"Ġcombine":9810,"ĠActually":9811,"Ġburned":9812,"Ġcertific":9813,"Ġlaughing":9814,"Ġtremend":9815,"Ġchop":9816,"owned":9817,"Ġtransportation":9818,"rimination":9819,"MB":9820,"Ġjur":9821,"Ġintu":9822,"ĠHey":9823,"Ġmarijuana":9824,"Ġessence":9825,"Ġnuts":9826,"igs":9827,"ĠClub":9828,"Ġboyfriend":9829,"\"?":9830,"ichael":9831,"Ġassert":9832,"pay":9833,"Ġcodes":9834,"html":9835,"ussy":9836,"Ġburden":9837,"ilation":9838,"Ġcomedy":9839,"2014":9840,"Ġcontracts":9841,"Ġwaters":9842,"Find":9843,"Ġmas":9844,"enter":9845,"ĠMir":9846,"ĠRoyal":9847,"Ġrab":9848,"Ġapproval":9849,"Ġbankrupt":9850,"ĠTell":9851,"Ġfascinating":9852,"Use":9853,"Ġreaches":9854,"Ġintim":9855,"encing":9856,"ĠDoctor":9857,"Ġburied":9858,"Ġmaintained":9859,"Ret":9860,"oz":9861,"Ġfract":9862,"ĠÃĹ":9863,"Ġgathered":9864,"Ġconcerning":9865,"urrently":9866,"Ġentrance":9867,"Ġuseless":9868,"ĠVideo":9869,"Ġsuggesting":9870,"Ġcontinuous":9871,"83":9872,"Ġeager":9873,"Ġproductivity":9874,"Ġlanding":9875,"missions":9876,"Ġharmful":9877,"Ġlately":9878,"Ġnons":9879,"Ġembed":9880,"Ġfunctionality":9881,"[âĢĵ]":9882,"mate":9883,"Ġ55":9884,"Ġnode":9885,"ĠMid":9886,"Ġvice":9887,"Ġconj":9888,"Ġathe":9889,"Ġinvesting":9890,"Ġsatisfied":9891,"unny":9892,"ressing":9893,"acon":9894,"Ġrespectively":9895,"Ġsquee":9896,"Ġinstruments":9897,"73":9898,"Ġprotecting":9899,"ĠPers":9900,"Ġmedications":9901,"Ġcomplexity":9902,"cor":9903,"Ġshook":9904,"Ġflexible":9905,"home":9906,"ĠMoney":9907,"Ġtempor":9908,"Ġcontribution":9909,"Ġmechanical":9910,"ĠServices":9911,"break":9912,"%)":9913,"books":9914,"Ġpenis":9915,"Ġcontemporary":9916,"via":9917,"lected":9918,"Start":9919,"onest":9920,"Ġpiss":9921,"Gl":9922,"Ġrural":9923,"Ġruling":9924,"Ġfrozen":9925,"health":9926,"itative":9927,"ĠHay":9928,"airy":9929,"Ġblend":9930,"Ġtiming":9931,"Ġownership":9932,"arded":9933,"Ġapple":9934,"pson":9935,"71":9936,"oub":9937,"Ġspeakers":9938,"Ġsacrifice":9939,"Em":9940,"FF":9941,"itched":9942,"Ġdent":9943,"Ġinch":9944,"Ġconfusing":9945,"Ġdescript":9946,"isible":9947,"Ġkiller":9948,"Ġsends":9949,"Ġrescue":9950,"mony":9951,"Ġampl":9952,"Ġinstruction":9953,"Ġmagnetic":9954,"Ġtoys":9955,"84":9956,"Ġknee":9957,"Ġraces":9958,"Ġbasketball":9959,"Ġenvironments":9960,"Ġlimitations":9961,"Ġexpertise":9962,"Ġinsane":9963,"Ġreduces":9964,"Ġsuggestion":9965,"Ġrib":9966,"arms":9967,"ugged":9968,"Ġacknowledge":9969,"human":9970,"Ġjustify":9971,"Ġphotograp":9972,"Ġboundaries":9973,"Ġexcessive":9974,"ĠBitcoin":9975,"Ġtale":9976,"erd":9977,"ĠDream":9978,"ĠChamp":9979,"ÂłÂłÂłÂłÂłÂłÂłÂłÂłÂłÂłÂłÂłÂłÂłÂłÂłÂłÂłÂłÂłÂłÂłÂłÂłÂłÂłÂłÂłÂłÂłÂł":9980,"Ge":9981,"Ġmaps":9982,"ĠHarr":9983,"ensional":9984,"Ġ''":9985,"ĠArm":9986,"IE":9987,"Ġabund":9988,"Ġindicated":9989,"Ġcompete":9990,"Cal":9991,"Ġsink":9992,"prot":9993,"ĠValley":9994,"Ġdemonstrated":9995,"Ġracist":9996,"ĠBon":9997,"Ġfounded":9998,"ĠBrad":9999,"Ġmechanisms":10000,"ĠTaylor":10001,"---":10002,"Ġ04":10003,"Ġclosest":10004,"ĠFoundation":10005,"hard":10006,"Ġain":10007,"oln":10008,"inson":10009,"Ġconversion":10010,"94":10011,"Ġpp":10012,"Ġarbit":10013,"ĠSpring":10014,"61":10015,"cs":10016,"dem":10017,"Ġlogo":10018,"ibrary":10019,"Ġastron":10020,"Trans":10021,"ĠBrian":10022,"Ġendless":10023,"Ġediting":10024,"Ġrestrictions":10025,"ĠHoly":10026,"ĠJordan":10027,"ĠOffic":10028,"indu":10029,"Ġtear":10030,"ĠYu":10031,"ILL":10032,"ulum":10033,"Ġfailing":10034,"ĠUser":10035,"Ġshocked":10036,"Down":10037,"urable":10038,"Ġsimultaneously":10039,"iva":10040,"Ġbeside":10041,"Ġfavourite":10042,"ĠØ§ÙĦ":10043,"Ġkeyboard":10044,"ttes":10045,"wa":10046,"Ġevident":10047,"Ġrend":10048,"Ġforcing":10049,"ĠPenn":10050,"Ġkinda":10051,"ĠJason":10052,"Ġmeters":10053,"azed":10054,"ĠTrue":10055,"Ġwaited":10056,"Ġbullet":10057,"Ġattributes":10058,"AV":10059,"NS":10060,"ĠEth":10061,"ĠIndeed":10062,"Ġsentences":10063,"ĠFurthermore":10064,"ervice":10065,"Ġpreparing":10066,"Despite":10067,"ĠTable":10068,"ĠTax":10069,"ĠLow":10070,"Ġ1960":10071,"Ġpowered":10072,"Ġcalculated":10073,"cat":10074,"Ġpublicly":10075,"Ġbanking":10076,"arios":10077,"afe":10078,"Ġsnap":10079,"conscious":10080,"Ġpays":10081,"Ġpizza":10082,"Ġinstallation":10083,"Ġdeny":10084,"Ġrobot":10085,"Ġcaps":10086,"Ġbold":10087,"Ġdownt":10088,"ĠCR":10089,"ĠColumb":10090,"Ġinfluenced":10091,"Ġcondem":10092,"Î±":10093,"ĠLater":10094,"Ġ44":10095,"Ġpretend":10096,"Ġbesides":10097,"63":10098,"ĠSouthern":10099,"ĠFund":10100,"Ġdisrupt":10101,"lon":10102,"icular":10103,"ĠEsc":10104,"Ġcompr":10105,"Ġcommands":10106,"Ġprinted":10107,"Ġalert":10108,"Ġpopulations":10109,"ĠDisney":10110,"Ġtoy":10111,"Ġhired":10112,"Ġhem":10113,"elle":10114,"Ġrejected":10115,"chers":10116,"ĠLine":10117,"Ġindustries":10118,"overs":10119,"adows":10120,"Ġash":10121,"ĠAng":10122,"Ġcreativity":10123,"Ġdisappear":10124,"Ġautomatic":10125,"Ġglasses":10126,"ĠWrite":10127,"Ġdesperate":10128,"Ġpursue":10129,"odge":10130,"Ġslave":10131,"specific":10132,"Ġbored":10133,"otion":10134,"ĠAff":10135,"ĠHope":10136,"ĠStan":10137,"Ġjoining":10138,"Ġqualified":10139,"Question":10140,"ĠCB":10141,"ĠCas":10142,"ĠFBI":10143,"Ġpenet":10144,"hop":10145,"imer":10146,"ĠPri":10147,"Ġtestim":10148,"ĠRevolution":10149,"Ġdestro":10150,"idal":10151,"Ġpenalty":10152,"Ġsophistic":10153,"bro":10154,"orious":10155,"abs":10156,"Ġchip":10157,"Ġfeat":10158,"Ġcompound":10159,"Ġcoinc":10160,"Ġemissions":10161,"2011":10162,"ĠEducation":10163,"Ġcant":10164,"Ġvague":10165,"Ġfright":10166,"Ġprost":10167,"Ġdiscussions":10168,"Ġstrain":10169,"Ġfeeding":10170,"Ġlake":10171,"Ġrecru":10172,"ĠNar":10173,"Ġencouraged":10174,"hole":10175,"Ġdesp":10176,"Ġexamine":10177,"ĠRab":10178,"ected":10179,"pling":10180,"Ġaddiction":10181,"ĠChristianity":10182,"Ġwrapped":10183,"ĠOR":10184,"plex":10185,"ĠQuestions":10186,"Ġintegrated":10187,"Ġsubsid":10188,"high":10189,"ĠMA":10190,"Ġsubmit":10191,"ĠVirginia":10192,"ĠBoard":10193,"Ġvaccine":10194,"Ġsustainable":10195,"Ġknees":10196,"Ġcomposition":10197,"cycl":10198,"market":10199,"Ġsteady":10200,"91":10201,"David":10202,"Ġstairs":10203,"ĠKenn":10204,"ĠChildren":10205,"Ġguards":10206,"Ġinvestigate":10207,"Ġbaking":10208,"Ġintensity":10209,"nie":10210,"Ġboo":10211,"ĠSearch":10212,"Ġgrid":10213,"ĠSaudi":10214,"avor":10215,"Ġhandful":10216,"uce":10217,"Ġinvited":10218,"ĠRomney":10219,"Ġpolar":10220,"Ġcraw":10221,"itage":10222,"ĠDevelopment":10223,"TF":10224,"ĠMind":10225,"open":10226,"ĠLew":10227,"Ġfranch":10228,"Ġprominent":10229,"Ġ</":10230,"Ġkm":10231,"ĠQuestion":10232,"ĠMedical":10233,"Ġcelebrate":10234,"Ġprecious":10235,"Ġgains":10236,"Ġprogressive":10237,"Ġassistant":10238,"andy":10239,"Ġsalary":10240,"Ġcampaigns":10241,"Ġ>>":10242,"Ġimmigrants":10243,"venue":10244,"ailable":10245,"Ġevolved":10246,"Ġinvestments":10247,"ambling":10248,"CR":10249,"oples":10250,"Ġsettle":10251,"Ġadopt":10252,"Ġhttps":10253,"HP":10254,"Ġcum":10255,"Ġ($":10256,"ansas":10257,"Ġslide":10258,"ierce":10259,"looking":10260,"vo":10261,"Ġupgrade":10262,"Ġ65":10263,"Ġimplications":10264,"Ġfolk":10265,"Ġwealthy":10266,"Ġtune":10267,"Ġconsole":10268,"usted":10269,"Ġbugs":10270,"Ġpackages":10271,"Ġinterviews":10272,"Ġassumption":10273,"HE":10274,"ighed":10275,"Ġrou":10276,"ervation":10277,"Ġlinear":10278,"Ġcave":10279,"Ġpix":10280,"Ġbeef":10281,"irable":10282,"iley":10283,"lihood":10284,"Ġbegun":10285,"62":10286,"formance":10287,"aska":10288,"ĠWilson":10289,"Ġwings":10290,"alo":10291,"umble":10292,"osph":10293,"last":10294,"Ġfoss":10295,"Ġgross":10296,"ailing":10297,"Ġregards":10298,"fit":10299,"lly":10300,"Ġacids":10301,"ui":10302,"ĠFord":10303,"ART":10304,"ĠALL":10305,"ĠFall":10306,"arks":10307,"Ġjumped":10308,"ti":10309,"wind":10310,"Ġinsights":10311,"ĠComments":10312,"Ġthreatened":10313,"bd":10314,"arest":10315,"Ġbranches":10316,"quest":10317,"Ġcouncil":10318,"fo":10319,"Ġtent":10320,"Ġintrig":10321,"Ġunre":10322,"yer":10323,"Ġfiber":10324,"Ġleaf":10325,"Ġbrush":10326,"Ġtransmission":10327,"ĠOrig":10328,"Ġcub":10329,"Ġhiring":10330,"Ġdishes":10331,"Ġ03":10332,"Ġtexture":10333,"Ġbloggers":10334,"Ġembrace":10335,"Ġunemployment":10336,"Ġtheoret":10337,"Ġ250":10338,"orting":10339,"ĠMu":10340,"Ġretain":10341,"Ġpacked":10342,"Ġcalculate":10343,"walk":10344,"rob":10345,"peror":10346,"ella":10347,"atern":10348,"Ġtransf":10349,"74":10350,"flix":10351,"ãĥ":10352,"ĠFigure":10353,"arer":10354,"formed":10355,"Ġrecyc":10356,"Ġmargin":10357,"Ġrecommendations":10358,"Ġbeans":10359,"ĠNFL":10360,"Ġclassroom":10361,"ĠSomeone":10362,"Hz":10363,"ĠNick":10364,"Ġdrum":10365,"Ġsignificance":10366,"ĠCarolina":10367,"Dis":10368,"dev":10369,"Ġflip":10370,"Ġfraction":10371,"Ġcruel":10372,"Remember":10373,"sts":10374,"Ġlazy":10375,"fish":10376,"ĠBattle":10377,"unting":10378,"ĠDaily":10379,"gic":10380,"ĠTen":10381,"Ġutility":10382,"Ġinterior":10383,"Ġdesigner":10384,"Ġfloating":10385,"Ġmysterious":10386,"Met":10387,"Net":10388,"Ġpatch":10389,"ĠDra":10390,"Ġgrows":10391,"Using":10392,"Ġsyndrome":10393,"72":10394,"Ġpile":10395,"ĠWalk":10396,"product":10397,"iti":10398,"itement":10399,"ĠShare":10400,"Ġdigest":10401,"Ġneighbors":10402,"burn":10403,"edge":10404,"arre":10405,"ĠUk":10406,"Ġtraits":10407,"Ġelite":10408,"Ġunnecessary":10409,"Mus":10410,"Ġflower":10411,"Both":10412,"Ġwider":10413,"Ġmart":10414,"ĠSay":10415,"Ġneat":10416,"Ġregret":10417,"Ġgrounds":10418,"Ġrhythm":10419,"Ġgrey":10420,"istically":10421,"Each":10422,"also":10423,"Ġvariation":10424,"Ġobservation":10425,"92":10426,"rc":10427,"Ġexch":10428,"ĠDoug":10429,"ĠNa":10430,"ĠUt":10431,"ĠProcess":10432,"people":10433,"Ġdevast":10434,"Ġbarrel":10435,"Ġobserve":10436,"Ġmathematics":10437,"Ġbid":10438,"Ġqualities":10439,"iary":10440,"rogen":10441,"dam":10442,"Ùĩ":10443,"Ġinhab":10444,"Ġevaluate":10445,"Ġcorresponding":10446,"Ġmerc":10447,"Ġ2021":10448,"Ġmolecules":10449,"Ġmos":10450,"Ġnit":10451,"ĠSource":10452,"raine":10453,"eman":10454,"ĠUr":10455,"Ġtransformation":10456,"Ġ05":10457,"Ġtreating":10458,"Check":10459,"Ass":10460,"whe":10461,"Ġwishes":10462,"rolled":10463,"Ġprocessed":10464,"ĠKevin":10465,"Ġclouds":10466,"Perhaps":10467,"lete":10468,"Ġofficially":10469,"ĠIsraeli":10470,"Ġhier":10471,"rape":10472,"Ġslower":10473,"Ġerect":10474,"ĠOkay":10475,"2019":10476,"Ġincorrect":10477,"ez":10478,"stop":10479,"uns":10480,"aga":10481,"Ġstraw":10482,"Ġcups":10483,"var":10484,"wall":10485,"Ġhint":10486,"Ġlone":10487,"Ġenables":10488,"Ġswimming":10489,"Ġcher":10490,"Ġcomputing":10491,"ĠOs":10492,"Ġreson":10493,"Ġfiled":10494,"ĠGolden":10495,"Ġbinding":10496,"Ġthirty":10497,"duction":10498,"Ġchaos":10499,"Ġcoup":10500,"Ġlegally":10501,"ĠZe":10502,"Ġceiling":10503,"ĠPacific":10504,"gered":10505,"Ġpoetry":10506,"Ġfifth":10507,"ĠDistrict":10508,"Ġnurse":10509,"ĠHad":10510,"Ġrepresentative":10511,"ĊĠĠĠĠĠĠĠĠĠĠĠ":10512,"inue":10513,"uties":10514,"Ġ1998":10515,"Ġpoorly":10516,"mn":10517,"Ġhaz":10518,"ĠHeat":10519,"Ġremoval":10520,"Ġextrem":10521,"Ġdrain":10522,"Ġsteam":10523,"Ġfacial":10524,"Ġinfections":10525,"Ġtens":10526,"urches":10527,"ĠAk":10528,"Ġexclusive":10529,"Ġstrikes":10530,"Ġpale":10531,"Ġdimin":10532,"ĠMs":10533,"Ġdos":10534,"Ġmining":10535,"oker":10536,"Ġdemocratic":10537,"Ġmatrix":10538,"Ġprincipal":10539,"Ġdelete":10540,"ixed":10541,"uffy":10542,"ĠContent":10543,"struct":10544,"osystem":10545,"Ġcomposed":10546,"Ġpiano":10547,"Ġhub":10548,"Ġmeasurement":10549,"ĠSimilar":10550,"Ġwooden":10551,"acco":10552,"Ġguilt":10553,"ĠIndust":10554,"Ġexecuted":10555,"ĠMoreover":10556,"yo":10557,"inging":10558,"ĠCell":10559,"ĠNorthern":10560,"ĠLess":10561,"ĠGOP":10562,"Ġfolder":10563,"Ġpossession":10564,"Ġdescribing":10565,"gener":10566,"Ġcooked":10567,"aver":10568,"ĊÂłÂł":10569,"Ġstiff":10570,"Ġunfair":10571,"ĠNone":10572,"2018":10573,"................":10574,"ĠSingapore":10575,"Ġdisappointed":10576,"Ġcontrary":10577,"Ġsensor":10578,"ĠSeries":10579,"ĠBetter":10580,"Ġproportion":10581,"File":10582,"Hel":10583,"Ġcott":10584,"Ġmock":10585,"izard":10586,"ATE":10587,"Ġwidth":10588,"Ġopponents":10589,"Ġgifts":10590,"Ġgrateful":10591,"think":10592,"Ġblocked":10593,"Ġunlock":10594,"Ġpatent":10595,"Ġgarlic":10596,"Ġbattles":10597,"ori":10598,"Ġyards":10599,"Ġshops":10600,"Ġsoap":10601,"ĠLat":10602,"iences":10603,"Ġmembership":10604,"ĠOthers":10605,"Ġsatisfaction":10606,"bid":10607,"uum":10608,"itated":10609,"ĠGall":10610,"Ġgray":10611,"ĠLeft":10612,"Ġcultiv":10613,"Ġverb":10614,"plus":10615,"ĠStone":10616,"ĠInstagram":10617,"Ġcontributions":10618,"Ġwarned":10619,"Ġindependence":10620,"Ġalleg":10621,"Ġfurniture":10622,"Ġtourn":10623,"ccer":10624,"merce":10625,"Ġtrap":10626,"Ġedges":10627,"Stud":10628,"Ġtags":10629,"Ġcried":10630,"Ġchrom":10631,"Ġdescend":10632,"Ġbehaviors":10633,"pace":10634,"Ġmales":10635,"Ġric":10636,"hyl":10637,"Ġoldest":10638,"ĠAmendment":10639,"Ġanalyze":10640,"Ġdupl":10641,"Great":10642,"bian":10643,"vable":10644,"Ġruled":10645,"Ġbubble":10646,"zona":10647,"Ġsatellite":10648,"bridge":10649,"Ġtendency":10650,"incoln":10651,"Ġobservations":10652,"FO":10653,"Ġdual":10654,"image":10655,"ĠâĤ¬":10656,"ĠMatthew":10657,"Ġinventory":10658,"Ġdread":10659,"Ġbeating":10660,"amous":10661,"ĠPract":10662,"istical":10663,"ĠDutch":10664,"ocus":10665,"Ġworlds":10666,"Ġcounts":10667,"Ġ06":10668,"Ġmilit":10669,"Ġgrocery":10670,"Ġscheduled":10671,"Ġtu":10672,"Ġconsent":10673,"Ġbriefly":10674,"ĠCru":10675,"Ġconvey":10676,"ĠBull":10677,"Ġinstitution":10678,"Ġscientist":10679,"iar":10680,"Ġwore":10681,"Ġmold":10682,"Ġintake":10683,"ĠStop":10684,"Ġchampions":10685,"Ġmetabol":10686,"Ġcurs":10687,"ĠZeal":10688,"Ġtactics":10689,"Ġdistant":10690,"aneous":10691,"Text":10692,"ĠCredit":10693,"Ġpleasant":10694,"Author":10695,"Ġinsult":10696,"ilipp":10697,"Ġcrossed":10698,"Ġclimb":10699,"HS":10700,"Ġgrain":10701,"Ġwelf":10702,"Ġshake":10703,"Ġracial":10704,"Ġfeatured":10705,"ĠScient":10706,"Ġwashing":10707,"ĠPlace":10708,"ĠImages":10709,"Ġengineer":10710,"Ġmechanics":10711,"ĠMuseum":10712,"Ġcreep":10713,"Ġpollution":10714,"ĠFa":10715,"ĠNature":10716,"Ġtransp":10717,"Ġreasoning":10718,"ĠUSB":10719,"Ġelectro":10720,"Ġcyber":10721,"Ġthoroughly":10722,"Ġvi":10723,"Ġacquired":10724,"Ġpromoting":10725,"oir":10726,"mented":10727,"Ġallies":10728,"Ġcluster":10729,"Ġtrace":10730,"Ġrestore":10731,"Ġparameter":10732,"py":10733,"ĠLuc":10734,"ĠKar":10735,"Ġprayer":10736,"Ġcenters":10737,"2008":10738,"Ġextraord":10739,"Ġsandw":10740,"vard":10741,"Ġ..":10742,"Ġpets":10743,"ĠAst":10744,"ĠPriv":10745,"Ġovert":10746,"Ġladies":10747,"Ġwelfare":10748,"ĠBan":10749,"pert":10750,"asses":10751,"Ġreflection":10752,"Ġkills":10753,"iscussion":10754,"esy":10755,"Ġfancy":10756,"Ġhunt":10757,"igue":10758,"ĠAz":10759,"ometry":10760,"Ġbrains":10761,"Ġpressed":10762,"Ġhomosexual":10763,"Ġworkout":10764,"ellow":10765,"version":10766,"Ġeconomics":10767,"Ġinevitable":10768,"ben":10769,"Ġpreventing":10770,"Ġidi":10771,"Ġquietly":10772,"ĠSorry":10773,"ĠAud":10774,"thod":10775,"ĠLA":10776,"aund":10777,"400":10778,"EA":10779,"Ġfer":10780,"Ġecho":10781,"Ġprofound":10782,"Ġpractically":10783,"Ġdeadly":10784,"bound":10785,"rot":10786,"¿½":10787,"Ġexploring":10788,"Ġvertical":10789,"Answer":10790,"yard":10791,"ĠSU":10792,"ĠDate":10793,"Ġdominant":10794,"rimin":10795,"Ġresemb":10796,"EX":10797,"Ġworn":10798,"ĠNiger":10799,"Ġdefensive":10800,"Ġspecify":10801,"ascular":10802,"Ġscreaming":10803,"OK":10804,"Ġlaser":10805,"Ġ=>":10806,"ĠMah":10807,"ĠDirector":10808,"Ġabsurd":10809,"Ġcollaps":10810,"Ġdocumentary":10811,"ĠProfessor":10812,"cm":10813,"every":10814,"oons":10815,"isode":10816,"Ġbio":10817,"ols":10818,"ĠBuy":10819,"Ġresid":10820,"Ġpersonnel":10821,"ĠElizabeth":10822,"Ġcompensation":10823,"ĠBaby":10824,"onde":10825,"Ġaffordable":10826,"}}":10827,"Ġemployers":10828,"ĠDragon":10829,"Ġcompassion":10830,"ĠUnlike":10831,"Ġmatching":10832,"ĠMarket":10833,"ìĿ":10834,"Ġdub":10835,"agra":10836,"Ġmoderate":10837,"Ġlands":10838,"ĠIss":10839,"Ġdiffer":10840,"ernel":10841,"Ġconstitution":10842,"Ġharvest":10843,"Ġinfected":10844,"ï¿½":10845,"Ġwip":10846,"ctic":10847,"ĠPur":10848,"ects":10849,"rub":10850,"idding":10851,"Ġisolated":10852,"unes":10853,"Ġhandled":10854,"ĠGreece":10855,"ĠHitler":10856,"oen":10857,"Ġya":10858,"Ġstem":10859,"Ġgoog":10860,"Ġmarry":10861,"Ġblogs":10862,"Ġaimed":10863,"Right":10864,"Ġclassical":10865,"Unfortunately":10866,"Ġadequate":10867,"bling":10868,"ĠCase":10869,"Life":10870,"hr":10871,"emed":10872,"ĠRachel":10873,"Ġ95":10874,"Ġapproached":10875,"Ġcompelling":10876,"ĠBox":10877,"Ġclip":10878,"Ġoverse":10879,"Ġcares":10880,"Ġdesktop":10881,"Ġalgorithms":10882,"Ġnod":10883,"cycle":10884,"Ġedited":10885,"Ġ1997":10886,"Ġassembly":10887,"esis":10888,"ĠOften":10889,"neath":10890,"Ġfreely":10891,"2009":10892,"Ġpurchasing":10893,"ĠSteven":10894,"width":10895,"Ġwre":10896,"Ġrect":10897,"cha":10898,"Ġimprovements":10899,"ĠEver":10900,"Ġimplies":10901,"oa":10902,"Ġgreet":10903,"Ġthereby":10904,"ĠHeart":10905,"Ġ41":10906,"Ġfont":10907,"ĠSelf":10908,"Ġoverl":10909,"Ġdesert":10910,"Ġracing":10911,"Ġhydrogen":10912,"Ġpreparation":10913,"omal":10914,"Ġvag":10915,"Ġsoldier":10916,"WS":10917,"Ġpor":10918,"Ġviewing":10919,"amins":10920,"ĠBang":10921,"Ùİ":10922,"ppers":10923,"Ġintend":10924,"Ġtrusted":10925,"supp":10926,"ĠCOVID":10927,"Ġsits":10928,"advant":10929,"ĠCome":10930,"ocity":10931,"connect":10932,"ĠSmall":10933,"Ġjumping":10934,"ĊĠĠĠĠĠĠĠĠĠĠ":10935,"Ġconspiracy":10936,"ĠAcademy":10937,"Ġpir":10938,"ĠSav":10939,"Ġshapes":10940,"ela":10941,"ĠKind":10942,"âĢ¦âĢ¦":10943,"Ġeaten":10944,"vation":10945,"isan":10946,"Ġhorn":10947,"ĠSC":10948,"Ġattended":10949,"Ġshortly":10950,"sim":10951,"tic":10952,"ĠGi":10953,"ĠImage":10954,"Ġportfol":10955,"ĠIdent":10956,"bin":10957,"Ġwides":10958,"anz":10959,"Ġlol":10960,"Ġdropping":10961,"Ġsettlement":10962,"ĠMichigan":10963,"isons":10964,"Ġtrash":10965,"Ġcheer":10966,"Ġweekly":10967,"olester":10968,"Ġmotivated":10969,"ĠSab":10970,"ĠSaf":10971,"Ġsevent":10972,"Ġrival":10973,"Ġadvertis":10974,"Ġevaluation":10975,"Ġmanufacturer":10976,"Ġtorn":10977,"aman":10978,"Ġlabels":10979,"Ġavoiding":10980,"chain":10981,"Ġelig":10982,"Ġaffili":10983,"Ġsooner":10984,"zens":10985,"Ġseasons":10986,"Ġattacking":10987,"Second":10988,"Ġhated":10989,"Ġshaped":10990,"ĠNorm":10991,"Ġunh":10992,"Ġimpressed":10993,"Ġsolving":10994,"Ġdivine":10995,"Ġengineers":10996,"etheless":10997,"step":10998,"Ġheating":10999,"Ġabroad":11000,"Ġsla":11001,"Ġcounting":11002,"Ġtorture":11003,"ĠSecretary":11004,"pread":11005,"orical":11006,"ĠSQL":11007,"ository":11008,"Ġhomeless":11009,"Ġtemple":11010,"Ġgraduate":11011,"Ġsurprisingly":11012,"Ġsolely":11013,"ĠEspecially":11014,"Ġavoided":11015,"Having":11016,"ĠBa":11017,"Ġassass":11018,"Ġpromises":11019,"Ġ1996":11020,"Ġpsychology":11021,"ĠCPU":11022,"Apr":11023,"Form":11024,"ĠPA":11025,"Ġvocal":11026,"Ġthemes":11027,"izers":11028,"Ġbelieving":11029,"Ġdiagram":11030,"letter":11031,"DR":11032,"ĠHIV":11033,"ĠJane":11034,"ĠReading":11035,"Ġtouching":11036,"Ġgathering":11037,"Ġvessels":11038,"fa":11039,"hour":11040,"Ġstrip":11041,"Ġbreathe":11042,"ĠCold":11043,"Ġtwist":11044,"Ġmeditation":11045,"****":11046,"Ġnutrition":11047,"Create":11048,"git":11049,"Ġincomp":11050,"Ġgenet":11051,"BN":11052,"Ġmant":11053,"ancial":11054,"ĠLar":11055,"Ġpartly":11056,"Ġdiscipline":11057,"Val":11058,"ĠMove":11059,"Ġleather":11060,"ĠJam":11061,"Ġcouples":11062,"Ġworthy":11063,"ĠObviously":11064,"ĠCorpor":11065,"Edit":11066,"ĠCit":11067,"ighs":11068,"Ġconnecting":11069,"sur":11070,"start":11071,"ĠPolicy":11072,"Ġbacked":11073,"Ġcharging":11074,"Ġdisappeared":11075,"count":11076,"idays":11077,"ĠBBC":11078,"Ġjunk":11079,"phant":11080,"Ġelabor":11081,"???":11082,"CT":11083,"fare":11084,"Ġq":11085,"ĠBh":11086,"ĠRoll":11087,"ĠLady":11088,"oca":11089,"Ġcircles":11090,"Ġslip":11091,"Ġbitter":11092,"Ġexcitement":11093,"ĠAccount":11094,"ĠNASA":11095,"first":11096,"usting":11097,"Ġperm":11098,"Ġinvasion":11099,"Ġproducer":11100,"ĠModel":11101,"Ġaccomplished":11102,"ĠHillary":11103,"EP":11104,"ouses":11105,"ĠĠĠĠĠĠĠĠĠ":11106,"Ġsounded":11107,"Ġharass":11108,"di":11109,"igious":11110,"Ġpepper":11111,"Inter":11112,"ventions":11113,"EST":11114,"test":11115,"vit":11116,"Ġbanned":11117,"Ġcalendar":11118,"Person":11119,"heast":11120,"Ġbulk":11121,"ĠGeorgia":11122,"aria":11123,"Ġdifficulties":11124,"2017":11125,"Ġappointment":11126,"liest":11127,"Ġà¤":11128,"ĠRick":11129,"Only":11130,"Ġemphasis":11131,"PD":11132,"Type":11133,"especially":11134,"Ġreminds":11135,"ĠBurn":11136,"Ġcountless":11137,"levant":11138,"ĠFort":11139,"ontal":11140,"UI":11141,"ĠSci":11142,"ĠGreg":11143,"Ġbrave":11144,"Still":11145,"Ġreleases":11146,"Dear":11147,"Pat":11148,"ante":11149,"ĠLevel":11150,"Ġfriendship":11151,"Ġconsumed":11152,"ĠEither":11153,"Ġserial":11154,"beat":11155,"----------------":11156,"81":11157,"bu":11158,"Ġconcluded":11159,"Ġcontrolling":11160,"Ġpriest":11161,"Ġarrival":11162,"ĠOtherwise":11163,"Ã§":11164,"Ġfunctioning":11165,"Ġtheater":11166,"Ġsour":11167,"Ġfut":11168,"Ġ43":11169,"Ġsolo":11170,"Dec":11171,"brew":11172,"pop":11173,"adium":11174,"ĠAccess":11175,"ologically":11176,"although":11177,"Ġzomb":11178,"Ġmentally":11179,"Ġathletes":11180,"Data":11181,"dep":11182,"zes":11183,"Ġtire":11184,"Ġstaring":11185,"scale":11186,"ĠAnyway":11187,"Ġscenarios":11188,"Ġkicked":11189,"Ġterrorists":11190,"Ġenthusi":11191,"Ġbiz":11192,"ĠBall":11193,"Ġ47":11194,"Ġcapability":11195,"Oct":11196,"sized":11197,"onut":11198,"Ġholy":11199,"ĠMorris":11200,"anting":11201,"erer":11202,"Ġspokes":11203,"Ġgluc":11204,"Ġlifted":11205,"Ġblur":11206,"ĠMarketing":11207,"isition":11208,"Ġvib":11209,"ĠKate":11210,"Ġspare":11211,"Ġrequiring":11212,"Ġpassengers":11213,"Ġattracted":11214,"Ġrubber":11215,"Ġcriminals":11216,"NT":11217,"ĠTer":11218,"esty":11219,"Ġreserved":11220,"Ġimpr":11221,"scribe":11222,"Ġassignment":11223,"Ġcollaboration":11224,"Work":11225,"Ġdrew":11226,"avy":11227,"Ġhybrid":11228,"Ġfights":11229,"DI":11230,"zone":11231,"Ġpip":11232,"adays":11233,"Ġpricing":11234,"Ġrepet":11235,"Ġprinting":11236,"Ġenterprise":11237,"bur":11238,"Ġwrap":11239,"Ġdealt":11240,"Ġpleased":11241,"Ġslavery":11242,"uis":11243,"Ġvig":11244,"intend":11245,"Ġplanes":11246,"Ġbehalf":11247,"Ġchemistry":11248,"Ġshelter":11249,"Ġlegacy":11250,"Ġhoped":11251,"Ġpairs":11252,"Ġhomework":11253,"Ġreplies":11254,"rin":11255,"Ġblade":11256,"Ġcarries":11257,"150":11258,"FP":11259,"eor":11260,"ĠBesides":11261,"ĠText":11262,"Ġflexibility":11263,"ĠPalestin":11264,"bad":11265,"km":11266,"ĠÂłÂł":11267,"ĠHan":11268,"ĠProm":11269,"Ġinnovative":11270,"{\\":11271,"Ġmast":11272,"ĠMiller":11273,"Ġfrank":11274,"ipt":11275,"Ġclue":11276,"Ġfemales":11277,"ĠBu":11278,"Ġarmor":11279,"Ben":11280,"á¹":11281,"ĠKelly":11282,"ateral":11283,"Ġtemplate":11284,"itzer":11285,"ĠZealand":11286,"eks":11287,"fil":11288,"Ġtender":11289,"Ġconsiderable":11290,"Ġbottles":11291,"oned":11292,"cker":11293,"Ġfrustration":11294,"Ġsymbols":11295,"iatric":11296,"Ġfishing":11297,"ĠAlice":11298,"Ġscratch":11299,"Ġloyalty":11300,"Ġinflammation":11301,"Ġdysfunction":11302,"hero":11303,"Ġinequ":11304,"Ġupgr":11305,"Ġdimension":11306,"ĠGab":11307,"Ġrecruit":11308,"ugging":11309,"icient":11310,"ĠDick":11311,"Ġslaves":11312,"Ġsurvived":11313,"Ġappreciated":11314,"Ġhypothesis":11315,"ĠJay":11316,"ĠJosh":11317,"Ġovernight":11318,"Ġamer":11319,"Ġforming":11320,"Ġskip":11321,"block":11322,"Black":11323,"ĠAnswers":11324,"Ġsophisticated":11325,"Ġviewers":11326,"Ġfrustrated":11327,"Ġclubs":11328,"Ġluxury":11329,"Ġdiscrimination":11330,"Ġbleeding":11331,"ĠDigital":11332,"why":11333,"Ġsons":11334,"Ġenabled":11335,"Ġinvented":11336,"erable":11337,"Ġyoga":11338,"cium":11339,"Ġsecrets":11340,"Ġmemor":11341,"Ġtrials":11342,"Ġsurviv":11343,"Ġaccurately":11344,"olesterol":11345,"Mc":11346,"orient":11347,"commun":11348,"Ġbloody":11349,"Ġmothers":11350,"ĠEdward":11351,"Ġuncons":11352,"Cor":11353,"ĠFact":11354,"Ġgramm":11355,"scar":11356,"Ġpeaceful":11357,"Ġfulfill":11358,"rup":11359,"Ġ49":11360,"Ġeducated":11361,"Ġinvolvement":11362,"Ġcontroversial":11363,"oting":11364,"ĠSH":11365,"ĠBased":11366,"Ġanimation":11367,"Ġdemanding":11368,"Ġdragon":11369,"Aug":11370,"ĠMill":11371,"Ġappet":11372,"Ġinvisible":11373,"Ġpaths":11374,"Ġmeasurements":11375,"Supp":11376,"Day":11377,"Would":11378,"World":11379,"arding":11380,"white":11381,"Ġconsequence":11382,".:":11383,"aky":11384,"Ġpeoples":11385,"iking":11386,"Ġslee":11387,"ĠOx":11388,"bsp":11389,"Ġfocuses":11390,"roduction":11391,"Ġintegrity":11392,"Ġprosper":11393,"PN":11394,"ĠTown":11395,"Ġcampus":11396,"Ġdiagnosed":11397,"Ġtremendous":11398,"fold":11399,"Ġoral":11400,"ĠStat":11401,"Ġremarkable":11402,"Ġconverted":11403,"eron":11404,"onto":11405,"Ġtexts":11406,"Bet":11407,"pse":11408,"ĠField":11409,"ĠLabor":11410,"Ġbuyer":11411,"Ġseparation":11412,"Ġestimates":11413,"Ġemotionally":11414,"data":11415,"gate":11416,"gence":11417,"iens":11418,"maker":11419,"Ġslic":11420,"Ġpartially":11421,"2006":11422,"Ġpodcast":11423,"Bel":11424,"ĠDad":11425,"ardless":11426,"ĠOhio":11427,"fin":11428,"Ġrewards":11429,"ĠChem":11430,"ĠPDF":11431,"Ġmedi":11432,"Ġcalc":11433,"Ġoils":11434,"reshold":11435,"Ġcorrelation":11436,"Ġgrat":11437,"Ġtrapped":11438,"Ġexpanded":11439,"Ġoccasional":11440,"Ġstays":11441,"Ġvoid":11442,"Ġplacing":11443,"Ġequity":11444,"Ġimpacts":11445,"ĠArizona":11446,"ĠPack":11447,"Ġlend":11448,"pless":11449,"ĠAnth":11450,"Ġbreed":11451,"left":11452,"Ġinfant":11453,"Ġcontroller":11454,"Ġemerged":11455,"ĠLearning":11456,"Michael":11457,"essional":11458,"apters":11459,"Ġundert":11460,"ceptions":11461,"ĠMeanwhile":11462,"ĠUsually":11463,"ALL":11464,"Ġtelephone":11465,"friendly":11466,"ĠJean":11467,"Ġorgans":11468,"Ġties":11469,"ĠBird":11470,"Ġunderground":11471,"Ġsexy":11472,"ĠNetflix":11473,"ĠBody":11474,"Ġboards":11475,"Ġrotation":11476,"best":11477,"bie":11478,"Ġduration":11479,"Ġhey":11480,"Ġster":11481,"ĠSad":11482,"ĠKent":11483,"Ġafterwards":11484,"UL":11485,"Ġma":11486,"adel":11487,"Ġtrauma":11488,"Ġproducers":11489,"attery":11490,"Ġgarbage":11491,"></":11492,"ĠTrust":11493,"ĠPrice":11494,"offs":11495,"ĠColorado":11496,"Skip":11497,"chron":11498,"ĠDu":11499,"Ġmomentum":11500,"cyclop":11501,"Ġwidespread":11502,"Ġ46":11503,"Ġvisits":11504,"Ġconstitutional":11505,"Ġrelaxed":11506,"Ġpreference":11507,"ĠSweden":11508,"English":11509,"bird":11510,"ĠTalk":11511,"ĠLED":11512,"lined":11513,"onom":11514,"Ġ1995":11515,"Ġecosystem":11516,"101":11517,"idity":11518,"ige":11519,"Ġsheep":11520,"Ġaccepting":11521,"writing":11522,"ĠMexican":11523,"\";":11524,"Follow":11525,"reek":11526,"ribly":11527,"elligence":11528,"Ġpurely":11529,"Fig":11530,"Ġpublishing":11531,"ĠVietnam":11532,"Ġwages":11533,"itle":11534,"Ġprotests":11535,"Char":11536,"Ġfrustrating":11537,"Ġmathematical":11538,"orus":11539,"iosity":11540,"Ġod":11541,"Ġgrip":11542,"aden":11543,"pres":11544,"Ġpy":11545,"eda":11546,"ĠCirc":11547,"gets":11548,"Ġmembr":11549,"Ġdistinction":11550,"Ġthreatening":11551,"Ġparticipation":11552,"piece":11553,"Ġalgebra":11554,"ffe":11555,"ĠJr":11556,"Ġcoron":11557,"Ġretrie":11558,"Ġlanded":11559,"Ġdetected":11560,"two":11561,"enly":11562,"ĠSM":11563,"psy":11564,"portant":11565,"GA":11566,"erals":11567,"enged":11568,"Ġcoin":11569,"Ġpressing":11570,"Ġsuspend":11571,"Øª":11572,"Ġreass":11573,"ilton":11574,"ĠShort":11575,"Ġsolved":11576,"Ġacquire":11577,"Fi":11578,"Ġborders":11579,"Ġgovernor":11580,"Ġbuyers":11581,"Ġarguing":11582,"Ġstriking":11583,"Ġexperimental":11584,"Full":11585,"Search":11586,"tle":11587,"uity":11588,"oust":11589,"Ġmarch":11590,"Ġdough":11591,"oline":11592,"Ġ120":11593,"Ġwherever":11594,"ĠDean":11595,"=\"\">":11596,"Ġsupposedly":11597,"hu":11598,"Ġtar":11599,"aza":11600,"Ġpainted":11601,"Ġexpressions":11602,"erk":11603,"Ġrhet":11604,"ĠOP":11605,"Ġbuzz":11606,"Ġtechnically":11607,"ĠBeh":11608,"appropri":11609,"Ġfootage":11610,"Ġensuring":11611,"Ġdefendant":11612,"CS":11613,"Ġrealm":11614,"Ġbump":11615,"Ġfires":11616,"iche":11617,"Ġaspir":11618,"ista":11619,"Ġtraged":11620,"Ġlistened":11621,"Ġtower":11622,"ĠMcCain":11623,"Î¿":11624,"ims":11625,"ĠAbs":11626,"abis":11627,"onia":11628,"ĠClear":11629,"Ġworkplace":11630,"Ġpolitically":11631,"Ġgraphic":11632,"Ġceremony":11633,"non":11634,"Ġvine":11635,"Ġassumptions":11636,"Ġthreads":11637,"Ġexplosion":11638,"Ġlungs":11639,"Ġcigarettes":11640,".<":11641,"800":11642,"Ġslot":11643,"Ġlibraries":11644,"stairs":11645,"ĠHence":11646,"quality":11647,"ĠDirect":11648,"Ġspouse":11649,"Ġcaring":11650,"Ġpatri":11651,"ÂłÂłÂłÂłÂłÂłÂłÂłÂłÂłÂł":11652,"Ġepic":11653,"Ġequations":11654,"Ġalternatives":11655,"Ġregarded":11656,"Ġrocket":11657,"Keep":11658,"Ġgum":11659,"ĠSanta":11660,"ĠJenn":11661,"Ġclassified":11662,"ĠCoast":11663,"Ġdimensions":11664,"Hello":11665,"Ġfiring":11666,"iry":11667,"Ġspan":11668,"Ġconcert":11669,"limited":11670,"ĠTurkey":11671,"verted":11672,"ĠMajor":11673,"ĠHold":11674,"oof":11675,"Ġexplicitly":11676,"dec":11677,"Ġdash":11678,"etch":11679,"Ġunderneath":11680,"proof":11681,"Ġpublish":11682,"Pres":11683,"ĠBul":11684,"ĠAnyone":11685,"ĠSystems":11686,"Ġbent":11687,"icture":11688,"Ġanswering":11689,"rett":11690,"Ġmixing":11691,"Ġloading":11692,"Ġbail":11693,"ostic":11694,"ocated":11695,"Ġshed":11696,"Ġcrown":11697,"Ġpotatoes":11698,"Ġreplacing":11699,"ĠImagine":11700,"Ġjudges":11701,"ĠAvatar":11702,"ĠAdministration":11703,"range":11704,"Ġunions":11705,"ĠAllen":11706,"visor":11707,"('":11708,"iments":11709,"asted":11710,"lication":11711,"ĠWhatever":11712,"Ġvariations":11713,"ĠSilver":11714,"Ġbelly":11715,"abling":11716,"Ġreasonably":11717,"Ġinvested":11718,"Ġnucle":11719,"UTC":11720,"Instead":11721,"Ġgrasp":11722,"Ġsupplements":11723,"Ġcollecting":11724,"ĠCNN":11725,"Jump":11726,"ordon":11727,"âĢ¦âĢĿ":11728,"Ġavailability":11729,"Ġexecute":11730,"ĠMethod":11731,"Ġguaranteed":11732,"Ġcrops":11733,"ĠNavy":11734,"Ġdeciding":11735,"Ġpreserve":11736,"Ġcontributed":11737,"Ġattribute":11738,"Paul":11739,"Yet":11740,"ĠWorks":11741,"ĠDiet":11742,"Ġbetray":11743,"Ġinsert":11744,"Review":11745,"Min":11746,"Ġstones":11747,"ĠCIA":11748,"Ġsuits":11749,"ĠDefense":11750,"Ġstreaming":11751,"vania":11752,"Ġpandemic":11753,"Ġjokes":11754,"Ġaffairs":11755,"Ġforex":11756,"Ġlacking":11757,"ountered":11758,"Ġdried":11759,"bohydr":11760,"Ġemerging":11761,"Ġrequested":11762,"Ġfranchise":11763,"ĠTR":11764,"abl":11765,"ĠGDP":11766,"enders":11767,"Ġmutual":11768,"Ġracism":11769,"ĠAtlantic":11770,"Sure":11771,"igma":11772,"Ġentities":11773,"Ġencountered":11774,"Pop":11775,"ĠSound":11776,"ĠCore":11777,"Ġjar":11778,"Ġdetection":11779,"Ġverify":11780,"erator":11781,"Ġrounds":11782,"ĠOcean":11783,"Ġinsist":11784,"Contact":11785,"Date":11786,"ĠRus":11787,"Ġrelatives":11788,"Ġexecut":11789,"Ġbuttons":11790,"Ġnodes":11791,"Ġwheels":11792,"Ġeasiest":11793,"Ġgrave":11794,"Ġoptimal":11795,"Ġcycles":11796,"Ġcasino":11797,"gh":11798,"Ġpussy":11799,"Ġbeast":11800,"Ġdiscon":11801,"Ġbillions":11802,"Ġrecipes":11803,"Ġtweet":11804,"hess":11805,"Ġ1994":11806,"month":11807,"ĠMoore":11808,"DC":11809,"ĠDom":11810,"Ġkit":11811,"Ġreadily":11812,"Ant":11813,"Ġfart":11814,"Ġplates":11815,"Ġcomparing":11816,"Ġloads":11817,"Ġmeasuring":11818,"Ġrespective":11819,"Ġcrystal":11820,"seud":11821,"amples":11822,"ĠNations":11823,"ĠLocal":11824,"Ġworksh":11825,"ĠAlways":11826,"Ġbarrier":11827,"Ġtroubles":11828,"aft":11829,"ĠNatural":11830,"Ġbackwards":11831,"Ġefficiently":11832,"Ġelderly":11833,"Ġanch":11834,"Ġrings":11835,"ĠRoy":11836,"Ġcompounds":11837,"âĤ¬âĦ¢":11838,"master":11839,"ĠRoss":11840,"atures":11841,"Ø¯":11842,"Ġarise":11843,"Ġhandy":11844,"Ġstraightforward":11845,"Ġcompromise":11846,"Ġexport":11847,"Ġfounder":11848,"ymph":11849,"Ġunconscious":11850,"Big":11851,"Sorry":11852,"ouston":11853,"ĠSant":11854,"ĠMoh":11855,"usively":11856,"Ġcloth":11857,"Ġembra":11858,"Ġdramatically":11859,"NC":11860,"Orig":11861,"author":11862,"reation":11863,"Ġdick":11864,"ĠAbe":11865,"Ġcommod":11866,"MO":11867,"ĠHosp":11868,"ĠModern":11869,"Ġtel":11870,"Ġpose":11871,"ĠSnow":11872,"ĠBry":11873,"Ġaccounting":11874,"Ġalternate":11875,"News":11876,"Ġmoisture":11877,"Ġdisplays":11878,"Ġcertificate":11879,"FT":11880,"isa":11881,"ĠFuture":11882,"Ġ1950":11883,"Ġnovels":11884,"Ġentertaining":11885,"large":11886,"efficient":11887,"fulness":11888,"Ġmodify":11889,"ĠLincoln":11890,"Ġeffectiveness":11891,"uki":11892,"ĠCharlie":11893,"ĠSpirit":11894,"Ah":11895,"Ġadj":11896,"Ġopenly":11897,"ĠAmong":11898,"iscal":11899,"ĠHawai":11900,"Ġinsulin":11901,"Ġestablishment":11902,"Bre":11903,"card":11904,"ĠNik":11905,"Ġinte":11906,"Ġsusp":11907,"alties":11908,"Ġnonsense":11909,"Ġcust":11910,"Ġdental":11911,"ĠSong":11912,"ĠAction":11913,"ĠBM":11914,"udge":11915,"syl":11916,"ĠJustin":11917,"Ġreflected":11918,"ĠSoftware":11919,"mare":11920,"Ġwrest":11921,"Ġdull":11922,"Ġloses":11923,"Ġfundament":11924,"ĠApparently":11925,"Tom":11926,"Ġmuseum":11927,"Ġramp":11928,"Ġtrailer":11929,"Ġcharity":11930,"Ġinfinite":11931,"storm":11932,"imb":11933,"Ġvamp":11934,"Star":11935,"ĠÂ©":11936,"inois":11937,"ĠSmart":11938,"Ġcolumns":11939,"lation":11940,"Ġaest":11941,"ĠEuro":11942,"acular":11943,"Ġliterary":11944,"ĠTurk":11945,"Ġjet":11946,"Ġoffices":11947,"Ġsmiling":11948,"Ġreceives":11949,"Ġencouraging":11950,"Ġhormone":11951,"gie":11952,"ova":11953,"Ġreluct":11954,"ommy":11955,"value":11956,"Ġsisters":11957,"Ġ101":11958,"Ġpeer":11959,"Ġflows":11960,"Ġabsorb":11961,"base":11962,"girl":11963,"ocur":11964,"Ġpartial":11965,"Ġentries":11966,"Ġtransparent":11967,"Ġtrips":11968,"Ġtermin":11969,"Ġcompetitors":11970,"Donald":11971,"Ġwireless":11972,"vol":11973,"Ġconqu":11974,"rik":11975,"ĠUntil":11976,"Ġreporter":11977,"Ġaltogether":11978,"iper":11979,"ĠCS":11980,"than":11981,"Ġmanages":11982,"Ġbehave":11983,"Ġconstructed":11984,"Ġoccasions":11985,"tan":11986,"isd":11987,"Ġfence":11988,"lean":11989,"ĠWolf":11990,"Ġcance":11991,"plant":11992,"Ġmusicians":11993,"ERE":11994,"Ġresponsibilities":11995,"Ġconcentr":11996,"ĠCommunity":11997,"Ġtestimony":11998,"Ġgly":11999,"uru":12000,"iffs":12001,"Ġrage":12002,"Ġglory":12003,"Ġpursu":12004,"Ġtowns":12005,"profit":12006,"Ġolive":12007,"olis":12008,"ĠFat":12009,"Ġspeeds":12010,"Ġpredicted":12011,"Ġbureau":12012,"Ġdozens":12013,"Ġcooling":12014,"ĠEmail":12015,"Ġsurfaces":12016,"Ġjewel":12017,"ĠRat":12018,"ĠFive":12019,"Ġvector":12020,"ĠMarc":12021,"rah":12022,"Ġexceptions":12023,"ĠNazi":12024,"Ġcouch":12025,"Ġlighter":12026,"Ġnull":12027,"Ġresume":12028,"Ġdesires":12029,"Ġadoption":12030,"ĠIncre":12031,"Ġchampion":12032,"orship":12033,"Ġaccord":12034,"Ġraises":12035,"ĠLuke":12036,"Ġuniversities":12037,"ĠRadio":12038,"Set":12039,"sk":12040,"Ġgaining":12041,"Though":12042,"Ġdefeated":12043,"Ġcongress":12044,"Ġprovision":12045,"Ġacceptance":12046,"Ġutilize":12047,"ealous":12048,"ĠSupport":12049,"aters":12050,"ĠHR":12051,"Ġscal":12052,"issa":12053,"Ġmonsters":12054,"Ġprocessor":12055,"Blog":12056,"belie":12057,"Ġrows":12058,"Ġchurches":12059,"Ġconsensus":12060,"Anyway":12061,"Ġpassionate":12062,"Ġaxis":12063,"ĠOwn":12064,"ĠImp":12065,"Ġcompeting":12066,"Ġconvicted":12067,"Ñĥ":12068,"Ġanth":12069,"Ġalike":12070,"Ġlemon":12071,"Ġskilled":12072,"Ġprivilege":12073,"ĠMit":12074,"Ġcritics":12075,"Ġlayout":12076,"ĠJudge":12077,"Ġhormones":12078,"ĠMountain":12079,"SQL":12080,"ĠAw":12081,"ĠHug":12082,"ĠEX":12083,"ĠTech":12084,"?'":12085,"SH":12086,"alog":12087,"icts":12088,"Ġawake":12089,"pring":12090,"Ġprize":12091,"Ġforecast":12092,"Ġdeposit":12093,"Ġmice":12094,"Ġfever":12095,"Ġparliament":12096,"Ġdefinitions":12097,"Ġtricks":12098,"mir":12099,"Ġsoup":12100,"iph":12101,"Ġspite":12102,"Ġpurple":12103,"Ġmindset":12104,"ĠQual":12105,"ï¬ģ":12106,"oning":12107,"Ġaging":12108,"Ġaged":12109,"icken":12110,"ĠChild":12111,"Ġtechnological":12112,"ĠImper":12113,"writer":12114,"ĠHP":12115,"Ġhistoric":12116,"Ġtransferred":12117,"Ms":12118,"Par":12119,"size":12120,"ĠStock":12121,"Ġdeserves":12122,"shit":12123,"ĠLeon":12124,"Ġinfluences":12125,"Ġspreading":12126,"ĠCT":12127,"aughters":12128,"Ġaccompanied":12129,"Î½":12130,"ĠOpt":12131,"Ġpert":12132,"Ġterminal":12133,"ĠTele":12134,"Ġdetermining":12135,"Ġdetermination":12136,"ĠTob":12137,"uri":12138,"ĠGh":12139,"ĠThird":12140,"Ġmakeup":12141,"Ġinvite":12142,"Ġcops":12143,"flu":12144,"Ġphilosoph":12145,"Ġdynamics":12146,"DB":12147,"Ġchamber":12148,"Ġobjectives":12149,"Ġconsuming":12150,"Ġrepresenting":12151,"Ġratings":12152,"ĠKirk":12153,"itamin":12154,"ĠTree":12155,"ĠLibrary":12156,"Ġspat":12157,"Ġflights":12158,"Ġflags":12159,"Ġminim":12160,"Ġretired":12161,"ĠSelect":12162,"umbling":12163,"Ġbiology":12164,"Ġtwelve":12165,"comm":12166,"Ġbuilds":12167,"Ġcredits":12168,"Ġradi":12169,"Ġethical":12170,"bat":12171,"png":12172,"Ġ52":12173,"ĠBarack":12174,"Never":12175,"athetic":12176,"Ġdare":12177,"olas":12178,"expl":12179,"Ġeleg":12180,"ĠAllah":12181,"Ġcomplaint":12182,"Ġkingdom":12183,"ĠCut":12184,"ĠML":12185,"Ġproc":12186,"Ġshy":12187,"Ġspecialized":12188,"ĠMorgan":12189,"ĠMichel":12190,"Ġmelt":12191,"Ġrevel":12192,"ĠBruce":12193,"ĠRain":12194,"acent":12195,"Ġoverlook":12196,"Ġmush":12197,"ĠDavis":12198,"ĠJavaScript":12199,"Ġpropaganda":12200,"La":12201,"tail":12202,"would":12203,"Ġsunlight":12204,"Ġromance":12205,"High":12206,"stick":12207,"Ġeastern":12208,"thodox":12209,"inth":12210,"ĠTai":12211,"roit":12212,"ĠSD":12213,"rium":12214,"icket":12215,"Ġcalculator":12216,"ĠTravel":12217,"Ġcigarette":12218,"Ġlap":12219,"Ġviable":12220,"Ġcamps":12221,"Ġempire":12222,"Ġtunnel":12223,"Ġdeleted":12224,"Ġorbit":12225,"Ġram":12226,"ĠNC":12227,"Ġoutdoor":12228,"Ġinspect":12229,"Ġbitch":12230,"chester":12231,"track":12232,"ĠSE":12233,"ĠLanguage":12234,"Ġdevil":12235,"held":12236,"ĠCC":12237,"ulpt":12238,"ĠLie":12239,"Ġoperator":12240,"Ġidentification":12241,"Ġpraise":12242,"Jack":12243,"×ķ":12244,"Ġsoccer":12245,"Ġpicks":12246,"ĠPhilipp":12247,"Ġrobust":12248,"Ġattending":12249,"kn":12250,"lu":12251,"Ġanime":12252,"Ġdisabled":12253,"Ġrespir":12254,"Ġepid":12255,"cribe":12256,"ĠTes":12257,"ership":12258,"ategory":12259,"Ġnicely":12260,"Ġliberty":12261,"Ġmurdered":12262,",,":12263,"bour":12264,"had":12265,"Ġcort":12266,"Ġcav":12267,"ener":12268,"âĢĭ":12269,"ĠKong":12270,"ĠDeep":12271,"AB":12272,"big":12273,"ĠBond":12274,"ĠLyn":12275,"Ġteens":12276,"Ġtraditions":12277,"ĠLooking":12278,"!).":12279,"Ð»":12280,"Ġcm":12281,"Ġnest":12282,"ospel":12283,"Ġneeding":12284,"Ġsensation":12285,"Table":12286,"immer":12287,"ĠUnless":12288,"Ġidentifying":12289,"ĠAlexander":12290,"Ġregistration":12291,"Ġportfolio":12292,"Ġmamm":12293,"ĠAy":12294,"Ġdeficit":12295,"Ġimagined":12296,"dim":12297,"ĠFair":12298,"ometer":12299,"Ġgenius":12300,"Ġgotta":12301,"Ġcandy":12302,"Ġwoods":12303,"Ġexpanding":12304,"Ġpreferences":12305,"cow":12306,"ĠMD":12307,"allas":12308,"ĠUniverse":12309,"Ġpuzzle":12310,"fly":12311,"rous":12312,"esity":12313,"Ġseal":12314,"Ġhappily":12315,"Ġappealing":12316,"Ġgrandmother":12317,"Men":12318,"ĠCow":12319,"Inc":12320,"Ġexamination":12321,"Ġreligions":12322,"Ġaccidentally":12323,"igg":12324,"ÂłĊĊĠ":12325,"ĠCe":12326,"Ġdoct":12327,"Ġcopper":12328,"Ġ1992":12329,"ĠHem":12330,"ounding":12331,"Ġdisadvant":12332,"Ġterrorism":12333,"Ġincorporate":12334,"================":12335,"Ġwoke":12336,"ĠAnaly":12337,"ĠProbably":12338,"ECT":12339,"sylvania":12340,"Ġbay":12341,"ĠBuild":12342,"Ġsheets":12343,"Ġactress":12344,"Ġ85":12345,"Ġblocking":12346,"Ġpurchases":12347,"ĠParliament":12348,"Ġjournalists":12349,"600":12350,"Ġverse":12351,"riving":12352,"Ġpeers":12353,"Ġtalented":12354,"FS":12355,"Ġstared":12356,"Ġwheat":12357,"ĠBeach":12358,"Ġfatal":12359,"Ġignoring":12360,"Ġprevents":12361,"atile":12362,"Ġpist":12363,"Ġpermit":12364,"Ġvacuum":12365,"itating":12366,"Ġber":12367,"opes":12368,"ĊĠĠĠĠĠĠĠĠĠĠĠĠĠĠĠĠĠĠĠĠĠĠĠĠĠĠĠĠ":12369,"Ġcousin":12370,"Ġtires":12371,"Ġdense":12372,"ĠFast":12373,"ĠNation":12374,"agle":12375,"forced":12376,"Key":12377,"Wind":12378,"×Ļ":12379,"Ġflee":12380,"Ġshadows":12381,"Ġfreed":12382,"Ġsensitivity":12383,"ĠGuy":12384,"ĠRetrieved":12385,"Ġfestival":12386,"ĠAnalysis":12387,"retty":12388,"ĠTruth":12389,"Ġprotective":12390,"ĠSyrian":12391,"Ġrestricted":12392,"Ac":12393,"Further":12394,"Ps":12395,"uits":12396,"wen":12397,"Ġdece":12398,"Ġmasses":12399,"Ġassociate":12400,"Ġroyal":12401,"table":12402,"Ġta":12403,"Ġcholesterol":12404,"Ġrefrig":12405,"Ġlesser":12406,"Ġurge":12407,"Class":12408,"Ġconvenience":12409,"giving":12410,"hou":12411,"zo":12412,"Ġposter":12413,"Ġmissions":12414,"Write":12415,"Ġinsects":12416,"Ġpel":12417,"ummy":12418,"Ġencl":12419,"Ġaffecting":12420,"Ġconflicts":12421,"Ġsacrific":12422,"racle":12423,"ĠDisc":12424,"Ġsigning":12425,"ERS":12426,"Ġcomplaints":12427,"Ġfossil":12428,"Ġfond":12429,"Ġpadd":12430,"anne":12431,"olph":12432,"Ġreli":12433,"Ġdistinguish":12434,"osa":12435,"Ġsafer":12436,"Ġmonetary":12437,"ortunate":12438,"Bas":12439,"Ġpic":12440,"ĠCloud":12441,"Ġpaste":12442,"Ġphotography":12443,"Ġsummar":12444,"Show":12445,"Ġsocieties":12446,"Ġcaptain":12447,"ĠLewis":12448,"cap":12449,"unks":12450,"Ġunst":12451,"ĠChall":12452,"uclear":12453,"BO":12454,"ĠĊ":12455,"Ġtob":12456,"ĠHal":12457,"abul":12458,"Ġleak":12459,"ĠYan":12460,"Ġfatigue":12461,"Ġgarage":12462,"Ġpremise":12463,"Ġignorance":12464,"Ġcough":12465,"Ġbol":12466,"Ġrehab":12467,"Ġchains":12468,"ĠJess":12469,"ĠChoose":12470,"their":12471,"Ġphysician":12472,"ouncing":12473,"ĠReturn":12474,"Ġstruggles":12475,"Ġclarity":12476,"Ġembedded":12477,"Ġextraordinary":12478,"Ġduties":12479,"etc":12480,"ĠHor":12481,"ĠSix":12482,"ĊĊĊĊĠ":12483,"ĠLind":12484,"Ġaggreg":12485,"Ġrelie":12486,"Ġsurre":12487,"amped":12488,"Ġspirits":12489,"Id":12490,"Open":12491,"Ġaqu":12492,"anas":12493,"Ġ(âĢľ":12494,"unted":12495,"ĠStorm":12496,"Ġglance":12497,"ĠBand":12498,"abel":12499,"Ġmeter":12500,"Ġperformances":12501,"Comment":12502,"Ġaims":12503,"pically":12504,"illance":12505,"Ġscandal":12506,"Ġsubmitted":12507,"Ġplanets":12508,"Ġreminder":12509,"Ġearnings":12510,"ĠJersey":12511,"Ġsore":12512,"alg":12513,"Ġpublication":12514,"Ġpant":12515,"ĠDog":12516,"iances":12517,"ĠDemocrat":12518,"Word":12519,"ĠâĢĻ":12520,"onomic":12521,"Ġnap":12522,"Ġgorge":12523,"ĠCertain":12524,"terior":12525,"ĠPubl":12526,"ĠLes":12527,"Ġoverhead":12528,"rencies":12529,"Ġequipped":12530,"Ġapproaching":12531,"ĠConserv":12532,"Ġreflects":12533,"Download":12534,"emon":12535,"auc":12536,"Ġlightly":12537,"Ġbasics":12538,"mus":12539,"wear":12540,"ancer":12541,"Ġpole":12542,"Ġsubstances":12543,"Ġchuck":12544,"ĠCancer":12545,"Ġmisunder":12546,"Ġsequences":12547,"Ġsatisfy":12548,"ĠStudies":12549,"Ġhighlights":12550,"250":12551,"days":12552,"inates":12553,"Ġgaze":12554,"opath":12555,"ĠHo":12556,"Ġideology":12557,"Ġtreasure":12558,"Ġconservatives":12559,"Ġtissues":12560,"map":12561,"esters":12562,"ĠMap":12563,"DE":12564,"Ġcord":12565,"Ġreck":12566,"ĠAltern":12567,"Ġoccurring":12568,"Ġhatred":12569,"ĠEventually":12570,"Ġmanually":12571,"Ġshelf":12572,"ructive":12573,"Ġwinds":12574,"Ġthesis":12575,"ingle":12576,"Ġstating":12577,"ĠEC":12578,"Ġlogin":12579,"Ġpulls":12580,"nia":12581,"ĠGulf":12582,"Ġorganisation":12583,"string":12584,"ĠLearn":12585,"mi":12586,"Ġtheft":12587,"ryption":12588,"Ġ600":12589,"ĠEnvironment":12590,"Ġhospitals":12591,"ĠServer":12592,"ĠDS":12593,"ĠFoot":12594,"Ġflowing":12595,"Think":12596,"Ġchallenged":12597,"Alex":12598,"ependent":12599,"rod":12600,"Ġseve":12601,"write":12602,"Ġsucks":12603,"Ġ51":12604,"Ġ800":12605,"ĠExec":12606,"AND":12607,"ĠComputer":12608,"âĪ":12609,"Ġlung":12610,"ĠSleep":12611,"irk":12612,"ĠOcc":12613,"Ġcoins":12614,"Ġequality":12615,"ĠSenator":12616,"Ġanxious":12617,"agonist":12618,"Ġglucose":12619,"Again":12620,"Ġgolf":12621,"opic":12622,"embers":12623,"redict":12624,"Ġrealise":12625,"ĠBooks":12626,"Ġtanks":12627,"Ġjaw":12628,"Ġunderm":12629,"written":12630,"ĠRobin":12631,"fi":12632,"itutes":12633,"Ġego":12634,"acking":12635,"Ġbeta":12636,"party":12637,"Week":12638,"ĠMust":12639,"ĠBarn":12640,"ĠQuick":12641,"points":12642,"raham":12643,"reating":12644,"lient":12645,"Ġenters":12646,"Ġglobe":12647,"Ġanalog":12648,"ĠAmb":12649,"ĠCab":12650,"Ġreset":12651,"Ġrope":12652,"Ġnewer":12653,"Web":12654,"ĠPrem":12655,"ĠMalays":12656,"Ġsoda":12657,"ports":12658,"Â»":12659,"develop":12660,"ĠObject":12661,"Ty":12662,"icop":12663,"usters":12664,"ĠEM":12665,"Ġpassive":12666,"Ġenjoyable":12667,"Ġbund":12668,"Ġjournalist":12669,"Ġstabil":12670,"Max":12671,"gon":12672,"Ġpup":12673,"Ġmun":12674,"ĠPa":12675,"istant":12676,"ĠKB":12677,"boards":12678,"Ġviolation":12679,"Ġregulatory":12680,"Ġrifle":12681,"uling":12682,"actic":12683,"ĠVill":12684,"Ġdesperately":12685,"Ġfu":12686,"Ġanonymous":12687,"ĠMO":12688,"Ġartic":12689,"Ġgrandfather":12690,"Ġdestroying":12691,"iology":12692,"Ġcache":12693,"Ġlag":12694,"Ġadmin":12695,"Ġsheer":12696,"onda":12697,"Ġattitudes":12698,"ludes":12699,"Ġdesigners":12700,"Ġdebut":12701,"Ġbeaten":12702,"Ġtightly":12703,"Ġsimpler":12704,"Ġbizarre":12705,".).":12706,"Mat":12707,"ĠSide":12708,"istance":12709,"ĠPhill":12710,"TR":12711,"Was":12712,"Ġsixt":12713,"ensing":12714,"Ġinterpre":12715,"ĠIsa":12716,"system":12717,"Ġkidney":12718,"Ġfirmly":12719,"ĠBasically":12720,"General":12721,"full":12722,"Ġstats":12723,"ĠMagn":12724,"ĠPu":12725,"astically":12726,"Ġquad":12727,"Ġcarrier":12728,"Ġrefres":12729,"ĠSeveral":12730,"ĠBlock":12731,"Ġmentions":12732,"Ðº":12733,"Ġwanna":12734,"Ġmigration":12735,"Ġincons":12736,"Ġowns":12737,"Ġrepublic":12738,"attering":12739,"ĠGetting":12740,"Ġarrangement":12741,"Ġwhist":12742,"onsin":12743,"Ġimmense":12744,"Ġcivilization":12745,"Ġidiot":12746,"Ġbreakdown":12747,"ĠEditor":12748,"Ġcontacts":12749,"Ġhosting":12750,"Ġsticks":12751,"Ġdeliberately":12752,"ĠDue":12753,"ĠFun":12754,"izable":12755,"ĠInn":12756,"Ġcrust":12757,"Ġpromotion":12758,"ĠTam":12759,"ĠBag":12760,"ĠFant":12761,"enez":12762,"Ġsacred":12763,"uf":12764,"Ġwasted":12765,"ĠIntel":12766,"Enter":12767,"ĠMand":12768,"ĠEV":12769,"Three":12770,"Ġexploration":12771,"Ġquoted":12772,"Feb":12773,"Ġtobacco":12774,"Ġink":12775,"ulator":12776,"opping":12777,"ressive":12778,"ishop":12779,"Ġ54":12780,"athon":12781,"Ġaffair":12782,"ĠSeason":12783,"Ġswitching":12784,"Ġconclusions":12785,"Ġuncertainty":12786,"ĠKennedy":12787,"gi":12788,"Ġfats":12789,"const":12790,"elson":12791,"isconsin":12792,"make":12793,"rait":12794,"ĠCorn":12795,"Ġsail":12796,"Ġaccus":12797,"Ġgenerating":12798,"Ġconclude":12799,"ĠTrade":12800,"uddenly":12801,"Ġgenuinely":12802,"Ev":12803,"äº":12804,"onge":12805,"ĠHu":12806,"Ġalpha":12807,"Ġoverd":12808,"ĠStore":12809,"ĠFront":12810,"Ġdefending":12811,"Ġdelivering":12812,"keys":12813,"ector":12814,"ĠAnderson":12815,"Ġpatience":12816,"Ġintentions":12817,"Ġignorant":12818,"semble":12819,"Pal":12820,"iors":12821,"Ã±":12822,"owth":12823,"Ġairpl":12824,"ritis":12825,"Ġrental":12826,"Ġjacket":12827,"Ġoverseas":12828,"Come":12829,"Ġrefere":12830,"Ġcomplement":12831,"Ġintimid":12832,"UM":12833,"Ġcrop":12834,"ishers":12835,"Ġhilar":12836,"ĠED":12837,"Ġdefines":12838,"2015":12839,"Ġstructural":12840,"Ġtolerance":12841,"rr":12842,"Ġweaken":12843,"oler":12844,"ĠÂłĠ":12845,"Ġpromising":12846,"Ġspecialist":12847,"Ġcompliance":12848,"Ġsenses":12849,"Ġcrossing":12850,"Ġstressed":12851,"Ġshore":12852,"Ġbasement":12853,"Ġrevealing":12854,"ĠArticles":12855,"Ġpupp":12856,"Ġadvocate":12857,"Ġjam":12858,"ĠHeaven":12859,"Ġattraction":12860,"bsite":12861,"Ġabsorbed":12862,"Ġgoogle":12863,"')":12864,"NET":12865,"elect":12866,"uv":12867,"aton":12868,"Ġgambling":12869,"Ġvapor":12870,"avirus":12871,"Should":12872,"ĠArabia":12873,"Ġpharmacy":12874,"kers":12875,"Ġcod":12876,"asa":12877,"ĠSel":12878,"ĠWonder":12879,"ĠHE":12880,"Ġresort":12881,"aura":12882,"Ġalbums":12883,"Ġfortun":12884,"Ġutterly":12885,"Ġdwell":12886,"eterm":12887,"Ġrushed":12888,"Ġthrows":12889,"Ġminimize":12890,"Ġboots":12891,"Being":12892,"iotics":12893,"Ġvelocity":12894,"ĠWithin":12895,"Ġoccupied":12896,"Ġcooperation":12897,"Ġhed":12898,"ĠHur":12899,"ribution":12900,"IDS":12901,"ĠIraqi":12902,"ĠCond":12903,"ĠNear":12904,"Ġaccidents":12905,"angel":12906,"Ġwaist":12907,"reed":12908,"Ġduck":12909,"Ġgrief":12910,"Ġlaying":12911,"ĊĠĠĠĠĠĠĠĠĠ":12912,"PL":12913,"Sy":12914,"path":12915,"Ġlover":12916,"Ġnearest":12917,"Ġrod":12918,"Ġtranslated":12919,"Ġarranged":12920,"Ġpars":12921,"arity":12922,"ĠMun":12923,"ĠYe":12924,"Ġschem":12925,"Ġcorners":12926,"ĠDeb":12927,"Off":12928,"Point":12929,"dess":12930,"Ġbears":12931,"uther":12932,"ĠObs":12933,"Ġunfortunate":12934,"Ġcontra":12935,"Ġcarbohydr":12936,"attoo":12937,"Change":12938,"Conf":12939,"ĠScotland":12940,"Hy":12941,"bn":12942,"oups":12943,"Their":12944,"ĠShadow":12945,"ĠSports":12946,"Ġ1993":12947,"Ġaddressing":12948,"Ġagrees":12949,"Ġearthqu":12950,"Ġknocked":12951,"Ġexhausted":12952,"Page":12953,"dig":12954,"kh":12955,"Ġcos":12956,"Ġfighter":12957,"Ġdive":12958,"ĠSales":12959,"ĠMaking":12960,"Mart":12961,"UST":12962,"ding":12963,"pool":12964,"Ġintest":12965,"Ġoutstanding":12966,"Ġbuck":12967,"vernment":12968,"ĠBlu":12969,"Ġapplicable":12970,"Ġinteractive":12971,"Ġmacro":12972,"Ġphotographs":12973,"hew":12974,"orer":12975,"Ġchase":12976,"Sl":12977,"Welcome":12978,"lord":12979,"something":12980,"Ġaf":12981,"orian":12982,"Ġthreshold":12983,"Ġlas":12984,"ĠMB":12985,"Ġproves":12986,"Ġenvelop":12987,"Ġpanels":12988,"Ġemerge":12989,"ĠSimon":12990,"dog":12991,"Î¹":12992,"Ġexpend":12993,"ĠGro":12994,"Ġlasting":12995,"2007":12996,"Ġtragedy":12997,"cular":12998,"Ġindication":12999,"Ġsimilarly":13000,"Ġphrases":13001,"Ġorientation":13002,"Ġbombs":13003,"Call":13004,"Ġfighters":13005,"emen":13006,"Ġpreval":13007,"atherine":13008,"Ġwonders":13009,"Ġpropos":13010,"Ġcounterpart":13011,"Ġsouls":13012,"Ġtournament":13013,"ĠHong":13014,"ĠLuck":13015,"Ġaudiences":13016,"Ġarrives":13017,"Ġdispute":13018,"Ġpalm":13019,"ĠBrook":13020,"Ġdisturbing":13021,"ĠSays":13022,"ĠMath":13023,"perm":13024,"Ġlawsuit":13025,"Ġsnake":13026,"ĠPeace":13027,"Ġsubstitute":13028,"Ġcontinuously":13029,"Ġsuspected":13030,"Ġtackle":13031,"Ġfork":13032,"urities":13033,"ĠPhoto":13034,"Ġautomated":13035,"Ġpolls":13036,"Ġbelongs":13037,"Ġbeats":13038,"Ġreign":13039,"ockey":13040,"ĠManager":13041,"ĠSimple":13042,"Ġtranslate":13043,"_{":13044,"Ġmm":13045,"ĠTheory":13046,"aux":13047,"Ġacted":13048,"ĠIndex":13049,"ĠBetween":13050,"Ġflew":13051,"Ġinitiative":13052,"Ġbrutal":13053,"Ġeligible":13054,"Ġdisconnect":13055,"War":13056,"pur":13057,"Ġcoding":13058,"Ġmud":13059,"Ġoutrage":13060,"ĠUV":13061,"Ġtastes":13062,"Ġnavigate":13063,"Ġruin":13064,"Ġconvincing":13065,"note":13066,"aned":13067,"etts":13068,"ĠAB":13069,"ushes":13070,"ipher":13071,"Ġunderstands":13072,"Chris":13073,"Ġtrucks":13074,"otherapy":13075,"Ġcompatible":13076,"Ø¨":13077,"igm":13078,"ĠBol":13079,"Ġstranger":13080,"Ġlisting":13081,"Ġcharacteristic":13082,"burgh":13083,"public":13084,"ĠMC":13085,"ĠHouston":13086,"andra":13087,"Ġtricky":13088,"ĠMedicine":13089,"cyclopedia":13090,"ĊĊĠĠĠĠĠĠĠĠĠĠĠĠĠĠĠĠĠĠĠĠĠĠĠĠĠĠĠĠĠĠĠĠĠĠĠĠĠĠĠĠĠĠĠĠĠĠĠĠĠĠĠĠĠĠĠĠĠĠĠĠĠĠĠĠ":13091,"ĠWi":13092,"Ġflies":13093,"Ġframes":13094,"ottom":13095,"Ġtargeting":13096,"Ġfertil":13097,"Ġatoms":13098,"osc":13099,"ĠJS":13100,"Ġspawn":13101,"Ġbarriers":13102,"Ġrevenge":13103,"Ġholidays":13104,"Ġstrictly":13105,"ĠEmb":13106,"Ġrecession":13107,"ĠSoon":13108,"hysical":13109,"Ġhosts":13110,"ĠRoberts":13111,"Ġfloat":13112,"Ġmolecular":13113,"$.":13114,"ĠFro":13115,"Ġvaries":13116,"Ġseller":13117,"Ġ1991":13118,"ĠStudy":13119,"ioxid":13120,"Ġancestors":13121,"Ġbankruptcy":13122,"bury":13123,"Îµ":13124,"ĠBase":13125,"Ġnotable":13126,"Ġranks":13127,"Ġtrim":13128,"Ġreserve":13129,"Ġcleared":13130,"2016":13131,"Ġjurisd":13132,"ëĭ":13133,"ĠTips":13134,"ĠABC":13135,"Ġliability":13136,"Ġescal":13137,"around":13138,"ilib":13139,"ĠFest":13140,"Ġlikelihood":13141,"Ġblown":13142,"Ġtwin":13143,"olutely":13144,"Ġimplementing":13145,"Meanwhile":13146,"Ġisolation":13147,"Similar":13148,"Ġtheoretical":13149,"2000":13150,"Ġnick":13151,"ĠBab":13152,"Ġresolved":13153,"bye":13154,"Ġhurts":13155,"Ġirrelevant":13156,"nut":13157,"Ġward":13158,"Ġmate":13159,"Ġmassage":13160,"Ġconsistency":13161,"Ġdemanded":13162,"Ġunclear":13163,"ĠParent":13164,"Ġshaking":13165,"Ġspine":13166,"week":13167,"Super":13168,"Ġvarying":13169,"ĠIllinois":13170,"ĠEli":13171,"Ġperceive":13172,"Ġcolored":13173,"Ġparticle":13174,"Ġislands":13175,"Ġtumor":13176,"ÛĮ":13177,"Ġdude":13178,"Ġheter":13179,"Ġadverse":13180,"Ġoffset":13181,"Ġsculpt":13182,"process":13183,"Ġexclusively":13184,"minded":13185,"appropriate":13186,"school":13187,"ĠME":13188,"ĠGun":13189,"Ġenerg":13190,"obic":13191,"Ġadvised":13192,"Ġsensors":13193,"ĠSteel":13194,"Ġappointed":13195,"ĠÂłĠÂłĠÂłĠÂłĠÂłĠÂłĠÂłĠÂł":13196,"Bar":13197,"Produ":13198,"Ġstub":13199,"Ġbeloved":13200,"bean":13201,"Ġclimbing":13202,"Ġcoconut":13203,"ĠBiden":13204,"AK":13205,"Ġbree":13206,"Ġshar":13207,"ahoo":13208,"space":13209,"Ġrolls":13210,"Ġmes":13211,"ayed":13212,"ifully":13213,"ĠPy":13214,"ĠDiff":13215,"Ġscam":13216,"ĠUnivers":13217,"regon":13218,"Ġcatast":13219,"color":13220,"ĠBatman":13221,"HL":13222,"Ġpond":13223,"story":13224,"ivia":13225,"ĠDoll":13226,"ĠDefin":13227,"Ġcartoon":13228,"Ġfifty":13229,"ioxide":13230,"eem":13231,"Ġprone":13232,"Ġhealthier":13233,"ĠIndians":13234,"Ġselfish":13235,"Ġanalys":13236,"Ġ;)":13237,"Ġpharmac":13238,"Ġannouncement":13239,"ĠPennsylvania":13240,"âĢĿ)":13241,"Ġlaughter":13242,"sea":13243,"Ġrally":13244,"ĠNep":13245,"Ġoverly":13246,"Ġgoodness":13247,"ĠProper":13248,"db":13249,"sch":13250,"Ġdaughters":13251,"Ġbearing":13252,"ĠPope":13253,"ĠGil":13254,"Ġgrades":13255,"Ġcycl":13256,"Ġvon":13257,"Ġsup":13258,"ĠNat":13259,"Ġconsolid":13260,"ĠBeaut":13261,"Ġsexually":13262,"Ġcirculation":13263,"Ġprevented":13264,"Ġeru":13265,"ĠReviews":13266,"ĠSquare":13267,"ĠMobile":13268,"ĠER":13269,"ĠSeattle":13270,"ĠConc":13271,"Ġdeclare":13272,"ĠLogo":13273,"Ġmultipl":13274,"ĠNobody":13275,"pical":13276,"ighting":13277,"Ġjealous":13278,"oyd":13279,"Ġdefining":13280,"ricane":13281,"Ġachieving":13282,"ĠColumbia":13283,"aired":13284,"bes":13285,"rust":13286,"Ġeternal":13287,"ĠIC":13288,"emia":13289,"ĠLane":13290,"Ġours":13291,"ĠClin":13292,"ĠClark":13293,"Ġlabour":13294,"Ġingredient":13295,"Ġventure":13296,"ĠSatan":13297,"ĠLiska":13298,"ĠJacob":13299,"Ġminerals":13300,"Ġsalad":13301,"Ġenhanced":13302,"main":13303,"arious":13304,"Ġstun":13305,"ĠFinal":13306,"Ġconviction":13307,"Ġcatching":13308,"Ġrecip":13309,"Custom":13310,"Ġwww":13311,"Ġdining":13312,"Ġhood":13313,"Ġrated":13314,"ĠThought":13315,"Through":13316,"Ġearning":13317,"ĠIntelligence":13318,"Score":13319,"posted":13320,"ido":13321,"ateur":13322,"ĠRO":13323,"Ġadvances":13324,"Ġconsiderably":13325,"Ġdraws":13326,"iami":13327,"ĠPortug":13328,"url":13329,"ĠCSS":13330,"Ġlease":13331,"Ġorganize":13332,"Ġaccordingly":13333,"Rob":13334,"eous":13335,"onal":13336,"atched":13337,"itably":13338,"roach":13339,"quarters":13340,"Ġflame":13341,"Ġqualify":13342,"Ġdecreased":13343,"ogenic":13344,"Count":13345,"know":13346,"oj":13347,"arse":13348,"riors":13349,"ĠPent":13350,"ĠâĢĿ":13351,"oooo":13352,"Ġune":13353,"Ġsurge":13354,"Ġcharts":13355,"Copyright":13356,"Event":13357,"Ġfiscal":13358,"asury":13359,"Ġnu":13360,"Ġfeather":13361,"Ġstartup":13362,"Ġgenerous":13363,"Ġartistic":13364,"roller":13365,"ĠPatrick":13366,"px":13367,"ĠDest":13368,"Ġshade":13369,"ĠFig":13370,"ĠAndre":13371,"Ġensures":13372,"Ġfeaturing":13373,"intendo":13374,"LD":13375,"Ġcited":13376,"leading":13377,"rained":13378,"ĠHappy":13379,"Ġranging":13380,"ryst":13381,"Ġdisability":13382,"Ġreviewed":13383,"otypes":13384,"Whether":13385,"healthy":13386,"Total":13387,"Ġdeemed":13388,"umm":13389,"ieval":13390,"ĠJob":13391,"ĠStaff":13392,"Ġscales":13393,"efits":13394,"Ġlocate":13395,"Ġquestioning":13396,"Ġbroader":13397,"Ġconcentrate":13398,"Ġps":13399,"emale":13400,"arrow":13401,"hill":13402,"mart":13403,"ĠTok":13404,"ĠTerry":13405,"ĠSW":13406,"ĠPick":13407,"Ġscrap":13408,"ĠHoward":13409,"Ġpassenger":13410,"Ġsticking":13411,"ĠVictoria":13412,"rapeut":13413,"Ġfitting":13414,"Ġdot":13415,"ĠDomin":13416,"Ġbytes":13417,"auge":13418,"Ġcalcium":13419,"elta":13420,"Ġfunded":13421,"Ġmistaken":13422,"Ġroutes":13423,"Ġsmartphone":13424,"Ġethics":13425,"ĠBroad":13426,"Ġfortune":13427,"Ġlin":13428,"Ġchunk":13429,"ĠGene":13430,"Ġindirect":13431,"Ġacute":13432,"Ġprofitable":13433,"Ġcellular":13434,"Ġfailures":13435,"Ġhypocr":13436,"Ġagriculture":13437,"XX":13438,"ĊĊÂłÂłÂłÂłÂł":13439,"Ġleverage":13440,"ĠEasy":13441,"Ġsecular":13442,"Ġexamined":13443,"Ġpracticing":13444,"Ġcontributing":13445,"ĠStandard":13446,"bus":13447,"Ġdign":13448,"Ġconform":13449,"akespe":13450,"Ġswitched":13451,"Ġfastest":13452,"Ġurine":13453,"Ġdepartments":13454,"1000":13455,"tem":13456,"Ġbust":13457,"orig":13458,"ĠSony":13459,"Ġcaffe":13460,"***":13461,"cos":13462,"Ġthou":13463,"ĠSection":13464,"achus":13465,"Ġcyl":13466,"Ġshallow":13467,"asures":13468,"ĠWow":13469,"ĠWords":13470,"ĠPath":13471,"ĠKa":13472,"Ġcuriosity":13473,"Learn":13474,"ql":13475,"Ġstance":13476,"Ġdevoted":13477,"Ġcommented":13478,"Ġstruggled":13479,"Ġshifted":13480,"Ġpresumably":13481,"uj":13482,"Ġwitch":13483,"Ġmakers":13484,"Ġdess":13485,"adi":13486,"ĠDM":13487,"Ġsaves":13488,"ulty":13489,"Ġmodes":13490,"ĠExpress":13491,"Ġtreats":13492,"Example":13493,"Ġdocumented":13494,"Ġmetaphor":13495,"ĠHospital":13496,"James":13497,"Ġ57":13498,"ĠIsn":13499,"iversary":13500,"Ġcharacterized":13501,"Ġstealing":13502,"Ġvolunt":13503,"Ġinhabit":13504,"ĠTib":13505,"ĠWinter":13506,"ĠĠĠĠĠĠĠĠĠĠĠ":13507,"Ġvolcan":13508,"Ġcleaned":13509,"ĠContact":13510,"Ġtransformed":13511,"Ġpension":13512,"rose":13513,"ĠMerc":13514,"again":13515,"Ġoverview":13516,"Ġskull":13517,"Ġbuffer":13518,"Cross":13519,"ĠTour":13520,"adder":13521,"Ġforums":13522,"ĠWoman":13523,"ĠDJ":13524,"ĠBrun":13525,"ĠPrint":13526,"Ġkidn":13527,"Ġvitamins":13528,"Ġshifts":13529,"BL":13530,"green":13531,"Ġhips":13532,"Ġforb":13533,"ĠFle":13534,"ĠYears":13535,"icals":13536,"Ġincidents":13537,"Ġlightning":13538,"ĠBeck":13539,"ourage":13540,"olitical":13541,"ĠCop":13542,"ĠBor":13543,"soever":13544,"Ġnoble":13545,"Ġwrist":13546,"Ġfinishing":13547,"Ġmeantime":13548,"Ġqueen":13549,"Ġwallet":13550,"bot":13551,"Ġdip":13552,"ĠToy":13553,"Ġarrog":13554,"Ġ56":13555,"ĠEdit":13556,"Ġlifting":13557,"Ġviruses":13558,"III":13559,"Att":13560,"isations":13561,"ĠAqu":13562,"ulously":13563,"ĠWiki":13564,"Ġenlight":13565,"Ġspam":13566,"Ġtwisted":13567,"ĠVin":13568,"Ġboom":13569,"ĠScript":13570,"Ġvegetable":13571,"Ġwitnessed":13572,"Ã¨":13573,"Ġank":13574,"Ġslice":13575,"Ġadvise":13576,"Ġsteep":13577,"sembly":13578,"osterone":13579,"Wow":13580,"pose":13581,"ĠChen":13582,"Ġachievement":13583,",âĢĻ":13584,"Jo":13585,"Ø©":13586,"ĠMarsh":13587,"ĠAlan":13588,"Ġgameplay":13589,"ancers":13590,"pin":13591,"ositive":13592,"Ġdamages":13593,"Ġpanc":13594,"arians":13595,"icates":13596,"chi":13597,"ĠCole":13598,"ĠThor":13599,"Ġassured":13600,"Ġcyc":13601,"Ġdawn":13602,"Everyone":13603,"Love":13604,"Ġbark":13605,"season":13606,"ulates":13607,"Ġabsent":13608,"Ġdenial":13609,"Ġkilomet":13610,"HD":13611,"]]":13612,"eenth":13613,"Ġthats":13614,"amon":13615,"ĠFollow":13616,"ĠGary":13617,"Ġcontinually":13618,"ĊĊĊĊĊĊĊ":13619,"ĠJohnny":13620,"Ġprecision":13621,"Ġacquisition":13622,"ĠCapital":13623,"cked":13624,"Ġshoe":13625,"Ġwhoever":13626,"ĠKnight":13627,"them":13628,"Ġcomplications":13629,"mediate":13630,"Ġpartnership":13631,"Ġpad":13632,"âĢħ":13633,"ĠTed":13634,"ĠSEO":13635,"ĠGot":13636,"Ġteasp":13637,"Ġheadache":13638,"arming":13639,"Ġsubscription":13640,"igenous":13641,"aments":13642,"ĠBart":13643,"ĠDifferent":13644,"Ġtrillion":13645,"accept":13646,"otein":13647,"Ġgenerator":13648,"mega":13649,"Ġcomplaining":13650,"ĠCommand":13651,"nesota":13652,"Ġstretched":13653,"ĠDetroit":13654,"arency":13655,"Ġblanket":13656,"Ġborr":13657,"beit":13658,"Ġvet":13659,"ĠBerlin":13660,"usalem":13661,"Ġcalculation":13662,"Try":13663,"source":13664,"Ġchlor":13665,"Ġsucc":13666,"Ġscored":13667,"Ġoperators":13668,"Ġwatches":13669,"Ġcastle":13670,"Ġaver":13671,"Ġbang":13672,"Ġyog":13673,"Ġwhites":13674,"ĠFlash":13675,"Ġtraveled":13676,"mmet":13677,"ĠAvoid":13678,"Link":13679,"Sam":13680,"Vis":13681,"ĠDise":13682,"ĠRating":13683,"ĠWriting":13684,"Ġwitnesses":13685,"Hist":13686,"ocate":13687,"Ġfilters":13688,"Ġ72":13689,"irtual":13690,"Ġhorizontal":13691,"ĠChampions":13692,"drop":13693,"woman":13694,"pection":13695,"Ġrude":13696,"Ġchapters":13697,"ĠCarter":13698,"enezuel":13699,"Ġstunning":13700,"Ġcaution":13701,"Ġdamaging":13702,"Ġresponding":13703,"Ġbothered":13704,"oenix":13705,"uated":13706,"vance":13707,"rer":13708,"Ġfog":13709,"ĠPain":13710,"index":13711,"ensively":13712,"Ġpoet":13713,"Ġlocally":13714,"Health":13715,"player":13716,"Ġdigit":13717,"Ġjoints":13718,"Ġobligation":13719,"cd":13720,"ulse":13721,"Ġlecture":13722,"ĠNAT":13723,"ogram":13724,"2005":13725,"akespeare":13726,"omas":13727,"ĠSoul":13728,"Ġ53":13729,"exper":13730,"Ġtablet":13731,"Ġcapitalism":13732,"ĠSummer":13733,"Ġincentive":13734,"ĠHarris":13735,"Ġlonely":13736,"Ġappetite":13737,"Ġbend":13738,"ĠSem":13739,"ĠCL":13740,"Ġende":13741,"Ġrealizing":13742,"Ġdemo":13743,"Ġfatty":13744,"Ġmagnitude":13745,"ĠGovernor":13746,"Ġevolutionary":13747,"Ġsearches":13748,"Ġmarginal":13749,"Ġmetabolism":13750,"Ġinequality":13751,"achusetts":13752,"ĠBrain":13753,"Ġprolong":13754,"ĠRAM":13755,"Ġ360":13756,"phia":13757,"Its":13758,"ĠVegas":13759,"Ġauthentic":13760,"IST":13761,"Ġlaund":13762,"Ġvom":13763,"Ġopposing":13764,"Ġzones":13765,"Ġaltered":13766,"Ġsodium":13767,"Ġtutorial":13768,"Return":13769,"ĊĊĠĠĠĠĠĠĠĠĠĠĠĠĠĠĠĠĠĠĠĠĠĠĠĠĠĠĠĠĠĠĠĠ":13770,"Ġanytime":13771,"bery":13772,"Ġlongest":13773,"Ġdefence":13774,"Ġbreasts":13775,"Ġautism":13776,"marks":13777,"Ġrebell":13778,"Ġelaborate":13779,"onomy":13780,"Ġchairs":13781,"aimed":13782,"Ġneglig":13783,"Ġmounted":13784,"ĠBreak":13785,"Ġvolunteers":13786,"driven":13787,"aci":13788,"kg":13789,"ques":13790,"Ġaliens":13791,"Ġkernel":13792,"Ġvaried":13793,"Ġorganisms":13794,"Ġstrongest":13795,"ĠMagic":13796,"Ġdiamond":13797,"seen":13798,"should":13799,"Ġrises":13800,"Ġgorgeous":13801,"Ġware":13802,"Ġoun":13803,"Ġum":13804,"ĠMarx":13805,"vised":13806,"ĠCM":13807,"Ġrust":13808,"Ġarrow":13809,"Ġrecovered":13810,"Ġaccent":13811,"Ġcostly":13812,"working":13813,"Ġsquad":13814,"ĊĊĠĠĠĠĠĠĠĠĠĠĠĠĠ":13815,"Ġagricultural":13816,"Ġpseud":13817,"Ġdischarge":13818,"Ġspotted":13819,"Ġnewspapers":13820,"Ġcontroversy":13821,"BER":13822,"Er":13823,"gree":13824,"nor":13825,"rus":13826,"igion":13827,"Ġneural":13828,"into":13829,"ĠXP":13830,"Ġincon":13831,"ometric":13832,"INE":13833,"Ġangles":13834,"Ġpermanently":13835,"Ġtract":13836,"Ġearliest":13837,"Ġimproves":13838,"Ġlawn":13839,"ĠForeign":13840,"ĠSame":13841,"Ġranges":13842,"Ġwhatsoever":13843,"Ġmarine":13844,"Ġlimiting":13845,"Ġcommentary":13846,"ooting":13847,"Ġteaches":13848,"Ġcalculations":13849,"Ġviral":13850,"Ġforgive":13851,"Ġfarming":13852,"Ġwounded":13853,"rans":13854,"Ġcope":13855,"ĠAaron":13856,"ĠRA":13857,"Ġcarpet":13858,"Object":13859,"\").":13860,"Based":13861,"asive":13862,"ĠCass":13863,"ĠMas":13864,"Ġresidence":13865,"iolet":13866,"security":13867,"Ġpunish":13868,"effective":13869,"Ġadministrative":13870,"Sun":13871,"Ġgard":13872,"urring":13873,"Ġcomics":13874,"Ġqueries":13875,"Ġgran":13876,"Ġsometime":13877,"Ġobesity":13878,"Ġnecessity":13879,"Ġtitled":13880,"Ġagreements":13881,"Ġescaped":13882,"ĠLaure":13883,"Ġhunger":13884,"Ġlabeled":13885,"Ġfleet":13886,"Ġdeficiency":13887,"Pol":13888,"Ġfame":13889,"aro":13890,"Ġnail":13891,"imation":13892,"chem":13893,"TER":13894,"Watch":13895,"ĠSin":13896,"Ġprogression":13897,"ĠNut":13898,"berries":13899,"Ġevolve":13900,"Ġnightmare":13901,"regular":13902,"Looking":13903,"Ġvendors":13904,"ĠAward":13905,"ĠMail":13906,"ĠLam":13907,"Ġflick":13908,"ername":13909,"breaking":13910,"Ġadapted":13911,"Ġblessed":13912,"hma":13913,"ĠBalt":13914,"ĠBuilding":13915,"ĠPitt":13916,"Ġtragic":13917,"Ġ1930":13918,"retion":13919,"Ġinvestor":13920,"ĠFeed":13921,"Ġcomparable":13922,"ĠCountry":13923,"Avg":13924,"Ok":13925,"SD":13926,"Ġabdom":13927,"ĠFra":13928,"Ġpractition":13929,"ĠConference":13930,")(":13931,"ĠBuck":13932,"Ġseam":13933,"ĠChi":13934,"Ġreceiver":13935,"ĠSche":13936,"Ġsells":13937,"adelphia":13938,"je":13939,"ĠCart":13940,"Ġsovere":13941,"ĠLiving":13942,"Ġups":13943,"Ġjustified":13944,"Ġindicating":13945,"Ġflavors":13946,"________________":13947,"Ġsurveillance":13948,"Ġbuddy":13949,"mph":13950,"sign":13951,"ĠÂłÂłÂł":13952,"Ġdangers":13953,"Ġnost":13954,"Ġcompression":13955,"Ġspy":13956,"Ġquestioned":13957,"ĠBridge":13958,"ĠAdvent":13959,"Ġstatistical":13960,"Ġrespected":13961,"Ġvillain":13962,"Ġimprison":13963,"hum":13964,"too":13965,"inis":13966,"Ġfare":13967,"Ġdioxide":13968,"ĠWere":13969,"Ġblowing":13970,"Ġamino":13971,"ĠBeat":13972,"Ġspends":13973,"ĠEmperor":13974,"ĠFinancial":13975,"Ġnursing":13976,"zi":13977,"Ġhills":13978,"Ġlobby":13979,"store":13980,"owa":13981,"Ġpockets":13982,"Ġwithdrawal":13983,"ĠAnthony":13984,"Ġnan":13985,"ĠRaj":13986,"Ġoutline":13987,"Ġexpose":13988,"ĠAgency":13989,"Ġtriggered":13990,"ĠToronto":13991,"ĠHopefully":13992,"NG":13993,"Ġinability":13994,"Ġnoting":13995,"actly":13996,"Ġheritage":13997,"ĠKam":13998,"ĠSean":13999,"Ġscreening":14000,"Ġindicator":14001,"ĠAngel":14002,"Ġcabin":14003,"çļ":14004,"ifiers":14005,"need":14006,"black":14007,"Ġrecommendation":14008,"ĠPotter":14009,"Ġconstraints":14010,"Given":14011,"agged":14012,"Ġrefuses":14013,"ANT":14014,"Ġillusion":14015,"Ġallegedly":14016,"frame":14017,"powered":14018,"itories":14019,"rolling":14020,"ĠGib":14021,"Ġ58":14022,"Ask":14023,"Ġradar":14024,"Consider":14025,"Ġlane":14026,"Ġguides":14027,"Ġ1940":14028,"iko":14029,"ĠNotice":14030,"Ġargues":14031,"Ġdominated":14032,"Ġ1989":14033,"ĠPersonal":14034,"rock":14035,"Ġmineral":14036,"Ġvolumes":14037,"Ġspectacular":14038,"ĠRelations":14039,"Ġtv":14040,"reply":14041,"ĠPoly":14042,"ĠFel":14043,"Ġjazz":14044,"Ġcredibility":14045,"Ġstrengths":14046,"Ġclicking":14047,"respons":14048,"Aut":14049,"Os":14050,"encer":14051,"Ġbees":14052,"ĠMovie":14053,"ema":14054,"Ġpean":14055,"Ġappearing":14056,"Ġrip":14057,"Ġfifteen":14058,"Ġdelicate":14059,"Ġshifting":14060,"Ġtranscript":14061,"Ġrandomly":14062,"ĠStudents":14063,"Ġeliminated":14064,"ĠJonathan":14065,"oubted":14066,"five":14067,"asma":14068,"ioned":14069,"ĠDE":14070,"aceut":14071,"Ġbacking":14072,"ĠChannel":14073,"pectives":14074,"iked":14075,"Ġautomation":14076,"Ġcelebrity":14077,"Ġcryptocur":14078,"ĠRespons":14079,"Sw":14080,"call":14081,"Ġapples":14082,"Ġhelicop":14083,"Ġpolitician":14084,"ĠPerl":14085,"ĠEmerald":14086,"NY":14087,"oni":14088,"atab":14089,"ĠGordon":14090,"Ġactivated":14091,"speed":14092,"ĠLisa":14093,"Ġcoalition":14094,"Ġfacilitate":14095,"Test":14096,"Ġpause":14097,"Ġabnormal":14098,"ggy":14099,"click":14100,"Ġdelayed":14101,"Bo":14102,"Mike":14103,"wer":14104,"Ġawarded":14105,"Ġsuspicious":14106,"Ġcotton":14107,"ĠTesla":14108,".-":14109,"Ġfuzzy":14110,"Ġlos":14111,"Ġhash":14112,"âĢĿ?":14113,"Ġphosph":14114,"Ġmeteor":14115,"Ġcreator":14116,"Ġoptional":14117,"Ġobstacles":14118,"Jul":14119,"reement":14120,"Ġbatch":14121,"amiliar":14122,"olk":14123,"Ġsuppress":14124,"Ġmodules":14125,"chell":14126,"Play":14127,"Ġsynthetic":14128,"Written":14129,"Ġhind":14130,"heric":14131,"ĠLarry":14132,"Ġmodest":14133,"Ġairline":14134,"Ġtablets":14135,"Ġhorizon":14136,"FI":14137,"idency":14138,"ĊĊÂłÂłÂłÂłÂłÂł":14139,"ĠPear":14140,"Ġimposed":14141,"Ġintuitive":14142,"sum":14143,"Ġwished":14144,"ctive":14145,"Ġwashed":14146,"ĠStri":14147,"Ġbacks":14148,"Ġtrains":14149,"Ġinvention":14150,"Chapter":14151,"Ġspinning":14152,"ĠTenn":14153,"acked":14154,"ailand":14155,"ĠAlmost":14156,"riculum":14157,"Ġscripts":14158,"ĠIranian":14159,"ĠMagazine":14160,"Ġfoolish":14161,"UC":14162,"fu":14163,"Ġweigh":14164,"bris":14165,"Ġmissile":14166,"Ġpromoted":14167,"Ġreinforce":14168,"ĠMoscow":14169,"Long":14170,"Ð²":14171,"Ġcens":14172,"ĠKill":14173,"Ġgluten":14174,"Ġcombinations":14175,"Ġcompanion":14176,"Ġtravels":14177,"lav":14178,"lah":14179,"andom":14180,"ĠGPS":14181,"Ġaddict":14182,"Ġdiscom":14183,"ucker":14184,"Ġdetermines":14185,"Ġadjusted":14186,"Ġencounters":14187,"NE":14188,"PP":14189,"Ġcolours":14190,"Ġquantities":14191,"Ġsubscrib":14192,"$$":14193,"OG":14194,"dy":14195,"del":14196,"iological":14197,"Ø³":14198,"Ġtil":14199,"ochem":14200,"Intern":14201,"Ġ==":14202,"ĠTea":14203,"mmm":14204,"Ġintegrate":14205,"Ġfrankly":14206,"çļĦ":14207,"Ã£":14208,"Ġbases":14209,"Ġsoy":14210,"ĠOscar":14211,"Ġhardest":14212,"Ġdevelopments":14213,"Ġsmallest":14214,"Ġ\\(":14215,"Ġderiv":14216,"ĠEvil":14217,"Ġslipped":14218,"Ġcinema":14219,"ĠDiego":14220,"Ser":14221,"dra":14222,"Ġgel":14223,"Ġrays":14224,"Ġ59":14225,"Ġregulate":14226,"Ġorigins":14227,"Ġskept":14228,"iblings":14229,"ĠSimilarly":14230,"oft":14231,"ĠBirth":14232,"Ġunpre":14233,"ĠReagan":14234,"Ġcorrection":14235,"Ġnamely":14236,"State":14237,"Ġteenage":14238,"ĠÙħ":14239,"ĠFilm":14240,"ationally":14241,"ĠCool":14242,"ĠDru":14243,"Ġsphere":14244,"Social":14245,"ĠIndones":14246,"second":14247,"Ġultra":14248,"oubtedly":14249,"Main":14250,"dia":14251,"ju":14252,"ĠTru":14253,"Ġstain":14254,"ĠStars":14255,"Ġthrust":14256,"ĠiOS":14257,"Ġmemorable":14258,"entials":14259,"ĠHarvard":14260,"ĠNether":14261,"Ġempower":14262,"ĠStew":14263,"Ġexped":14264,"Ġlasted":14265,"Ġpursuit":14266,"Ġdrif":14267,"ĠImm":14268,"Ġcivilian":14269,"Ġgalaxy":14270,"instein":14271,"Ġhug":14272,"Ġforty":14273,"olutions":14274,"Ġdoi":14275,"Ġsimulation":14276,"Ġstrangers":14277,"ashi":14278,"Ġfinancing":14279,"Ġcooler":14280,"ĠBelow":14281,"hell":14282,"orie":14283,"Ġkin":14284,"ĠRy":14285,
[...]
